<pad>	0
<unk>	0
<s>	0
</s>	0
<0x00>	0
<0x01>	0
<0x02>	0
<0x03>	0
<0x04>	0
<0x05>	0
<0x06>	0
<0x07>	0
<0x08>	0
<0x09>	0
<0x0A>	0
<0x0B>	0
<0x0C>	0
<0x0D>	0
<0x0E>	0
<0x0F>	0
<0x10>	0
<0x11>	0
<0x12>	0
<0x13>	0
<0x14>	0
<0x15>	0
<0x16>	0
<0x17>	0
<0x18>	0
<0x19>	0
<0x1A>	0
<0x1B>	0
<0x1C>	0
<0x1D>	0
<0x1E>	0
<0x1F>	0
<0x20>	0
<0x21>	0
<0x22>	0
<0x23>	0
<0x24>	0
<0x25>	0
<0x26>	0
<0x27>	0
<0x28>	0
<0x29>	0
<0x2A>	0
<0x2B>	0
<0x2C>	0
<0x2D>	0
<0x2E>	0
<0x2F>	0
<0x30>	0
<0x31>	0
<0x32>	0
<0x33>	0
<0x34>	0
<0x35>	0
<0x36>	0
<0x37>	0
<0x38>	0
<0x39>	0
<0x3A>	0
<0x3B>	0
<0x3C>	0
<0x3D>	0
<0x3E>	0
<0x3F>	0
<0x40>	0
<0x41>	0
<0x42>	0
<0x43>	0
<0x44>	0
<0x45>	0
<0x46>	0
<0x47>	0
<0x48>	0
<0x49>	0
<0x4A>	0
<0x4B>	0
<0x4C>	0
<0x4D>	0
<0x4E>	0
<0x4F>	0
<0x50>	0
<0x51>	0
<0x52>	0
<0x53>	0
<0x54>	0
<0x55>	0
<0x56>	0
<0x57>	0
<0x58>	0
<0x59>	0
<0x5A>	0
<0x5B>	0
<0x5C>	0
<0x5D>	0
<0x5E>	0
<0x5F>	0
<0x60>	0
<0x61>	0
<0x62>	0
<0x63>	0
<0x64>	0
<0x65>	0
<0x66>	0
<0x67>	0
<0x68>	0
<0x69>	0
<0x6A>	0
<0x6B>	0
<0x6C>	0
<0x6D>	0
<0x6E>	0
<0x6F>	0
<0x70>	0
<0x71>	0
<0x72>	0
<0x73>	0
<0x74>	0
<0x75>	0
<0x76>	0
<0x77>	0
<0x78>	0
<0x79>	0
<0x7A>	0
<0x7B>	0
<0x7C>	0
<0x7D>	0
<0x7E>	0
<0x7F>	0
<0x80>	0
<0x81>	0
<0x82>	0
<0x83>	0
<0x84>	0
<0x85>	0
<0x86>	0
<0x87>	0
<0x88>	0
<0x89>	0
<0x8A>	0
<0x8B>	0
<0x8C>	0
<0x8D>	0
<0x8E>	0
<0x8F>	0
<0x90>	0
<0x91>	0
<0x92>	0
<0x93>	0
<0x94>	0
<0x95>	0
<0x96>	0
<0x97>	0
<0x98>	0
<0x99>	0
<0x9A>	0
<0x9B>	0
<0x9C>	0
<0x9D>	0
<0x9E>	0
<0x9F>	0
<0xA0>	0
<0xA1>	0
<0xA2>	0
<0xA3>	0
<0xA4>	0
<0xA5>	0
<0xA6>	0
<0xA7>	0
<0xA8>	0
<0xA9>	0
<0xAA>	0
<0xAB>	0
<0xAC>	0
<0xAD>	0
<0xAE>	0
<0xAF>	0
<0xB0>	0
<0xB1>	0
<0xB2>	0
<0xB3>	0
<0xB4>	0
<0xB5>	0
<0xB6>	0
<0xB7>	0
<0xB8>	0
<0xB9>	0
<0xBA>	0
<0xBB>	0
<0xBC>	0
<0xBD>	0
<0xBE>	0
<0xBF>	0
<0xC0>	0
<0xC1>	0
<0xC2>	0
<0xC3>	0
<0xC4>	0
<0xC5>	0
<0xC6>	0
<0xC7>	0
<0xC8>	0
<0xC9>	0
<0xCA>	0
<0xCB>	0
<0xCC>	0
<0xCD>	0
<0xCE>	0
<0xCF>	0
<0xD0>	0
<0xD1>	0
<0xD2>	0
<0xD3>	0
<0xD4>	0
<0xD5>	0
<0xD6>	0
<0xD7>	0
<0xD8>	0
<0xD9>	0
<0xDA>	0
<0xDB>	0
<0xDC>	0
<0xDD>	0
<0xDE>	0
<0xDF>	0
<0xE0>	0
<0xE1>	0
<0xE2>	0
<0xE3>	0
<0xE4>	0
<0xE5>	0
<0xE6>	0
<0xE7>	0
<0xE8>	0
<0xE9>	0
<0xEA>	0
<0xEB>	0
<0xEC>	0
<0xED>	0
<0xEE>	0
<0xEF>	0
<0xF0>	0
<0xF1>	0
<0xF2>	0
<0xF3>	0
<0xF4>	0
<0xF5>	0
<0xF6>	0
<0xF7>	0
<0xF8>	0
<0xF9>	0
<0xFA>	0
<0xFB>	0
<0xFC>	0
<0xFD>	0
<0xFE>	0
<0xFF>	0
se	-0
in	-1
re	-2
on	-3
te	-4
or	-5
st	-6
de	-7
▁=	-8
th	-9
le	-10
lf	-11
self	-12
me	-13
ti	-14
▁i	-15
▁a	-16
er	-17
al	-18
▁f	-19
▁c	-20
ar	-21
▁'	-22
en	-23
▁#	-24
an	-25
ro	-26
at	-27
▁self	-28
▁p	-29
--	-30
▁re	-31
ge	-32
mp	-33
▁"	-34
ur	-35
▁th	-36
tion	-37
ce	-38
):	-39
▁de	-40
▁s	-41
▁t	-42
as	-43
▁n	-44
##	-45
li	-46
▁o	-47
ame	-48
ing	-49
lo	-50
',	-51
▁the	-52
▁in	-53
ue	-54
ate	-55
di	-56
▁e	-57
ri	-58
▁def	-59
ct	-60
un	-61
fi	-62
ser	-63
ort	-64
▁m	-65
ut	-66
pe	-67
co	-68
si	-69
▁b	-70
()	-71
ch	-72
▁w	-73
ra	-74
""	-75
▁if	-76
nt	-77
▁(	-78
▁imp	-79
ck	-80
id	-81
urn	-82
==	-83
▁import	-84
----	-85
turn	-86
ul	-87
__	-88
name	-89
ter	-90
get	-91
▁d	-92
el	-93
ad	-94
▁for	-95
ot	-96
':	-97
it	-98
pa	-99
rom	-100
▁return	-101
')	-102
▁T	-103
la	-104
####	-105
is	-106
('	-107
▁to	-108
ma	-109
▁v	-110
▁h	-111
ed	-112
▁from	-113
ode	-114
one	-115
▁"""	-116
up	-117
▁an	-118
ss	-119
test	-120
con	-121
ata	-122
il	-123
▁is	-124
ol	-125
▁[	-126
set	-127
ass	-128
ty	-129
es	-130
op	-131
od	-132
",	-133
▁of	-134
▁st	-135
xt	-136
qu	-137
ke	-138
ation	-139
der	-140
),	-141
▁A	-142
ver	-143
et	-144
']	-145
▁S	-146
sion	-147
sert	-148
▁C	-149
ile	-150
▁N	-151
ble	-152
ap	-153
▁u	-154
ent	-155
))	-156
▁con	-157
▁ex	-158
vi	-159
int	-160
ve	-161
**	-162
▁as	-163
ult	-164
ith	-165
ction	-166
ment	-167
gs	-168
alue	-169
age	-170
▁+	-171
he	-172
rue	-173
._	-174
['	-175
("	-176
▁{	-177
▁L	-178
um	-179
ect	-180
and	-181
ta	-182
ic	-183
▁F	-184
▁%	-185
▁and	-186
====	-187
▁not	-188
▁-	-189
▁I	-190
ls	-191
path	-192
ub	-193
▁g	-194
▁P	-195
lass	-196
ase	-197
--------	-198
▁di	-199
res	-200
file	-201
ror	-202
ht	-203
ted	-204
ption	-205
time	-206
to	-207
ms	-208
eld	-209
ex	-210
lin	-211
bj	-212
for	-213
▁==	-214
par	-215
us	-216
key	-217
########	-218
")	-219
type	-220
bu	-221
pro	-222
▁test	-223
▁r	-224
▁co	-225
ho	-226
▁or	-227
▁None	-228
end	-229
▁_	-230
que	-231
put	-232
ense	-233
▁res	-234
ig	-235
log	-236
Re	-237
list	-238
text	-239
pt	-240
assert	-241
ry	-242
ule	-243
▁se	-244
data	-245
▁with	-246
ew	-247
out	-248
],	-249
all	-250
▁file	-251
per	-252
='	-253
alse	-254
len	-255
▁be	-256
fig	-257
fa	-258
po	-259
sc	-260
our	-261
▁G	-262
str	-263
▁class	-264
mat	-265
▁name	-266
▁D	-267
able	-268
ER	-269
▁:	-270
lic	-271
fo	-272
▁pro	-273
▁O	-274
rint	-275
tr	-276
mo	-277
ang	-278
▁me	-279
iz	-280
app	-281
ys	-282
":	-283
ure	-284
args	-285
ance	-286
▁M	-287
▁__	-288
ON	-289
ow	-290
url	-291
quest	-292
rror	-293
ack	-294
mm	-295
bject	-296
Error	-297
icense	-298
odule	-299
ype	-300
True	-301
▁ma	-302
ci	-303
est	-304
che	-305
▁y	-306
▁un	-307
▁el	-308
▁par	-309
ield	-310
date	-311
am	-312
▁else	-313
])	-314
IN	-315
add	-316
qual	-317
wor	-318
red	-319
▁License	-320
ist	-321
sh	-322
reate	-323
▁data	-324
py	-325
▁*	-326
ource	-327
▁get	-328
▁print	-329
tp	-330
ange	-331
▁ar	-332
ES	-333
▁W	-334
code	-335
mple	-336
ten	-337
ise	-338
value	-339
IT	-340
line	-341
▁E	-342
ll	-343
are	-344
========	-345
ff	-346
oc	-347
art	-348
bo	-349
▁os	-350
unt	-351
mode	-352
▁@	-353
▁x	-354
▁set	-355
▁str	-356
tem	-357
ly	-358
AR	-359
In	-360
▁assert	-361
▁B	-362
ger	-363
late	-364
cess	-365
low	-366
▁this	-367
▁value	-368
dir	-369
tri	-370
AT	-371
="	-372
user	-373
▁exce	-374
▁)	-375
ind	-376
val	-377
uth	-378
ctor	-379
▁on	-380
ener	-381
jo	-382
sp	-383
▁it	-384
pon	-385
..	-386
Equal	-387
▁U	-388
stance	-389
▁use	-390
pre	-391
ne	-392
ac	-393
▁ra	-394
db	-395
None	-396
▁<	-397
vice	-398
▁}	-399
ument	-400
****	-401
----------------	-402
▁that	-403
▁True	-404
EN	-405
ou	-406
▁log	-407
atch	-408
son	-409
"""	-410
ore	-411
).	-412
ft	-413
lu	-414
OR	-415
scri	-416
om	-417
__(	-418
und	-419
ponse	-420
os	-421
//	-422
stri	-423
▁en	-424
▁R	-425
pp	-426
jang	-427
################	-428
lay	-429
load	-430
dex	-431
ting	-432
ml	-433
▁by	-434
assertEqual	-435
ader	-436
▁except	-437
▁out	-438
jango	-439
ssage	-440
read	-441
lient	-442
ath	-443
ip	-444
ary	-445
temp	-446
roup	-447
SE	-448
error	-449
▁The	-450
▁('	-451
▁ch	-452
():	-453
ber	-454
init	-455
vent	-456
▁ver	-457
thod	-458
rent	-459
loc	-460
▁False	-461
ild	-462
▁mode	-463
qui	-464
port	-465
dd	-466
▁try	-467
Con	-468
Test	-469
ph	-470
▁so	-471
mage	-472
rite	-473
append	-474
▁l	-475
gra	-476
ab	-477
ir	-478
min	-479
mmand	-480
opy	-481
://	-482
ght	-483
tent	-484
▁result	-485
▁Re	-486
▁wh	-487
ze	-488
pec	-489
AN	-490
ok	-491
▁time	-492
ave	-493
uti	-494
json	-495
object	-496
ca	-497
▁at	-498
▁V	-499
field	-500
ant	-501
▁raise	-502
format	-503
ans	-504
thon	-505
ree	-506
["	-507
dict	-508
▁H	-509
lib	-510
Field	-511
ds	-512
▁{'	-513
▁len	-514
▁key	-515
ST	-516
ator	-517
'),	-518
count	-519
▁>	-520
ill	-521
tions	-522
config	-523
ware	-524
ww	-525
info	-526
atus	-527
kw	-528
▁type	-529
False	-530
tes	-531
TI	-532
base	-533
▁we	-534
ault	-535
ask	-536
▁list	-537
update	-538
ec	-539
join	-540
ses	-541
ams	-542
▁sys	-543
tic	-544
UT	-545
sor	-546
ock	-547
ler	-548
fe	-549
unction	-550
ize	-551
og	-552
ext	-553
size	-554
no	-555
right	-556
"]	-557
▁default	-558
ample	-559
▁la	-560
▁user	-561
ces	-562
▁Th	-563
fault	-564
ject	-565
▁np	-566
ray	-567
▁module	-568
ite	-569
scription	-570
▁ro	-571
pi	-572
pen	-573
lock	-574
ded	-575
col	-576
RE	-577
work	-578
ust	-579
main	-580
com	-581
▁`	-582
AL	-583
▁py	-584
▁no	-585
ters	-586
▁''	-587
▁are	-588
ay	-589
heck	-590
gin	-591
comp	-592
cur	-593
uld	-594
▁al	-595
ute	-596
▁config	-597
lif	-598
LE	-599
."""	-600
ther	-601
den	-602
kwargs	-603
form	-604
stribu	-605
▁version	-606
back	-607
module	-608
ag	-609
own	-610
ard	-611
.__	-612
([	-613
class	-614
▁This	-615
ren	-616
gn	-617
request	-618
tain	-619
http	-620
ception	-621
▁sho	-622
arget	-623
ost	-624
create	-625
▁[]	-626
tive	-627
▁ht	-628
im	-629
▁path	-630
umber	-631
tle	-632
ari	-633
ning	-634
▁sub	-635
▁pre	-636
arg	-637
▁option	-638
())	-639
▁In	-640
▁request	-641
AS	-642
gth	-643
server	-644
version	-645
▁elif	-646
ume	-647
word	-648
▁can	-649
sub	-650
models	-651
▁pass	-652
▁he	-653
▁new	-654
max	-655
instance	-656
mb	-657
▁will	-658
ME	-659
ound	-660
▁under	-661
string	-662
start	-663
▁url	-664
ress	-665
peci	-666
bel	-667
fic	-668
arch	-669
title	-670
▁{}	-671
▁['	-672
IC	-673
default	-674
tial	-675
md	-676
write	-677
'}	-678
▁do	-679
ery	-680
node	-681
].	-682
▁+=	-683
ved	-684
ity	-685
nd	-686
ee	-687
ape	-688
▁**	-689
'],	-690
Ex	-691
▁comp	-692
Pro	-693
run	-694
ts	-695
fy	-696
▁sh	-697
quired	-698
ory	-699
cor	-700
du	-701
utils	-702
▁sup	-703
state	-704
▁k	-705
▁app	-706
tings	-707
ftware	-708
ctory	-709
group	-710
sed	-711
▁per	-712
ID	-713
================	-714
ash	-715
▁all	-716
auth	-717
orm	-718
ron	-719
ated	-720
ight	-721
valid	-722
yn	-723
▁ac	-724
template	-725
index	-726
ken	-727
Co	-728
▁output	-729
(),	-730
django	-731
tern	-732
▁cur	-733
lit	-734
▁If	-735
ull	-736
ublic	-737
ations	-738
▁line	-739
client	-740
by	-741
reg	-742
lement	-743
UR	-744
ven	-745
fields	-746
org	-747
mail	-748
▁col	-749
attr	-750
St	-751
mis	-752
********	-753
check	-754
result	-755
api	-756
▁\	-757
mit	-758
net	-759
loat	-760
DE	-761
▁add	-762
with	-763
sing	-764
Name	-765
lace	-766
host	-767
▁AN	-768
▁object	-769
query	-770
▁http	-771
rame	-772
link	-773
sible	-774
va	-775
Ch	-776
▁bu	-777
sta	-778
ign	-779
fix	-780
▁fa	-781
status	-782
▁you	-783
▁field	-784
ann	-785
▁arg	-786
▁run	-787
ime	-788
▁'''	-789
▁/	-790
ers	-791
param	-792
▁should	-793
pected	-794
params	-795
opyright	-796
view	-797
▁node	-798
▁K	-799
▁args	-800
map	-801
▁string	-802
▁response	-803
we	-804
Type	-805
tribu	-806
ging	-807
elp	-808
nection	-809
IL	-810
vel	-811
rc	-812
▁distribu	-813
RO	-814
rap	-815
File	-816
parse	-817
▁le	-818
▁li	-819
▁create	-820
▁vi	-821
▁Gener	-822
CH	-823
method	-824
array	-825
input	-826
row	-827
▁val	-828
output	-829
html	-830
▁check	-831
da	-832
from	-833
▁speci	-834
TT	-835
sions	-836
bin	-837
led	-838
ey	-839
▁!	-840
▁int	-841
do	-842
NU	-843
clu	-844
▁mo	-845
ding	-846
clo	-847
De	-848
move	-849
ocument	-850
length	-851
tra	-852
AB	-853
().	-854
context	-855
bug	-856
umn	-857
ix	-858
▁po	-859
message	-860
service	-861
'])	-862
▁description	-863
ine	-864
ong	-865
license	-866
▁error	-867
rect	-868
ED	-869
cs	-870
▁Q	-871
pace	-872
point	-873
▁!=	-874
core	-875
cre	-876
▁method	-877
use	-878
ION	-879
▁.	-880
lob	-881
ING	-882
man	-883
ak	-884
▁base	-885
process	-886
lot	-887
lete	-888
AC	-889
lan	-890
HO	-891
Set	-892
▁range	-893
rep	-894
▁have	-895
sent	-896
▁state	-897
ome	-898
▁may	-899
ep	-900
▁wor	-901
image	-902
split	-903
andler	-904
obj	-905
content	-906
ark	-907
www	-908
*-	-909
ran	-910
▁source	-911
▁j	-912
AG	-913
▁Y	-914
uage	-915
Par	-916
IS	-917
▁has	-918
▁required	-919
ors	-920
pack	-921
▁any	-922
'.	-923
▁message	-924
▁[],	-925
▁distributed	-926
▁copy	-927
▁-*-	-928
UL	-929
▁Test	-930
perty	-931
▁OR	-932
▁Copyright	-933
PI	-934
anguage	-935
▁django	-936
label	-937
sys	-938
local	-939
response	-940
▁function	-941
andom	-942
unc	-943
ump	-944
uto	-945
▁GNU	-946
▁Ex	-947
▁General	-948
'))	-949
▁dict	-950
lat	-951
model	-952
▁Public	-953
fil	-954
num	-955
▁ne	-956
bs	-957
▁models	-958
lean	-959
▁date	-960
▁start	-961
▁open	-962
cal	-963
sg	-964
ach	-965
utf	-966
▁Con	-967
▁z	-968
ody	-969
▁model	-970
pass	-971
page	-972
mport	-973
source	-974
rectory	-975
ref	-976
▁code	-977
rans	-978
command	-979
ols	-980
▁max	-981
table	-982
ps	-983
▁CON	-984
"),	-985
ager	-986
cl	-987
▁command	-988
ual	-989
▁context	-990
ulti	-991
▁files	-992
▁]	-993
Res	-994
▁text	-995
ies	-996
▁See	-997
ally	-998
▁used	-999
ich	-1000
new	-1001
action	-1002
▁id	-1003
the	-1004
be	-1005
AD	-1006
python	-1007
▁input	-1008
tro	-1009
RAN	-1010
msg	-1011
▁lo	-1012
tring	-1013
'):	-1014
ariable	-1015
cri	-1016
▁options	-1017
((	-1018
gram	-1019
▁tra	-1020
ET	-1021
ENT	-1022
idth	-1023
inter	-1024
▁but	-1025
names	-1026
▁parser	-1027
tail	-1028
▁logging	-1029
lect	-1030
ties	-1031
sign	-1032
PO	-1033
event	-1034
comm	-1035
▁ANY	-1036
ax	-1037
▁help	-1038
▁OF	-1039
OT	-1040
indow	-1041
item	-1042
arning	-1043
uration	-1044
aders	-1045
lugin	-1046
▁item	-1047
itial	-1048
▁isinstance	-1049
doc	-1050
men	-1051
ature	-1052
call	-1053
open	-1054
MP	-1055
Case	-1056
nect	-1057
▁event	-1058
Data	-1059
lable	-1060
▁db	-1061
shape	-1062
its	-1063
▁bo	-1064
raw	-1065
ameters	-1066
ync	-1067
▁|	-1068
▁WAR	-1069
flow	-1070
options	-1071
...	-1072
".	-1073
▁super	-1074
▁match	-1075
idget	-1076
IG	-1077
rial	-1078
▁image	-1079
tensor	-1080
return	-1081
▁instance	-1082
lines	-1083
▁other	-1084
▁json	-1085
▁software	-1086
ither	-1087
ton	-1088
np	-1089
ESS	-1090
trans	-1091
▁},	-1092
Di	-1093
su	-1094
▁ad	-1095
▁reg	-1096
][	-1097
entry	-1098
Me	-1099
stant	-1100
▁number	-1101
wa	-1102
trol	-1103
ion	-1104
Key	-1105
▁WARRAN	-1106
tin	-1107
ner	-1108
▁target	-1109
fied	-1110
▁current	-1111
▁index	-1112
▁X	-1113
▁auth	-1114
token	-1115
CO	-1116
dit	-1117
▁expected	-1118
▁De	-1119
LO	-1120
dent	-1121
ream	-1122
env	-1123
andle	-1124
clude	-1125
icode	-1126
var	-1127
▁ag	-1128
settings	-1129
change	-1130
▁su	-1131
olume	-1132
types	-1133
Fa	-1134
close	-1135
tity	-1136
session	-1137
To	-1138
▁IN	-1139
target	-1140
Un	-1141
filename	-1142
▁--	-1143
sk	-1144
not	-1145
▁>>	-1146
annel	-1147
lied	-1148
adata	-1149
ste	-1150
HE	-1151
▁one	-1152
PE	-1153
pri	-1154
rid	-1155
▁WIT	-1156
▁up	-1157
▁end	-1158
files	-1159
▁J	-1160
trib	-1161
Ser	-1162
pache	-1163
</	-1164
match	-1165
List	-1166
uct	-1167
})	-1168
▁gener	-1169
eta	-1170
▁either	-1171
[:	-1172
ld	-1173
▁Un	-1174
▁You	-1175
exp	-1176
urse	-1177
TY	-1178
how	-1179
debug	-1180
store	-1181
▁format	-1182
MA	-1183
find	-1184
uture	-1185
ments	-1186
▁msg	-1187
Up	-1188
ists	-1189
my	-1190
▁An	-1191
ain	-1192
Mode	-1193
ale	-1194
older	-1195
viron	-1196
Time	-1197
function	-1198
lection	-1199
objects	-1200
face	-1201
Get	-1202
▁host	-1203
emp	-1204
▁go	-1205
ures	-1206
filter	-1207
▁update	-1208
▁values	-1209
otal	-1210
ister	-1211
if	-1212
tribute	-1213
ast	-1214
layer	-1215
En	-1216
search	-1217
▁valid	-1218
cted	-1219
▁contain	-1220
err	-1221
Value	-1222
cei	-1223
▁which	-1224
def	-1225
TestCase	-1226
so	-1227
uple	-1228
argument	-1229
=[	-1230
lobal	-1231
▁Return	-1232
ittest	-1233
orted	-1234
▁action	-1235
▁server	-1236
▁exp	-1237
▁page	-1238
Bo	-1239
lish	-1240
build	-1241
▁gi	-1242
▁Py	-1243
cy	-1244
▁content	-1245
cript	-1246
Char	-1247
feren	-1248
option	-1249
▁cal	-1250
values	-1251
float	-1252
▁So	-1253
quen	-1254
root	-1255
lease	-1256
▁when	-1257
(_	-1258
bi	-1259
foo	-1260
▁call	-1261
frame	-1262
umpy	-1263
spec	-1264
izer	-1265
▁obj	-1266
▁argument	-1267
iled	-1268
block	-1269
▁mock	-1270
ITY	-1271
▁size	-1272
tag	-1273
ries	-1274
ccess	-1275
items	-1276
ateg	-1277
CON	-1278
print	-1279
rate	-1280
▁("	-1281
xy	-1282
mbda	-1283
project	-1284
``	-1285
ises	-1286
ui	-1287
password	-1288
inal	-1289
NA	-1290
keys	-1291
ell	-1292
HOUT	-1293
},	-1294
DI	-1295
Se	-1296
tadata	-1297
licenses	-1298
ns	-1299
▁WITHOUT	-1300
▁client	-1301
ids	-1302
▁pack	-1303
ML	-1304
exec	-1305
TR	-1306
lication	-1307
cket	-1308
irst	-1309
tails	-1310
ful	-1311
▁document	-1312
▁only	-1313
property	-1314
▁more	-1315
mary	-1316
▁man	-1317
current	-1318
ql	-1319
mock	-1320
▁read	-1321
Base	-1322
device	-1323
={	-1324
ffer	-1325
future	-1326
sition	-1327
address	-1328
DO	-1329
description	-1330
▁implied	-1331
yle	-1332
task	-1333
fla	-1334
delete	-1335
▁ext	-1336
({	-1337
cmd	-1338
sum	-1339
US	-1340
site	-1341
attern	-1342
▁num	-1343
String	-1344
mation	-1345
space	-1346
CT	-1347
▁provi	-1348
▁work	-1349
▁->	-1350
bar	-1351
uid	-1352
tiv	-1353
ersion	-1354
▁op	-1355
▁template	-1356
pect	-1357
util	-1358
graph	-1359
▁main	-1360
▁modi	-1361
'}),	-1362
Col	-1363
▁Co	-1364
▁>>>	-1365
coding	-1366
▁must	-1367
splay	-1368
teger	-1369
deo	-1370
equal	-1371
ract	-1372
Po	-1373
****************	-1374
post	-1375
less	-1376
▁change	-1377
▁while	-1378
ublish	-1379
of	-1380
)))	-1381
lank	-1382
box	-1383
order	-1384
▁python	-1385
▁trans	-1386
CharField	-1387
▁params	-1388
ud	-1389
▁'/	-1390
▁make	-1391
vai	-1392
ilter	-1393
▁q	-1394
here	-1395
▁back	-1396
lt	-1397
location	-1398
▁fe	-1399
mark	-1400
orage	-1401
▁without	-1402
▁min	-1403
▁query	-1404
import	-1405
▁cl	-1406
▁ter	-1407
old	-1408
func	-1409
▁Software	-1410
Text	-1411
Model	-1412
Man	-1413
ATE	-1414
Vi	-1415
fail	-1416
resource	-1417
strip	-1418
▁group	-1419
ops	-1420
cache	-1421
ration	-1422
cord	-1423
ats	-1424
▁IS	-1425
▁does	-1426
connect	-1427
ped	-1428
Ar	-1429
▁given	-1430
▁settings	-1431
::	-1432
▁'%	-1433
replace	-1434
Id	-1435
ick	-1436
oding	-1437
▁port	-1438
ify	-1439
parent	-1440
abled	-1441
▁``	-1442
ote	-1443
▁ca	-1444
etwork	-1445
▁redi	-1446
top	-1447
▁program	-1448
range	-1449
▁directory	-1450
▁tf	-1451
email	-1452
Exception	-1453
OP	-1454
fir	-1455
level	-1456
FI	-1457
missions	-1458
▁results	-1459
ont	-1460
▁see	-1461
Ra	-1462
latform	-1463
down	-1464
script	-1465
▁your	-1466
exception	-1467
Log	-1468
▁language	-1469
▁sa	-1470
▁coding	-1471
onent	-1472
▁datetime	-1473
ization	-1474
number	-1475
pos	-1476
▁cmd	-1477
lation	-1478
▁limit	-1479
std	-1480
▁Value	-1481
▁status	-1482
▁fields	-1483
df	-1484
▁form	-1485
cer	-1486
▁utf	-1487
▁specific	-1488
conf	-1489
▁found	-1490
last	-1491
▁##	-1492
EST	-1493
exten	-1494
plot	-1495
Not	-1496
▁wri	-1497
arent	-1498
▁ob	-1499
iter	-1500
assi	-1501
▁logger	-1502
show	-1503
▁first	-1504
save	-1505
tools	-1506
▁label	-1507
igh	-1508
)]	-1509
assertTrue	-1510
CL	-1511
usr	-1512
ormal	-1513
io	-1514
ched	-1515
▁filename	-1516
package	-1517
utton	-1518
go	-1519
now	-1520
network	-1521
ternal	-1522
▁gra	-1523
▁using	-1524
req	-1525
xml	-1526
▁tensor	-1527
Add	-1528
▁row	-1529
ILITY	-1530
exit	-1531
"))	-1532
dition	-1533
▁inter	-1534
User	-1535
▁project	-1536
body	-1537
ENSE	-1538
ference	-1539
~~	-1540
▁device	-1541
sen	-1542
▁Pro	-1543
ating	-1544
▁ret	-1545
gener	-1546
mem	-1547
EX	-1548
▁dest	-1549
▁Exception	-1550
fier	-1551
tific	-1552
ICENSE	-1553
▁table	-1554
ollow	-1555
swith	-1556
queue	-1557
mon	-1558
▁["	-1559
resh	-1560
Th	-1561
TION	-1562
UN	-1563
mission	-1564
vert	-1565
▁late	-1566
ates	-1567
lity	-1568
stamp	-1569
)),	-1570
lear	-1571
contrib	-1572
▁rep	-1573
width	-1574
fter	-1575
''	-1576
NAME	-1577
sa	-1578
▁Returns	-1579
copy	-1580
▁build	-1581
tinue	-1582
rix	-1583
▁ValueError	-1584
▁inst	-1585
').	-1586
admin	-1587
vo	-1588
job	-1589
▁ax	-1590
Object	-1591
dis	-1592
dia	-1593
ous	-1594
vailable	-1595
abs	-1596
▁'.	-1597
vision	-1598
▁pri	-1599
▁resource	-1600
fore	-1601
TTP	-1602
send	-1603
present	-1604
','	-1605
txt	-1606
▁lib	-1607
▁token	-1608
ord	-1609
make	-1610
river	-1611
bose	-1612
parser	-1613
na	-1614
reak	-1615
▁count	-1616
▁numpy	-1617
ized	-1618
amples	-1619
▁float	-1620
▁title	-1621
src	-1622
ear	-1623
▁THE	-1624
ustom	-1625
▁task	-1626
can	-1627
Config	-1628
account	-1629
gen	-1630
rou	-1631
▁char	-1632
pk	-1633
cls	-1634
ABILITY	-1635
▁FOR	-1636
ib	-1637
Request	-1638
off	-1639
FA	-1640
▁ses	-1641
▁parent	-1642
cli	-1643
Path	-1644
▁exception	-1645
\\	-1646
static	-1647
ie	-1648
sit	-1649
char	-1650
▁dis	-1651
▁cls	-1652
patch	-1653
▁array	-1654
formation	-1655
rt	-1656
alog	-1657
▁over	-1658
▁continue	-1659
▁each	-1660
▁view	-1661
ameter	-1662
ceived	-1663
▁details	-1664
▁Ar	-1665
color	-1666
IO	-1667
('/	-1668
sup	-1669
tests	-1670
▁into	-1671
tributes	-1672
▁',	-1673
▁load	-1674
▁connection	-1675
▁package	-1676
TIES	-1677
KE	-1678
▁doc	-1679
asses	-1680
URL	-1681
▁Found	-1682
uster	-1683
▁yield	-1684
▁kwargs	-1685
▁St	-1686
▁need	-1687
remove	-1688
CE	-1689
▁cor	-1690
▁process	-1691
connection	-1692
No	-1693
▁temp	-1694
▁exec	-1695
elper	-1696
AP	-1697
IP	-1698
random	-1699
mt	-1700
▁WARRANTIES	-1701
{}	-1702
stack	-1703
▁block	-1704
▁uti	-1705
lower	-1706
web	-1707
chema	-1708
verse	-1709
▁#!	-1710
View	-1711
ique	-1712
For	-1713
▁ite	-1714
common	-1715
column	-1716
als	-1717
exists	-1718
▁Foundation	-1719
author	-1720
▁session	-1721
▁last	-1722
▁names	-1723
▁si	-1724
▁show	-1725
cts	-1726
train	-1727
VER	-1728
dle	-1729
▁root	-1730
olute	-1731
ink	-1732
cen	-1733
rary	-1734
wo	-1735
▁..	-1736
▁link	-1737
username	-1738
pc	-1739
etch	-1740
Return	-1741
IB	-1742
▁del	-1743
▁here	-1744
ogle	-1745
cope	-1746
ake	-1747
.,	-1748
iddle	-1749
prefix	-1750
]:	-1751
▁info	-1752
ution	-1753
OF	-1754
▁part	-1755
cp	-1756
inst	-1757
ANT	-1758
▁true	-1759
pop	-1760
thing	-1761
▁variable	-1762
▁sign	-1763
▁ab	-1764
sw	-1765
"],	-1766
TIC	-1767
mote	-1768
press	-1769
course	-1770
▁#!/	-1771
"):	-1772
▁Python	-1773
child	-1774
▁exten	-1775
▁some	-1776
▁TO	-1777
▁follow	-1778
wait	-1779
[-	-1780
▁'--	-1781
served	-1782
stop	-1783
aster	-1784
▁For	-1785
argv	-1786
▁Free	-1787
▁'-	-1788
▁random	-1789
▁'__	-1790
▁service	-1791
▁"%	-1792
▁parse	-1793
header	-1794
gh	-1795
datetime	-1796
▁Version	-1797
▁env	-1798
IND	-1799
ker	-1800
▁abs	-1801
▁fla	-1802
lated	-1803
▁),	-1804
sis	-1805
hash	-1806
meta	-1807
domain	-1808
liance	-1809
nodes	-1810
▁password	-1811
▁oper	-1812
▁break	-1813
▁All	-1814
ORT	-1815
ple	-1816
▁{"	-1817
ush	-1818
compile	-1819
▁order	-1820
derr	-1821
▁publish	-1822
UP	-1823
system	-1824
asic	-1825
▁PAR	-1826
▁setup	-1827
The	-1828
IONS	-1829
▁thread	-1830
▁Set	-1831
TH	-1832
▁'\	-1833
register	-1834
AM	-1835
environ	-1836
ive	-1837
']['	-1838
encode	-1839
'].	-1840
▁obtain	-1841
▁modify	-1842
perties	-1843
▁tag	-1844
atures	-1845
▁entry	-1846
▁terms	-1847
ocket	-1848
▁right	-1849
av	-1850
▁tests	-1851
▁sp	-1852
▁was	-1853
cept	-1854
oo	-1855
plugin	-1856
▁write	-1857
▁permissions	-1858
ights	-1859
gine	-1860
ular	-1861
ategory	-1862
ish	-1863
▁defin	-1864
▁Par	-1865
Node	-1866
▁free	-1867
fg	-1868
https	-1869
CC	-1870
▁LO	-1871
▁qu	-1872
sy	-1873
element	-1874
=(	-1875
headers	-1876
▁map	-1877
Raises	-1878
quence	-1879
At	-1880
volume	-1881
▁We	-1882
nown	-1883
ULT	-1884
ice	-1885
licy	-1886
results	-1887
IM	-1888
▁find	-1889
ng	-1890
Bu	-1891
▁err	-1892
manager	-1893
▁allow	-1894
aa	-1895
App	-1896
Handler	-1897
gex	-1898
Form	-1899
)):	-1900
▁comm	-1901
ression	-1902
MO	-1903
nap	-1904
unk	-1905
Parser	-1906
gr	-1907
:`	-1908
EC	-1909
▁Ansible	-1910
part	-1911
points	-1912
">	-1913
▁tuple	-1914
(*	-1915
cc	-1916
setup	-1917
▁::	-1918
▁com	-1919
▁exist	-1920
vider	-1921
▁case	-1922
▁local	-1923
denti	-1924
has	-1925
tx	-1926
assertRaises	-1927
▁diff	-1928
serial	-1929
▁next	-1930
handler	-1931
▁DE	-1932
▁UR	-1933
▁gover	-1934
mod	-1935
▁api	-1936
▁initial	-1937
NESS	-1938
▁Get	-1939
▁attr	-1940
Lo	-1941
zer	-1942
au	-1943
mi	-1944
▁&	-1945
'\	-1946
Al	-1947
TER	-1948
dev	-1949
License	-1950
board	-1951
blank	-1952
DIR	-1953
▁dir	-1954
▁global	-1955
SS	-1956
▁bin	-1957
quire	-1958
itch	-1959
cr	-1960
(?	-1961
Info	-1962
zone	-1963
▁req	-1964
▁dtype	-1965
next	-1966
CONF	-1967
cho	-1968
▁opt	-1969
▁ren	-1970
metadata	-1971
▁headers	-1972
channel	-1973
▁ho	-1974
▁...	-1975
▁unicode	-1976
▁>=	-1977
alid	-1978
(__	-1979
ings	-1980
▁Licensed	-1981
Comp	-1982
▁Create	-1983
ULAR	-1984
▁pos	-1985
struct	-1986
MPL	-1987
▁Apache	-1988
Client	-1989
OL	-1990
wd	-1991
▁MER	-1992
POSE	-1993
DIT	-1994
▁FIT	-1995
]]	-1996
▁unittest	-1997
▁im	-1998
iddleware	-1999
▁plt	-2000
login	-2001
▁KIND	-2002
CHANT	-2003
▁FITNESS	-2004
expected	-2005
nel	-2006
▁PUR	-2007
▁even	-2008
play	-2009
tocol	-2010
▁MERCHANT	-2011
▁PURPOSE	-2012
EL	-2013
ALL	-2014
▁PARTIC	-2015
▁PARTICULAR	-2016
");	-2017
Widget	-2018
▁applic	-2019
Event	-2020
▁same	-2021
▁color	-2022
dump	-2023
▁clo	-2024
required	-2025
les	-2026
▁MERCHANTABILITY	-2027
fn	-2028
▁tensorflow	-2029
(-	-2030
ob	-2031
tf	-2032
Lay	-2033
ctionary	-2034
▁html	-2035
ha	-2036
▁off	-2037
first	-2038
▁,	-2039
▁later	-2040
▁writing	-2041
let	-2042
▁filter	-2043
▁returned	-2044
▁war	-2045
shot	-2046
dic	-2047
rop	-2048
LICENSE	-2049
gment	-2050
very	-2051
▁orig	-2052
execute	-2053
KEY	-2054
stru	-2055
startswith	-2056
Response	-2057
Date	-2058
changed	-2059
▁User	-2060
ices	-2061
▁element	-2062
tags	-2063
Module	-2064
▁point	-2065
Message	-2066
try	-2067
▁body	-2068
tk	-2069
▁sample	-2070
leep	-2071
reed	-2072
▁support	-2073
▁API	-2074
▁header	-2075
cond	-2076
other	-2077
.')	-2078
All	-2079
bit	-2080
des	-2081
▁raw	-2082
pool	-2083
style	-2084
▁Add	-2085
Check	-2086
Per	-2087
ait	-2088
auto	-2089
).__	-2090
Create	-2091
▁received	-2092
WAR	-2093
stream	-2094
only	-2095
BU	-2096
true	-2097
troller	-2098
]['	-2099
tmp	-2100
▁sen	-2101
section	-2102
▁useful	-2103
mal	-2104
apache	-2105
ready	-2106
▁multi	-2107
▁my	-2108
ensor	-2109
▁sy	-2110
xx	-2111
book	-2112
round	-2113
▁cho	-2114
▁lambda	-2115
▁then	-2116
ported	-2117
PAT	-2118
unit	-2119
▁mat	-2120
▁after	-2121
▁script	-2122
▁applicable	-2123
dio	-2124
duct	-2125
▁hash	-2126
'},	-2127
step	-2128
▁specified	-2129
fer	-2130
rappe	-2131
div	-2132
coder	-2133
▁express	-2134
HT	-2135
▁old	-2136
tep	-2137
▁std	-2138
▁sk	-2139
▁length	-2140
▁configuration	-2141
▁te	-2142
mented	-2143
wh	-2144
+)	-2145
FAULT	-2146
▁URL	-2147
ik	-2148
▁web	-2149
TO	-2150
▁top	-2151
Is	-2152
▁timeout	-2153
__':	-2154
ATA	-2155
AGE	-2156
tab	-2157
▁BAS	-2158
mount	-2159
cent	-2160
DITIONS	-2161
▁non	-2162
rapper	-2163
inx	-2164
Item	-2165
An	-2166
war	-2167
del	-2168
ics	-2169
rule	-2170
▁Unless	-2171
Py	-2172
▁limitations	-2173
lug	-2174
urls	-2175
▁law	-2176
PL	-2177
handle	-2178
fs	-2179
▁compliance	-2180
▁governing	-2181
▁CONDITIONS	-2182
any	-2183
▁BASIS	-2184
▁Ch	-2185
▁column	-2186
."	-2187
]))	-2188
▁fail	-2189
Out	-2190
▁remove	-2191
▁getattr	-2192
act	-2193
▁agreed	-2194
FF	-2195
conds	-2196
:%	-2197
null	-2198
mpty	-2199
▁Qt	-2200
▁published	-2201
warning	-2202
olean	-2203
Command	-2204
=['	-2205
▁following	-2206
Le	-2207
▁WARRANTY	-2208
tim	-2209
active	-2210
▁author	-2211
tree	-2212
QU	-2213
▁fin	-2214
ward	-2215
▁%(	-2216
Dict	-2217
▁parameters	-2218
▁information	-2219
entries	-2220
▁],	-2221
▁arguments	-2222
side	-2223
.")	-2224
▁search	-2225
timeout	-2226
dest	-2227
ffix	-2228
dirname	-2229
▁"\	-2230
ingle	-2231
stribute	-2232
fin	-2233
▁child	-2234
entic	-2235
▁along	-2236
▁pa	-2237
rations	-2238
DB	-2239
ATION	-2240
lambda	-2241
stdout	-2242
display	-2243
dtype	-2244
▁shape	-2245
']:	-2246
sets	-2247
▁mem	-2248
▁resp	-2249
▁total	-2250
ABLE	-2251
"])	-2252
▁https	-2253
thread	-2254
▁access	-2255
Manager	-2256
istory	-2257
vm	-2258
multi	-2259
total	-2260
aly	-2261
ves	-2262
▁where	-2263
▁address	-2264
▁cre	-2265
ASS	-2266
▁frame	-2267
▁available	-2268
Auth	-2269
Option	-2270
Ac	-2271
▁down	-2272
▁post	-2273
unittest	-2274
Run	-2275
loy	-2276
ason	-2277
Box	-2278
backend	-2279
Ad	-2280
ators	-2281
▁handle	-2282
▁database	-2283
okup	-2284
,'	-2285
ial	-2286
▁created	-2287
=%	-2288
lso	-2289
Group	-2290
logger	-2291
contain	-2292
ws	-2293
---	-2294
▁network	-2295
▁Inc	-2296
Page	-2297
▁lines	-2298
▁redistribute	-2299
uri	-2300
▁AND	-2301
▁system	-2302
▁ansible	-2303
dep	-2304
▁its	-2305
▁absolute	-2306
pha	-2307
Class	-2308
case	-2309
platform	-2310
exc	-2311
vate	-2312
▁act	-2313
window	-2314
Qt	-2315
TYPE	-2316
▁course	-2317
Map	-2318
termin	-2319
pl	-2320
MENT	-2321
variable	-2322
.*	-2323
scale	-2324
imum	-2325
errors	-2326
▁objects	-2327
▁src	-2328
pr	-2329
/%	-2330
stra	-2331
forms	-2332
oreign	-2333
▁send	-2334
▁tmp	-2335
▁extra	-2336
__)	-2337
napshot	-2338
TE	-2339
Sub	-2340
▁cache	-2341
win	-2342
dices	-2343
▁full	-2344
▁train	-2345
batch	-2346
▁level	-2347
▁ass	-2348
▁dep	-2349
bytes	-2350
▁before	-2351
sample	-2352
▁Auth	-2353
▁include	-2354
Integer	-2355
pattern	-2356
grid	-2357
▁auto	-2358
decode	-2359
▁there	-2360
peri	-2361
FOR	-2362
PATH	-2363
select	-2364
▁Check	-2365
ASE	-2366
_(	-2367
ba	-2368
sv	-2369
▁"/	-2370
▁documentation	-2371
gate	-2372
▁now	-2373
comple	-2374
▁warran	-2375
▁verbose	-2376
▁display	-2377
application	-2378
cul	-2379
Size	-2380
profile	-2381
gest	-2382
▁hope	-2383
access	-2384
idx	-2385
oper	-2386
▁$	-2387
mer	-2388
▁EX	-2389
ift	-2390
tach	-2391
▁Import	-2392
AA	-2393
over	-2394
]),	-2395
folder	-2396
lative	-2397
offset	-2398
▁section	-2399
▁NOT	-2400
GET	-2401
unter	-2402
▁than	-2403
Content	-2404
Element	-2405
▁errors	-2406
▁meta	-2407
▁serial	-2408
▁Key	-2409
▁video	-2410
▁warranty	-2411
▁ap	-2412
direct	-2413
▁account	-2414
/>	-2415
▁""	-2416
▁license	-2417
example	-2418
storage	-2419
▁subprocess	-2420
▁List	-2421
▁var	-2422
penden	-2423
▁pattern	-2424
NO	-2425
home	-2426
chedule	-2427
API	-2428
▁items	-2429
Service	-2430
ilder	-2431
▁ID	-2432
ditions	-2433
oreignKey	-2434
git	-2435
gor	-2436
Index	-2437
stats	-2438
fit	-2439
▁ta	-2440
▁CONF	-2441
loads	-2442
▁Option	-2443
▁keys	-2444
▁requests	-2445
tex	-2446
uuid	-2447
▁sum	-2448
▁func	-2449
cret	-2450
ERR	-2451
sure	-2452
▁<=	-2453
▁String	-2454
rec	-2455
▁channel	-2456
▁metadata	-2457
button	-2458
orig	-2459
)[	-2460
js	-2461
Result	-2462
▁LOG	-2463
▁graph	-2464
driver	-2465
Line	-2466
member	-2467
:]	-2468
('\	-2469
▁prefix	-2470
ux	-2471
▁exc	-2472
diff	-2473
▁ref	-2474
▁false	-2475
gnu	-2476
ride	-2477
rf	-2478
▁Not	-2479
Factory	-2480
initial	-2481
Logger	-2482
callback	-2483
component	-2484
By	-2485
SI	-2486
gorith	-2487
height	-2488
lected	-2489
▁socket	-2490
▁frappe	-2491
He	-2492
'^	-2493
stderr	-2494
▁encoding	-2495
Temp	-2496
▁setUp	-2497
modules	-2498
(['	-2499
ati	-2500
▁returns	-2501
sql	-2502
../	-2503
zip	-2504
▁En	-2505
flags	-2506
bility	-2507
groups	-2508
HTTP	-2509
▁xml	-2510
validate	-2511
▁bet	-2512
▁email	-2513
dential	-2514
SON	-2515
▁domain	-2516
▁save	-2517
▁delete	-2518
dist	-2519
reen	-2520
directory	-2521
ithub	-2522
▁async	-2523
abel	-2524
addr	-2525
clean	-2526
bound	-2527
aded	-2528
ative	-2529
▁ST	-2530
Input	-2531
▁two	-2532
▁Args	-2533
▁record	-2534
dentifier	-2535
QL	-2536
Dis	-2537
Image	-2538
State	-2539
rowser	-2540
Des	-2541
full	-2542
gress	-2543
▁plot	-2544
▁provided	-2545
Sh	-2546
used	-2547
constant	-2548
til	-2549
▁already	-2550
ical	-2551
▁Res	-2552
▁dictionary	-2553
ants	-2554
help	-2555
document	-2556
'})	-2557
extra	-2558
▁At	-2559
ForeignKey	-2560
keep	-2561
alled	-2562
ways	-2563
vol	-2564
prec	-2565
bl	-2566
sha	-2567
ttp	-2568
▁bool	-2569
insert	-2570
unicode	-2571
▁volume	-2572
▁warning	-2573
stract	-2574
▁ge	-2575
related	-2576
words	-2577
▁hasattr	-2578
▁null	-2579
cry	-2580
▁render	-2581
▁example	-2582
({'	-2583
release	-2584
▁No	-2585
▁stream	-2586
▁width	-2587
SER	-2588
fication	-2589
▁Open	-2590
ins	-2591
▁Se	-2592
UD	-2593
▁TODO	-2594
▁It	-2595
delta	-2596
classes	-2597
▁comple	-2598
css	-2599
SD	-2600
rand	-2601
vars	-2602
▁attribute	-2603
▁})	-2604
ector	-2605
VIC	-2606
UB	-2607
▁File	-2608
▁struct	-2609
ric	-2610
▁noti	-2611
▁rule	-2612
AY	-2613
PRO	-2614
sec	-2615
▁Type	-2616
▁username	-2617
PR	-2618
fake	-2619
▁pk	-2620
▁style	-2621
language	-2622
ACK	-2623
▁tree	-2624
lip	-2625
▁plugin	-2626
Tests	-2627
day	-2628
▁):	-2629
repo	-2630
▁Data	-2631
ticle	-2632
END	-2633
speci	-2634
sole	-2635
valu	-2636
ranch	-2637
);	-2638
hass	-2639
▁Run	-2640
▁iter	-2641
▁like	-2642
Gui	-2643
ire	-2644
assertEquals	-2645
provider	-2646
vironment	-2647
dt	-2648
left	-2649
udent	-2650
oto	-2651
▁don	-2652
Qu	-2653
cast	-2654
cap	-2655
metri	-2656
CR	-2657
place	-2658
▁Me	-2659
~~~~	-2660
▁Base	-2661
ged	-2662
▁'_	-2663
ditional	-2664
)"	-2665
most	-2666
▁empty	-2667
ince	-2668
assed	-2669
▁also	-2670
▁HT	-2671
ctions	-2672
▁commands	-2673
$',	-2674
scope	-2675
velo	-2676
▁wait	-2677
report	-2678
▁single	-2679
▁success	-2680
normal	-2681
okie	-2682
limit	-2683
LOG	-2684
ork	-2685
cale	-2686
sleep	-2687
widget	-2688
ween	-2689
▁Ser	-2690
▁generate	-2691
▁methods	-2692
PORT	-2693
proxy	-2694
▁mark	-2695
▁clean	-2696
socket	-2697
▁collection	-2698
-%	-2699
On	-2700
ling	-2701
gg	-2702
rs	-2703
oci	-2704
▁net	-2705
`.	-2706
Column	-2707
wer	-2708
video	-2709
created	-2710
WARE	-2711
bind	-2712
▁failed	-2713
ERS	-2714
ystem	-2715
quires	-2716
▁PRO	-2717
way	-2718
straint	-2719
▁admin	-2720
▁sw	-2721
game	-2722
commit	-2723
SA	-2724
("%	-2725
▁tri	-2726
Imple	-2727
pping	-2728
▁custom	-2729
imple	-2730
CA	-2731
cause	-2732
▁been	-2733
▁parameter	-2734
tom	-2735
▁pi	-2736
MS	-2737
▁types	-2738
▁utils	-2739
▁dist	-2740
▁cer	-2741
extend	-2742
▁mig	-2743
▁disable	-2744
views	-2745
Invalid	-2746
gorithm	-2747
▁changed	-2748
FL	-2749
▁Config	-2750
").	-2751
async	-2752
xture	-2753
▁batch	-2754
verage	-2755
▁HTML	-2756
UTH	-2757
VE	-2758
pol	-2759
▁Z	-2760
edit	-2761
parameters	-2762
known	-2763
▁--------	-2764
XX	-2765
▁HTTP	-2766
▁home	-2767
lector	-2768
▁handler	-2769
timestamp	-2770
CK	-2771
={'	-2772
tered	-2773
dirs	-2774
roll	-2775
▁binary	-2776
▁window	-2777
▁ph	-2778
▁loc	-2779
olver	-2780
SH	-2781
IGHT	-2782
ving	-2783
comment	-2784
Gener	-2785
▁Name	-2786
▁nodes	-2787
mac	-2788
conn	-2789
▁mis	-2790
▁exists	-2791
▁implement	-2792
ERROR	-2793
fetch	-2794
▁step	-2795
public	-2796
As	-2797
mbol	-2798
▁Per	-2799
▁want	-2800
lint	-2801
▁stop	-2802
(**	-2803
▁".	-2804
ship	-2805
▁paths	-2806
sume	-2807
▁ImportError	-2808
sity	-2809
fl	-2810
pu	-2811
BUG	-2812
Inter	-2813
▁",	-2814
cat	-2815
proto	-2816
gments	-2817
loader	-2818
▁callback	-2819
▁NO	-2820
csv	-2821
Valid	-2822
center	-2823
engine	-2824
▁diffe	-2825
record	-2826
From	-2827
year	-2828
▁ali	-2829
▁Comp	-2830
▁unit	-2831
called	-2832
messages	-2833
layers	-2834
pay	-2835
▁LI	-2836
▁just	-2837
ination	-2838
agent	-2839
idden	-2840
sq	-2841
POST	-2842
HER	-2843
buffer	-2844
▁choices	-2845
▁debug	-2846
Mo	-2847
Dir	-2848
enabled	-2849
Mock	-2850
vious	-2851
▁Di	-2852
cies	-2853
pair	-2854
%(	-2855
img	-2856
real	-2857
see	-2858
Code	-2859
ench	-2860
helper	-2861
VAL	-2862
')),	-2863
▁math	-2864
Auto	-2865
Connection	-2866
▁conditions	-2867
cell	-2868
wise	-2869
▁vol	-2870
▁repo	-2871
utable	-2872
▁sta	-2873
▁bytes	-2874
USER	-2875
bool	-2876
mask	-2877
▁gen	-2878
ret	-2879
empty	-2880
▁sure	-2881
▁called	-2882
classmethod	-2883
Reg	-2884
cimal	-2885
Window	-2886
ja	-2887
▁us	-2888
Gra	-2889
▁uid	-2890
▁conf	-2891
▁sorted	-2892
▁register	-2893
skip	-2894
opt	-2895
AGS	-2896
ges	-2897
gnore	-2898
▁ti	-2899
global	-2900
▁messages	-2901
Sta	-2902
▁conn	-2903
gument	-2904
umb	-2905
tenant	-2906
position	-2907
▁correct	-2908
'][	-2909
▁zip	-2910
annot	-2911
ceback	-2912
activ	-2913
▁'{	-2914
('--	-2915
▁mon	-2916
download	-2917
Server	-2918
()[	-2919
matrix	-2920
▁param	-2921
fd	-2922
allow	-2923
FO	-2924
bove	-2925
############	-2926
FILE	-2927
mean	-2928
oken	-2929
tool	-2930
ition	-2931
install	-2932
▁library	-2933
▁'$	-2934
ummy	-2935
Trans	-2936
properties	-2937
▁constant	-2938
▁division	-2939
br	-2940
aml	-2941
assertFalse	-2942
users	-2943
ose	-2944
▁job	-2945
▁represent	-2946
","	-2947
sten	-2948
▁charac	-2949
wrap	-2950
render	-2951
DS	-2952
Str	-2953
▁enume	-2954
TIME	-2955
OS	-2956
mk	-2957
[:,	-2958
spa	-2959
Down	-2960
IST	-2961
opts	-2962
▁"__	-2963
abspath	-2964
▁unique	-2965
dim	-2966
FORM	-2967
▁pay	-2968
dumps	-2969
include	-2970
Button	-2971
dentials	-2972
Loc	-2973
ctype	-2974
OFT	-2975
non	-2976
Number	-2977
.'	-2978
heet	-2979
paths	-2980
▁validate	-2981
exceptions	-2982
ession	-2983
Tra	-2984
▁'<	-2985
▁ip	-2986
Frame	-2987
defin	-2988
light	-2989
uter	-2990
generate	-2991
Or	-2992
▁"--	-2993
▁present	-2994
success	-2995
Meta	-2996
▁doesn	-2997
▁inclu	-2998
wn	-2999
tical	-3000
feed	-3001
Status	-3002
▁them	-3003
invalid	-3004
ending	-3005
>'	-3006
distribu	-3007
▁fil	-3008
▁patch	-3009
▁location	-3010
lim	-3011
ured	-3012
▁because	-3013
sl	-3014
clear	-3015
▁force	-3016
blem	-3017
▁remote	-3018
UM	-3019
('-	-3020
▁original	-3021
▁rights	-3022
bot	-3023
getLogger	-3024
OFTWARE	-3025
▁urllib	-3026
interface	-3027
INE	-3028
ntry	-3029
▁fake	-3030
unique	-3031
curity	-3032
staticmethod	-3033
OK	-3034
\.	-3035
▁about	-3036
Int	-3037
role	-3038
We	-3039
imp	-3040
Format	-3041
cluster	-3042
▁report	-3043
added	-3044
▁long	-3045
▁tags	-3046
Task	-3047
rough	-3048
her	-3049
vor	-3050
▁sc	-3051
▁generated	-3052
az	-3053
hi	-3054
peed	-3055
▁Use	-3056
▁[[	-3057
=_	-3058
Core	-3059
▁iss	-3060
creen	-3061
short	-3062
'''	-3063
Pre	-3064
entity	-3065
▁above	-3066
cheme	-3067
▁arch	-3068
▁exit	-3069
attributes	-3070
▁init	-3071
Of	-3072
sig	-3073
layout	-3074
▁SOFTWARE	-3075
hex	-3076
Action	-3077
▁position	-3078
"}	-3079
▁As	-3080
ello	-3081
tification	-3082
Fe	-3083
desc	-3084
▁between	-3085
▁convert	-3086
anel	-3087
liter	-3088
Layout	-3089
assistant	-3090
ude	-3091
▁</	-3092
flag	-3093
▁inte	-3094
features	-3095
▁word	-3096
Output	-3097
compute	-3098
▁stdout	-3099
axis	-3100
istry	-3101
itor	-3102
▁login	-3103
▁short	-3104
allback	-3105
▁replace	-3106
GER	-3107
feature	-3108
▁normal	-3109
encoding	-3110
▁functions	-3111
repr	-3112
images	-3113
yp	-3114
OUT	-3115
Filter	-3116
commands	-3117
ifest	-3118
mbed	-3119
▁offset	-3120
▁running	-3121
stead	-3122
▁pylint	-3123
▁_("	-3124
▁relative	-3125
score	-3126
pg	-3127
ordin	-3128
andard	-3129
CS	-3130
▁LE	-3131
gger	-3132
utor	-3133
▁six	-3134
▁enumerate	-3135
Implemented	-3136
category	-3137
docs	-3138
sort	-3139
▁img	-3140
github	-3141
▁copyright	-3142
("\	-3143
ness	-3144
cloud	-3145
regex	-3146
▁flags	-3147
Version	-3148
nn	-3149
▁"-	-3150
verbose	-3151
ANG	-3152
vector	-3153
▁comment	-3154
zeros	-3155
signed	-3156
▁variables	-3157
Ver	-3158
▁sql	-3159
rl	-3160
ones	-3161
safe	-3162
Found	-3163
apping	-3164
Process	-3165
▁attributes	-3166
CI	-3167
URE	-3168
modi	-3169
Point	-3170
enter	-3171
hether	-3172
▁forms	-3173
Color	-3174
▁install	-3175
▁blank	-3176
▁'',	-3177
▁Mock	-3178
▁height	-3179
▁widget	-3180
uff	-3181
▁((	-3182
▁store	-3183
▁extension	-3184
duce	-3185
dered	-3186
raises	-3187
af	-3188
▁DO	-3189
rest	-3190
TEST	-3191
▁Col	-3192
sitive	-3193
DateTime	-3194
__,	-3195
▁RE	-3196
Su	-3197
▁interface	-3198
/'	-3199
head	-3200
▁mod	-3201
long	-3202
acy	-3203
ixin	-3204
menu	-3205
links	-3206
ORS	-3207
Do	-3208
▁provider	-3209
This	-3210
labels	-3211
mar	-3212
lice	-3213
tact	-3214
▁Note	-3215
secret	-3216
riter	-3217
▁feature	-3218
▁component	-3219
LL	-3220
"].	-3221
pipe	-3222
▁'')	-3223
tificate	-3224
cb	-3225
track	-3226
▁passed	-3227
)/	-3228
▁To	-3229
greg	-3230
dataset	-3231
factory	-3232
▁entity	-3233
Instance	-3234
With	-3235
olve	-3236
pytest	-3237
INT	-3238
dot	-3239
▁dire	-3240
DEFAULT	-3241
samples	-3242
▁feed	-3243
cfg	-3244
Resource	-3245
question	-3246
Table	-3247
enchmark	-3248
']),	-3249
('%	-3250
▁Default	-3251
▁Ad	-3252
▁COP	-3253
▁these	-3254
▁fl	-3255
sted	-3256
▁Log	-3257
export	-3258
Clo	-3259
▁COPY	-3260
▁containing	-3261
uest	-3262
▁they	-3263
▁simple	-3264
ctx	-3265
()))	-3266
▁ATT	-3267
cd	-3268
▁defined	-3269
iki	-3270
▁ctx	-3271
primary	-3272
ily	-3273
none	-3274
▁idx	-3275
ished	-3276
▁backend	-3277
ero	-3278
▁redirect	-3279
icon	-3280
▁ker	-3281
▁Image	-3282
▁ATTR	-3283
click	-3284
▁optional	-3285
assertIs	-3286
IR	-3287
▁USE	-3288
▁cursor	-3289
▁ignore	-3290
WN	-3291
VICE	-3292
inputs	-3293
master	-3294
▁pytest	-3295
▁supported	-3296
Update	-3297
Boolean	-3298
▁platform	-3299
structor	-3300
Ca	-3301
ocker	-3302
simple	-3303
rer	-3304
▁cr	-3305
▁connect	-3306
Cur	-3307
png	-3308
Source	-3309
logging	-3310
▁static	-3311
olution	-3312
reshold	-3313
▁notice	-3314
DATA	-3315
ases	-3316
rows	-3317
▁axis	-3318
▁reverse	-3319
Oper	-3320
-----	-3321
orter	-3322
sph	-3323
serv	-3324
Admin	-3325
Label	-3326
/>.	-3327
seq	-3328
__":	-3329
cing	-3330
▁real	-3331
▁stri	-3332
testing	-3333
ross	-3334
loop	-3335
dentity	-3336
lang	-3337
ored	-3338
Change	-3339
▁keep	-3340
▁always	-3341
med	-3342
▁Lo	-3343
font	-3344
▁sim	-3345
▁added	-3346
▁cli	-3347
("/	-3348
Sto	-3349
ube	-3350
▁[(	-3351
slug	-3352
reset	-3353
▁buil	-3354
irt	-3355
▁MA	-3356
framework	-3357
ories	-3358
▁based	-3359
sport	-3360
FIX	-3361
like	-3362
usage	-3363
MAIN	-3364
RES	-3365
WOR	-3366
dele	-3367
cursor	-3368
ctories	-3369
packages	-3370
ixed	-3371
▁cluster	-3372
▁NotImplemented	-3373
Device	-3374
CHE	-3375
)'	-3376
CP	-3377
xe	-3378
buf	-3379
resources	-3380
Count	-3381
moved	-3382
▁queue	-3383
ITE	-3384
▁gr	-3385
lite	-3386
▁actual	-3387
▁common	-3388
▁Bu	-3389
▁Wh	-3390
ually	-3391
▁IP	-3392
sive	-3393
route	-3394
▁events	-3395
><	-3396
nu	-3397
isode	-3398
▁layer	-3399
>\	-3400
▁Go	-3401
▁our	-3402
events	-3403
hostname	-3404
collection	-3405
mul	-3406
▁###	-3407
▁encode	-3408
▁dataset	-3409
Tree	-3410
yper	-3411
▁instead	-3412
ground	-3413
actions	-3414
IntegerField	-3415
gb	-3416
ank	-3417
▁pick	-3418
Token	-3419
▁App	-3420
Failed	-3421
▁TypeError	-3422
▁Parameters	-3423
cle	-3424
zy	-3425
lex	-3426
poch	-3427
▁place	-3428
control	-3429
media	-3430
▁reserved	-3431
ValueError	-3432
td	-3433
ZE	-3434
Edit	-3435
pendencies	-3436
▁different	-3437
▁strings	-3438
REG	-3439
▁cv	-3440
▁folder	-3441
▁finally	-3442
GL	-3443
ROM	-3444
IMIT	-3445
grade	-3446
/',	-3447
series	-3448
▁retri	-3449
Property	-3450
lab	-3451
cords	-3452
Context	-3453
FT	-3454
pb	-3455
CLUD	-3456
▁namespace	-3457
▁df	-3458
ffect	-3459
schema	-3460
Read	-3461
▁high	-3462
▁second	-3463
Template	-3464
▁storage	-3465
▁ed	-3466
▁cfg	-3467
▁opts	-3468
anner	-3469
▁Http	-3470
▁site	-3471
entication	-3472
fra	-3473
iss	-3474
aries	-3475
columns	-3476
▁"{	-3477
topic	-3478
▁contains	-3479
eve	-3480
draw	-3481
ynam	-3482
sphinx	-3483
▁split	-3484
▁warnings	-3485
lack	-3486
verify	-3487
▁CONTR	-3488
CLUDING	-3489
bal	-3490
▁win	-3491
Len	-3492
math	-3493
stat	-3494
▁existing	-3495
uni	-3496
▁nova	-3497
container	-3498
cm	-3499
▁pe	-3500
sitory	-3501
▁await	-3502
indices	-3503
▁select	-3504
dat	-3505
pid	-3506
▁pr	-3507
xf	-3508
,"	-3509
basic	-3510
▁operation	-3511
▁timestamp	-3512
region	-3513
database	-3514
ancel	-3515
dient	-3516
abi	-3517
▁fig	-3518
sumer	-3519
google	-3520
details	-3521
Mixin	-3522
▁dele	-3523
▁look	-3524
}'.	-3525
ouble	-3526
▁pair	-3527
ometry	-3528
▁bound	-3529
plugins	-3530
product	-3531
▁property	-3532
THER	-3533
▁metri	-3534
▁release	-3535
const	-3536
Multi	-3537
Serial	-3538
rot	-3539
▁OS	-3540
▁foo	-3541
children	-3542
force	-3543
▁stats	-3544
history	-3545
policy	-3546
ars	-3547
▁issue	-3548
▁application	-3549
)])	-3550
▁PO	-3551
city	-3552
ower	-3553
weight	-3554
Ro	-3555
]*	-3556
▁role	-3557
\"	-3558
▁TH	-3559
▁who	-3560
And	-3561
lities	-3562
▁every	-3563
▁payload	-3564
ado	-3565
amma	-3566
void	-3567
▁sensor	-3568
abc	-3569
cii	-3570
▁integer	-3571
come	-3572
remote	-3573
▁download	-3574
matic	-3575
cut	-3576
▁skip	-3577
BO	-3578
ons	-3579
▁Ra	-3580
▁final	-3581
IGN	-3582
summary	-3583
▁LICENSE	-3584
tition	-3585
▁Reserved	-3586
hould	-3587
Array	-3588
Thread	-3589
▁track	-3590
reference	-3591
manage	-3592
spatch	-3593
SION	-3594
ueue	-3595
}'	-3596
vis	-3597
▁mer	-3598
▁reference	-3599
ART	-3600
alpha	-3601
phinx	-3602
]+	-3603
unch	-3604
▁left	-3605
DF	-3606
sm	-3607
.',	-3608
▁lin	-3609
attrs	-3610
numpy	-3611
Tag	-3612
expr	-3613
RIGHT	-3614
utron	-3615
▁shutil	-3616
:\	-3617
EXT	-3618
enable	-3619
▁sha	-3620
quote	-3621
ignore	-3622
▁ep	-3623
resp	-3624
ested	-3625
ports	-3626
▁parsed	-3627
literals	-3628
▁sequence	-3629
ali	-3630
▁cap	-3631
▁matrix	-3632
available	-3633
ROOT	-3634
seed	-3635
Attribute	-3636
tc	-3637
ele	-3638
router	-3639
Function	-3640
vas	-3641
endswith	-3642
TTER	-3643
▁OTHER	-3644
Back	-3645
____	-3646
inte	-3647
alk	-3648
lain	-3649
this	-3650
▁Rights	-3651
Middleware	-3652
MAX	-3653
tuple	-3654
▁activ	-3655
▁scale	-3656
▁schema	-3657
▁multiple	-3658
rank	-3659
alt	-3660
▁font	-3661
ato	-3662
mpt	-3663
hook	-3664
tist	-3665
Network	-3666
Cl	-3667
ffi	-3668
▁KeyError	-3669
STR	-3670
]],	-3671
VENT	-3672
pose	-3673
fname	-3674
ral	-3675
vals	-3676
▁chain	-3677
convert	-3678
gt	-3679
Work	-3680
DateTimeField	-3681
ACT	-3682
]])	-3683
▁hass	-3684
▁conver	-3685
▁region	-3686
▁subject	-3687
Met	-3688
▁fp	-3689
()),	-3690
imat	-3691
▁seconds	-3692
cpu	-3693
▁Up	-3694
Port	-3695
RECT	-3696
facts	-3697
▁QtGui	-3698
▁Attribute	-3699
▁Or	-3700
ighb	-3701
parts	-3702
filters	-3703
)',	-3704
theme	-3705
seconds	-3706
▁Time	-3707
issue	-3708
▁Al	-3709
roid	-3710
Start	-3711
Plugin	-3712
MM	-3713
drop	-3714
jobs	-3715
binary	-3716
uch	-3717
"]["	-3718
▁play	-3719
middleware	-3720
Many	-3721
vari	-3722
▁flag	-3723
)*	-3724
NS	-3725
pin	-3726
▁homeassistant	-3727
icro	-3728
▁vari	-3729
▁through	-3730
▁fn	-3731
============	-3732
alle	-3733
eval	-3734
GR	-3735
▁On	-3736
done	-3737
▁tab	-3738
▁labels	-3739
▁being	-3740
HOST	-3741
precated	-3742
AutoField	-3743
tems	-3744
▁pol	-3745
▁again	-3746
PC	-3747
':'	-3748
rency	-3749
Python	-3750
xb	-3751
iod	-3752
vs	-3753
▁disc	-3754
▁DEFAULT	-3755
gent	-3756
▁migrations	-3757
ongo	-3758
▁environment	-3759
eno	-3760
▁_('	-3761
tities	-3762
eeded	-3763
pages	-3764
tran	-3765
Query	-3766
▁sess	-3767
▁LETTER	-3768
duration	-3769
PS	-3770
AND	-3771
▁Man	-3772
DEBUG	-3773
▁spec	-3774
ustome	-3775
uce	-3776
Ext	-3777
asure	-3778
upper	-3779
Dialog	-3780
components	-3781
apps	-3782
Level	-3783
ssl	-3784
▁])	-3785
virt	-3786
Store	-3787
publish	-3788
rtype	-3789
holder	-3790
▁require	-3791
▁permission	-3792
▁tr	-3793
Link	-3794
ntax	-3795
requen	-3796
▁separ	-3797
([[	-3798
MIN	-3799
nail	-3800
expand	-3801
▁Group	-3802
▁scope	-3803
-------	-3804
....	-3805
dius	-3806
extension	-3807
oriz	-3808
▁pages	-3809
rel	-3810
("""	-3811
▁sig	-3812
upload	-3813
▁attrs	-3814
basename	-3815
COL	-3816
cert	-3817
tify	-3818
nected	-3819
▁appro	-3820
▁expect	-3821
dk	-3822
▁desc	-3823
Pack	-3824
Block	-3825
culate	-3826
▁produ	-3827
(\	-3828
One	-3829
rpc	-3830
▁updated	-3831
tn	-3832
▁util	-3833
▁media	-3834
arange	-3835
extract	-3836
namespace	-3837
}".	-3838
▁gl	-3839
prop	-3840
ourse	-3841
UE	-3842
mc	-3843
Fail	-3844
IE	-3845
leg	-3846
▁pool	-3847
fiers	-3848
detail	-3849
updated	-3850
CRE	-3851
utes	-3852
▁both	-3853
▁parts	-3854
ferences	-3855
PUT	-3856
ural	-3857
faces	-3858
▁what	-3859
▁missing	-3860
SET	-3861
bad	-3862
Graph	-3863
attribute	-3864
SO	-3865
atom	-3866
switch	-3867
▁Request	-3868
}"	-3869
Search	-3870
indent	-3871
ascii	-3872
where	-3873
▁JSON	-3874
▁hand	-3875
ritems	-3876
▁signal	-3877
▁cop	-3878
irtual	-3879
▁since	-3880
▁associ	-3881
schedule	-3882
▁----------	-3883
'"	-3884
chine	-3885
▁points	-3886
▁setting	-3887
sid	-3888
fill	-3889
Script	-3890
Session	-3891
▁inputs	-3892
▁entries	-3893
ae	-3894
some	-3895
tile	-3896
▁FROM	-3897
sensor	-3898
New	-3899
▁est	-3900
System	-3901
umbnail	-3902
▁Po	-3903
▁bot	-3904
▁fun	-3905
▁space	-3906
istration	-3907
fc	-3908
Open	-3909
▁Text	-3910
▁Authors	-3911
mu	-3912
▁[{	-3913
▁wx	-3914
▁close	-3915
▁theme	-3916
NotFound	-3917
)],	-3918
▁wo	-3919
wiki	-3920
licit	-3921
▁rest	-3922
▁member	-3923
}/	-3924
enu	-3925
▁My	-3926
LECT	-3927
serve	-3928
times	-3929
▁their	-3930
▁users	-3931
fr	-3932
▁'#	-3933
INFO	-3934
▁properties	-3935
arge	-3936
pare	-3937
CTION	-3938
ftime	-3939
suffix	-3940
▁stderr	-3941
▁classes	-3942
▁[])	-3943
false	-3944
▁loop	-3945
distance	-3946
▁whether	-3947
controller	-3948
MODE	-3949
ence	-3950
signal	-3951
▁verify	-3952
]+)	-3953
mig	-3954
days	-3955
▁how	-3956
counter	-3957
▁xrange	-3958
periment	-3959
▁eq	-3960
dire	-3961
lert	-3962
loss	-3963
sync	-3964
unic	-3965
▁links	-3966
dst	-3967
▁"_	-3968
aaaa	-3969
▁fit	-3970
Build	-3971
fmt	-3972
tten	-3973
Layer	-3974
resses	-3975
snapshot	-3976
chemy	-3977
▁Sub	-3978
medi	-3979
▁Valid	-3980
PRE	-3981
▁rc	-3982
bucket	-3983
▁mp	-3984
rome	-3985
▁done	-3986
erature	-3987
▁suffix	-3988
ECT	-3989
MET	-3990
▁SH	-3991
uplic	-3992
▁invalid	-3993
▁protocol	-3994
("-	-3995
ssh	-3996
memory	-3997
▁stack	-3998
Default	-3999
▁modules	-4000
supported	-4001
tence	-4002
screen	-4003
Returns	-4004
ashboard	-4005
cip	-4006
▁spa	-4007
fun	-4008
▁")	-4009
ulation	-4010
▁installed	-4011
tod	-4012
▁AR	-4013
ority	-4014
pkg	-4015
redirect	-4016
security	-4017
Com	-4018
▁ids	-4019
alysis	-4020
sequence	-4021
▁Te	-4022
alth	-4023
apply	-4024
states	-4025
rb	-4026
angle	-4027
▁distribution	-4028
▁Mo	-4029
free	-4030
fixture	-4031
scape	-4032
suite	-4033
attach	-4034
ustomer	-4035
▁container	-4036
ISE	-4037
expi	-4038
FLAGS	-4039
▁defaults	-4040
('.	-4041
IME	-4042
norm	-4043
uring	-4044
▁wrap	-4045
assertIn	-4046
▁possible	-4047
cks	-4048
Comm	-4049
▁Make	-4050
▁Temp	-4051
▁fetch	-4052
ullable	-4053
▁needed	-4054
▁matches	-4055
▁exceptions	-4056
.)	-4057
_%	-4058
tz	-4059
sep	-4060
ixel	-4061
proc	-4062
WS	-4063
hs	-4064
ide	-4065
▁Do	-4066
▁person	-4067
▁primary	-4068
▁))	-4069
AGES	-4070
▁move	-4071
Options	-4072
▁vm	-4073
SQL	-4074
mut	-4075
▁dt	-4076
ventory	-4077
▁router	-4078
`,	-4079
arm	-4080
BooleanField	-4081
DR	-4082
iler	-4083
▁Meta	-4084
▁would	-4085
▁traceback	-4086
iv	-4087
USE	-4088
▁"<	-4089
ords	-4090
loaded	-4091
▁Google	-4092
▁category	-4093
)",	-4094
]):	-4095
learn	-4096
▁join	-4097
▁tool	-4098
custom	-4099
defaults	-4100
▁previous	-4101
IED	-4102
road	-4103
browser	-4104
▁threading	-4105
▁(%	-4106
Entry	-4107
ffero	-4108
setting	-4109
FIL	-4110
▁sm	-4111
failed	-4112
▁Affero	-4113
▁filters	-4114
transform	-4115
vie	-4116
BASE	-4117
Pass	-4118
▁draw	-4119
▁packages	-4120
listen	-4121
ynamic	-4122
So	-4123
▁LIMIT	-4124
syn	-4125
factor	-4126
Address	-4127
▁Django	-4128
Method	-4129
sur	-4130
▁EN	-4131
▁images	-4132
▁control	-4133
▁collections	-4134
cost	-4135
▁menu	-4136
player	-4137
▁proxy	-4138
▁cell	-4139
▁shell	-4140
=',	-4141
iti	-4142
▁uses	-4143
single	-4144
private	-4145
▁public	-4146
If	-4147
}}	-4148
OLD	-4149
IBUT	-4150
period	-4151
pn	-4152
pto	-4153
ends	-4154
▁IMPL	-4155
▁grid	-4156
▁direct	-4157
internal	-4158
▁Language	-4159
dn	-4160
▁fi	-4161
▁tw	-4162
(_("	-4163
PIPE	-4164
respon	-4165
Argument	-4166
▁expi	-4167
__.	-4168
NING	-4169
ia	-4170
kes	-4171
▁{})	-4172
cision	-4173
utc	-4174
AUTH	-4175
lots	-4176
student	-4177
▁templates	-4178
[^	-4179
cel	-4180
hosts	-4181
requency	-4182
▁extensions	-4183
runner	-4184
cording	-4185
▁chunk	-4186
rup	-4187
▁IMPLIED	-4188
▁extract	-4189
localhost	-4190
▁AttributeError	-4191
ACE	-4192
▁bar	-4193
▁active	-4194
▁indent	-4195
amount	-4196
ressed	-4197
interval	-4198
FR	-4199
timeError	-4200
▁BUT	-4201
CLASS	-4202
rules	-4203
spect	-4204
▁pipe	-4205
▁enable	-4206
▁related	-4207
▁"'	-4208
▁pkg	-4209
payload	-4210
plotlib	-4211
services	-4212
extensions	-4213
FE	-4214
disk	-4215
▁contents	-4216
PAR	-4217
anti	-4218
▁dst	-4219
▁sort	-4220
▁features	-4221
[:-	-4222
▁-=	-4223
▁DAM	-4224
translate	-4225
▁argparse	-4226
Min	-4227
ather	-4228
super	-4229
▁reason	-4230
▁Sh	-4231
STAT	-4232
rong	-4233
▁determin	-4234
Ab	-4235
bb	-4236
ava	-4237
▁driver	-4238
▁switch	-4239
▁manager	-4240
▁oc	-4241
esca	-4242
▁sci	-4243
lookup	-4244
▁views	-4245
actor	-4246
xc	-4247
ium	-4248
Stream	-4249
▁changes	-4250
validation	-4251
+'	-4252
sn	-4253
=""	-4254
▁md	-4255
digest	-4256
VERSION	-4257
▁profile	-4258
je	-4259
ario	-4260
▁columns	-4261
PER	-4262
ading	-4263
month	-4264
outputs	-4265
▁Tensor	-4266
▁lookup	-4267
protocol	-4268
▁IO	-4269
cial	-4270
udio	-4271
imator	-4272
▁button	-4273
AME	-4274
SIZE	-4275
found	-4276
sired	-4277
soft	-4278
chain	-4279
▁When	-4280
Length	-4281
valuate	-4282
GE	-4283
ARY	-4284
Dist	-4285
cols	-4286
warn	-4287
▁let	-4288
▁core	-4289
▁year	-4290
▁master	-4291
absolute	-4292
ftp	-4293
Spec	-4294
▁csv	-4295
▁rows	-4296
mitted	-4297
▁decor	-4298
▁tx	-4299
()):	-4300
note	-4301
▁way	-4302
crypt	-4303
▁mean	-4304
(%	-4305
Web	-4306
▁seq	-4307
after	-4308
adding	-4309
reader	-4310
▁exclude	-4311
VID	-4312
INGS	-4313
edge	-4314
▁mask	-4315
▁usage	-4316
pm	-4317
Max	-4318
ines	-4319
▁glob	-4320
▁LIMITED	-4321
▁')	-4322
▁pop	-4323
Exp	-4324
apter	-4325
blocks	-4326
▁could	-4327
▁player	-4328
assertAll	-4329
▁tempfile	-4330
just	-4331
cores	-4332
devices	-4333
▁Document	-4334
tio	-4335
boot	-4336
▁"",	-4337
absent	-4338
▁buffer	-4339
ationError	-4340
)).	-4341
big	-4342
subprocess	-4343
":"	-4344
/$',	-4345
uted	-4346
▁ops	-4347
ulate	-4348
UI	-4349
gy	-4350
ites	-4351
exist	-4352
▁needs	-4353
sgi	-4354
▁//	-4355
rence	-4356
▁selected	-4357
ping	-4358
▁helper	-4359
▁LIABILITY	-4360
nan	-4361
yes	-4362
▁bit	-4363
ansible	-4364
▁manage	-4365
backends	-4366
▁CL	-4367
sheet	-4368
▁associated	-4369
###	-4370
compat	-4371
Warning	-4372
▁Module	-4373
▁implementation	-4374
CU	-4375
ONE	-4376
gno	-4377
▁byte	-4378
sertion	-4379
templates	-4380
Op	-4381
avi	-4382
car	-4383
cla	-4384
▁aut	-4385
tasks	-4386
company	-4387
correct	-4388
(["	-4389
>',	-4390
▁io	-4391
▁alpha	-4392
crement	-4393
optional	-4394
▁Redistribu	-4395
MD	-4396
ris	-4397
▁By	-4398
izers	-4399
missing	-4400
▁Command	-4401
eg	-4402
Ref	-4403
rag	-4404
Flow	-4405
Stack	-4406
atrix	-4407
final	-4408
▁Error	-4409
amp	-4410
orn	-4411
▁org	-4412
uting	-4413
pick	-4414
arted	-4415
▁prob	-4416
accept	-4417
▁testing	-4418
nb	-4419
freq	-4420
▁edit	-4421
ier	-4422
mpy	-4423
▁Ac	-4424
']))	-4425
orary	-4426
▁delta	-4427
helpers	-4428
ird	-4429
__()	-4430
▁side	-4431
reverse	-4432
gmail	-4433
kernel	-4434
=-	-4435
zen	-4436
steps	-4437
▁StringIO	-4438
Sign	-4439
dc	-4440
LED	-4441
rac	-4442
Enum	-4443
ached	-4444
units	-4445
▁kernel	-4446
▁allowed	-4447
▁complete	-4448
lap	-4449
lon	-4450
country	-4451
doctype	-4452
▁cannot	-4453
Document	-4454
requests	-4455
▁supports	-4456
▁BSD	-4457
▁via	-4458
delay	-4459
power	-4460
▁targets	-4461
Application	-4462
.%	-4463
End	-4464
gits	-4465
flush	-4466
price	-4467
Loader	-4468
▁compute	-4469
▁specify	-4470
arguments	-4471
++	-4472
▁dete	-4473
pix	-4474
▁AS	-4475
live	-4476
▁google	-4477
Ge	-4478
')[	-4479
Top	-4480
JSON	-4481
isted	-4482
Cons	-4483
▁[('	-4484
align	-4485
▁href	-4486
yg	-4487
sian	-4488
cessed	-4489
anization	-4490
▁duration	-4491
MT	-4492
Te	-4493
six	-4494
▁ds	-4495
▁ns	-4496
Exec	-4497
once	-4498
depth	-4499
utors	-4500
▁dimen	-4501
library	-4502
▁Sphinx	-4503
Parameter	-4504
>"	-4505
hd	-4506
qa	-4507
beta	-4508
require	-4509
yaml	-4510
▁Out	-4511
▁Reg	-4512
cached	-4513
segment	-4514
servers	-4515
▁Window	-4516
cription	-4517
conv	-4518
▁such	-4519
▁commit	-4520
▁distance	-4521
Mem	-4522
Pri	-4523
▁_,	-4524
functions	-4525
Serializer	-4526
processing	-4527
MAIL	-4528
decor	-4529
Initial	-4530
ail	-4531
hour	-4532
progress	-4533
▁screen	-4534
▁wrapper	-4535
Child	-4536
tives	-4537
▁sent	-4538
Tensor	-4539
▁operations	-4540
,)	-4541
▁Pre	-4542
setUp	-4543
revision	-4544
▁CO	-4545
▁indic	-4546
▁otherwise	-4547
▁optim	-4548
Variable	-4549
/"	-4550
rain	-4551
team	-4552
▁mapping	-4553
translation	-4554
dar	-4555
raft	-4556
▁flow	-4557
astype	-4558
Control	-4559
▁classi	-4560
▁private	-4561
▁weights	-4562
▁Dis	-4563
reshape	-4564
▁resources	-4565
+"	-4566
pted	-4567
ture	-4568
escape	-4569
ategories	-4570
▁definition	-4571
sym	-4572
▁kind	-4573
▁Build	-4574
▁times	-4575
▁internal	-4576
GB	-4577
SL	-4578
sqrt	-4579
cture	-4580
igration	-4581
generator	-4582
tend	-4583
▁buf	-4584
Storage	-4585
defined	-4586
configuration	-4587
kind	-4588
Callback	-4589
▁character	-4590
qt	-4591
rm	-4592
tw	-4593
Sup	-4594
▁Mode	-4595
Policy	-4596
▁score	-4597
openstack	-4598
Parameters	-4599
!!	-4600
▁?	-4601
▁Be	-4602
href	-4603
derer	-4604
branch	-4605
ational	-4606
quested	-4607
▁COPYRIGHT	-4608
PY	-4609
deg	-4610
Menu	-4611
itle	-4612
amera	-4613
inder	-4614
locale	-4615
▁ensure	-4616
></	-4617
akes	-4618
tokens	-4619
▁enabled	-4620
iteritems	-4621
sim	-4622
havi	-4623
enerp	-4624
expect	-4625
▁words	-4626
aterial	-4627
▁[-	-4628
ATTR	-4629
▁icon	-4630
▁regex	-4631
variables	-4632
wx	-4633
bed	-4634
unity	-4635
▁clear	-4636
▁vector	-4637
gui	-4638
LOGGER	-4639
▁visit	-4640
▁matplotlib	-4641
▁den	-4642
voice	-4643
scriptor	-4644
▁correspon	-4645
EM	-4646
eq	-4647
▁OUT	-4648
velop	-4649
▁equal	-4650
owner	-4651
wards	-4652
▁note	-4653
worker	-4654
modified	-4655
ug	-4656
Can	-4657
asy	-4658
ied	-4659
▁AD	-4660
▁kw	-4661
DATE	-4662
prob	-4663
tils	-4664
wall	-4665
ceiver	-4666
second	-4667
tb	-4668
▁pd	-4669
Profile	-4670
gration	-4671
▁Object	-4672
ulk	-4673
ATIN	-4674
▁git	-4675
▁fname	-4676
▁groups	-4677
contents	-4678
\'	-4679
▁ast	-4680
scribe	-4681
subnet	-4682
▁pixel	-4683
▁policy	-4684
arr	-4685
WORD	-4686
ater	-4687
ders	-4688
Close	-4689
Proxy	-4690
Queue	-4691
Wrapper	-4692
Url	-4693
XML	-4694
Range	-4695
rable	-4696
Target	-4697
▁named	-4698
ough	-4699
ropy	-4700
Cache	-4701
mming	-4702
metric	-4703
▁including	-4704
▁BE	-4705
scal	-4706
▁got	-4707
undle	-4708
▁calls	-4709
complex	-4710
▁memory	-4711
LOW	-4712
external	-4713
~~~~~~~~	-4714
▁product	-4715
▁disk	-4716
▁safe	-4717
weights	-4718
▁tokens	-4719
▁another	-4720
cpp	-4721
pdf	-4722
appen	-4723
raise	-4724
▁Node	-4725
ability	-4726
▁branch	-4727
▁nullable	-4728
▁standard	-4729
▁algorithm	-4730
Fla	-4731
roy	-4732
push	-4733
▁apply	-4734
permissions	-4735
()]	-4736
NET	-4737
zero	-4738
cient	-4739
venio	-4740
▁external	-4741
gi	-4742
Cre	-4743
CRIP	-4744
stub	-4745
▁THIS	-4746
partner	-4747
serialize	-4748
/(?	-4749
pad	-4750
▁Ge	-4751
▁vo	-4752
uses	-4753
▁SER	-4754
alchemy	-4755
ano	-4756
▁WH	-4757
PASS	-4758
▁uuid	-4759
eek	-4760
zed	-4761
nova	-4762
▁{},	-4763
▁basic	-4764
relation	-4765
HERE	-4766
shift	-4767
▁lock	-4768
hidden	-4769
support	-4770
▁requires	-4771
▁destination	-4772
:'	-4773
▁mm	-4774
buil	-4775
▁dev	-4776
▁tran	-4777
▁units	-4778
choices	-4779
▁removed	-4780
tty	-4781
Tool	-4782
▁deri	-4783
▁ON	-4784
▁sn	-4785
▁Clo	-4786
arDown	-4787
▁Date	-4788
▁dump	-4789
▁expression	-4790
_,	-4791
ros	-4792
two	-4793
firm	-4794
▁noqa	-4795
+-	-4796
lr	-4797
:])	-4798
▁lang	-4799
▁within	-4800
requires	-4801
▁Dist	-4802
cookie	-4803
lations	-4804
▁upload	-4805
▁RuntimeError	-4806
"]:	-4807
calls	-4808
▁merge	-4809
program	-4810
▁decode	-4811
}.	-4812
cos	-4813
divid	-4814
gettext	-4815
subject	-4816
complete	-4817
registry	-4818
constants	-4819
▁Bo	-4820
▁FI	-4821
Parse	-4822
gnored	-4823
▁occur	-4824
sal	-4825
glob	-4826
▁too	-4827
hello	-4828
▁loss	-4829
▁rate	-4830
▁stat	-4831
gation	-4832
ICT	-4833
Obj	-4834
inf	-4835
▁Vi	-4836
CONT	-4837
REQU	-4838
chunk	-4839
../../	-4840
Vector	-4841
shared	-4842
RC	-4843
DEF	-4844
▁sq	-4845
span	-4846
Exten	-4847
Entity	-4848
AST	-4849
cwd	-4850
▁fd	-4851
high	-4852
▁bad	-4853
▁snapshot	-4854
*.	-4855
Host	-4856
▁fill	-4857
channels	-4858
transaction	-4859
PIO	-4860
UID	-4861
visit	-4862
before	-4863
▁documents	-4864
/{	-4865
▁pl	-4866
aris	-4867
▁syn	-4868
DOMAIN	-4869
almost	-4870
▁Column	-4871
▁blocks	-4872
▁history	-4873
▁constants	-4874
>>	-4875
')]	-4876
▁'&	-4877
HEAD	-4878
flavor	-4879
▁agent	-4880
exclude	-4881
GG	-4882
▁DB	-4883
dian	-4884
▁Ver	-4885
mbols	-4886
shell	-4887
▁packet	-4888
▁Options	-4889
▁HttpResponse	-4890
cate	-4891
▁expr	-4892
console	-4893
"'	-4894
)\	-4895
Be	-4896
vg	-4897
cto	-4898
▁WITH	-4899
veloper	-4900
▁Update	-4901
Settings	-4902
▁Invalid	-4903
FC	-4904
NOT	-4905
▁ur	-4906
▁head	-4907
filepath	-4908
illa	-4909
ring	-4910
epoch	-4911
writer	-4912
▁weight	-4913
ai	-4914
cover	-4915
▁outputs	-4916
▁perform	-4917
WE	-4918
▁Qu	-4919
using	-4920
gregate	-4921
Provider	-4922
▁Project	-4923
▁contrib	-4924
▁instances	-4925
hn	-4926
ym	-4927
▁ste	-4928
Float	-4929
produ	-4930
------	-4931
▁LATIN	-4932
▁Read	-4933
gether	-4934
Contain	-4935
mapping	-4936
▁export	-4937
▁devices	-4938
▁setattr	-4939
gp	-4940
xa	-4941
dom	-4942
▁He	-4943
READ	-4944
latex	-4945
umeric	-4946
elements	-4947
manifest	-4948
selected	-4949
▁written	-4950
('<	-4951
Row	-4952
▁XML	-4953
Project	-4954
roadcast	-4955
▁archive	-4956
Ne	-4957
didate	-4958
isfile	-4959
▁tenant	-4960
velopment	-4961
fire	-4962
ilar	-4963
oauth	-4964
▁EVENT	-4965
Failure	-4966
generic	-4967
▁elements	-4968
▁training	-4969
fp	-4970
▁Web	-4971
▁etc	-4972
FORMAT	-4973
returns	-4974
▁(-	-4975
rays	-4976
rees	-4977
wner	-4978
visible	-4979
▁manual	-4980
▁execute	-4981
gis	-4982
deploy	-4983
▁failure	-4984
/')	-4985
Sec	-4986
JECT	-4987
sock	-4988
Match	-4989
Names	-4990
▁bind	-4991
Access	-4992
▁Trans	-4993
builder	-4994
metrics	-4995
abstract	-4996
ysi	-4997
sage	-4998
Extra	-4999
TIONS	-5000
CONFIG	-5001
SELECT	-5002
▁pygame	-5003
▁signature	-5004
vide	-5005
Reader	-5006
▁const	-5007
▁modified	-5008
SV	-5009
▁fix	-5010
packet	-5011
▁Event	-5012
▁characters	-5013
Ren	-5014
ouse	-5015
okies	-5016
assertNot	-5017
My	-5018
OO	-5019
,),	-5020
▁cs	-5021
term	-5022
▁mac	-5023
Email	-5024
PRESS	-5025
Write	-5026
trace	-5027
cesses	-5028
ane	-5029
Pool	-5030
fies	-5031
isto	-5032
sess	-5033
notes	-5034
▁comb	-5035
bounds	-5036
▁scipy	-5037
ply	-5038
byte	-5039
scan	-5040
▁fra	-5041
▁sur	-5042
▁termin	-5043
▁AnsibleModule	-5044
ORY	-5045
quot	-5046
▁counter	-5047
▁transform	-5048
cu	-5049
geo	-5050
▁TE	-5051
▁strip	-5052
archive	-5053
balance	-5054
▁Response	-5055
xd	-5056
.",	-5057
kit	-5058
▁dat	-5059
fully	-5060
▁AUTH	-5061
▁STATE	-5062
▁Course	-5063
DES	-5064
MAP	-5065
ula	-5066
lyph	-5067
redis	-5068
▁mail	-5069
▁were	-5070
▁zero	-5071
fficient	-5072
▁transaction	-5073
cnt	-5074
symbol	-5075
wrapper	-5076
▁coordin	-5077
▁constraint	-5078
,))	-5079
flat	-5080
wsgi	-5081
▁below	-5082
▁metric	-5083
Validator	-5084
Bar	-5085
pub	-5086
▁Ne	-5087
▁keyword	-5088
▁credentials	-5089
Exist	-5090
STATE	-5091
chron	-5092
optim	-5093
titem	-5094
currency	-5095
sparse	-5096
formats	-5097
istered	-5098
▁escape	-5099
▁endpoint	-5100
Controller	-5101
(('	-5102
Lib	-5103
mas	-5104
reet	-5105
Could	-5106
▁until	-5107
original	-5108
▁Network	-5109
threshold	-5110
▁Template	-5111
placeholder	-5112
▁controller	-5113
)(	-5114
:-	-5115
cher	-5116
▁Code	-5117
covery	-5118
▁Tests	-5119
▁accept	-5120
strftime	-5121
ki	-5122
lue	-5123
ippe	-5124
▁put	-5125
▁Path	-5126
latest	-5127
▁append	-5128
pipeline	-5129
▁Windows	-5130
matically	-5131
▁generator	-5132
ks	-5133
ond	-5134
begin	-5135
targets	-5136
allclose	-5137
dispatch	-5138
▁directories	-5139
zz	-5140
)**	-5141
card	-5142
▁cat	-5143
VALID	-5144
:",	-5145
Delete	-5146
getattr	-5147
▁period	-5148
▁builtin	-5149
*(	-5150
MC	-5151
classi	-5152
▁System	-5153
handlers	-5154
▁neutron	-5155
permission	-5156
:',	-5157
tid	-5158
▁repr	-5159
atible	-5160
origin	-5161
▁amount	-5162
▁assign	-5163
metaclass	-5164
ru	-5165
▁da	-5166
tyle	-5167
Types	-5168
UPPORT	-5169
integer	-5170
Api	-5171
SHA	-5172
▁pid	-5173
Files	-5174
▁game	-5175
criptor	-5176
Interface	-5177
thumbnail	-5178
exe	-5179
gle	-5180
▁SE	-5181
▁ev	-5182
INTER	-5183
stone	-5184
▁pickle	-5185
pendency	-5186
▁included	-5187
▁timedelta	-5188
:"	-5189
java	-5190
▁---	-5191
figure	-5192
itation	-5193
]["	-5194
▁NE	-5195
hand	-5196
▁Cho	-5197
Helper	-5198
ENCE	-5199
dims	-5200
rive	-5201
laces	-5202
Schema	-5203
tables	-5204
▁Index	-5205
▁Multi	-5206
▁Author	-5207
▁Example	-5208
▁override	-5209
constraint	-5210
ULL	-5211
gpu	-5212
Common	-5213
members	-5214
▁encoded	-5215
moves	-5216
white	-5217
▁world	-5218
disable	-5219
▁problem	-5220
▁callable	-5221
RA	-5222
watch	-5223
Header	-5224
▁annot	-5225
strings	-5226
rr	-5227
teri	-5228
▁Les	-5229
linux	-5230
▁flask	-5231
ards	-5232
ENABLE	-5233
quences	-5234
Password	-5235
identifier	-5236
Bytes	-5237
▁many	-5238
DIRECT	-5239
▁Simple	-5240
▁Initial	-5241
▁structure	-5242
▁lon	-5243
Simple	-5244
.\	-5245
Jo	-5246
ORE	-5247
jor	-5248
LINE	-5249
URCE	-5250
logy	-5251
ribu	-5252
vaila	-5253
romium	-5254
▁additional	-5255
randint	-5256
versions	-5257
▁question	-5258
vailability	-5259
CAL	-5260
("--	-5261
▁dns	-5262
aging	-5263
▁zone	-5264
▁Client	-5265
▁Lesser	-5266
▁Number	-5267
▁tuples	-5268
aws	-5269
verter	-5270
▁reset	-5271
gramming	-5272
uplicate	-5273
▁schedule	-5274
eys	-5275
otor	-5276
▁uni	-5277
inger	-5278
reason	-5279
▁raised	-5280
ga	-5281
KEN	-5282
imer	-5283
pred	-5284
eries	-5285
party	-5286
perly	-5287
pixel	-5288
retri	-5289
speed	-5290
running	-5291
▁ignored	-5292
▁openerp	-5293
▁Argument	-5294
BA	-5295
▁Gra	-5296
unpack	-5297
ene	-5298
vey	-5299
▁Loc	-5300
neighb	-5301
strict	-5302
▁SCons	-5303
IBUTORS	-5304
▁-------	-5305
▁compare	-5306
▁samples	-5307
TextField	-5308
▁identifier	-5309
tv	-5310
loor	-5311
▁day	-5312
VIDED	-5313
MPLATE	-5314
scheme	-5315
Encoder	-5316
orizont	-5317
▁Remove	-5318
Descriptor	-5319
cn	-5320
px	-5321
(',	-5322
Cho	-5323
▁bi	-5324
Load	-5325
Rule	-5326
embed	-5327
pacity	-5328
▁cookie	-5329
▁IOError	-5330
▁desired	-5331
▁directly	-5332
▁patterns	-5333
▁filenames	-5334
Doc	-5335
▁Ro	-5336
itter	-5337
▁take	-5338
specific	-5339
▁indices	-5340
tor	-5341
▁"+	-5342
▁Any	-5343
calar	-5344
havior	-5345
reduce	-5346
instances	-5347
DU	-5348
MB	-5349
Num	-5350
▁'[	-5351
effect	-5352
▁cloud	-5353
▁sources	-5354
Job	-5355
ony	-5356
')))	-5357
voke	-5358
▁SQL	-5359
pient	-5360
laimer	-5361
cessary	-5362
patterns	-5363
▁hostname	-5364
Mis	-5365
alg	-5366
blue	-5367
grad	-5368
▁most	-5369
▁avoid	-5370
▁retry	-5371
▁Service	-5372
Del	-5373
▁%}	-5374
▁ok	-5375
etri	-5376
seek	-5377
allel	-5378
▁sleep	-5379
cipient	-5380
▁engine	-5381
relative	-5382
credentials	-5383
▁pur	-5384
Agent	-5385
Handle	-5386
Builder	-5387
Current	-5388
orizontal	-5389
ned	-5390
etail	-5391
▁There	-5392
Protocol	-5393
WIT	-5394
rypto	-5395
▁mime	-5396
▁least	-5397
compare	-5398
failure	-5399
▁scheme	-5400
LS	-5401
You	-5402
fact	-5403
▁own	-5404
▁suite	-5405
sources	-5406
▁copies	-5407
▁insert	-5408
▁unknown	-5409
struction	-5410
Off	-5411
eds	-5412
Http	-5413
Inte	-5414
▁lower	-5415
▁secret	-5416
warnings	-5417
condition	-5418
▁matching	-5419
ii	-5420
LIC	-5421
alf	-5422
uint	-5423
▁typ	-5424
urnal	-5425
▁book	-5426
catalog	-5427
▁Source	-5428
▁loader	-5429
▁dependencies	-5430
Pi	-5431
▁proc	-5432
▁disclaimer	-5433
▁La	-5434
▁tz	-5435
frames	-5436
▁attemp	-5437
INCLUDING	-5438
▁processing	-5439
rev	-5440
▁cy	-5441
▁jo	-5442
HTML	-5443
coord	-5444
▁tasks	-5445
predict	-5446
▁loaded	-5447
processor	-5448
gu	-5449
('_	-5450
▁cm	-5451
▁ts	-5452
+-+-	-5453
agic	-5454
isdir	-5455
▁{}".	-5456
choice	-5457
▁depth	-5458
▁urlparse	-5459
▁CONTRIBUTORS	-5460
=["	-5461
ILD	-5462
tit	-5463
Call	-5464
lent	-5465
▁Task	-5466
lendar	-5467
▁tearDown	-5468
gz	-5469
lem	-5470
ram	-5471
▁Cal	-5472
keras	-5473
docker	-5474
operation	-5475
AF	-5476
ysql	-5477
▁rel	-5478
▁vim	-5479
oston	-5480
Select	-5481
endpoint	-5482
parameter	-5483
SP	-5484
cv	-5485
'",	-5486
▁SM	-5487
dete	-5488
edges	-5489
panel	-5490
utdown	-5491
▁Model	-5492
▁marker	-5493
OM	-5494
cf	-5495
"][	-5496
bob	-5497
ategy	-5498
outer	-5499
▁freq	-5500
▁Input	-5501
▁DAMAGES	-5502
▁Optional	-5503
SU	-5504
aut	-5505
lev	-5506
sli	-5507
lier	-5508
▁box	-5509
▁inv	-5510
▁norm	-5511
▁bucket	-5512
▁symbol	-5513
Sp	-5514
iso	-5515
many	-5516
▁low	-5517
▁boto	-5518
▁know	-5519
ferred	-5520
findall	-5521
trigger	-5522
▁assume	-5523
copyright	-5524
▁versions	-5525
▁repository	-5526
gf	-5527
jar	-5528
Does	-5529
staff	-5530
▁TEST	-5531
▁prev	-5532
▁factor	-5533
▁series	-5534
▁boolean	-5535
structure	-5536
ef	-5537
logs	-5538
▁begin	-5539
▁shared	-5540
▁metavar	-5541
partition	-5542
Sc	-5543
kt	-5544
)')	-5545
Sum	-5546
bits	-5547
▁QtCore	-5548
▁reader	-5549
▁PROVIDED	-5550
▁corresponding	-5551
Pa	-5552
SY	-5553
Tab	-5554
mag	-5555
▁Is	-5556
▁USA	-5557
Produ	-5558
▁DATA	-5559
▁once	-5560
timezone	-5561
▁INCLUDING	-5562
Pol	-5563
same	-5564
Title	-5565
tester	-5566
addWidget	-5567
connected	-5568
NE	-5569
SG	-5570
spi	-5571
Post	-5572
ETHER	-5573
dimen	-5574
retry	-5575
▁sync	-5576
Params	-5577
assign	-5578
episode	-5579
refresh	-5580
▁virtual	-5581
▁validation	-5582
Rel	-5583
▁CH	-5584
▁Qgs	-5585
Writer	-5586
backup	-5587
▁inner	-5588
Optional	-5589
multiple	-5590
▁Content	-5591
▁CONTRACT	-5592
kip	-5593
▁Fe	-5594
Author	-5595
cancel	-5596
▁topic	-5597
scripts	-5598
▁Le	-5599
plan	-5600
▁yet	-5601
ISING	-5602
reams	-5603
priate	-5604
existing	-5605
override	-5606
▁Function	-5607
▁currently	-5608
]).	-5609
Inst	-5610
area	-5611
ient	-5612
istic	-5613
PREFIX	-5614
review	-5615
should	-5616
TypeError	-5617
▁interval	-5618
FG	-5619
BACK	-5620
MPLE	-5621
▁big	-5622
Order	-5623
caten	-5624
today	-5625
▁turn	-5626
▁SHALL	-5627
monitor	-5628
▁LIABLE	-5629
▁locale	-5630
▁summary	-5631
dashboard	-5632
▁~	-5633
gres	-5634
▁And	-5635
atter	-5636
▁cert	-5637
▁speed	-5638
forward	-5639
unknown	-5640
▁WHETHER	-5641
UTE	-5642
``.	-5643
▁edge	-5644
▁works	-5645
Display	-5646
matches	-5647
strument	-5648
▁sklearn	-5649
')(	-5650
Var	-5651
▁CA	-5652
asset	-5653
▁Output	-5654
▁ARISING	-5655
▁special	-5656
▁trigger	-5657
Permission	-5658
gl	-5659
wb	-5660
Cal	-5661
ffff	-5662
▁HAS	-5663
stdin	-5664
▁cases	-5665
▁click	-5666
▁rules	-5667
disabled	-5668
▁browser	-5669
▁maximum	-5670
-------------	-5671
TC	-5672
VB	-5673
jpg	-5674
SCHE	-5675
vlan	-5676
REGEX	-5677
dence	-5678
▁scra	-5679
Unless	-5680
ctools	-5681
submit	-5682
activate	-5683
dividual	-5684
getvalue	-5685
#############	-5686
PU	-5687
Speci	-5688
rowse	-5689
linear	-5690
▁those	-5691
deleted	-5692
▁formats	-5693
selection	-5694
'%	-5695
AV	-5696
tt	-5697
Struct	-5698
xtures	-5699
▁WHERE	-5700
quality	-5701
▁identi	-5702
agicMock	-5703
▁EXPRESS	-5704
▁ps	-5705
IBLE	-5706
LOCK	-5707
iling	-5708
▁HOLD	-5709
Unknown	-5710
▁stored	-5711
PASSWORD	-5712
TS	-5713
(?:	-5714
([^	-5715
▁RO	-5716
enum	-5717
▁Cor	-5718
radius	-5719
contact	-5720
threads	-5721
▁decimal	-5722
Description	-5723
dm	-5724
)")	-5725
Unit	-5726
slice	-5727
xpath	-5728
prompt	-5729
▁Speci	-5730
Account	-5731
jection	-5732
▁tables	-5733
Sequence	-5734
identity	-5735
subscription	-5736
APIT	-5737
tenv	-5738
Required	-5739
▁TestCase	-5740
Basic	-5741
ality	-5742
mongo	-5743
▁shown	-5744
website	-5745
processors	-5746
▁deprecated	-5747
.*?	-5748
xxxx	-5749
▁sli	-5750
rstrip	-5751
▁means	-5752
projects	-5753
▁authentication	-5754
"},	-5755
ipv	-5756
▁()	-5757
WISE	-5758
vely	-5759
TOKEN	-5760
urity	-5761
▁seed	-5762
Matrix	-5763
records	-5764
setText	-5765
▁subnet	-5766
▁worker	-5767
▁provide	-5768
▁student	-5769
▁timezone	-5770
▁OTHERWISE	-5771
▁sqlalchemy	-5772
CD	-5773
rst	-5774
Style	-5775
unnel	-5776
▁TORT	-5777
curacy	-5778
▁Boston	-5779
Directory	-5780
▁appropriate	-5781
BB	-5782
ko	-5783
URN	-5784
dns	-5785
▁PL	-5786
Book	-5787
▁cpu	-5788
▁regular	-5789
ENG	-5790
pie	-5791
CODE	-5792
chor	-5793
dummy	-5794
▁imple	-5795
▁partial	-5796
dp	-5797
Mon	-5798
uess	-5799
merge	-5800
▁answ	-5801
▁checks	-5802
destination	-5803
>[	-5804
▁cc	-5805
COUN	-5806
ells	-5807
▁DEBUG	-5808
▁pairs	-5809
▁define	-5810
▁OSError	-5811
setdefault	-5812
▁Redistributions	-5813
zilla	-5814
Driver	-5815
▁expand	-5816
bile	-5817
▁bug	-5818
▁flat	-5819
agraph	-5820
▁month	-5821
▁shift	-5822
oration	-5823
Metadata	-5824
▁aliases	-5825
Net	-5826
CESS	-5827
Exit	-5828
▁sec	-5829
fixed	-5830
▁NOTE	-5831
double	-5832
▁still	-5833
===	-5834
▁rot	-5835
__.__	-5836
analy	-5837
named	-5838
gative	-5839
cursive	-5840
▁center	-5841
entities	-5842
training	-5843
▁against	-5844
▁numbers	-5845
▁threads	-5846
▁Permission	-5847
LIB	-5848
eff	-5849
vec	-5850
▁atom	-5851
▁best	-5852
▁{}'.	-5853
Sensor	-5854
▁These	-5855
▁ctypes	-5856
dec	-5857
reo	-5858
tar	-5859
▁BY	-5860
▁eval	-5861
Volume	-5862
dicate	-5863
partial	-5864
▁sparse	-5865
Location	-5866
▁hashlib	-5867
dr	-5868
Bad	-5869
ITS	-5870
odb	-5871
▁'"	-5872
zure	-5873
▁ssl	-5874
▁well	-5875
Detail	-5876
setter	-5877
▁saved	-5878
preview	-5879
sistent	-5880
▁during	-5881
makedirs	-5882
▁execution	-5883
▁TensorFlow	-5884
▁automatically	-5885
inja	-5886
opro	-5887
▁Load	-5888
▁prop	-5889
▁creating	-5890
▁operator	-5891
▁provides	-5892
}\	-5893
DIS	-5894
plus	-5895
rase	-5896
rozen	-5897
▁axes	-5898
tivity	-5899
▁SMALL	-5900
REQUEST	-5901
configure	-5902
▁progress	-5903
Programming	-5904
:/	-5905
ev	-5906
VEL	-5907
sin	-5908
▁Over	-5909
▁curr	-5910
▁power	-5911
limiter	-5912
▁listen	-5913
Abstract	-5914
▁builder	-5915
transport	-5916
BE	-5917
ana	-5918
csrf	-5919
▁Tra	-5920
paces	-5921
ysical	-5922
DoesNot	-5923
▁attach	-5924
▁deploy	-5925
Sy	-5926
ras	-5927
▁<<	-5928
peat	-5929
Local	-5930
▁origin	-5931
▁representing	-5932
{{	-5933
DAT	-5934
lazy	-5935
audio	-5936
cells	-5937
loyee	-5938
▁bits	-5939
SERVER	-5940
notify	-5941
▁predi	-5942
Changed	-5943
changes	-5944
problem	-5945
virtual	-5946
]{	-5947
ENS	-5948
inv	-5949
peak	-5950
▁pad	-5951
Width	-5952
paper	-5953
▁GPIO	-5954
▁urls	-5955
ussian	-5956
▁allows	-5957
=============	-5958
APP	-5959
dal	-5960
trl	-5961
coin	-5962
▁''.	-5963
Popen	-5964
▁""")	-5965
bosity	-5966
▁steps	-5967
TIMEOUT	-5968
gateway	-5969
▁codecs	-5970
contains	-5971
▁deleted	-5972
▁addresses	-5973
IF	-5974
COM	-5975
▁nx	-5976
▁Can	-5977
inary	-5978
ornado	-5979
▁something	-5980
lb	-5981
acc	-5982
ital	-5983
lies	-5984
endor	-5985
parti	-5986
▁addr	-5987
arison	-5988
▁chainer	-5989
▁initialize	-5990
▁implemented	-5991
bum	-5992
ited	-5993
editor	-5994
graphy	-5995
▁backup	-5996
workflow	-5997
"\	-5998
Ph	-5999
pw	-6000
Args	-6001
▁Work	-6002
sorted	-6003
encoded	-6004
▁condition	-6005
SUB	-6006
▁#:	-6007
Main	-6008
ever	-6009
figs	-6010
walk	-6011
ified	-6012
separ	-6013
resolver	-6014
serializer	-6015
▁ValidationError	-6016
Mac	-6017
wri	-6018
▁FL	-6019
__))	-6020
▁Com	-6021
▁MAX	-6022
Folder	-6023
▁might	-6024
▁owner	-6025
allowed	-6026
sitions	-6027
DoesNotExist	-6028
Show	-6029
▁Sup	-6030
▁STAT	-6031
follow	-6032
pendent	-6033
▁children	-6034
notification	-6035
)+	-6036
./	-6037
OFF	-6038
PES	-6039
Pos	-6040
TeX	-6041
▁'(	-6042
Font	-6043
sftp	-6044
▁acc	-6045
person	-6046
Cor	-6047
▁mi	-6048
Over	-6049
scra	-6050
▁hex	-6051
ected	-6052
green	-6053
ratio	-6054
ECTION	-6055
Values	-6056
ateway	-6057
Database	-6058
▁benchmark	-6059
CM	-6060
bib	-6061
Last	-6062
Only	-6063
codes	-6064
▁drop	-6065
onical	-6066
checksum	-6067
consumer	-6068
cker	-6069
▁MIT	-6070
EMAIL	-6071
▁examples	-6072
SR	-6073
=_("	-6074
▁nor	-6075
Enabled	-6076
▁COPYING	-6077
wt	-6078
Grid	-6079
Root	-6080
ands	-6081
eded	-6082
▁One	-6083
CUMENT	-6084
counts	-6085
methods	-6086
▁happen	-6087
ordering	-6088
▁necessary	-6089
DER	-6090
Wor	-6091
sel	-6092
▁UN	-6093
▁fs	-6094
▁cwd	-6095
gamma	-6096
canvas	-6097
▁remain	-6098
Position	-6099
▁relation	-6100
▁distutils	-6101
ceive	-6102
Extension	-6103
>')	-6104
Bit	-6105
Step	-6106
mous	-6107
tics	-6108
allen	-6109
chase	-6110
▁cached	-6111
▁itertools	-6112
▁responses	-6113
hr	-6114
bro	-6115
▁DI	-6116
desk	-6117
▁mar	-6118
COLOR	-6119
herit	-6120
article	-6121
rontend	-6122
uniform	-6123
▁writer	-6124
▁Resource	-6125
interfaces	-6126
▁correctly	-6127
▁leg	-6128
▁yaml	-6129
received	-6130
dependencies	-6131
▁tb	-6132
demo	-6133
Clean	-6134
witch	-6135
ATFORM	-6136
dialog	-6137
▁hosts	-6138
builtin	-6139
▁Process	-6140
▁twisted	-6141
▁updates	-6142
servation	-6143
▁certificate	-6144
▁representation	-6145
rgb	-6146
▁tm	-6147
▁Inte	-6148
▁embed	-6149
▁future	-6150
customer	-6151
▁revision	-6152
LC	-6153
LIN	-6154
stit	-6155
▁Ext	-6156
diffe	-6157
APITAL	-6158
define	-6159
ensure	-6160
reater	-6161
▁stuff	-6162
▁runner	-6163
▁compile	-6164
▁direction	-6165
▁cp	-6166
ared	-6167
best	-6168
▁'{}	-6169
▁rev	-6170
▁vtk	-6171
itude	-6172
mtree	-6173
quick	-6174
theta	-6175
Runner	-6176
health	-6177
Feature	-6178
StringIO	-6179
▁inspect	-6180
▁machine	-6181
▁setuptools	-6182
YY	-6183
eep	-6184
Keys	-6185
▁Max	-6186
▁argv	-6187
colors	-6188
▁known	-6189
▁Manage	-6190
▁inside	-6191
readline	-6192
direction	-6193
▁gradient	-6194
nor	-6195
▁Ab	-6196
ENTI	-6197
chan	-6198
andas	-6199
cleanup	-6200
mediate	-6201
▁Unicode	-6202
▁calling	-6203
▁metrics	-6204
ka	-6205
cha	-6206
more	-6207
▁Comm	-6208
▁They	-6209
▁quot	-6210
parame	-6211
▁CAPITAL	-6212
ification	-6213
▁manifest	-6214
isinstance	-6215
environment	-6216
tifications	-6217
nc	-6218
sr	-6219
="%	-6220
ONG	-6221
UTF	-6222
etc	-6223
ino	-6224
sci	-6225
LANG	-6226
REAM	-6227
ygon	-6228
plain	-6229
▁nose	-6230
SCHEMA	-6231
sender	-6232
▁asset	-6233
▁delay	-6234
▁proto	-6235
▁Message	-6236
community	-6237
▁requested	-6238
mg	-6239
(""	-6240
]',	-6241
edi	-6242
vtk	-6243
"}),	-6244
Stop	-6245
stage	-6246
Timeout	-6247
▁console	-6248
_.	-6249
GRO	-6250
▁"#	-6251
▁"(	-6252
▁HO	-6253
prev	-6254
▁dot	-6255
▁pip	-6256
Unable	-6257
lineno	-6258
▁built	-6259
▁etree	-6260
▁latest	-6261
Generator	-6262
▁Generate	-6263
▁security	-6264
Ali	-6265
irc	-6266
Left	-6267
impl	-6268
QtGui	-6269
▁board	-6270
bsocket	-6271
algorithm	-6272
Identifier	-6273
!")	-6274
edx	-6275
ptr	-6276
AAAA	-6277
ARCH	-6278
Hash	-6279
axes	-6280
▁"")	-6281
▁'/'	-6282
('/')	-6283
▁Fake	-6284
icrosoft	-6285
[(	-6286
IES	-6287
Panel	-6288
vance	-6289
▁align	-6290
percent	-6291
▁Server	-6292
▁HOLDERS	-6293
cid	-6294
circ	-6295
clar	-6296
▁dia	-6297
posed	-6298
▁Find	-6299
▁layout	-6300
enticate	-6301
)?	-6302
TF	-6303
▁bal	-6304
▁geo	-6305
▁slug	-6306
▁vars	-6307
energy	-6308
formed	-6309
usters	-6310
##############	-6311
LY	-6312
$",	-6313
***	-6314
ook	-6315
tot	-6316
▁Sy	-6317
roles	-6318
▁sock	-6319
Channel	-6320
▁calcul	-6321
atibility	-6322
▁segments	-6323
▁starting	-6324
xs	-6325
:")	-6326
▁fo	-6327
CIAL	-6328
▁Sta	-6329
▁hour	-6330
▁vals	-6331
Active	-6332
Import	-6333
Remove	-6334
digits	-6335
itions	-6336
manual	-6337
titude	-6338
Package	-6339
ndarray	-6340
onymous	-6341
________	-6342
compress	-6343
Reference	-6344
▁material	-6345
▁executable	-6346
▁contributors	-6347
dl	-6348
({"	-6349
▁met	-6350
Utils	-6351
▁PyQt	-6352
▁appe	-6353
▁takes	-6354
machine	-6355
itespace	-6356
▁learning	-6357
ffe	-6358
ini	-6359
='',	-6360
lick	-6361
nick	-6362
ocab	-6363
▁Red	-6364
acter	-6365
reply	-6366
ridge	-6367
▁Only	-6368
chrome	-6369
letter	-6370
▁fixed	-6371
WARNING	-6372
prepare	-6373
▁decorator	-6374
tm	-6375
']]	-6376
KER	-6377
bus	-6378
(_('	-6379
ANCE	-6380
LIST	-6381
atar	-6382
ffic	-6383
inux	-6384
logo	-6385
alloc	-6386
djang	-6387
pider	-6388
▁sets	-6389
Sample	-6390
▁dummy	-6391
listdir	-6392
▁please	-6393
istogram	-6394
shortcut	-6395
▁various	-6396
▁optparse	-6397
temperature	-6398
IZ	-6399
QA	-6400
AIN	-6401
esh	-6402
ront	-6403
▁gtk	-6404
▁Dict	-6405
▁good	-6406
selector	-6407
▁episode	-6408
▁creation	-6409
▁interpre	-6410
▁functools	-6411
XY	-6412
rupt	-6413
MPLES	-6414
SIBLE	-6415
▁enum	-6416
native	-6417
Unicode	-6418
▁padding	-6419
▁actually	-6420
▁dispatch	-6421
executable	-6422
mgr	-6423
▁nb	-6424
Mark	-6425
king	-6426
VICES	-6427
▁term	-6428
regular	-6429
ATCH	-6430
cipe	-6431
aemon	-6432
ToMany	-6433
dy	-6434
too	-6435
isco	-6436
trols	-6437
▁simp	-6438
experiment	-6439
aps	-6440
siz	-6441
izes	-6442
prog	-6443
▁sym	-6444
▁tar	-6445
prote	-6446
▁POST	-6447
▁round	-6448
lencode	-6449
comments	-6450
Workspace	-6451
▁explicit	-6452
Collection	-6453
migrations	-6454
splitlines	-6455
/.	-6456
dem	-6457
mime	-6458
▁made	-6459
STATUS	-6460
actual	-6461
▁wrong	-6462
ractive	-6463
▁environ	-6464
▁finished	-6465
)}	-6466
Go	-6467
Tri	-6468
▁ll	-6469
▁quo	-6470
black	-6471
digit	-6472
house	-6473
STREAM	-6474
getenv	-6475
UREMENT	-6476
together	-6477
▁nothing	-6478
expression	-6479
certificate	-6480
▁notification	-6481
)-	-6482
arn	-6483
▁).	-6484
Wait	-6485
sink	-6486
▁Cur	-6487
closed	-6488
▁clock	-6489
special	-6490
▁nested	-6491
floating	-6492
mutation	-6493
oproject	-6494
▁SUPPORT	-6495
Formatter	-6496
hat	-6497
mesh	-6498
▁Page	-6499
Socket	-6500
scores	-6501
▁State	-6502
examples	-6503
▁translation	-6504
_)	-6505
fb	-6506
=('	-6507
ARD	-6508
squ	-6509
▁(@	-6510
▁ord	-6511
alias	-6512
imate	-6513
browse	-6514
▁Write	-6515
▁answer	-6516
assertIsInstance	-6517
OB	-6518
bulk	-6519
inity	-6520
ective	-6521
imation	-6522
invoice	-6523
▁Delete	-6524
activity	-6525
▁retrieve	-6526
background	-6527
▁es	-6528
ATED	-6529
guest	-6530
licies	-6531
▁large	-6532
▁lists	-6533
▁prior	-6534
▁partic	-6535
aaaaaaaa	-6536
▁records	-6537
▁working	-6538
assertAllEqual	-6539
dx	-6540
ln	-6541
bre	-6542
ADATA	-6543
▁gran	-6544
tended	-6545
Backend	-6546
bilities	-6547
▁pipeline	-6548
▁components	-6549
PH	-6550
▁ui	-6551
__(*	-6552
maps	-6553
▁DIS	-6554
▁New	-6555
marks	-6556
▁beta	-6557
STRING	-6558
▁Parse	-6559
▁ACTION	-6560
▁Custom	-6561
Redirect	-6562
deredDict	-6563
operations	-6564
djangoproject	-6565
GS	-6566
idi	-6567
lid	-6568
FIEL	-6569
▁uri	-6570
START	-6571
Total	-6572
▁NULL	-6573
▁ones	-6574
queryset	-6575
▁fixture	-6576
(':	-6577
ian	-6578
spy	-6579
samp	-6580
alert	-6581
lopen	-6582
riteri	-6583
▁Start	-6584
fragment	-6585
sibility	-6586
▁DOCUMENT	-6587
▁subclass	-6588
descriptor	-6589
fft	-6590
tol	-6591
blob	-6592
spli	-6593
▁'':	-6594
▁STR	-6595
▁cla	-6596
mkdir	-6597
Record	-6598
▁Inter	-6599
AI	-6600
_{	-6601
▁gc	-6602
Part	-6603
cogn	-6604
poll	-6605
tice	-6606
when	-6607
Timer	-6608
grams	-6609
hyper	-6610
strap	-6611
timer	-6612
▁apps	-6613
AMPLES	-6614
TTINGS	-6615
urllib	-6616
▁quote	-6617
▁today	-6618
em	-6619
har	-6620
▁AL	-6621
sist	-6622
▁Lib	-6623
Print	-6624
Regex	-6625
based	-6626
oring	-6627
attrib	-6628
▁Class	-6629
▁FLAGS	-6630
▁Other	-6631
▁evalu	-6632
▁tools	-6633
Initialize	-6634
fh	-6635
cio	-6636
eng	-6637
jax	-6638
▁MO	-6639
▁am	-6640
Send	-6641
BUILD	-6642
▁exact	-6643
▁itself	-6644
▁connections	-6645
fee	-6646
xyz	-6647
▁Fl	-6648
clip	-6649
▁Don	-6650
appro	-6651
▁vlan	-6652
social	-6653
allenge	-6654
cleaned	-6655
▁Verify	-6656
accounts	-6657
>=	-6658
Raw	-6659
COMM	-6660
Make	-6661
defs	-6662
chars	-6663
▁Item	-6664
▁docs	-6665
▁scan	-6666
utcnow	-6667
raction	-6668
▁Raises	-6669
▁raises	-6670
▁country	-6671
▁configure	-6672
▁selection	-6673
LD	-6674
PP	-6675
▁Su	-6676
iven	-6677
sale	-6678
QtCore	-6679
▁figure	-6680
▁states	-6681
▁Integer	-6682
Migration	-6683
estimator	-6684
ua	-6685
UND	-6686
VAR	-6687
ban	-6688
lec	-6689
rum	-6690
▁Ga	-6691
Attr	-6692
Fake	-6693
Named	-6694
world	-6695
▁Post	-6696
combin	-6697
▁reading	-6698
▁webpage	-6699
signature	-6700
management	-6701
▁basestring	-6702
Configuration	-6703
CUR	-6704
ips	-6705
▁'*	-6706
Series	-6707
▁appen	-6708
▁route	-6709
▁reduce	-6710
catenate	-6711
operator	-6712
▁monitor	-6713
▁Database	-6714
▁DOCUMENTATION	-6715
oom	-6716
FILES	-6717
tract	-6718
▁hard	-6719
raries	-6720
▁coord	-6721
OPTIONS	-6722
▁sender	-6723
▁entities	-6724
▁normalize	-6725
BY	-6726
IV	-6727
za	-6728
▁js	-6729
CONN	-6730
iver	-6731
inspect	-6732
FileName	-6733
benchmark	-6734
efficient	-6735
▁overwrite	-6736
▁threshold	-6737
,%	-6738
ek	-6739
mes	-6740
clock	-6741
Append	-6742
▁hidden	-6743
........	-6744
▁wrapped	-6745
▁configured	-6746
EV	-6747
ced	-6748
php	-6749
▁XXX	-6750
izard	-6751
cepted	-6752
frappe	-6753
inline	-6754
ipping	-6755
Decimal	-6756
boolean	-6757
▁pixels	-6758
▁parsing	-6759
precation	-6760
▁determine	-6761
bd	-6762
ama	-6763
tax	-6764
▁Cl	-6765
Bind	-6766
Icon	-6767
lour	-6768
uous	-6769
▁isn	-6770
Debug	-6771
TYPES	-6772
Topic	-6773
pairs	-6774
▁jobs	-6775
nested	-6776
parsed	-6777
encoder	-6778
tempdir	-6779
previous	-6780
responses	-6781
▁channels	-6782
ctl	-6783
pot	-6784
HOME	-6785
fast	-6786
▁Auto	-6787
credit	-6788
epcopy	-6789
▁Table	-6790
▁docker	-6791
priority	-6792
segments	-6793
categories	-6794
CF	-6795
RPC	-6796
▁#*	-6797
▁nd	-6798
band	-6799
tabs	-6800
Hello	-6801
▁oslo	-6802
▁scen	-6803
▁team	-6804
measure	-6805
pending	-6806
▁restri	-6807
compiler	-6808
▁cleanup	-6809
'+	-6810
ASK	-6811
Sim	-6812
▁mu	-6813
▁xb	-6814
aper	-6815
Delta	-6816
atype	-6817
cases	-6818
uffle	-6819
secure	-6820
▁forward	-6821
mentation	-6822
▁calculate	-6823
WR	-6824
rd	-6825
"})	-6826
Ter	-6827
edu	-6828
▁fh	-6829
__),	-6830
sses	-6831
▁Bit	-6832
ARGET	-6833
Comple	-6834
Global	-6835
marker	-6836
Comment	-6837
entropy	-6838
TEMPLATE	-6839
▁actions	-6840
▁serialize	-6841
LF	-6842
pd	-6843
')])	-6844
Json	-6845
oser	-6846
▁"{}	-6847
CRIPT	-6848
mited	-6849
sigma	-6850
Cannot	-6851
former	-6852
▁Basic	-6853
▁Field	-6854
destroy	-6855
geometry	-6856
▁measure	-6857
▁segment	-6858
Transform	-6859
▁products	-6860
pabilities	-6861
▁modification	-6862
ArgumentParser	-6863
EA	-6864
:`~	-6865
={}	-6866
bra	-6867
egg	-6868
star	-6869
▁Pri	-6870
sites	-6871
stand	-6872
▁supp	-6873
ternet	-6874
▁notes	-6875
▁watch	-6876
▁around	-6877
relationship	-6878
NN	-6879
Def	-6880
gpl	-6881
▁ms	-6882
▁rv	-6883
INST	-6884
peer	-6885
▁SUB	-6886
titles	-6887
ascript	-6888
parsers	-6889
▁priority	-6890
ingerprint	-6891
▁according	-6892
/<	-6893
LOAD	-6894
▁due	-6895
▁tor	-6896
('.')	-6897
share	-6898
until	-6899
▁maps	-6900
sqlite	-6901
tifact	-6902
▁Please	-6903
▁border	-6904
sessions	-6905
▁generic	-6906
▁EXAMPLES	-6907
={"	-6908
CLI	-6909
baz	-6910
▁er	-6911
']",	-6912
room	-6913
CACHE	-6914
Suite	-6915
▁Some	-6916
']"}),	-6917
▁minim	-6918
etrieve	-6919
▁individual	-6920
contenttypes	-6921
!"	-6922
RY	-6923
vc	-6924
▁IF	-6925
▁Jo	-6926
MESS	-6927
illi	-6928
lists	-6929
▁hook	-6930
coords	-6931
topics	-6932
▁cause	-6933
▁upper	-6934
evaluate	-6935
registration	-6936
▁requirements	-6937
ivy	-6938
Find	-6939
deli	-6940
▁Form	-6941
▁Line	-6942
Buffer	-6943
mations	-6944
▁bottom	-6945
ni	-6946
echo	-6947
rypy	-6948
▁push	-6949
▁Query	-6950
▁direc	-6951
▁colors	-6952
▁behavior	-6953
ToManyField	-6954
SC	-6955
Cmd	-6956
▁Sp	-6957
CHEC	-6958
▁rpc	-6959
▁cost	-6960
HEADER	-6961
▁LaTeX	-6962
▁background	-6963
assertAllClose	-6964
DD	-6965
nf	-6966
}]	-6967
▁SO	-6968
Modi	-6969
TEXT	-6970
atal	-6971
refs	-6972
answer	-6973
produce	-6974
▁prompt	-6975
▁candidate	-6976
[\	-6977
IVE	-6978
▁Fa	-6979
▁mc	-6980
▁}}	-6981
cion	-6982
disc	-6983
sidu	-6984
{}'.	-6985
▁SPE	-6986
▁car	-6987
▁txt	-6988
▁rank	-6989
Please	-6990
outine	-6991
▁latex	-6992
▁sympy	-6993
Connect	-6994
Results	-6995
printer	-6996
without	-6997
avascript	-6998
inventory	-6999
▁Examples	-7000
▁dimension	-7001
+?	-7002
^^	-7003
Win	-7004
fox	-7005
uit	-7006
('',	-7007
hint	-7008
slot	-7009
▁pin	-7010
▁red	-7011
isual	-7012
▁Link	-7013
getcwd	-7014
▁epoch	-7015
getitem	-7016
osition	-7017
▁DOMAIN	-7018
▁Status	-7019
velopers	-7020
▁Element	-7021
▁factory	-7022
traceback	-7023
Processing	-7024
"%	-7025
MES	-7026
▁edi	-7027
rides	-7028
▁NOQA	-7029
▁none	-7030
▁trace	-7031
ginator	-7032
widgets	-7033
▁queryset	-7034
EP	-7035
[:]	-7036
lar	-7037
sto	-7038
ypo	-7039
▁OP	-7040
uman	-7041
▁fmt	-7042
▁face	-7043
▁less	-7044
▁Admin	-7045
▁Email	-7046
Component	-7047
normalize	-7048
▁services	-7049
Dec	-7050
pur	-7051
vim	-7052
Body	-7053
week	-7054
▁Also	-7055
scalar	-7056
android	-7057
▁better	-7058
▁frames	-7059
Expected	-7060
▁imports	-7061
▁partner	-7062
initializer	-7063
/\	-7064
IA	-7065
▁How	-7066
().__	-7067
GROUP	-7068
atory	-7069
quiva	-7070
▁deal	-7071
▁wave	-7072
Almost	-7073
assets	-7074
▁Cloud	-7075
▁occurred	-7076
compatible	-7077
decorators	-7078
VM	-7079
``,	-7080
phi	-7081
▁['_	-7082
▁ssh	-7083
addon	-7084
▁Oper	-7085
▁audio	-7086
▁cover	-7087
Missing	-7088
tistics	-7089
▁Search	-7090
▁counts	-7091
▁Session	-7092
▁dialect	-7093
▁helpers	-7094
Extractor	-7095
timedelta	-7096
AlmostEqual	-7097
GIN	-7098
▁'+	-7099
▁ser	-7100
inner	-7101
▁Change	-7102
▁dimensions	-7103
vl	-7104
REF	-7105
▁"[	-7106
Feed	-7107
SITE	-7108
lash	-7109
▁bro	-7110
SECRE	-7111
certs	-7112
props	-7113
▁Sign	-7114
▁rect	-7115
Normal	-7116
orical	-7117
unicate	-7118
readlines	-7119
▁fragment	-7120
▁middleware	-7121
(.	-7122
▁#'	-7123
CHAR	-7124
LETE	-7125
tour	-7126
▁seen	-7127
SECRET	-7128
moving	-7129
coordin	-7130
▁double	-7131
▁website	-7132
enticated	-7133
definition	-7134
([(	-7135
RGB	-7136
▁av	-7137
Arch	-7138
inel	-7139
▁por	-7140
Defin	-7141
atoms	-7142
stick	-7143
stics	-7144
coming	-7145
▁fails	-7146
▁hyper	-7147
▁arrays	-7148
▁complex	-7149
▁Connection	-7150
Pe	-7151
Cell	-7152
must	-7153
such	-7154
wave	-7155
metry	-7156
olved	-7157
strib	-7158
Random	-7159
Verify	-7160
rating	-7161
volumes	-7162
Filename	-7163
ressions	-7164
▁reactor	-7165
Use	-7166
lst	-7167
▁ec	-7168
onal	-7169
tage	-7170
Cursor	-7171
Player	-7172
Success	-7173
METADATA	-7174
▁Invenio	-7175
▁average	-7176
▁derived	-7177
attachment	-7178
=='	-7179
ASH	-7180
SPE	-7181
▁SU	-7182
Iter	-7183
diag	-7184
misc	-7185
▁END	-7186
▁dim	-7187
▁rec	-7188
Bound	-7189
Nodes	-7190
ENTIAL	-7191
▁light	-7192
▁sigma	-7193
variant	-7194
Language	-7195
SETTINGS	-7196
▁company	-7197
Operation	-7198
structions	-7199
abstractmethod	-7200
mq	-7201
nr	-7202
AIL	-7203
IRE	-7204
olds	-7205
▁"{{	-7206
▁Des	-7207
blems	-7208
oucher	-7209
rmtree	-7210
unused	-7211
▁descri	-7212
▁solution	-7213
▁discovery	-7214
▁temporary	-7215
Li	-7216
moo	-7217
rit	-7218
=[],	-7219
adow	-7220
lave	-7221
umul	-7222
aving	-7223
ident	-7224
terms	-7225
Custom	-7226
urther	-7227
▁contact	-7228
▁granted	-7229
▁compiler	-7230
▁filepath	-7231
deprecated	-7232
ManyToManyField	-7233
{%	-7234
();	-7235
TIF	-7236
YPE	-7237
hed	-7238
▁*=	-7239
▁ES	-7240
▁HE	-7241
Init	-7242
USED	-7243
cele	-7244
oked	-7245
▁RET	-7246
▁Pack	-7247
▁dirs	-7248
resolve	-7249
▁retain	-7250
latforms	-7251
▁ANSIBLE	-7252
▁permitted	-7253
▁registered	-7254
distribution	-7255
}:	-7256
"',	-7257
Mod	-7258
ism	-7259
rea	-7260
curr	-7261
lify	-7262
▁FIX	-7263
▁did	-7264
Param	-7265
▁Each	-7266
▁plan	-7267
average	-7268
clusive	-7269
▁Select	-7270
▁instal	-7271
▁review	-7272
MY	-7273
{'	-7274
('#	-7275
ios	-7276
pus	-7277
▁PY	-7278
▁pg	-7279
Mask	-7280
▁orm	-7281
movie	-7282
cluded	-7283
▁gamma	-7284
▁pretty	-7285
Download	-7286
▁registry	-7287
▁separate	-7288
▁converted	-7289
Site	-7290
proj	-7291
EVENT	-7292
visor	-7293
uation	-7294
▁phase	-7295
▁slice	-7296
▁Choreo	-7297
▁started	-7298
installed	-7299
scheduler	-7300
▁conversion	-7301
VEN	-7302
▁VM	-7303
▁cb	-7304
WORK	-7305
elem	-7306
▁Str	-7307
phone	-7308
quiet	-7309
tices	-7310
yncio	-7311
Person	-7312
▁movie	-7313
globals	-7314
▁bounds	-7315
▁pprint	-7316
fixtures	-7317
▁minimum	-7318
ertificate	-7319
failUnless	-7320
▁languages	-7321
sertionError	-7322
Wh	-7323
afe	-7324
TERN	-7325
calc	-7326
deps	-7327
▁Exp	-7328
▁PRE	-7329
▁lat	-7330
Screen	-7331
launch	-7332
▁stdin	-7333
▁webob	-7334
learning	-7335
▁indexes	-7336
▁iteration	-7337
CID	-7338
Opt	-7339
ags	-7340
cce	-7341
fam	-7342
sca	-7343
▁":	-7344
▁':	-7345
ADDR	-7346
recv	-7347
▁Tag	-7348
Items	-7349
simul	-7350
▁fire	-7351
▁prin	-7352
▁very	-7353
orizon	-7354
ENABLED	-7355
authors	-7356
vertical	-7357
Condition	-7358
increment	-7359
assertIsNone	-7360
GPL	-7361
▁Map	-7362
▁[{'	-7363
▁ask	-7364
▁enc	-7365
▁give	-7366
checks	-7367
mapper	-7368
keywords	-7369
▁printer	-7370
▁similar	-7371
▁Distribu	-7372
▁anything	-7373
▁assigned	-7374
nl	-7375
▁'?	-7376
ably	-7377
stan	-7378
Allow	-7379
which	-7380
▁DEVICE	-7381
▁pandas	-7382
▁disabled	-7383
▁Configuration	-7384
fu	-7385
("<	-7386
CLA	-7387
att	-7388
tis	-7389
FFFF	-7390
WITH	-7391
cons	-7392
▁Sec	-7393
▁dirname	-7394
▁members	-7395
▁outfile	-7396
▁retries	-7397
setObject	-7398
▁ordering	-7399
▁IndexError	-7400
▁particular	-7401
▁OrderedDict	-7402
>,	-7403
Pick	-7404
stock	-7405
▁CONN	-7406
▁Block	-7407
▁Queue	-7408
Windows	-7409
Identity	-7410
callable	-7411
networks	-7412
quivalent	-7413
▁Variable	-7414
▁serializer	-7415
]'	-7416
Imp	-7417
inc	-7418
zon	-7419
▁tt	-7420
Util	-7421
snap	-7422
MODEL	-7423
dating	-7424
intain	-7425
phrase	-7426
▁Local	-7427
▁lineno	-7428
/(	-7429
>",	-7430
ifi	-7431
()).	-7432
hide	-7433
tick	-7434
vault	-7435
Member	-7436
pickle	-7437
▁Place	-7438
▁Method	-7439
terminal	-7440
▁AUTHORS	-7441
▁matched	-7442
dependent	-7443
frequency	-7444
▁consumer	-7445
setObjectName	-7446
LAN	-7447
▁mut	-7448
Enter	-7449
POINT	-7450
arest	-7451
dense	-7452
plier	-7453
rigin	-7454
urses	-7455
antity	-7456
▁cross	-7457
▁defer	-7458
finished	-7459
▁keywords	-7460
▁Environment	-7461
▁Documentation	-7462
>.	-7463
YX	-7464
bc	-7465
['_	-7466
xis	-7467
ADBA	-7468
good	-7469
predi	-7470
under	-7471
▁tile	-7472
tility	-7473
Mapping	-7474
▁everything	-7475
organization	-7476
]}	-7477
lh	-7478
nx	-7479
ARM	-7480
▁(_	-7481
▁ri	-7482
DULE	-7483
perm	-7484
reds	-7485
▁Now	-7486
▁errno	-7487
▁small	-7488
Library	-7489
keyword	-7490
▁combin	-7491
▁copied	-7492
▁scalar	-7493
▁strict	-7494
splitext	-7495
addresses	-7496
/*	-7497
=[]	-7498
',),	-7499
Next	-7500
cade	-7501
rove	-7502
▁GET	-7503
LEVEL	-7504
ipher	-7505
major	-7506
phase	-7507
ADBAAD	-7508
Signal	-7509
▁facts	-7510
cookies	-7511
payment	-7512
▁adding	-7513
▁things	-7514
Constant	-7515
▁;	-7516
$')	-7517
CAS	-7518
met	-7519
lict	-7520
▁'..	-7521
sizes	-7522
Parent	-7523
▁angle	-7524
▁oauth	-7525
▁closed	-7526
rollment	-7527
tificates	-7528
▁Initialize	-7529
▁defaultdict	-7530
{"	-7531
TIM	-7532
▁WSG	-7533
▁lex	-7534
since	-7535
▁USER	-7536
Editor	-7537
▁syntax	-7538
formatter	-7539
got	-7540
pdb	-7541
▁ws	-7542
SEQU	-7543
kill	-7544
meth	-7545
COUNT	-7546
azure	-7547
sited	-7548
locals	-7549
▁Print	-7550
receiver	-7551
▁authors	-7552
▁resolve	-7553
setuptools	-7554
▁integration	-7555
+',	-7556
Dep	-7557
Pay	-7558
uel	-7559
▁ct	-7560
heel	-7561
▁Ren	-7562
isten	-7563
▁Label	-7564
MESSAGE	-7565
Setting	-7566
linspace	-7567
volution	-7568
aggregate	-7569
▁iterator	-7570
▁properly	-7571
Db	-7572
/",	-7573
vid	-7574
▁ss	-7575
"]),	-7576
▁RES	-7577
amble	-7578
aring	-7579
hours	-7580
Single	-7581
listener	-7582
Container	-7583
▁analysis	-7584
▁translate	-7585
pip	-7586
▁rr	-7587
DIRS	-7588
Role	-7589
utoff	-7590
▁lazy	-7591
ENDING	-7592
Engine	-7593
ically	-7594
▁INTER	-7595
▁Point	-7596
▁alias	-7597
▁stage	-7598
iterator	-7599
DC	-7600
avg	-7601
ura	-7602
Tran	-7603
hist	-7604
chdir	-7605
spawn	-7606
▁grad	-7607
resize	-7608
▁Usage	-7609
windows	-7610
▁DIRECT	-7611
▁Result	-7612
▁absent	-7613
Generate	-7614
▁governed	-7615
▁experiment	-7616
▁references	-7617
,-	-7618
FS	-7619
CSR	-7620
▁css	-7621
Right	-7622
alive	-7623
riend	-7624
Classi	-7625
configs	-7626
▁longer	-7627
creation	-7628
▁further	-7629
▁Migration	-7630
='/	-7631
CCC	-7632
bri	-7633
osv	-7634
▁Imp	-7635
Shape	-7636
▁runs	-7637
atomic	-7638
▁ports	-7639
▁positive	-7640
▁aggregate	-7641
▁connected	-7642
  	-7643
Non	-7644
chr	-7645
ket	-7646
▁\\	-7647
▁tk	-7648
']):	-7649
Addr	-7650
COMP	-7651
ancy	-7652
emit	-7653
▁CFG	-7654
▁bus	-7655
pause	-7656
ython	-7657
Inline	-7658
Vertex	-7659
chemas	-7660
family	-7661
finish	-7662
tmpdir	-7663
asarray	-7664
▁stride	-7665
▁scripts	-7666
documents	-7667
▁coordinates	-7668
BC	-7669
she	-7670
vin	-7671
▁nn	-7672
NODE	-7673
prin	-7674
trip	-7675
Course	-7676
banner	-7677
issues	-7678
▁First	-7679
▁chart	-7680
▁reply	-7681
checker	-7682
▁dialog	-7683
USERNAME	-7684
▁activation	-7685
documentation	-7686
(".	-7687
ada	-7688
scr	-7689
▁rs	-7690
▁Min	-7691
cross	-7692
mtime	-7693
▁Inst	-7694
pyplot	-7695
▁shall	-7696
Widgets	-7697
creator	-7698
pointer	-7699
removed	-7700
▁neighb	-7701
▁Comment	-7702
hexdigest	-7703
sensitive	-7704
▁checking	-7705
]/	-7706
CLO	-7707
cov	-7708
bins	-7709
▁san	-7710
INPUT	-7711
▁WSGI	-7712
updates	-7713
▁frozen	-7714
Interval	-7715
Platform	-7716
▁SPECIAL	-7717
▁logfile	-7718
▁includes	-7719
Any	-7720
DED	-7721
Ite	-7722
SSL	-7723
udi	-7724
▁(?	-7725
▁Try	-7726
tency	-7727
▁cols	-7728
legacy	-7729
distrib	-7730
▁digits	-7731
▁issues	-7732
Register	-7733
▁Generic	-7734
▁temperature	-7735
NUM	-7736
Spa	-7737
wal	-7738
('')	-7739
orse	-7740
▁aff	-7741
silon	-7742
▁conv	-7743
unlink	-7744
ylabel	-7745
▁black	-7746
▁catch	-7747
▁edges	-7748
▁enter	-7749
▁pants	-7750
▁coords	-7751
▁linear	-7752
bindings	-7753
protobuf	-7754
▁materials	-7755
▁partition	-7756
▁constraints	-7757
,\	-7758
',)	-7759
Lock	-7760
rics	-7761
ycle	-7762
zeug	-7763
...")	-7764
▁Bytes	-7765
▁Frank	-7766
▁applied	-7767
▁parents	-7768
Selection	-7769
Timestamp	-7770
parametri	-7771
▁executed	-7772
containers	-7773
▁transport	-7774
"+	-7775
->	-7776
=\"	-7777
ABC	-7778
SIG	-7779
VIE	-7780
▁xy	-7781
DOWN	-7782
Save	-7783
▁GOO	-7784
Align	-7785
First	-7786
Scale	-7787
idity	-7788
▁Pass	-7789
serted	-7790
started	-7791
Elements	-7792
analysis	-7793
▁prepare	-7794
▁servers	-7795
▁activity	-7796
▁construct	-7797
Ag	-7798
Na	-7799
Sm	-7800
qs	-7801
MAN	-7802
peg	-7803
san	-7804
Some	-7805
aste	-7806
▁Stop	-7807
▁gets	-7808
Height	-7809
Manage	-7810
▁Dummy	-7811
▁glyph	-7812
▁logic	-7813
pection	-7814
▁typing	-7815
▁Convert	-7816
precision	-7817
returncode	-7818
'<	-7819
DK	-7820
bf	-7821
kg	-7822
RUP	-7823
cus	-7824
seg	-7825
bbox	-7826
beat	-7827
▁Hat	-7828
ippet	-7829
stubs	-7830
third	-7831
dtuple	-7832
finite	-7833
utions	-7834
▁three	-7835
crypted	-7836
▁respon	-7837
▁submit	-7838
gradient	-7839
languages	-7840
neighbors	-7841
instrument	-7842
▁frequency	-7843
+=	-7844
rp	-7845
.],	-7846
oid	-7847
Loop	-7848
ULTI	-7849
etry	-7850
have	-7851
ners	-7852
ople	-7853
▁ind	-7854
Setup	-7855
Space	-7856
ggest	-7857
joint	-7858
kzeug	-7859
▁area	-7860
DELETE	-7861
rename	-7862
▁redis	-7863
numbers	-7864
▁Should	-7865
lanation	-7866
▁OptionParser	-7867
%%	-7868
gri	-7869
ora	-7870
}',	-7871
')],	-7872
="",	-7873
LEFT	-7874
till	-7875
▁alt	-7876
▁pub	-7877
ENTAL	-7878
about	-7879
agger	-7880
ragma	-7881
Fields	-7882
▁keras	-7883
▁DISCLA	-7884
▁Thread	-7885
▁charge	-7886
Positive	-7887
urations	-7888
▁produce	-7889
dimension	-7890
▁comments	-7891
initialize	-7892
▁Additional	-7893
ah	-7894
▁^	-7895
EOF	-7896
ERY	-7897
mid	-7898
▁mk	-7899
")),	-7900
']],	-7901
geom	-7902
otle	-7903
rown	-7904
▁pie	-7905
▁able	-7906
Packet	-7907
ippets	-7908
Console	-7909
▁permit	-7910
▁radius	-7911
deletion	-7912
POS	-7913
STIT	-7914
UAGE	-7915
cart	-7916
ldap	-7917
▁ARE	-7918
Actor	-7919
Cluster	-7920
▁compat	-7921
▁layers	-7922
▁creates	-7923
Algorithm	-7924
▁geometry	-7925
Constraint	-7926
additional	-7927
URES	-7928
news	-7929
▁Net	-7930
piece	-7931
▁PROF	-7932
▁mesh	-7933
MODULE	-7934
degree	-7935
▁noise	-7936
sections	-7937
▁dynamic	-7938
▁symbols	-7939
▁visible	-7940
communicate	-7941
parametrize	-7942
`)	-7943
hu	-7944
))]	-7945
DAL	-7946
Play	-7947
ctrl	-7948
▁vec	-7949
▁}}"	-7950
ancer	-7951
ashes	-7952
small	-7953
▁'=',	-7954
▁PROC	-7955
▁days	-7956
▁prom	-7957
▁warn	-7958
associ	-7959
▁dense	-7960
▁white	-7961
upgrade	-7962
shutdown	-7963
▁tornado	-7964
▁INDIRECT	-7965
▁sentence	-7966
▁OpenStack	-7967
▁reproduce	-7968
rx	-7969
)._	-7970
BIN	-7971
ert	-7972
gre	-7973
rol	-7974
tip	-7975
une	-7976
NOWN	-7977
ernel	-7978
exact	-7979
mpath	-7980
▁Back	-7981
▁Unit	-7982
vendor	-7983
▁alert	-7984
IBILITY	-7985
runtime	-7986
toolbar	-7987
▁sqlite	-7988
Producer	-7989
▁globals	-7990
▁negative	-7991
▁strftime	-7992
ij	-7993
ny	-7994
dae	-7995
sic	-7996
▁:]	-7997
gene	-7998
amily	-7999
break	-8000
cipal	-8001
▁LOSS	-8002
▁calc	-8003
▁tele	-8004
lapsed	-8005
modify	-8006
▁guest	-8007
▁rospy	-8008
Convert	-8009
clicked	-8010
dynamic	-8011
datasets	-8012
sistency	-8013
▁shouldn	-8014
▁Franklin	-8015
▁handling	-8016
▁descriptor	-8017
*=	-8018
:],	-8019
Gen	-8020
MAR	-8021
igen	-8022
untu	-8023
Usage	-8024
▁sell	-8025
attemp	-8026
border	-8027
presen	-8028
rotate	-8029
▁sheet	-8030
uestion	-8031
▁STATIC	-8032
Category	-8033
Contains	-8034
▁CONSEQU	-8035
subscribe	-8036
▁successful	-8037
assertNotEqual	-8038
▁CONSEQUENTIAL	-8039
:,	-8040
Ob	-8041
!')	-8042
IAL	-8043
SSH	-8044
]')	-8045
ico	-8046
pul	-8047
▁lu	-8048
coun	-8049
▁eas	-8050
Flags	-8051
quota	-8052
▁POSS	-8053
▁Skip	-8054
▁Team	-8055
▁rand	-8056
vanced	-8057
▁prote	-8058
STITUTE	-8059
acquire	-8060
signals	-8061
▁recent	-8062
postgres	-8063
▁balance	-8064
▁checksum	-8065
▁delimiter	-8066
▁migration	-8067
▁processed	-8068
]"	-8069
hg	-8070
CHO	-8071
CADE	-8072
ache	-8073
apse	-8074
auti	-8075
swap	-8076
tire	-8077
▁Ens	-8078
Lines	-8079
trial	-8080
▁Corp	-8081
▁trun	-8082
▁void	-8083
legend	-8084
outube	-8085
▁Entry	-8086
▁parti	-8087
Dataset	-8088
Running	-8089
▁retval	-8090
▁PROFITS	-8091
▁refresh	-8092
▁signals	-8093
▁openstack	-8094
EY	-8095
RUN	-8096
WIN	-8097
GLIG	-8098
errno	-8099
izing	-8100
▁SIGN	-8101
aggreg	-8102
plural	-8103
▁Setup	-8104
▁abort	-8105
neutron	-8106
wrapped	-8107
▁NEGLIG	-8108
umptions	-8109
▁encoder	-8110
ientation	-8111
Environment	-8112
▁NEGLIGENCE	-8113
>[^	-8114
WID	-8115
fan	-8116
ims	-8117
may	-8118
ACTI	-8119
ISED	-8120
relu	-8121
▁Spa	-8122
▁squ	-8123
Video	-8124
archy	-8125
▁Enum	-8126
▁Exec	-8127
▁bbox	-8128
shapes	-8129
▁Flask	-8130
▁Frame	-8131
▁price	-8132
Details	-8133
tabstop	-8134
Software	-8135
MagicMock	-8136
converter	-8137
▁inventory	-8138
dh	-8139
odoc	-8140
▁BUS	-8141
▁EXE	-8142
▁Int	-8143
▁cos	-8144
▁sol	-8145
anded	-8146
audit	-8147
ticks	-8148
▁ROOT	-8149
tracker	-8150
▁banner	-8151
▁launch	-8152
▁really	-8153
▁theano	-8154
Received	-8155
itecture	-8156
▁extends	-8157
▁plugins	-8158
▁runtime	-8159
▁Arguments	-8160
***********	-8161
▁CONNECTION	-8162
▁constructor	-8163
▁relationship	-8164
Authentication	-8165
▁compatibility	-8166
Fi	-8167
IX	-8168
("[	-8169
DEX	-8170
ERT	-8171
OTE	-8172
Qgs	-8173
▁"$	-8174
▁([	-8175
▁AC	-8176
▁cf	-8177
Func	-8178
Plot	-8179
Spin	-8180
ales	-8181
mmar	-8182
uron	-8183
▁End	-8184
▁NON	-8185
▁RFC	-8186
▁zer	-8187
Annot	-8188
curve	-8189
needs	-8190
▁Sets	-8191
▁perm	-8192
▁soft	-8193
artist	-8194
▁nargs	-8195
▁CONFIG	-8196
▁Script	-8197
▁finish	-8198
▁footer	-8199
---------	-8200
verbosity	-8201
▁PLATFORM	-8202
>`	-8203
lg	-8204
tml	-8205
Repo	-8206
ency	-8207
hits	-8208
hood	-8209
shop	-8210
sudo	-8211
▁arr	-8212
CHECK	-8213
VALUE	-8214
▁card	-8215
▁FIXME	-8216
▁prece	-8217
confirm	-8218
▁enough	-8219
calendar	-8220
▁SERVICE	-8221
published	-8222
▁Construct	-8223
PT	-8224
alo	-8225
apt	-8226
}),	-8227
()])	-8228
Mesh	-8229
▁Gtk	-8230
▁avg	-8231
meter	-8232
specs	-8233
Binary	-8234
Report	-8235
spaces	-8236
viewer	-8237
Pattern	-8238
aliases	-8239
riteria	-8240
▁daemon	-8241
▁newline	-8242
avaScript	-8243
processed	-8244
statement	-8245
▁selector	-8246
dictionary	-8247
AW	-8248
DT	-8249
QUE	-8250
Red	-8251
lio	-8252
▁ut	-8253
---\	-8254
craw	-8255
lica	-8256
▁ADV	-8257
▁```	-8258
chart	-8259
usted	-8260
▁Call	-8261
▁cent	-8262
▁hist	-8263
▁sqrt	-8264
conver	-8265
spider	-8266
▁chars	-8267
▁sever	-8268
Cleanup	-8269
ynchron	-8270
enerated	-8271
▁ndarray	-8272
▁Chromium	-8273
▁returning	-8274
▁production	-8275
▁replacement	-8276
eu	-8277
zA	-8278
='%	-8279
▁PR	-8280
▁{{	-8281
..."	-8282
mand	-8283
ABASE	-8284
▁Home	-8285
▁atta	-8286
▁care	-8287
▁stub	-8288
DEVICE	-8289
TARGET	-8290
Worker	-8291
daemon	-8292
▁Floor	-8293
Ansible	-8294
umption	-8295
▁STRICT	-8296
▁choice	-8297
horizontal	-8298
ValidationError	-8299
>%	-8300
ung	-8301
ATOR	-8302
Help	-8303
IMED	-8304
Move	-8305
ball	-8306
does	-8307
mble	-8308
onic	-8309
▁Sto	-8310
▁WAY	-8311
▁sep	-8312
INESS	-8313
▁Send	-8314
▁TYPE	-8315
▁View	-8316
Enable	-8317
hedral	-8318
levant	-8319
▁Given	-8320
▁cells	-8321
▁never	-8322
▁charset	-8323
ntaxError	-8324
▁SERVICES	-8325
▁DISCLAIMED	-8326
▁SUBSTITUTE	-8327
cay	-8328
')):	-8329
.'''	-8330
Zone	-8331
objs	-8332
phan	-8333
▁Top	-8334
ENSOR	-8335
Fetch	-8336
graphs	-8337
versed	-8338
▁Tuple	-8339
▁theta	-8340
partment	-8341
Benchmark	-8342
recipient	-8343
▁workflow	-8344
▁highlight	-8345
La	-8346
](	-8347
DEL	-8348
ILL	-8349
tia	-8350
TEMP	-8351
▁DES	-8352
▁ato	-8353
▁Main	-8354
▁INCID	-8355
▁makes	-8356
▁Ensure	-8357
▁Format	-8358
▁Logger	-8359
▁RETURN	-8360
▁cancel	-8361
coverage	-8362
setLevel	-8363
▁INTERRUP	-8364
▁compiled	-8365
▁rendered	-8366
activation	-8367
▁INCIDENTAL	-8368
/?	-8369
Val	-8370
boo	-8371
btn	-8372
mox	-8373
▁ir	-8374
▁qs	-8375
OPEN	-8376
RENT	-8377
roke	-8378
▁SEC	-8379
▁lst	-8380
▁sto	-8381
ATURE	-8382
Empty	-8383
Tuple	-8384
mysql	-8385
▁"""\	-8386
▁EVEN	-8387
▁roll	-8388
jected	-8389
locity	-8390
▁MySQL	-8391
▁Notes	-8392
▁mount	-8393
SERVICE	-8394
duction	-8395
workers	-8396
▁Street	-8397
▁letter	-8398
▁unpack	-8399
cessible	-8400
▁ADVISED	-8401
▁Created	-8402
▁imported	-8403
Configured	-8404
compressed	-8405
serialized	-8406
▁POSSIBILITY	-8407
BQ	-8408
`:	-8409
ji	-8410
sdk	-8411
▁dx	-8412
▁gu	-8413
▁ld	-8414
blog	-8415
cpus	-8416
ggle	-8417
guid	-8418
▁won	-8419
Cloud	-8420
WEVER	-8421
dtemp	-8422
lying	-8423
scipy	-8424
▁band	-8425
MPLARY	-8426
▁GOODS	-8427
▁panel	-8428
▁Assert	-8429
▁CAUSED	-8430
▁DAMAGE	-8431
▁THEORY	-8432
▁detect	-8433
▁HOWEVER	-8434
▁httplib	-8435
▁sidebar	-8436
broadcast	-8437
▁BUSINESS	-8438
▁EXEMPLARY	-8439
▁PROCUREMENT	-8440
▁INTERRUPTION	-8441
;\	-8442
hy	-8443
rg	-8444
Fin	-8445
UES	-8446
rpm	-8447
▁xs	-8448
""",	-8449
PLAY	-8450
cube	-8451
istr	-8452
{}".	-8453
=''):	-8454
saved	-8455
▁CHAR	-8456
▁SUCH	-8457
ACCESS	-8458
Choice	-8459
Events	-8460
mitive	-8461
▁digit	-8462
▁stati	-8463
▁IPython	-8464
▁restore	-8465
construct	-8466
firmation	-8467
▁functionality	-8468
TG	-8469
lm	-8470
=="	-8471
Pop	-8472
▁"*	-8473
▁wa	-8474
Hook	-8475
both	-8476
dget	-8477
spam	-8478
▁Cre	-8479
FIELD	-8480
▁xbmc	-8481
sidual	-8482
solver	-8483
stride	-8484
CASCADE	-8485
▁Plugin	-8486
▁Univer	-8487
▁editor	-8488
firewall	-8489
realpath	-8490
standard	-8491
▁queries	-8492
----------	-8493
Attributes	-8494
Properties	-8495
▁Otherwise	-8496
▁successfully	-8497
▁Redistribution	-8498
PK	-8499
]-	-8500
AUT	-8501
IZE	-8502
dfs	-8503
sam	-8504
xff	-8505
▁SC	-8506
▁Tk	-8507
LINK	-8508
PACK	-8509
THON	-8510
caps	-8511
dead	-8512
exus	-8513
olin	-8514
▁'{{	-8515
ectors	-8516
logout	-8517
survey	-8518
xlabel	-8519
journal	-8520
logical	-8521
▁Global	-8522
▁digest	-8523
▁effect	-8524
▁spaces	-8525
izations	-8526
▁Account	-8527
▁detected	-8528
▁evaluate	-8529
▁terminal	-8530
Operations	-8531
submission	-8532
ContentType	-8533
▁distribute	-8534
")]	-8535
CII	-8536
mpo	-8537
{}/	-8538
▁tp	-8539
ABEL	-8540
APPS	-8541
Rect	-8542
SOCK	-8543
imit	-8544
▁NUM	-8545
▁inf	-8546
Fixed	-8547
OAuth	-8548
ggreg	-8549
requi	-8550
▁Used	-8551
▁elem	-8552
▁pull	-8553
illing	-8554
▁serve	-8555
▁Series	-8556
Workflow	-8557
▁attempt	-8558
urlencode	-8559
utilities	-8560
▁abstract	-8561
▁building	-8562
disconnect	-8563
▁broadcast	-8564
▁iterations	-8565
YR	-8566
Arg	-8567
ely	-8568
▁ve	-8569
([])	-8570
UUID	-8571
pull	-8572
dates	-8573
achine	-8574
dtypes	-8575
stable	-8576
▁plain	-8577
Created	-8578
readonly	-8579
▁Whether	-8580
▁minutes	-8581
▁percent	-8582
whitelist	-8583
checkpoint	-8584
▁interfaces	-8585
EE	-8586
IDD	-8587
spe	-8588
▁ls	-8589
Conf	-8590
ifth	-8591
stor	-8592
▁Mem	-8593
▁VERS	-8594
▁fast	-8595
▁live	-8596
Mapper	-8597
bottom	-8598
▁whole	-8599
webpage	-8600
▁Access	-8601
▁crypto	-8602
▁Defaults	-8603
▁parallel	-8604
▁supplied	-8605
instructor	-8606
connections	-8607
serializers	-8608
▁equivalent	-8609
LM	-8610
PA	-8611
vv	-8612
)['	-8613
AMP	-8614
ANN	-8615
UTC	-8616
ets	-8617
ues	-8618
▁Op	-8619
▁Pi	-8620
asse	-8621
rack	-8622
astic	-8623
bigip	-8624
noise	-8625
tacts	-8626
vicon	-8627
▁much	-8628
Listen	-8629
Period	-8630
mobile	-8631
▁south	-8632
Testing	-8633
decimal	-8634
▁themes	-8635
sentence	-8636
▁upgrade	-8637
▁sections	-8638
difference	-8639
repository	-8640
servations	-8641
]\	-8642
rv	-8643
UNK	-8644
Utf	-8645
air	-8646
▁'|	-8647
▁fc	-8648
Pipe	-8649
SIGN	-8650
▁mag	-8651
kemon	-8652
Accept	-8653
ewidth	-8654
▁OAuth	-8655
Security	-8656
▁pymongo	-8657
▁Component	-8658
HS	-8659
▁pn	-8660
Desc	-8661
NULL	-8662
Push	-8663
ENGTH	-8664
Shell	-8665
bases	-8666
ellow	-8667
▁cher	-8668
▁pred	-8669
crypto	-8670
repeat	-8671
▁Allow	-8672
BACKEND	-8673
managed	-8674
numeric	-8675
tential	-8676
▁Random	-8677
▁aggreg	-8678
▁places	-8679
Encoding	-8680
Geometry	-8681
▁cookies	-8682
▁sending	-8683
▁ugettext	-8684
▁restriction	-8685
▁initialization	-8686
BL	-8687
DY	-8688
kv	-8689
URI	-8690
▁et	-8691
INFR	-8692
__',	-8693
bias	-8694
runs	-8695
▁"/"	-8696
▁SSL	-8697
EMENT	-8698
iness	-8699
retty	-8700
▁""",	-8701
▁rout	-8702
Domain	-8703
crease	-8704
▁share	-8705
History	-8706
binding	-8707
subplot	-8708
▁handled	-8709
▁utility	-8710
locations	-8711
▁Abstract	-8712
▁readonly	-8713
▁serialized	-8714
availability	-8715
ya	-8716
}{	-8717
ANY	-8718
FTP	-8719
Ids	-8720
ONT	-8721
XXXX	-8722
lope	-8723
▁'\\	-8724
▁cmp	-8725
trunc	-8726
▁easy	-8727
▁java	-8728
Metric	-8729
Objects	-8730
▁scores	-8731
Renderer	-8732
particip	-8733
▁catalog	-8734
▁localhost	-8735
▁separator	-8736
▁sequences	-8737
concatenate	-8738
OC	-8739
xi	-8740
"%(	-8741
MIT	-8742
RET	-8743
acl	-8744
det	-8745
dry	-8746
gid	-8747
sip	-8748
▁TR	-8749
bugs	-8750
LOCAL	-8751
Login	-8752
debit	-8753
draft	-8754
mouse	-8755
▁disp	-8756
except	-8757
iteral	-8758
symbols	-8759
torrent	-8760
viation	-8761
▁hereby	-8762
deepcopy	-8763
metrical	-8764
▁Decimal	-8765
▁defines	-8766
▁prevent	-8767
▁restart	-8768
providers	-8769
▁floating	-8770
▁handlers	-8771
▁formatted	-8772
▁categories	-8773
###############	-8774
Ip	-8775
gw	-8776
AML	-8777
gyp	-8778
pet	-8779
FFIX	-8780
aves	-8781
fine	-8782
quit	-8783
▁yes	-8784
ENAME	-8785
Media	-8786
NAMES	-8787
▁cube	-8788
▁gene	-8789
▁logs	-8790
Public	-8791
pixels	-8792
▁recur	-8793
Monitor	-8794
Virtual	-8795
general	-8796
▁Matrix	-8797
+-+-+-+-	-8798
▁VERSION	-8799
▁checked	-8800
▁receive	-8801
▁iterable	-8802
authorized	-8803
▁recipient	-8804
Authorization	-8805
Ed	-8806
|\	-8807
asc	-8808
ole	-8809
MEDI	-8810
hard	-8811
wind	-8812
Click	-8813
books	-8814
large	-8815
etween	-8816
▁Fifth	-8817
▁refer	-8818
retries	-8819
▁become	-8820
▁rather	-8821
▁gateway	-8822
▁thumbnail	-8823
▁registration	-8824
_'	-8825
bn	-8826
enc	-8827
"]))	-8828
Home	-8829
deri	-8830
▁[("	-8831
▁bel	-8832
Stats	-8833
datas	-8834
unded	-8835
▁BASE	-8836
▁nest	-8837
OUTPUT	-8838
places	-8839
recent	-8840
▁analy	-8841
tensors	-8842
▁bundle	-8843
▁retrie	-8844
variance	-8845
▁handles	-8846
transpose	-8847
▁receiver	-8848
annotation	-8849
dependency	-8850
▁Generated	-8851
▁Application	-8852
':"	-8853
('{	-8854
UDE	-8855
lux	-8856
pic	-8857
typ	-8858
▁Geo	-8859
▁KEY	-8860
CCESS	-8861
CHANG	-8862
Tools	-8863
Track	-8864
Train	-8865
▁Host	-8866
ESSION	-8867
▁mysql	-8868
▁thing	-8869
Product	-8870
artbeat	-8871
lerance	-8872
▁canvas	-8873
▁ticket	-8874
▁unused	-8875
▁BytesIO	-8876
▁capture	-8877
▁doctest	-8878
▁boundary	-8879
▁problems	-8880
▁remaining	-8881
▁AssertionError	-8882
;'	-8883
=",	-8884
TCP	-8885
nic	-8886
oms	-8887
▁Ap	-8888
Used	-8889
▁Met	-8890
WIDTH	-8891
SOURCE	-8892
celery	-8893
linalg	-8894
▁paper	-8895
indexes	-8896
DataFrame	-8897
shortcuts	-8898
superuser	-8899
conditions	-8900
▁limitation	-8901
▁assumptions	-8902
*\	-8903
TP	-8904
"/>	-8905
Has	-8906
quo	-8907
▁Ph	-8908
▁{%	-8909
Copy	-8910
bank	-8911
chat	-8912
ctxt	-8913
ALLED	-8914
IMAGE	-8915
▁Char	-8916
Export	-8917
▁Extra	-8918
autiful	-8919
▁Normal	-8920
▁mocked	-8921
▁reload	-8922
▁sphinx	-8923
INGEMENT	-8924
▁looking	-8925
▁persons	-8926
▁predict	-8927
protected	-8928
statistics	-8929
▁framework	-8930
eb	-8931
gc	-8932
('[	-8933
="/	-8934
MAC	-8935
OIN	-8936
dix	-8937
igi	-8938
uli	-8939
xed	-8940
▁gs	-8941
oute	-8942
vors	-8943
Sheet	-8944
asing	-8945
rices	-8946
vides	-8947
▁''),	-8948
Lookup	-8949
bundle	-8950
lastic	-8951
sually	-8952
▁Graph	-8953
▁guess	-8954
Browser	-8955
jectory	-8956
▁tester	-8957
backward	-8958
▁certain	-8959
#########	-8960
▁fallback	-8961
▁portions	-8962
ategorical	-8963
▁docstring	-8964
Information	-8965
~~~~~~~~~~~~~~~~	-8966
DL	-8967
ий	-8968
▁ol	-8969
▁pp	-8970
▁|=	-8971
▁"":	-8972
▁sin	-8973
ACTER	-8974
METHO	-8975
Watch	-8976
aming	-8977
pedia	-8978
▁Down	-8979
▁cart	-8980
▁soup	-8981
CLIENT	-8982
Static	-8983
UPDATE	-8984
syntax	-8985
ticket	-8986
▁third	-8987
Minimum	-8988
flatten	-8989
outfile	-8990
surface	-8991
▁curses	-8992
employee	-8993
▁Compute	-8994
▁promote	-8995
▁xmodule	-8996
▁replaced	-8997
assertNotIn	-8998
▁simulation	-8999
NC	-9000
cmp	-9001
hit	-9002
nav	-9003
Done	-9004
secs	-9005
strp	-9006
weak	-9007
▁'.'	-9008
▁Mon	-9009
▁chr	-9010
▁TIME	-9011
▁peer	-9012
Upload	-9013
atalog	-9014
peated	-9015
versal	-9016
▁quotes	-9017
cryption	-9018
▁Manager	-9019
▁jsonify	-9020
▁surface	-9021
calculate	-9022
▁instanti	-9023
ov	-9024
]")	-9025
yml	-9026
▁%.	-9027
▁au	-9028
▁pc	-9029
▁pw	-9030
=_('	-9031
Tags	-9032
▁CLI	-9033
ctree	-9034
slots	-9035
▁Mark	-9036
▁navi	-9037
getter	-9038
reload	-9039
▁altern	-9040
▁WARNING	-9041
Temporary	-9042
▁estimator	-9043
▁obtaining	-9044
INFRINGEMENT	-9045
--------------	-9046
PM	-9047
[@	-9048
mr	-9049
Geo	-9050
MSG	-9051
ace	-9052
vac	-9053
▁tv	-9054
inct	-9055
▁deg	-9056
Motor	-9057
hooks	-9058
▁peak	-9059
Finder	-9060
Remote	-9061
ctypes	-9062
mapped	-9063
decoder	-9064
inverse	-9065
migrate	-9066
restart	-9067
sidebar	-9068
▁SELECT	-9069
▁appear	-9070
▁detail	-9071
▁dtypes	-9072
▁starts	-9073
▁Display	-9074
▁article	-9075
Converter	-9076
Iteration	-9077
constraints	-9078
AX	-9079
WM	-9080
sf	-9081
hot	-9082
▁({	-9083
""")	-9084
kele	-9085
lays	-9086
libs	-9087
reat	-9088
seen	-9089
unix	-9090
▁cut	-9091
funcs	-9092
paren	-9093
randn	-9094
vered	-9095
▁CCCC	-9096
▁Site	-9097
▁poll	-9098
Cookie	-9099
Switch	-9100
Streams	-9101
clients	-9102
rection	-9103
vectors	-9104
▁Handle	-9105
quential	-9106
urnished	-9107
▁windows	-9108
bootstrap	-9109
sequences	-9110
▁probably	-9111
▁pygments	-9112
▁optimizer	-9113
▁serializers	-9114
BR	-9115
DA	-9116
PG	-9117
DST	-9118
Foo	-9119
abe	-9120
vhd	-9121
YRIL	-9122
▁CLA	-9123
▁Pol	-9124
▁pwd	-9125
Power	-9126
elery	-9127
flash	-9128
▁sink	-9129
Errors	-9130
▁CYRIL	-9131
▁macro	-9132
collect	-9133
literal	-9134
mozilla	-9135
▁adjust	-9136
KeyError	-9137
ggestion	-9138
Execution	-9139
endpoints	-9140
▁CYRILLIC	-9141
▁Override	-9142
▁backwards	-9143
presentation	-9144
▁Development	-9145
▁subscription	-9146
RequestHandler	-9147
Pr	-9148
wi	-9149
ENV	-9150
ilo	-9151
svg	-9152
uds	-9153
▁GE	-9154
.'),	-9155
auge	-9156
▁PIL	-9157
Chain	-9158
macro	-9159
▁blue	-9160
portal	-9161
utures	-9162
expired	-9163
logfile	-9164
tention	-9165
urlopen	-9166
▁Struct	-9167
▁graphs	-9168
Selector	-9169
matching	-9170
normpath	-9171
Interrupt	-9172
▁cherrypy	-9173
▁processes	-9174
▁implements	-9175
------------	-9176
▁Distributed	-9177
pf	-9178
sd	-9179
zb	-9180
AVE	-9181
bio	-9182
neg	-9183
▁${	-9184
▁sca	-9185
LOWED	-9186
going	-9187
lator	-9188
▁Info	-9189
▁Then	-9190
▁kivy	-9191
▁whom	-9192
Groups	-9193
anging	-9194
potato	-9195
Distance	-9196
Iterator	-9197
latitude	-9198
strategy	-9199
▁variant	-9200
requisite	-9201
▁mimetype	-9202
▁transfer	-9203
SM	-9204
ky	-9205
FUN	-9206
IAS	-9207
jvm	-9208
rad	-9209
toc	-9210
▁(.	-9211
▁sv	-9212
quee	-9213
▁Api	-9214
▁DAT	-9215
▁clf	-9216
▁dry	-9217
▁ent	-9218
DEFINE	-9219
RESULT	-9220
fromUtf	-9221
mployee	-9222
Distribu	-9223
codename	-9224
mmutable	-9225
▁quality	-9226
▁vectors	-9227
uchpotato	-9228
▁directives	-9229
▁multiprocessing	-9230
:.	-9231
FD	-9232
NG	-9233
WH	-9234
bla	-9235
cep	-9236
gcc	-9237
}))	-9238
▁bb	-9239
▁cn	-9240
poly	-9241
unce	-9242
unte	-9243
▁VAL	-9244
▁ear	-9245
PROTO	-9246
▁Dele	-9247
▁room	-9248
Camera	-9249
attery	-9250
ighted	-9251
passed	-9252
▁Token	-9253
roperly	-9254
▁camera	-9255
▁entire	-9256
Multiple	-9257
MessageBox	-9258
tensorflow	-9259
▁furnished	-9260
CreateModel	-9261
assertIsNot	-9262
▁University	-9263
▁whitespace	-9264
hw	-9265
Den	-9266
LOC	-9267
Msg	-9268
ads	-9269
civ	-9270
pan	-9271
▁OK	-9272
▁vs	-9273
▁}]	-9274
Zero	-9275
elve	-9276
ivar	-9277
scen	-9278
▁Lay	-9279
▁Sim	-9280
▁['-	-9281
OURCE	-9282
defer	-9283
▁Adding	-9284
▁across	-9285
Operator	-9286
clusters	-9287
▁conside	-9288
▁trailing	-9289
bg	-9290
xn	-9291
?',	-9292
TIT	-9293
eps	-9294
rem	-9295
▁AP	-9296
reqs	-9297
EXIST	-9298
sider	-9299
▁DEAL	-9300
▁walk	-9301
atural	-9302
ystick	-9303
▁CLAIM	-9304
▁Proxy	-9305
Changes	-9306
restore	-9307
releases	-9308
▁DEALINGS	-9309
javascript	-9310
▁regression	-9311
▁NONINFRINGEMENT	-9312
"{	-9313
lp	-9314
mx	-9315
),(	-9316
CMD	-9317
OID	-9318
UST	-9319
emu	-9320
sun	-9321
▁Na	-9322
▁US	-9323
▁dn	-9324
META	-9325
Soup	-9326
ific	-9327
salt	-9328
▁SSH	-9329
omial	-9330
▁deli	-9331
▁slot	-9332
▁subs	-9333
anchor	-9334
pootle	-9335
▁Color	-9336
▁ERROR	-9337
▁Order	-9338
▁Popen	-9339
ICATION	-9340
courses	-9341
▁losses	-9342
Particle	-9343
candidate	-9344
character	-9345
▁renderer	-9346
▁completed	-9347
▁precision	-9348
collections	-9349
▁checkpoint	-9350
▁sublicense	-9351
']=	-9352
ADT	-9353
RST	-9354
TAG	-9355
chno	-9356
pher	-9357
prod	-9358
▁'-'	-9359
▁GPL	-9360
▁MED	-9361
▁det	-9362
▁tex	-9363
Clear	-9364
klass	-9365
plots	-9366
rouped	-9367
ulated	-9368
▁spect	-9369
▁pragma	-9370
▁substan	-9371
▁extended	-9372
▁manually	-9373
regression	-9374
▁dashboard	-9375
EB	-9376
bp	-9377
TOP	-9378
jac	-9379
psi	-9380
()['	-9381
([],	-9382
Bear	-9383
Disk	-9384
atta	-9385
dark	-9386
todo	-9387
wire	-9388
▁Wor	-9389
Proto	-9390
clone	-9391
coeff	-9392
micro	-9393
unary	-9394
▁URLs	-9395
▁smal	-9396
ATURES	-9397
Center	-9398
Insert	-9399
▁whose	-9400
minimum	-9401
▁unless	-9402
▁Channel	-9403
▁expired	-9404
paragraph	-9405
▁MagicMock	-9406
distributor	-9407
▁substantial	-9408
Sig	-9409
Expr	-9410
STOR	-9411
TRAN	-9412
ised	-9413
MULTI	-9414
cycle	-9415
howto	-9416
ramid	-9417
ENGINE	-9418
addons	-9419
emails	-9420
orator	-9421
pended	-9422
▁Exten	-9423
▁ready	-9424
buttons	-9425
folders	-9426
▁Button	-9427
▁Entity	-9428
fetchall	-9429
sessment	-9430
▁collect	-9431
longitude	-9432
▁Grouping	-9433
▁coverage	-9434
▁duplicate	-9435
▁incorrect	-9436
▁annotation	-9437
<<	-9438
uv	-9439
yy	-9440
")[	-9441
pwd	-9442
sol	-9443
▁mv	-9444
))))	-9445
Flag	-9446
VIEW	-9447
flip	-9448
onts	-9449
ught	-9450
▁Mac	-9451
▁hit	-9452
▁men	-9453
tries	-9454
▁Save	-9455
▁half	-9456
▁sile	-9457
Exists	-9458
cannot	-9459
sentry	-9460
▁Suite	-9461
▁bases	-9462
▁flavor	-9463
CRIPTION	-9464
fullname	-9465
▁Library	-9466
▁invenio	-9467
Structure	-9468
rightness	-9469
▁recursive	-9470
▁Corporation	-9471
DP	-9472
uk	-9473
CPP	-9474
__:	-9475
don	-9476
las	-9477
pts	-9478
ups	-9479
▁=>	-9480
CENT	-9481
Dele	-9482
Prop	-9483
TODO	-9484
ajax	-9485
vecs	-9486
▁ang	-9487
▁aws	-9488
▁mid	-9489
▁From	-9490
▁['--	-9491
▁boot	-9492
Called	-9493
Offset	-9494
pretty	-9495
sively	-9496
tunnel	-9497
Example	-9498
centile	-9499
twitter	-9500
▁Vector	-9501
▁locals	-9502
▁trying	-9503
physical	-9504
▁endorse	-9505
BoxLayout	-9506
execution	-9507
▁appended	-9508
▁shortcut	-9509
▁management	-9510
▁authenticate	-9511
!'	-9512
";	-9513
MQ	-9514
WT	-9515
[[	-9516
("#	-9517
:]:	-9518
CES	-9519
qty	-9520
Draw	-9521
INET	-9522
foot	-9523
mute	-9524
navi	-9525
▁dec	-9526
▁HEAD	-9527
▁emit	-9528
▁salt	-9529
Cancel	-9530
fileno	-9531
ortran	-9532
▁Since	-9533
▁autog	-9534
▁fakes	-9535
▁hours	-9536
▁liter	-9537
▁roles	-9538
capture	-9539
queries	-9540
schemas	-9541
▁cinder	-9542
▁expire	-9543
▁logged	-9544
▁logits	-9545
Progress	-9546
gorithms	-9547
retrieve	-9548
▁managed	-9549
▁systems	-9550
workspace	-9551
▁inserted	-9552
▁networks	-9553
dimensions	-9554
▁QtWidgets	-9555
▁explicitly	-9556
QApplication	-9557
▁definitions	-9558
FieldDescriptor	-9559
/#	-9560
mv	-9561
)==	-9562
*',	-9563
AMS	-9564
dig	-9565
pat	-9566
vpn	-9567
ENER	-9568
PACE	-9569
STEM	-9570
Vari	-9571
▁URI	-9572
▁mne	-9573
▁sam	-9574
Optim	-9575
beard	-9576
mooth	-9577
Sparse	-9578
Generic	-9579
charset	-9580
▁inline	-9581
▁notify	-9582
▁Retrieve	-9583
▁basename	-9584
▁datastore	-9585
▁telemetry	-9586
staticfiles	-9587
symmetrical	-9588
▁difference	-9589
▁filesystem	-9590
▁namedtuple	-9591
];	-9592
"')	-9593
_()	-9594
dro	-9595
▁Sm	-9596
▁gn	-9597
bber	-9598
land	-9599
priv	-9600
▁Dec	-9601
ECore	-9602
amond	-9603
antum	-9604
LENGTH	-9605
always	-9606
resume	-9607
subset	-9608
▁clone	-9609
▁robot	-9610
PATTERN	-9611
Release	-9612
density	-9613
stopped	-9614
systems	-9615
▁mapped	-9616
▁mobile	-9617
Composer	-9618
▁Connect	-9619
overwrite	-9620
resolvers	-9621
Classifier	-9622
▁websocket	-9623
autifulSoup	-9624
GO	-9625
vp	-9626
Mer	-9627
cms	-9628
tdb	-9629
▁BO	-9630
DICT	-9631
Full	-9632
Game	-9633
Null	-9634
imen	-9635
▁pow	-9636
▁rng	-9637
CHOIC	-9638
Small	-9639
abber	-9640
indic	-9641
smart	-9642
▁Here	-9643
▁atol	-9644
▁cons	-9645
aching	-9646
declar	-9647
lstrip	-9648
pagate	-9649
queeze	-9650
strong	-9651
thesis	-9652
▁Linux	-9653
▁flush	-9654
Checked	-9655
General	-9656
Publish	-9657
inherit	-9658
locator	-9659
ordered	-9660
▁health	-9661
▁rename	-9662
▁simply	-9663
▁depends	-9664
Namespace	-9665
dispatcher	-9666
assertIsNotNone	-9667
Rate	-9668
ZONE	-9669
grpc	-9670
ichr	-9671
▁rhs	-9672
Async	-9673
IDDLE	-9674
modes	-9675
ology	-9676
shelf	-9677
▁adds	-9678
▁mass	-9679
▁todo	-9680
Memory	-9681
instal	-9682
limits	-9683
ranges	-9684
season	-9685
ulator	-9686
▁-----	-9687
▁Empty	-9688
chanism	-9689
▁Action	-9690
▁anchor	-9691
▁broken	-9692
▁proper	-9693
▁titles	-9694
▁Current	-9695
▁activate	-9696
BadRequest	-9697
▁dependency	-9698
FB	-9699
([-	-9700
+')	-9701
DVB	-9702
PON	-9703
bon	-9704
aker	-9705
mgmt	-9706
prep	-9707
▁lar	-9708
▁seg	-9709
Batch	-9710
album	-9711
plate	-9712
ualen	-9713
usion	-9714
▁topo	-9715
footer	-9716
vertex	-9717
▁Debug	-9718
▁atoms	-9719
▁timer	-9720
Program	-9721
Support	-9722
working	-9723
▁family	-9724
DATABASE	-9725
internet	-9726
▁Contain	-9727
▁Package	-9728
▁pointer	-9729
classifier	-9730
expanduser	-9731
fingerprint	-9732
▁classifier	-9733
Notification	-9734
boardInterrupt	-9735
}-	-9736
ADD	-9737
COR	-9738
EVT	-9739
aff	-9740
aux	-9741
pho	-9742
tcp	-9743
uro	-9744
▁IM	-9745
▁ys	-9746
bian	-9747
ully	-9748
▁Non	-9749
▁few	-9750
▁mpp	-9751
Reset	-9752
Sizer	-9753
ffers	-9754
iodic	-9755
scene	-9756
▁INST	-9757
CREATE	-9758
Origin	-9759
isters	-9760
Checker	-9761
freeciv	-9762
▁Temple	-9763
▁conven	-9764
Features	-9765
Internal	-9766
feedback	-9767
producer	-9768
strptime	-9769
datastore	-9770
titlement	-9771
▁frozenset	-9772
▁represents	-9773
kk	-9774
()}	-9775
mpi	-9776
?://	-9777
itro	-9778
mbic	-9779
rink	-9780
▁cir	-9781
▁pyg	-9782
▁pys	-9783
▁}}'	-9784
ToOne	-9785
codec	-9786
etree	-9787
sures	-9788
▁clip	-9789
▁tmpl	-9790
Render	-9791
avatar	-9792
logged	-9793
videos	-9794
▁crash	-9795
▁trial	-9796
CLASSES	-9797
Creates	-9798
maximum	-9799
patcher	-9800
spatial	-9801
▁glyphs	-9802
▁spider	-9803
▁tmpdir	-9804
attempts	-9805
▁decoder	-9806
▁loading	-9807
questions	-9808
▁Required	-9809
▁resolver	-9810
addCleanup	-9811
▁appliance	-9812
▁canonical	-9813
▁scheduler	-9814
directories	-9815
authenticated	-9816
RS	-9817
WA	-9818
("{	-9819
('^	-9820
ROL	-9821
tee	-9822
▁CT	-9823
::::	-9824
MBER	-9825
want	-9826
▁PAT	-9827
▁cpp	-9828
▁pdf	-9829
▁rdf	-9830
WRITE	-9831
gence	-9832
throw	-9833
tiles	-9834
vocab	-9835
▁cmds	-9836
▁hold	-9837
▁proj	-9838
▁reST	-9839
REGIST	-9840
epochs	-9841
▁codes	-9842
Compute	-9843
Install	-9844
▁listed	-9845
boundary	-9846
building	-9847
sentinel	-9848
▁Creates	-9849
▁elapsed	-9850
ganization	-9851
▁Reference	-9852
ComposerMap	-9853
requirements	-9854
▁CommandError	-9855
CB	-9856
LP	-9857
"",	-9858
Est	-9859
Mat	-9860
iro	-9861
was	-9862
xxx	-9863
Year	-9864
])))	-9865
rift	-9866
▁DIR	-9867
▁age	-9868
addle	-9869
▁city	-9870
▁ping	-9871
▁wind	-9872
▁wire	-9873
apters	-9874
detect	-9875
ticles	-9876
▁MEDIA	-9877
erkzeug	-9878
▁solver	-9879
cognized	-9880
playlist	-9881
▁zipfile	-9882
listeners	-9883
▁feedback	-9884
efficients	-9885
iterations	-9886
NotFoundError	-9887
▁autogenerated	-9888
!=	-9889
*'	-9890
_[	-9891
lj	-9892
"><	-9893
Env	-9894
inp	-9895
▁/>	-9896
("")	-9897
Dest	-9898
Note	-9899
copg	-9900
▁abc	-9901
▁tol	-9902
anted	-9903
three	-9904
wrong	-9905
▁nume	-9906
ENTITY	-9907
Points	-9908
scroll	-9909
PROJECT	-9910
dialect	-9911
ilation	-9912
minutes	-9913
▁IECore	-9914
▁declar	-9915
critical	-9916
▁confirm	-9917
▁gettext	-9918
▁migrate	-9919
▁volumes	-9920
embedding	-9921
validator	-9922
▁increment	-9923
▁paragraph	-9924
▁previously	-9925
${	-9926
dw	-9927
MOD	-9928
}')	-9929
▁Pa	-9930
▁qt	-9931
ASES	-9932
Mean	-9933
oose	-9934
quad	-9935
unct	-9936
▁'</	-9937
▁ide	-9938
▁psi	-9939
AGENT	-9940
▁gzip	-9941
ATIONS	-9942
Marker	-9943
commen	-9944
▁Hyper	-9945
▁mouse	-9946
▁truth	-9947
mkdtemp	-9948
▁legacy	-9949
▁native	-9950
rollback	-9951
▁general	-9952
▁listing	-9953
processes	-9954
▁Register	-9955
▁failures	-9956
▁resulting	-9957
▁considered	-9958
▁performance	-9959
$'	-9960
Tk	-9961
zh	-9962
.*)	-9963
ERP	-9964
LFN	-9965
Sli	-9966
pem	-9967
TOOL	-9968
orph	-9969
▁DNS	-9970
▁IRC	-9971
▁alg	-9972
▁dom	-9973
Users	-9974
chmod	-9975
ledge	-9976
▁Plot	-9977
▁geom	-9978
▁week	-9979
ACTIVE	-9980
Prefix	-9981
ardown	-9982
elcome	-9983
ualenv	-9984
▁Radio	-9985
▁klass	-9986
Alchemy	-9987
Summary	-9988
setitem	-9989
▁Enable	-9990
▁Filter	-9991
InputSet	-9992
▁Context	-9993
▁closing	-9994
▁waiting	-9995
websocket	-9996
▁relevant	-9997
conversion	-9998
deployment	-9999
notifications	-10000
ao	-10001
(",	-10002
dif	-10003
lus	-10004
nop	-10005
svc	-10006
STOP	-10007
Scan	-10008
Wrap	-10009
afka	-10010
asis	-10011
dash	-10012
mbly	-10013
ster	-10014
tell	-10015
▁UTF	-10016
ander	-10017
sound	-10018
▁didn	-10019
Attach	-10020
Decode	-10021
Django	-10022
atable	-10023
broker	-10024
▁Float	-10025
▁Imple	-10026
appings	-10027
expires	-10028
keleton	-10029
termine	-10030
▁Serial	-10031
accuracy	-10032
▁Keyword	-10033
▁pending	-10034
anonymous	-10035
▁accounts	-10036
▁formatter	-10037
modulestore	-10038
▁development	-10039
▁specification	-10040
[]	-10041
DOT	-10042
REE	-10043
gov	-10044
lhs	-10045
▁EC	-10046
▁em	-10047
▁pf	-10048
='')	-10049
Dete	-10050
Mail	-10051
fice	-10052
▁Bad	-10053
▁INT	-10054
▁Ltd	-10055
▁tes	-10056
Dense	-10057
arrow	-10058
ising	-10059
▁{}),	-10060
budget	-10061
routes	-10062
▁smart	-10063
parents	-10064
sitemap	-10065
udience	-10066
▁higher	-10067
▁netloc	-10068
▁passwd	-10069
▁violin	-10070
compiled	-10071
exchange	-10072
▁asyncio	-10073
decorator	-10074
▁binascii	-10075
▁integers	-10076
▁statement	-10077
coordinates	-10078
▁submission	-10079
?\	-10080
DX	-10081
cg	-10082
:')	-10083
BOT	-10084
TON	-10085
▁:,	-10086
▁\"	-10087
/]+)	-10088
MOTE	-10089
Skip	-10090
iles	-10091
obot	-10092
▁"%(	-10093
Scope	-10094
catch	-10095
▁Edit	-10096
▁Json	-10097
▁capt	-10098
▁scal	-10099
around	-10100
foobar	-10101
middle	-10102
totype	-10103
▁Appro	-10104
▁azure	-10105
▁calib	-10106
Actions	-10107
Decoder	-10108
tenance	-10109
umidity	-10110
▁scrapy	-10111
▁vertex	-10112
supports	-10113
appengine	-10114
coroutine	-10115
optimizer	-10116
▁accepted	-10117
▁identity	-10118
LI	-10119
Sw	-10120
ju	-10121
MIS	-10122
arp	-10123
ddt	-10124
tte	-10125
▁bg	-10126
▁ci	-10127
▁dd	-10128
camp	-10129
lhcb	-10130
simp	-10131
wers	-10132
▁'%(	-10133
▁CPU	-10134
▁SHA	-10135
glyph	-10136
▁Copy	-10137
▁Wait	-10138
acters	-10139
concat	-10140
▁quick	-10141
Archive	-10142
fetchone	-10143
unsigned	-10144
▁leading	-10145
▁passing	-10146
▁uniform	-10147
scriptors	-10148
uplicates	-10149
▁Constant	-10150
▁Settings	-10151
▁Solution	-10152
▁listener	-10153
▁Calculate	-10154
annotations	-10155
▁authorization	-10156
Da	-10157
Fl	-10158
II	-10159
Zip	-10160
cdf	-10161
tau	-10162
▁_(	-10163
Sets	-10164
▁Job	-10165
▁btn	-10166
NOTIF	-10167
Split	-10168
abort	-10169
alarm	-10170
anned	-10171
poses	-10172
realm	-10173
▁CONT	-10174
▁Show	-10175
▁UInt	-10176
▁bins	-10177
▁demo	-10178
▁prep	-10179
litude	-10180
margin	-10181
square	-10182
▁going	-10183
▁slide	-10184
Contact	-10185
Logging	-10186
aussian	-10187
lengths	-10188
▁Screen	-10189
parallel	-10190
▁exactly	-10191
▁torrent	-10192
▁computed	-10193
ModelAdmin	-10194
▁displayed	-10195
▁libraries	-10196
▁validator	-10197
▁namespaces	-10198
RT	-10199
Xml	-10200
\.\	-10201
blk	-10202
but	-10203
hop	-10204
▁dy	-10205
FFER	-10206
alty	-10207
boto	-10208
each	-10209
fork	-10210
that	-10211
▁COL	-10212
▁amp	-10213
▁jar	-10214
...')	-10215
water	-10216
zones	-10217
▁'../	-10218
identi	-10219
▁TABLE	-10220
▁taken	-10221
angular	-10222
regions	-10223
terized	-10224
▁visual	-10225
BQADBAAD	-10226
setValue	-10227
▁spatial	-10228
▁visited	-10229
▁widgets	-10230
connector	-10231
▁delegate	-10232
▁filtered	-10233
Transaction	-10234
regularizer	-10235
▁Improperly	-10236
▁comparison	-10237
▁normalized	-10238
▁resolution	-10239
TemporaryFile	-10240
▁organization	-10241
GA	-10242
TV	-10243
TX	-10244
――	-10245
FAI	-10246
sky	-10247
▁"^	-10248
▁+'	-10249
▁El	-10250
WNER	-10251
bing	-10252
crop	-10253
kwds	-10254
ssue	-10255
umen	-10256
vies	-10257
▁mav	-10258
ITION	-10259
imize	-10260
photo	-10261
▁MIME	-10262
Linear	-10263
Pickle	-10264
Should	-10265
equals	-10266
locked	-10267
scopes	-10268
▁zeros	-10269
STREAMS	-10270
between	-10271
closing	-10272
doctest	-10273
perform	-10274
▁middle	-10275
AddField	-10276
Listener	-10277
datatype	-10278
negative	-10279
renderer	-10280
▁Neither	-10281
Collector	-10282
callbacks	-10283
formations	-10284
whitespace	-10285
▁Directory	-10286
▁iteritems	-10287
▁locations	-10288
deserialize	-10289
capabilities	-10290
▁classifiers	-10291
,,	-10292
VK	-10293
Ent	-10294
Mar	-10295
SIX	-10296
emb	-10297
▁cd	-10298
▁ce	-10299
Area	-10300
Ctrl	-10301
EXTR	-10302
UNIT	-10303
Word	-10304
ches	-10305
luid	-10306
▁"-"	-10307
▁IPv	-10308
▁May	-10309
LIMIT	-10310
TITLE	-10311
evalu	-10312
front	-10313
isect	-10314
quent	-10315
▁NAME	-10316
▁With	-10317
Canvas	-10318
README	-10319
abcdef	-10320
regexp	-10321
ridden	-10322
▁ratio	-10323
riendly	-10324
savefig	-10325
▁LOGGER	-10326
▁cipher	-10327
▁limits	-10328
▁merged	-10329
INTERVAL	-10330
failures	-10331
neighbor	-10332
urlparse	-10333
▁Storage	-10334
▁inverse	-10335
▁Security	-10336
SizePolicy	-10337
validators	-10338
▁indicating	-10339
experimental	-10340
▁initialized	-10341
▁AnsibleError	-10342
precationWarning	-10343
OG	-10344
Ok	-10345
RF	-10346
ye	-10347
>")	-10348
ORM	-10349
Rot	-10350
ttl	-10351
▁/=	-10352
▁dc	-10353
▁ha	-10354
Live	-10355
Long	-10356
idle	-10357
uber	-10358
▁NEW	-10359
Score	-10360
igure	-10361
legal	-10362
magic	-10363
pagin	-10364
posts	-10365
▁Part	-10366
▁bias	-10367
▁ctrl	-10368
▁samp	-10369
FAILED	-10370
andbox	-10371
▁dates	-10372
▁reuse	-10373
▁roots	-10374
▁throw	-10375
ildcard	-10376
▁Sample	-10377
▁season	-10378
▁Console	-10379
▁Contrib	-10380
▁decoded	-10381
▁ordered	-10382
fieldname	-10383
something	-10384
▁Instance	-10385
▁licensed	-10386
Dictionary	-10387
allocation	-10388
▁embedding	-10389
integration	-10390
▁shiftwidth	-10391
▁Permutation	-10392
▁installation	-10393
▁BeautifulSoup	-10394
RD	-10395
vt	-10396
;')	-10397
EXP	-10398
IPS	-10399
Kit	-10400
Pen	-10401
Sha	-10402
bid	-10403
gst	-10404
ina	-10405
mol	-10406
ofc	-10407
qos	-10408
rhs	-10409
▁./	-10410
▁Sw	-10411
▁fu	-10412
")))	-10413
FAIL	-10414
easy	-10415
▁Foo	-10416
▁bib	-10417
▁fab	-10418
▁why	-10419
Super	-10420
rical	-10421
story	-10422
volve	-10423
▁cast	-10424
▁sudo	-10425
ACTION	-10426
Regexp	-10427
gather	-10428
joined	-10429
ortion	-10430
▁EMAIL	-10431
▁doing	-10432
▁phone	-10433
CHOICES	-10434
closure	-10435
scatter	-10436
▁Define	-10437
▁Volume	-10438
▁energy	-10439
▁github	-10440
▁getting	-10441
▁regions	-10442
▁several	-10443
Framework	-10444
Transport	-10445
▁editable	-10446
▁particle	-10447
▁Documents	-10448
▁projection	-10449
▁placeholder	-10450
aaaaaaaaaaaaaaaa	-10451
qp	-10452
SHO	-10453
ani	-10454
tet	-10455
!!!!	-10456
Byte	-10457
ICON	-10458
▁Git	-10459
▁cnt	-10460
MEDIA	-10461
descr	-10462
▁Help	-10463
▁echo	-10464
▁misc	-10465
corder	-10466
▁Clean	-10467
▁Match	-10468
▁Utils	-10469
▁chunks	-10470
Consumer	-10471
dentical	-10472
fallback	-10473
▁preserve	-10474
▁Dictionary	-10475
urlresolvers	-10476
oe	-10477
Bot	-10478
LES	-10479
Vol	-10480
occ	-10481
ocs	-10482
▁nt	-10483
▁pt	-10484
Lite	-10485
ORIZ	-10486
UInt	-10487
mass	-10488
▁Mar	-10489
▁Mer	-10490
▁Tri	-10491
minor	-10492
xhtml	-10493
▁lxml	-10494
camera	-10495
imated	-10496
scaler	-10497
tively	-10498
▁Stream	-10499
▁Techno	-10500
▁subset	-10501
editable	-10502
policies	-10503
multipart	-10504
specified	-10505
▁criteria	-10506
▁bytearray	-10507
▁initializer	-10508
▁notifications	-10509
Cy	-10510
kb	-10511
NEW	-10512
pod	-10513
▁QU	-10514
']).	-10515
SERT	-10516
bert	-10517
exer	-10518
▁"".	-10519
▁tau	-10520
)."""	-10521
solve	-10522
▁Menu	-10523
▁VLAN	-10524
ESTAMP	-10525
ascade	-10526
become	-10527
Machine	-10528
Section	-10529
padding	-10530
tinuous	-10531
checkout	-10532
iterable	-10533
▁Address	-10534
Recording	-10535
▁customer	-10536
▁sessions	-10537
ALLSTREAMS	-10538
AllStreams	-10539
Expression	-10540
namespaces	-10541
▁statistics	-10542
________________	-10543
=/	-10544
SK	-10545
:\\	-10546
Sur	-10547
])]	-10548
▁'@	-10549
▁BU	-10550
▁sg	-10551
▁||	-10552
")):	-10553
Kind	-10554
Sync	-10555
ames	-10556
cntl	-10557
ints	-10558
need	-10559
▁div	-10560
▁tax	-10561
(',')	-10562
Linux	-10563
ables	-10564
coped	-10565
▁Gets	-10566
▁blob	-10567
▁nums	-10568
Suffix	-10569
posure	-10570
ubuntu	-10571
▁Using	-10572
adapter	-10573
tifacts	-10574
▁Gaffer	-10575
▁others	-10576
▁substr	-10577
Regression	-10578
ynchronous	-10579
▁converter	-10580
▁immediate	-10581
basicConfig	-10582
?"	-10583
It	-10584
xp	-10585
'")	-10586
CSV	-10587
UME	-10588
bul	-10589
haz	-10590
oct	-10591
▁nc	-10592
*=*=	-10593
ANGO	-10594
HAND	-10595
PAGE	-10596
Rest	-10597
raki	-10598
ctors	-10599
feeds	-10600
union	-10601
▁REST	-10602
▁Tool	-10603
▁iris	-10604
extras	-10605
mostat	-10606
ppings	-10607
▁succe	-10608
▁Comple	-10609
sistence	-10610
requested	-10611
▁accuracy	-10612
▁Microsoft	-10613
▁histogram	-10614
▁platforms	-10615
▁Attributes	-10616
▁annotations	-10617
▁interpreter	-10618
=\	-10619
mf	-10620
()'	-10621
AKE	-10622
Cla	-10623
Ctr	-10624
Elf	-10625
LAR	-10626
LOB	-10627
May	-10628
Sys	-10629
Uni	-10630
bly	-10631
hen	-10632
uck	-10633
Conv	-10634
Cost	-10635
cmds	-10636
disp	-10637
mend	-10638
▁Pay	-10639
▁pod	-10640
▁sel	-10641
▁ten	-10642
ANNEL	-10643
Redis	-10644
gered	-10645
icons	-10646
rated	-10647
slash	-10648
thumb	-10649
▁Rule	-10650
▁lead	-10651
METHOD	-10652
Router	-10653
lacing	-10654
restri	-10655
▁stand	-10656
Average	-10657
basedir	-10658
▁Sensor	-10659
▁markup	-10660
▁tzinfo	-10661
allocate	-10662
mappings	-10663
▁flatten	-10664
▁greater	-10665
GetOutput	-10666
exclusive	-10667
wikipedia	-10668
▁Platform	-10669
▁indicate	-10670
▁restored	-10671
▁webnotes	-10672
▁werkzeug	-10673
registered	-10674
rospection	-10675
▁callbacks	-10676
▁Description	-10677
]=	-10678
fw	-10679
lv	-10680
']}	-10681
GIT	-10682
Pin	-10683
gar	-10684
pal	-10685
▁DW	-10686
▁bl	-10687
Drop	-10688
IRED	-10689
LOAT	-10690
Stat	-10691
cidr	-10692
what	-10693
▁AWS	-10694
▁CHE	-10695
▁Ref	-10696
▁cid	-10697
▁gui	-10698
aware	-10699
latin	-10700
radio	-10701
▁four	-10702
▁grit	-10703
extent	-10704
ggered	-10705
logits	-10706
minute	-10707
timing	-10708
▁micro	-10709
central	-10710
patches	-10711
reports	-10712
▁Common	-10713
▁levels	-10714
▁presen	-10715
▁regard	-10716
Registry	-10717
intainer	-10718
▁minimal	-10719
▁skipped	-10720
Copyright	-10721
lications	-10722
recursive	-10723
▁TEMPLATE	-10724
Unexpected	-10725
▁depending	-10726
▁endpoints	-10727
▁important	-10728
▁performed	-10729
classification	-10730
'(	-10731
AK	-10732
('$	-10733
SEC	-10734
TCC	-10735
cil	-10736
fab	-10737
tur	-10738
wik	-10739
ATES	-10740
TASK	-10741
nist	-10742
warf	-10743
▁Ass	-10744
▁Boo	-10745
▁fan	-10746
Limit	-10747
Short	-10748
UBLIC	-10749
itize	-10750
verts	-10751
▁Must	-10752
▁sick	-10753
▁slow	-10754
grader	-10755
slices	-10756
within	-10757
▁Video	-10758
▁fcntl	-10759
▁pylab	-10760
▁reads	-10761
Coordin	-10762
Counter	-10763
reement	-10764
sistant	-10765
texinfo	-10766
Relation	-10767
▁Profile	-10768
▁Question	-10769
fromstring	-10770
constructor	-10771
MF	-10772
MI	-10773
rn	-10774
CPU	-10775
CSS	-10776
Dim	-10777
IMP	-10778
dup	-10779
mdi	-10780
ncy	-10781
rng	-10782
tls	-10783
▁lf	-10784
▁wd	-10785
FIER	-10786
Pair	-10787
bold	-10788
imal	-10789
look	-10790
tele	-10791
than	-10792
▁Let	-10793
▁rgb	-10794
([^"]	-10795
ances	-10796
bolic	-10797
drive	-10798
▁ance	-10799
▁diag	-10800
▁fore	-10801
▁qgis	-10802
expire	-10803
ponent	-10804
recipe	-10805
stones	-10806
▁press	-10807
▁props	-10808
Fixture	-10809
desired	-10810
▁Device	-10811
artifact	-10812
interpre	-10813
▁assumed	-10814
▁opening	-10815
▁scraper	-10816
▁tabstop	-10817
▁identify	-10818
▁keystone	-10819
ctionaries	-10820
▁Extension	-10821
▁challenge	-10822
▁coordinate	-10823
▁ConfigParser	-10824
Implementation	-10825
authentication	-10826
Eg	-10827
SN	-10828
dj	-10829
ов	-10830
Pur	-10831
doo	-10832
ech	-10833
▁CR	-10834
▁sd	-10835
://%	-10836
>>>>	-10837
COOK	-10838
Prob	-10839
capt	-10840
fits	-10841
iris	-10842
irth	-10843
jpeg	-10844
▁LLC	-10845
▁fft	-10846
QUEUE	-10847
Stage	-10848
WINDO	-10849
pools	-10850
▁Core	-10851
▁Fail	-10852
▁Repo	-10853
Aggreg	-10854
Subnet	-10855
bidden	-10856
little	-10857
tuples	-10858
▁DIRAC	-10859
▁major	-10860
dirpath	-10861
▁Static	-10862
▁making	-10863
▁mapper	-10864
▁getargs	-10865
commended	-10866
migration	-10867
▁projects	-10868
comparison	-10869
Certificate	-10870
DJ	-10871
AWS	-10872
Cap	-10873
GIS	-10874
IGH	-10875
RSA	-10876
Ste	-10877
ael	-10878
nom	-10879
you	-10880
▁ai	-10881
▁cu	-10882
({})	-10883
.'))	-10884
Plan	-10885
ocus	-10886
oney	-10887
orth	-10888
perf	-10889
▁Sys	-10890
▁wal	-10891
Activ	-10892
guess	-10893
shake	-10894
▁####	-10895
▁bulk	-10896
▁deps	-10897
instit	-10898
rolled	-10899
▁loads	-10900
▁looks	-10901
▁sites	-10902
SUCCESS	-10903
bitrary	-10904
consume	-10905
utility	-10906
▁Engine	-10907
▁moment	-10908
FilePath	-10909
capacity	-10910
chromium	-10911
▁expires	-10912
▁payment	-10913
Available	-10914
filenames	-10915
heartbeat	-10916
▁Audience	-10917
▁Password	-10918
▁physical	-10919
▁updating	-10920
▁workspace	-10921
▁precedence	-10922
Sa	-10923
UV	-10924
bld	-10925
pyx	-10926
▁@@	-10927
▁NS	-10928
▁rf	-10929
CUST	-10930
bidi	-10931
cean	-10932
▁RPC	-10933
▁SET	-10934
▁pul	-10935
Ctrlr	-10936
Retry	-10937
floor	-10938
ixmap	-10939
unted	-10940
▁''))	-10941
▁kill	-10942
'),)",	-10943
Macsec	-10944
cipher	-10945
▁'..',	-10946
▁Count	-10947
▁Mongo	-10948
▁green	-10949
▁maybe	-10950
▁vocab	-10951
CENDING	-10952
ctivity	-10953
stitute	-10954
LANGUAGE	-10955
Requests	-10956
Schedule	-10957
executor	-10958
statuses	-10959
▁However	-10960
▁Setting	-10961
▁binding	-10962
▁tensors	-10963
TestSuite	-10964
displayed	-10965
distances	-10966
levelname	-10967
separator	-10968
unication	-10969
ypothesis	-10970
▁mappings	-10971
▁together	-10972
MacsecCtrlr	-10973
-\	-10974
(("	-10975
**(	-10976
LEN	-10977
TRY	-10978
ens	-10979
iko	-10980
▁nr	-10981
▁nu	-10982
Blue	-10983
hold	-10984
rant	-10985
ylim	-10986
▁ALL	-10987
▁apk	-10988
▁eps	-10989
INDEX	-10990
ament	-10991
lling	-10992
posix	-10993
▁JOIN	-10994
▁csrf	-10995
▁flex	-10996
▁priv	-10997
▁prod	-10998
Raster	-10999
aneous	-11000
etched	-11001
markup	-11002
ussion	-11003
▁Child	-11004
CONTENT	-11005
imators	-11006
players	-11007
setattr	-11008
▁Schema	-11009
▁genome	-11010
Resolver	-11011
polation	-11012
▁Feature	-11013
▁checker	-11014
▁beginning	-11015
information	-11016
▁Management	-11017
▁contextlib	-11018
▁specifying	-11019
Ui	-11020
_"	-11021
ón	-11022
=_(	-11023
DAY	-11024
IOC	-11025
chi	-11026
▁	-11027
e	-11028
t	-11029
s	-11030
r	-11031
a	-11032
i	-11033
o	-11034
n	-11035
l	-11036
d	-11037
c	-11038
p	-11039
_	-11040
f	-11041
u	-11042
m	-11043
.	-11044
'	-11045
)	-11046
(	-11047
,	-11048
h	-11049
g	-11050
=	-11051
"	-11052
:	-11053
b	-11054
y	-11055
#	-11056
v	-11057
-	-11058
w	-11059
x	-11060
T	-11061
k	-11062
0	-11063
E	-11064
S	-11065
A	-11066
1	-11067
I	-11068
[	-11069
]	-11070
N	-11071
C	-11072
R	-11073
O	-11074
2	-11075
L	-11076
P	-11077
/	-11078
F	-11079
D	-11080
M	-11081
j	-11082
q	-11083
*	-11084
U	-11085
G	-11086
3	-11087
B	-11088
%	-11089
z	-11090
{	-11091
}	-11092
H	-11093
4	-11094
+	-11095
5	-11096
\	-11097
W	-11098
>	-11099
V	-11100
6	-11101
8	-11102
Y	-11103
9	-11104
7	-11105
`	-11106
<	-11107
K	-11108
X	-11109
@	-11110
Q	-11111
;	-11112
!	-11113
J	-11114
?	-11115
|	-11116
Z	-11117
$	-11118
&	-11119
^	-11120
~	-11121
о	-11122
и	-11123
а	-11124
 	-11125
е	-11126
н	-11127
é	-11128
р	-11129
т	-11130
的	-11131
в	-11132
с	-11133
л	-11134
й	-11135
ó	-11136
к	-11137
，	-11138
м	-11139
ü	-11140
í	-11141
у	-11142
д	-11143
п	-11144
á	-11145
ﾟ	-11146
数	-11147
用	-11148
з	-11149
―	-11150
ö	-11151
ı	-11152
α	-11153
ー	-11154
я	-11155
中	-11156
і	-11157
ο	-11158
ы	-11159
б	-11160
ь	-11161
ρ	-11162
文	-11163
の	-11164
ç	-11165
ð	-11166
出	-11167
是	-11168
个	-11169
取	-11170
有	-11171
成	-11172
è	-11173
г	-11174
不	-11175
ч	-11176
行	-11177
し	-11178
定	-11179
一	-11180
在	-11181
ä	-11182
ン	-11183
η	-11184
入	-11185
表	-11186
を	-11187
为	-11188
新	-11189
列	-11190
：	-11191
下	-11192
式	-11193
イ	-11194
ι	-11195
ú	-11196
이	-11197
存	-11198
要	-11199
à	-11200
字	-11201
程	-11202
σ	-11203
据	-11204
다	-11205
ς	-11206
以	-11207
ң	-11208
ル	-11209
号	-11210
请	-11211
件	-11212
加	-11213
最	-11214
©	-11215
č	-11216
。	-11217
位	-11218
时	-11219
’	-11220
可	-11221
為	-11222
π	-11223
ま	-11224
プ	-11225
法	-11226
理	-11227
码	-11228
置	-11229
ã	-11230
ă	-11231
页	-11232
ñ	-11233
户	-11234
本	-11235
示	-11236
П	-11237
ж	-11238
に	-11239
方	-11240
ε	-11241
、	-11242
ス	-11243
ト	-11244
上	-11245
名	-11246
息	-11247
获	-11248
除	-11249
ί	-11250
信	-11251
日	-11252
ν	-11253
使	-11254
第	-11255
如	-11256
果	-11257
题	-11258
Π	-11259
μ	-11260
Д	-11261
す	-11262
关	-11263
ß	-11264
ğ	-11265
С	-11266
ц	-11267
た	-11268
ッ	-11269
回	-11270
对	-11271
间	-11272
ш	-11273
器	-11274
查	-11275
š	-11276
τ	-11277
В	-11278
到	-11279
相	-11280
х	-11281
公	-11282
失	-11283
将	-11284
序	-11285
部	-11286
§	-11287
Б	-11288
る	-11289
組	-11290
δ	-11291
Т	-11292
ү	-11293
ア	-11294
输	-11295
て	-11296
で	-11297
れ	-11298
于	-11299
分	-11300
接	-11301
面	-11302
한	-11303
ê	-11304
作	-11305
参	-11306
发	-11307
所	-11308
求	-11309
证	-11310
载	-11311
需	-11312
い	-11313
了	-11314
î	-11315
ț	-11316
保	-11317
内	-11318
前	-11319
功	-11320
目	-11321
经	-11322
者	-11323
量	-11324
로	-11325
が	-11326
密	-11327
更	-11328
重	-11329
ş	-11330
К	-11331
フ	-11332
人	-11333
得	-11334
点	-11335
过	-11336
를	-11337
﻿	-11338
æ	-11339
ロ	-11340
会	-11341
否	-11342
大	-11343
始	-11344
次	-11345
生	-11346
编	-11347
²	-11348
λ	-11349
ό	-11350
ラ	-11351
リ	-11352
值	-11353
容	-11354
开	-11355
录	-11356
索	-11357
认	-11358
가	-11359
）	-11360
Τ	-11361
…	-11362
は	-11363
タ	-11364
テ	-11365
或	-11366
空	-11367
错	-11368
ｰ	-11369
ř	-11370
ύ	-11371
动	-11372
能	-11373
解	-11374
计	-11375
수	-11376
	-11377
Ε	-11378
υ	-11379
ケ	-11380
デ	-11381
务	-11382
后	-11383
地	-11384
处	-11385
类	-11386
问	-11387
는	-11388
의	-11389
지	-11390
（	-11391
	-11392
Α	-11393
χ	-11394
ф	-11395
ク	-11396
グ	-11397
ド	-11398
放	-11399
登	-11400
路	-11401
门	-11402
”	-11403
ョ	-11404
原	-11405
提	-11406
标	-11407
默	-11408
ě	-11409
“	-11410
ァ	-11411
众	-11412
化	-11413
单	-11414
座	-11415
格	-11416
消	-11417
结	-11418
试	-11419
М	-11420
シ	-11421
建	-11422
期	-11423
章	-11424
等	-11425
验	-11426
을	-11427
자	-11428
호	-11429
·	-11430
ý	-11431
Θ	-11432
Н	-11433
图	-11434
圖	-11435
型	-11436
复	-11437
并	-11438
径	-11439
指	-11440
收	-11441
效	-11442
服	-11443
繪	-11444
线	-11445
群	-11446
返	-11447
进	-11448
配	-11449
사	-11450
！	-11451
З	-11452
щ	-11453
–	-11454
と	-11455
事	-11456
函	-11457
删	-11458
搜	-11459
正	-11460
称	-11461
端	-11462
节	-11463
误	-11464
에	-11465
트	-11466
µ	-11467
ė	-11468
ș	-11469
ή	-11470
А	-11471
ю	-11472
ا	-11473
—	-11474
さ	-11475
な	-11476
元	-11477
制	-11478
度	-11479
影	-11480
情	-11481
来	-11482
电	-11483
管	-11484
统	-11485
网	-11486
这	-11487
리	-11488
문	-11489
ž	-11490
书	-11491
则	-11492
削	-11493
合	-11494
客	-11495
当	-11496
找	-11497
改	-11498
断	-11499
显	-11500
模	-11501
设	-11502
说	-11503
调	-11504
º	-11505
ά	-11506
ل	-11507
ي	-11508
ジ	-11509
串	-11510
全	-11511
其	-11512
子	-11513
後	-11514
报	-11515
排	-11516
每	-11517
流	-11518
画	-11519
算	-11520
送	-11521
通	-11522
어	-11523
하	-11524
å	-11525
ø	-11526
ł	-11527
κ	-11528
Л	-11529
О	-11530
э	-11531
か	-11532
パ	-11533
レ	-11534
命	-11535
小	-11536
就	-11537
已	-11538
库	-11539
必	-11540
未	-11541
根	-11542
清	-11543
现	-11544
畫	-11545
自	-11546
营	-11547
败	-11548
開	-11549
限	-11550
项	-11551
기	-11552
»	-11553
â	-11554
Σ	-11555
Ч	-11556
Я	-11557
া	-11558
‘	-11559
セ	-11560
义	-11561
共	-11562
同	-11563
天	-11564
实	-11565
无	-11566
条	-11567
没	-11568
添	-11569
符	-11570
签	-11571
话	-11572
选	-11573
键	-11574
频	-11575
게	-11576
스	-11577
ω	-11578
Г	-11579
Р	-11580
₀	-11581
ら	-11582
万	-11583
主	-11584
交	-11585
代	-11586
包	-11587
及	-11588
变	-11589
因	-11590
址	-11591
态	-11592
执	-11593
换	-11594
明	-11595
检	-11596
片	-11597
询	-11598
该	-11599
轉	-11600
首	-11601
암	-11602
°	-11603
ë	-11604
И	-11605
こ	-11606
从	-11607
你	-11608
员	-11609
執	-11610
導	-11611
引	-11612
机	-11613
標	-11614
止	-11615
段	-11616
特	-11617
軸	-11618
近	-11619
隔	-11620
서	-11621
¿	-11622
Ö	-11623
ś	-11624
Κ	-11625
Μ	-11626
ώ	-11627
ブ	-11628
例	-11629
內	-11630
判	-11631
按	-11632
數	-11633
星	-11634
板	-11635
秒	-11636
移	-11637
線	-11638
規	-11639
词	-11640
译	-11641
课	-11642
队	-11643
音	-11644
额	-11645
복	-11646
은	-11647
일	-11648
화	-11649
Ó	-11650
Χ	-11651
θ	-11652
Е	-11653
ে	-11654
⟂	-11655
ュ	-11656
修	-11657
停	-11658
写	-11659
口	-11660
多	-11661
學	-11662
完	-11663
對	-11664
工	-11665
应	-11666
性	-11667
批	-11668
案	-11669
此	-11670
注	-11671
義	-11672
英	-11673
號	-11674
設	-11675
详	-11676
시	-11677
Ã	-11678
Ü	-11679
Þ	-11680
ć	-11681
̪	-11682
ب	-11683
ी	-11684
்	-11685
き	-11686
せ	-11687
へ	-11688
り	-11689
ん	-11690
且	-11691
产	-11692
任	-11693
传	-11694
去	-11695
只	-11696
国	-11697
增	-11698
布	-11699
打	-11700
料	-11701
時	-11702
洗	-11703
然	-11704
确	-11705
组	-11706
色	-11707
被	-11708
视	-11709
转	-11710
間	-11711
과	-11712
용	-11713
으	-11714
임	-11715
점	-11716
체	-11717
해	-11718
ﾉ	-11719
Γ	-11720
έ	-11721
γ	-11722
ψ	-11723
　	-11724
つ	-11725
コ	-11726
ㅋ	-11727
再	-11728
利	-11729
則	-11730
動	-11731
各	-11732
実	-11733
常	-11734
手	-11735
推	-11736
析	-11737
架	-11738
榜	-11739
