<pad>	0
<unk>	0
<s>	0
</s>	0
<0x00>	0
<0x01>	0
<0x02>	0
<0x03>	0
<0x04>	0
<0x05>	0
<0x06>	0
<0x07>	0
<0x08>	0
<0x09>	0
<0x0A>	0
<0x0B>	0
<0x0C>	0
<0x0D>	0
<0x0E>	0
<0x0F>	0
<0x10>	0
<0x11>	0
<0x12>	0
<0x13>	0
<0x14>	0
<0x15>	0
<0x16>	0
<0x17>	0
<0x18>	0
<0x19>	0
<0x1A>	0
<0x1B>	0
<0x1C>	0
<0x1D>	0
<0x1E>	0
<0x1F>	0
<0x20>	0
<0x21>	0
<0x22>	0
<0x23>	0
<0x24>	0
<0x25>	0
<0x26>	0
<0x27>	0
<0x28>	0
<0x29>	0
<0x2A>	0
<0x2B>	0
<0x2C>	0
<0x2D>	0
<0x2E>	0
<0x2F>	0
<0x30>	0
<0x31>	0
<0x32>	0
<0x33>	0
<0x34>	0
<0x35>	0
<0x36>	0
<0x37>	0
<0x38>	0
<0x39>	0
<0x3A>	0
<0x3B>	0
<0x3C>	0
<0x3D>	0
<0x3E>	0
<0x3F>	0
<0x40>	0
<0x41>	0
<0x42>	0
<0x43>	0
<0x44>	0
<0x45>	0
<0x46>	0
<0x47>	0
<0x48>	0
<0x49>	0
<0x4A>	0
<0x4B>	0
<0x4C>	0
<0x4D>	0
<0x4E>	0
<0x4F>	0
<0x50>	0
<0x51>	0
<0x52>	0
<0x53>	0
<0x54>	0
<0x55>	0
<0x56>	0
<0x57>	0
<0x58>	0
<0x59>	0
<0x5A>	0
<0x5B>	0
<0x5C>	0
<0x5D>	0
<0x5E>	0
<0x5F>	0
<0x60>	0
<0x61>	0
<0x62>	0
<0x63>	0
<0x64>	0
<0x65>	0
<0x66>	0
<0x67>	0
<0x68>	0
<0x69>	0
<0x6A>	0
<0x6B>	0
<0x6C>	0
<0x6D>	0
<0x6E>	0
<0x6F>	0
<0x70>	0
<0x71>	0
<0x72>	0
<0x73>	0
<0x74>	0
<0x75>	0
<0x76>	0
<0x77>	0
<0x78>	0
<0x79>	0
<0x7A>	0
<0x7B>	0
<0x7C>	0
<0x7D>	0
<0x7E>	0
<0x7F>	0
<0x80>	0
<0x81>	0
<0x82>	0
<0x83>	0
<0x84>	0
<0x85>	0
<0x86>	0
<0x87>	0
<0x88>	0
<0x89>	0
<0x8A>	0
<0x8B>	0
<0x8C>	0
<0x8D>	0
<0x8E>	0
<0x8F>	0
<0x90>	0
<0x91>	0
<0x92>	0
<0x93>	0
<0x94>	0
<0x95>	0
<0x96>	0
<0x97>	0
<0x98>	0
<0x99>	0
<0x9A>	0
<0x9B>	0
<0x9C>	0
<0x9D>	0
<0x9E>	0
<0x9F>	0
<0xA0>	0
<0xA1>	0
<0xA2>	0
<0xA3>	0
<0xA4>	0
<0xA5>	0
<0xA6>	0
<0xA7>	0
<0xA8>	0
<0xA9>	0
<0xAA>	0
<0xAB>	0
<0xAC>	0
<0xAD>	0
<0xAE>	0
<0xAF>	0
<0xB0>	0
<0xB1>	0
<0xB2>	0
<0xB3>	0
<0xB4>	0
<0xB5>	0
<0xB6>	0
<0xB7>	0
<0xB8>	0
<0xB9>	0
<0xBA>	0
<0xBB>	0
<0xBC>	0
<0xBD>	0
<0xBE>	0
<0xBF>	0
<0xC0>	0
<0xC1>	0
<0xC2>	0
<0xC3>	0
<0xC4>	0
<0xC5>	0
<0xC6>	0
<0xC7>	0
<0xC8>	0
<0xC9>	0
<0xCA>	0
<0xCB>	0
<0xCC>	0
<0xCD>	0
<0xCE>	0
<0xCF>	0
<0xD0>	0
<0xD1>	0
<0xD2>	0
<0xD3>	0
<0xD4>	0
<0xD5>	0
<0xD6>	0
<0xD7>	0
<0xD8>	0
<0xD9>	0
<0xDA>	0
<0xDB>	0
<0xDC>	0
<0xDD>	0
<0xDE>	0
<0xDF>	0
<0xE0>	0
<0xE1>	0
<0xE2>	0
<0xE3>	0
<0xE4>	0
<0xE5>	0
<0xE6>	0
<0xE7>	0
<0xE8>	0
<0xE9>	0
<0xEA>	0
<0xEB>	0
<0xEC>	0
<0xED>	0
<0xEE>	0
<0xEF>	0
<0xF0>	0
<0xF1>	0
<0xF2>	0
<0xF3>	0
<0xF4>	0
<0xF5>	0
<0xF6>	0
<0xF7>	0
<0xF8>	0
<0xF9>	0
<0xFA>	0
<0xFB>	0
<0xFC>	0
<0xFD>	0
<0xFE>	0
<0xFF>	0
▁|	-0
可以	-1
er	-2
一个	-3
an	-4
in	-5
on	-6
▁答	-7
▁问	-8
▁-	-9
▁||	-10
），	-11
使用	-12
or	-13
en	-14
ar	-15
al	-16
at	-17
es	-18
▁(	-19
中国	-20
th	-21
▁S	-22
提供	-23
研究	-24
政府	-25
▁C	-26
ic	-27
st	-28
公司	-29
日本	-30
香港	-31
可能	-32
世界	-33
包括	-34
▁A	-35
le	-36
通过	-37
第一	-38
）。	-39
数据	-40
中的	-41
主要	-42
是一	-43
需要	-44
it	-45
▁P	-46
▁M	-47
以及	-48
不同	-49
进行	-50
其他	-51
我们	-52
▁T	-53
行星	-54
工作	-55
的一	-56
▁在	-57
自己	-58
is	-59
re	-60
人民	-61
中國	-62
部分	-63
el	-64
▁《	-65
ro	-66
||	-67
小行星	-68
因此	-69
重要	-70
ion	-71
▁B	-72
其中	-73
能够	-74
美國	-75
ol	-76
美国	-77
问题	-78
国家	-79
ch	-80
一些	-81
▁o	-82
他们	-83
文化	-84
）、	-85
am	-86
例如	-87
政治	-88
大学	-89
ing	-90
第二	-91
帮助	-92
ou	-93
人口	-94
▁th	-95
▁I	-96
技术	-97
and	-98
这个	-99
信息	-100
大的	-101
▁D	-102
以下	-103
▁L	-104
as	-105
台灣	-106
系统	-107
之一	-108
时间	-109
代表	-110
生活	-111
om	-112
▁R	-113
学习	-114
大學	-115
▁of	-116
中央	-117
ed	-118
▁H	-119
il	-120
教育	-121
这些	-122
▁=	-123
通常	-124
管理	-125
et	-126
根据	-127
方式	-128
影响	-129
所有	-130
中心	-131
▁G	-132
他的	-133
ent	-134
ac	-135
——	-136
》，	-137
人的	-138
如果	-139
成為	-140
一個	-141
id	-142
」，	-143
共和	-144
上的	-145
开始	-146
计算	-147
”。	-148
建立	-149
▁the	-150
地区	-151
▁F	-152
方法	-153
▁E	-154
》（	-155
us	-156
支持	-157
城市	-158
表示	-159
he	-160
ig	-161
▁p	-162
的人	-163
▁s	-164
▁W	-165
成立	-166
▁c	-167
開始	-168
发展	-169
方面	-170
”，	-171
非常	-172
成为	-173
電視	-174
」。	-175
智能	-176
zh	-177
用户	-178
▁d	-179
提高	-180
▁N	-181
经济	-182
没有	-183
ur	-184
客户	-185
能力	-186
语言	-187
▁f	-188
▁t	-189
國家	-190
是一个	-191
▁小行星	-192
完成	-193
社会	-194
um	-195
年的	-196
具有	-197
作品	-198
设计	-199
服务	-200
年代	-201
选择	-202
它们	-203
行政	-204
但是	-205
▁b	-206
工程	-207
沒有	-208
之间	-209
}-	-210
▁（	-211
正式	-212
自然	-213
``	-214
认为	-215
分析	-216
作为	-217
运动	-218
存在	-219
出版	-220
認為	-221
中華	-222
安全	-223
许多	-224
科学	-225
成功	-226
ad	-227
增加	-228
自己的	-229
因為	-230
電影	-231
描述	-232
北京	-233
也是	-234
un	-235
委员	-236
事件	-237
由于	-238
▁m	-239
▁in	-240
到了	-241
活动	-242
大量	-243
iv	-244
由於	-245
地區	-246
▁and	-247
同时	-248
应用	-249
公里	-250
運動	-251
模型	-252
获得	-253
人工	-254
所以	-255
减少	-256
此外	-257
臺灣	-258
-{	-259
自由	-260
就是	-261
▁"	-262
健康	-263
進行	-264
两个	-265
第三	-266
控制	-267
产品	-268
一般	-269
历史	-270
故事	-271
ation	-272
▁J	-273
ag	-274
地方	-275
因为	-276
好的	-277
生物	-278
交通	-279
：“	-280
用于	-281
ers	-282
》、	-283
im	-284
的是	-285
當時	-286
处理	-287
新的	-288
定的	-289
▁O	-290
（）	-291
受到	-292
组织	-293
英國	-294
出生	-295
造成	-296
位于	-297
主义	-298
形成	-299
程序	-300
ow	-301
目前	-302
他們	-303
--	-304
提出	-305
全球	-306
發展	-307
过程	-308
上海	-309
要求	-310
了一	-311
em	-312
不同的	-313
保护	-314
加入	-315
人类	-316
都是	-317
计划	-318
國際	-319
之後	-320
ct	-321
ay	-322
人民共和	-323
有一	-324
od	-325
ul	-326
▁w	-327
更多	-328
利用	-329
环境	-330
这种	-331
功能	-332
合作	-333
位於	-334
电影	-335
情况	-336
印度	-337
中华	-338
）：	-339
网络	-340
▁a	-341
最高	-342
任何	-343
什么	-344
ot	-345
▁K	-346
保持	-347
国际	-348
解决	-349
ut	-350
》、《	-351
关于	-352
ir	-353
系統	-354
大利	-355
产生	-356
近地	-357
然而	-358
世纪	-359
革命	-360
民國	-361
民主	-362
您的	-363
动物	-364
os	-365
生成	-366
稱為	-367
机器	-368
社會	-369
。”	-370
全国	-371
植物	-372
系列	-373
学院	-374
关系	-375
需求	-376
▁n	-377
近地小行星	-378
希望	-379
委員	-380
得到	-381
的大	-382
有效	-383
同時	-384
内容	-385
人们	-386
性的	-387
人工智能	-388
時間	-389
导致	-390
音樂	-391
著名	-392
ist	-393
不是	-394
是一种	-395
如何	-396
游戏	-397
发现	-398
拥有	-399
英国	-400
目标	-401
发生	-402
一起	-403
▁林	-404
学生	-405
或者	-406
op	-407
ia	-408
元素	-409
包含	-410
最後	-411
ap	-412
og	-413
▁V	-414
这一	-415
开发	-416
ter	-417
结构	-418
出現	-419
人物	-420
基本	-421
作用	-422
角色	-423
獲得	-424
民族	-425
小组	-426
生产	-427
han	-428
形式	-429
直接	-430
创建	-431
对于	-432
是在	-433
最佳	-434
建议	-435
接受	-436
主席	-437
企业	-438
相关	-439
時期	-440
网站	-441
政策	-442
也有	-443
出现	-444
确定	-445
称为	-446
影響	-447
算法	-448
地球	-449
一直	-450
已经	-451
足球	-452
不能	-453
av	-454
只有	-455
逝世	-456
变化	-457
作為	-458
很多	-459
实现	-460
学校	-461
文章	-462
委员会	-463
發現	-464
个人	-465
="	-466
时期	-467
计算机	-468
建筑	-469
》。	-470
电子	-471
ce	-472
if	-473
主義	-474
快速	-475
重要的	-476
設計	-477
取得	-478
无法	-479
▁+	-480
▁l	-481
法国	-482
經濟	-483
并且	-484
任务	-485
注意	-486
结果	-487
▁索	-488
許多	-489
ex	-490
航空	-491
斯特	-492
學家	-493
是否	-494
：「	-495
另外	-496
」（	-497
這些	-498
後來	-499
二十	-500
甚至	-501
學校	-502
科罗	-503
歷史	-504
中共	-505
▁U	-506
ess	-507
ri	-508
除了	-509
人民共和国	-510
行的	-511
平方	-512
世紀	-513
铁路	-514
一种	-515
▁林肯	-516
有限	-517
之前	-518
法律	-519
ht	-520
数字	-521
..	-522
平均	-523
了解	-524
國民	-525
战争	-526
學院	-527
▁索科罗	-528
同年	-529
完全	-530
确保	-531
中華民國	-532
研究小组	-533
▁林肯近地小行星	-534
位置	-535
▁，	-536
不断	-537
ab	-538
原因	-539
物理	-540
▁林肯近地小行星研究小组	-541
發生	-542
▁St	-543
之后	-544
▁The	-545
這個	-546
，《	-547
▁第	-548
学家	-549
速度	-550
列表	-551
共同	-552
会议	-553
重新	-554
總統	-555
市场	-556
各种	-557
媒体	-558
分布	-559
中华人民共和国	-560
应该	-561
决定	-562
目的	-563
音乐	-564
用的	-565
演員	-566
問題	-567
文本	-568
这样	-569
而且	-570
▁大	-571
成員	-572
句子	-573
当时	-574
领域	-575
软件	-576
遊戲	-577
它的	-578
家庭	-579
为了	-580
服務	-581
之间的	-582
組織	-583
oc	-584
能源	-585
關係	-586
领导	-587
▁的	-588
一次	-589
最终	-590
使得	-591
直到	-592
组成	-593
```	-594
出的	-595
可能会	-596
（），	-597
地的	-598
之間	-599
活動	-600
)，	-601
最后	-602
德国	-603
宗教	-604
制度	-605
宣布	-606
擔任	-607
主教	-608
者的	-609
工具	-610
方案	-611
解释	-612
期間	-613
总统	-614
學生	-615
▁In	-616
首次	-617
资源	-618
工业	-619
理解	-620
公共	-621
▁```	-622
▁to	-623
雖然	-624
更加	-625
皇帝	-626
来的	-627
節目	-628
版本	-629
操作	-630
模式	-631
官方	-632
SB	-633
面积	-634
法國	-635
為了	-636
戰爭	-637
食物	-638
車站	-639
ew	-640
另一	-641
▁/	-642
ell	-643
更好	-644
以上	-645
气候	-646
命名	-647
美元	-648
部的	-649
ign	-650
是由	-651
主持	-652
前往	-653
类型	-654
避免	-655
电视	-656
ub	-657
函数	-658
分类	-659
子的	-660
天文	-661
根據	-662
製作	-663
委員會	-664
质量	-665
科技	-666
交流	-667
朋友	-668
艺术	-669
参与	-670
然后	-671
促进	-672
三个	-673
斯坦	-674
的特	-675
基础	-676
十二	-677
概念	-678
他在	-679
ov	-680
吸引	-681
大陆	-682
▁st	-683
都有	-684
▁h	-685
大多	-686
联合	-687
的主	-688
已經	-689
eb	-690
从而	-691
歌手	-692
仍然	-693
人员	-694
期间	-695
化的	-696
参加	-697
中文	-698
独立	-699
女性	-700
找到	-701
教授	-702
材料	-703
帝國	-704
简单	-705
。」	-706
项目	-707
最大	-708
的一个	-709
時代	-710
的主要	-711
ity	-712
西班	-713
随着	-714
ec	-715
公路	-716
可以通过	-717
社交	-718
相同	-719
西班牙	-720
德國	-721
死亡	-722
歌曲	-723
汽车	-724
特別	-725
思想	-726
ran	-727
▁v	-728
▁for	-729
附近	-730
的影响	-731
對於	-732
进入	-733
增长	-734
建築	-735
更好地	-736
定义	-737
立法	-738
通過	-739
下的	-740
设备	-741
年至	-742
蒙古	-743
输入	-744
基督	-745
ine	-746
每个	-747
ind	-748
ra	-749
的新	-750
传统	-751
意大利	-752
制作	-753
面的	-754
年出生	-755
森林	-756
ev	-757
：《	-758
识别	-759
▁re	-760
歐洲	-761
est	-762
年逝世	-763
▁总	-764
唯一	-765
方向	-766
__	-767
擁有	-768
首先	-769
感到	-770
欧洲	-771
实际	-772
是指	-773
ard	-774
SBN	-775
不過	-776
再次	-777
int	-778
行为	-779
标准	-780
地位	-781
因素	-782
」、	-783
属于	-784
聯合	-785
all	-786
並且	-787
決定	-788
的名	-789
太阳	-790
第四	-791
改革	-792
比较	-793
力量	-794
ill	-795
帝国	-796
第一次	-797
成员	-798
自治	-799
居民	-800
采用	-801
力的	-802
氧化	-803
理论	-804
表达	-805
效率	-806
ge	-807
art	-808
预测	-809
分別	-810
文字	-811
机构	-812
ord	-813
產生	-814
成本	-815
早期	-816
ak	-817
獨立	-818
建设	-819
進入	-820
台北	-821
知识	-822
现代	-823
▁Ch	-824
▁[	-825
▁新	-826
最大的	-827
ep	-828
提供了	-829
色的	-830
文件	-831
大陸	-832
疾病	-833
作家	-834
执行	-835
巴士	-836
持续	-837
南京	-838
训练	-839
措施	-840
团队	-841
降低	-842
罗斯	-843
你的	-844
带来	-845
复杂	-846
選舉	-847
国王	-848
创造	-849
和平	-850
例子	-851
出了	-852
有的	-853
体的	-854
兩個	-855
（，	-856
▁#	-857
有限公司	-858
ue	-859
博物	-860
她的	-861
阿拉	-862
ud	-863
尼亚	-864
的重要	-865
共产	-866
负责	-867
改变	-868
無法	-869
ort	-870
实验	-871
參與	-872
精神	-873
代码	-874
冠軍	-875
用来	-876
會議	-877
才能	-878
The	-879
分别	-880
助于	-881
動畫	-882
可以在	-883
一步	-884
北部	-885
align	-886
我们的	-887
正在	-888
专业	-889
自动	-890
限制	-891
ate	-892
克斯	-893
解放	-894
污染	-895
现在	-896
ber	-897
東京	-898
ok	-899
更多的	-900
yth	-901
羅斯	-902
加拿	-903
分子	-904
知道	-905
土地	-906
se	-907
王朝	-908
收入	-909
还有	-910
最終	-911
不可	-912
反应	-913
外交	-914
制定	-915
可以帮助	-916
南部	-917
▁Y	-918
罗马	-919
病毒	-920
他们的	-921
单位	-922
名為	-923
投资	-924
語言	-925
出版社	-926
太空	-927
准备	-928
新聞	-929
量的	-930
▁中国	-931
最早	-932
以便	-933
来自	-934
比如	-935
%。	-936
▁<	-937
人士	-938
太平	-939
考虑	-940
三年	-941
ip	-942
屬於	-943
。（	-944
一年	-945
按照	-946
我的	-947
搜索	-948
容易	-949
改善	-950
▁y	-951
，“	-952
程度	-953
生命	-954
演唱	-955
大部分	-956
」、「	-957
ian	-958
医疗	-959
技術	-960
的小	-961
字母	-962
nd	-963
發行	-964
專輯	-965
主任	-966
來自	-967
步骤	-968
的情	-969
組成	-970
共有	-971
心理	-972
军事	-973
也可以	-974
%，	-975
英文	-976
年度	-977
ive	-978
空间	-979
连接	-980
不仅	-981
结束	-982
准确	-983
公元	-984
引起	-985
藝術	-986
▁这	-987
人類	-988
调整	-989
方程	-990
羅馬	-991
臺北	-992
導致	-993
积极	-994
指出	-995
部份	-996
▁g	-997
丰富	-998
鐵路	-999
著名的	-1000
细胞	-1001
多种	-1002
機場	-1003
科學	-1004
負責	-1005
流行	-1006
策略	-1007
▁「	-1008
采取	-1009
女子	-1010
列出	-1011
孩子	-1012
平台	-1013
法院	-1014
結束	-1015
范围	-1016
继续	-1017
输出	-1018
our	-1019
傳統	-1020
化学	-1021
高速	-1022
比賽	-1023
交易	-1024
记录	-1025
計劃	-1026
的意	-1027
努力	-1028
使用的	-1029
身体	-1030
”（	-1031
ython	-1032
有关	-1033
等人	-1034
加拿大	-1035
原子	-1036
苏联	-1037
十分	-1038
▁de	-1039
ff	-1040
資料	-1041
飾演	-1042
道路	-1043
返回	-1044
字符	-1045
在此	-1046
▁中	-1047
居住	-1048
有些	-1049
ie	-1050
舉行	-1051
普通	-1052
▁r	-1053
背景	-1054
多的	-1055
高的	-1056
推出	-1057
的方式	-1058
来说	-1059
）（	-1060
体验	-1061
現代	-1062
表现	-1063
机器学习	-1064
能量	-1065
虽然	-1066
金融	-1067
ack	-1068
韓國	-1069
▁和	-1070
聯盟	-1071
分为	-1072
ith	-1073
排名	-1074
安排	-1075
有助于	-1076
電視台	-1077
相關	-1078
海洋	-1079
主角	-1080
這種	-1081
购买	-1082
喜欢	-1083
ass	-1084
决策	-1085
第二次	-1086
朝鲜	-1087
hans	-1088
压力	-1089
名为	-1090
收集	-1091
后来	-1092
亞洲	-1093
全部	-1094
性和	-1095
來的	-1096
加上	-1097
演出	-1098
天津	-1099
过程中	-1100
经过	-1101
團體	-1102
ae	-1103
有關	-1104
尼亞	-1105
品牌	-1106
广泛	-1107
參加	-1108
价格	-1109
至今	-1110
二世	-1111
現在	-1112
水平	-1113
個人	-1114
集中	-1115
员工	-1116
一世	-1117
▁*	-1118
up	-1119
武器	-1120
越南	-1121
您可以	-1122
;}-	-1123
tw	-1124
殖民	-1125
常见	-1126
結果	-1127
ik	-1128
第十	-1129
发布	-1130
葡萄	-1131
左右	-1132
及其	-1133
生產	-1134
书记	-1135
某些	-1136
作曲	-1137
超過	-1138
不少	-1139
的地	-1140
一位	-1141
区域	-1142
联系	-1143
机会	-1144
每年	-1145
司令	-1146
取代	-1147
整个	-1148
但在	-1149
运行	-1150
利亚	-1151
II	-1152
新闻	-1153
大量的	-1154
访问	-1155
之外	-1156
助手	-1157
ext	-1158
时代	-1159
约翰	-1160
创作	-1161
提升	-1162
人在	-1163
家族	-1164
身份	-1165
ang	-1166
比赛	-1167
高度	-1168
”、	-1169
開發	-1170
担任	-1171
农业	-1172
的方法	-1173
NA	-1174
空气	-1175
核心	-1176
去世	-1177
最初	-1178
的工作	-1179
ob	-1180
▁zh	-1181
这里	-1182
行動	-1183
特征	-1184
挑战	-1185
佛教	-1186
风险	-1187
未来	-1188
相當	-1189
單位	-1190
博士	-1191
显示	-1192
共产党	-1193
存储	-1194
必須	-1195
攻擊	-1196
ight	-1197
西方	-1198
age	-1199
澳門	-1200
▁阿	-1201
应用程序	-1202
只是	-1203
十年	-1204
全國	-1205
ant	-1206
如下	-1207
和其他	-1208
增强	-1209
公园	-1210
邮件	-1211
社交媒体	-1212
ry	-1213
▁总之	-1214
▁李	-1215
并在	-1216
有所	-1217
商业	-1218
end	-1219
等地	-1220
少年	-1221
看到	-1222
基于	-1223
建造	-1224
数量	-1225
并不	-1226
为您	-1227
创建一个	-1228
qu	-1229
太陽	-1230
条件	-1231
enter	-1232
那么	-1233
▁。	-1234
宇宙	-1235
電子	-1236
sp	-1237
玩家	-1238
▁on	-1239
ect	-1240
ast	-1241
颜色	-1242
后的	-1243
评估	-1244
超过	-1245
一名	-1246
多次	-1247
公民	-1248
美洲	-1249
展示	-1250
軍事	-1251
排放	-1252
路線	-1253
营销	-1254
温度	-1255
内的	-1256
三角	-1257
价值	-1258
这是	-1259
巴黎	-1260
神经	-1261
物质	-1262
销售	-1263
一定	-1264
效果	-1265
特别	-1266
透過	-1267
理論	-1268
國立	-1269
银行	-1270
集团	-1271
了一个	-1272
英格	-1273
当地	-1274
發表	-1275
观点	-1276
达到	-1277
而在	-1278
国民	-1279
下面	-1280
移动	-1281
將軍	-1282
食品	-1283
的事	-1284
俄罗斯	-1285
特殊	-1286
處理	-1287
動物	-1288
ft	-1289
年在	-1290
世界上	-1291
繼續	-1292
技能	-1293
拉斯	-1294
基因	-1295
测试	-1296
男子	-1297
在线	-1298
▁香港	-1299
不再	-1300
大型	-1301
▁“	-1302
旅行	-1303
▁本	-1304
所在	-1305
利亞	-1306
严重	-1307
高等	-1308
数学	-1309
关键	-1310
集團	-1311
ong	-1312
蛋白	-1313
小說	-1314
機構	-1315
天主教	-1316
必须	-1317
的研究	-1318
检查	-1319
非洲	-1320
平方公里	-1321
引擎	-1322
第五	-1323
作者	-1324
特的	-1325
ich	-1326
文學	-1327
小说	-1328
海軍	-1329
军队	-1330
主题	-1331
----	-1332
紀念	-1333
中學	-1334
首都	-1335
起来	-1336
):	-1337
街道	-1338
满足	-1339
基金	-1340
相似	-1341
巨大的	-1342
hk	-1343
职业	-1344
行為	-1345
里斯	-1346
▁Un	-1347
不久	-1348
句话	-1349
而是	-1350
州市	-1351
內容	-1352
公司的	-1353
做出	-1354
議員	-1355
机器人	-1356
消费	-1357
文学	-1358
行动	-1359
电脑	-1360
父親	-1361
中国大陆	-1362
AI	-1363
ld	-1364
▁高	-1365
统治	-1366
運動員	-1367
原本	-1368
▁x	-1369
ary	-1370
”、“	-1371
湖南	-1372
ey	-1373
的地方	-1374
定期	-1375
，「	-1376
单词	-1377
ont	-1378
工業	-1379
四年	-1380
公園	-1381
不过	-1382
机场	-1383
St	-1384
只能	-1385
採用	-1386
戰鬥	-1387
ial	-1388
青年	-1389
標準	-1390
可能是	-1391
设置	-1392
具体	-1393
相对	-1394
人員	-1395
埃及	-1396
状态	-1397
的信息	-1398
手机	-1399
尤其	-1400
▁–	-1401
四川	-1402
部隊	-1403
情况下	-1404
改為	-1405
漫畫	-1406
时候	-1407
nt	-1408
分為	-1409
或是	-1410
下降	-1411
列車	-1412
可以使用	-1413
反對	-1414
清朝	-1415
民国	-1416
▁是	-1417
顯示	-1418
星期	-1419
鼓励	-1420
兄弟	-1421
表演	-1422
威廉	-1423
遭到	-1424
规模	-1425
成的	-1426
用於	-1427
的问题	-1428
古代	-1429
方的	-1430
俄羅斯	-1431
統治	-1432
相互	-1433
苹果	-1434
更新	-1435
元年	-1436
性能	-1437
伊斯	-1438
迅速	-1439
意味	-1440
ib	-1441
基地	-1442
几个	-1443
国务	-1444
世界大	-1445
西北	-1446
▁`	-1447
反对	-1448
正确	-1449
的数据	-1450
中共中央	-1451
规划	-1452
报告	-1453
▁Pr	-1454
普遍	-1455
各地	-1456
表面	-1457
rom	-1458
设立	-1459
联网	-1460
實際	-1461
orm	-1462
)。	-1463
中学	-1464
國王	-1465
命令	-1466
oh	-1467
的前	-1468
风格	-1469
海拔	-1470
地下	-1471
沟通	-1472
保護	-1473
混合	-1474
為主	-1475
市場	-1476
ows	-1477
方便	-1478
五年	-1479
逐渐	-1480
添加	-1481
區域	-1482
修改	-1483
防止	-1484
拉克	-1485
形象	-1486
▁is	-1487
年起	-1488
計畫	-1489
ust	-1490
自行	-1491
错误	-1492
多个	-1493
比例	-1494
西南	-1495
pt	-1496
面積	-1497
福建	-1498
ER	-1499
我們	-1500
中山	-1501
联邦	-1502
保留	-1503
万人	-1504
的故事	-1505
AR	-1506
制造	-1507
往往	-1508
▁一	-1509
每天	-1510
发表	-1511
環境	-1512
▁.	-1513
und	-1514
名的	-1515
十六	-1516
标志	-1517
警察	-1518
ies	-1519
调查	-1520
。《	-1521
▁ISBN	-1522
是什么	-1523
符合	-1524
锻炼	-1525
信仰	-1526
部长	-1527
商品	-1528
經過	-1529
小时	-1530
▁'	-1531
ory	-1532
公主	-1533
同意	-1534
加坡	-1535
回到	-1536
大会	-1537
投入	-1538
给定	-1539
ment	-1540
過程	-1541
浙江	-1542
如此	-1543
com	-1544
至少	-1545
不得	-1546
两种	-1547
接近	-1548
河南	-1549
前的	-1550
河流	-1551
西亚	-1552
的一個	-1553
研究所	-1554
議會	-1555
播出	-1556
範圍	-1557
移民	-1558
調查	-1559
是一個	-1560
生长	-1561
大臣	-1562
基督教	-1563
表明	-1564
▁王	-1565
恢复	-1566
名字	-1567
紀錄	-1568
▁pr	-1569
eg	-1570
ng	-1571
旅游	-1572
球員	-1573
投票	-1574
气候变化	-1575
著作	-1576
於是	-1577
初期	-1578
大小	-1579
本身	-1580
其後	-1581
阿拉伯	-1582
上升	-1583
："	-1584
ook	-1585
先生	-1586
生态	-1587
能夠	-1588
商業	-1589
将其	-1590
蘇聯	-1591
不會	-1592
曾經	-1593
转换	-1594
图像	-1595
的高	-1596
地理	-1597
的发展	-1598
執行	-1599
ish	-1600
舉辦	-1601
被称为	-1602
西部	-1603
统计	-1604
那些	-1605
yle	-1606
斯的	-1607
並在	-1608
ame	-1609
分钟	-1610
探索	-1611
如果您	-1612
夏季	-1613
電腦	-1614
成了	-1615
举行	-1616
任命	-1617
外的	-1618
不要	-1619
批准	-1620
軍隊	-1621
學者	-1622
▁年	-1623
停止	-1624
距离	-1625
iz	-1626
ice	-1627
类似	-1628
失去	-1629
ph	-1630
等等	-1631
物种	-1632
▁Pro	-1633
一样	-1634
內的	-1635
获取	-1636
當地	-1637
规定	-1638
优化	-1639
特定	-1640
魔法	-1641
君主	-1642
製造	-1643
其它	-1644
斯科	-1645
center	-1646
英雄	-1647
設有	-1648
ear	-1649
隨著	-1650
還有	-1651
物品	-1652
公尺	-1653
尽管	-1654
不足	-1655
东北	-1656
▁小	-1657
"|	-1658
讨论	-1659
文物	-1660
ide	-1661
部队	-1662
球隊	-1663
今天	-1664
完整	-1665
ens	-1666
来源	-1667
ure	-1668
真正	-1669
而言	-1670
ain	-1671
col	-1672
日常	-1673
涉及	-1674
ivers	-1675
結構	-1676
▁X	-1677
）；	-1678
车站	-1679
结合	-1680
禁止	-1681
办公	-1682
还是	-1683
选举	-1684
州的	-1685
聯賽	-1686
体育	-1687
广告	-1688
廣播	-1689
一樣	-1690
学名	-1691
维护	-1692
io	-1693
選擇	-1694
AT	-1695
家人	-1696
ence	-1697
缺乏	-1698
one	-1699
二年	-1700
).	-1701
天皇	-1702
咖啡	-1703
中有	-1704
希腊	-1705
後的	-1706
统一	-1707
名称	-1708
关注	-1709
則是	-1710
经历	-1711
畢業	-1712
伯特	-1713
indows	-1714
、、	-1715
竞争	-1716
重点	-1717
的女	-1718
ly	-1719
编程	-1720
這是	-1721
ore	-1722
不会	-1723
语音	-1724
入侵	-1725
良好的	-1726
型的	-1727
▁{	-1728
支援	-1729
南北	-1730
各種	-1731
urn	-1732
满意	-1733
ond	-1734
纪念	-1735
经常	-1736
因而	-1737
即使	-1738
推荐	-1739
ult	-1740
十一	-1741
導演	-1742
事務	-1743
基礎	-1744
銀行	-1745
西亞	-1746
多样	-1747
相信	-1748
網站	-1749
領導	-1750
設立	-1751
唱片	-1752
日期	-1753
人民共和國	-1754
行业	-1755
国务院	-1756
号线	-1757
消息	-1758
的生活	-1759
的海	-1760
有人	-1761
男性	-1762
▁西	-1763
业务	-1764
广东	-1765
逐漸	-1766
新加坡	-1767
夫人	-1768
日在	-1769
清晰	-1770
过去	-1771
同一	-1772
纽约	-1773
改为	-1774
的原	-1775
公開	-1776
希臘	-1777
企業	-1778
第六	-1779
ork	-1780
度的	-1781
道德	-1782
▁&	-1783
BC	-1784
林匹	-1785
告诉	-1786
創作	-1787
▁此外	-1788
協會	-1789
文明	-1790
小時	-1791
明朝	-1792
平衡	-1793
阶段	-1794
贸易	-1795
国的	-1796
ach	-1797
媒體	-1798
董事	-1799
回答	-1800
稳定	-1801
妻子	-1802
南方	-1803
正常	-1804
資訊	-1805
BS	-1806
出任	-1807
──	-1808
Ch	-1809
ite	-1810
互联网	-1811
的三	-1812
再生	-1813
類似	-1814
皇后	-1815
ax	-1816
一種	-1817
影片	-1818
阅读	-1819
配音	-1820
國民黨	-1821
並不	-1822
对象	-1823
▁ar	-1824
课程	-1825
pl	-1826
台湾	-1827
距離	-1828
相比	-1829
联盟	-1830
想法	-1831
必要	-1832
▁Ar	-1833
查询	-1834
act	-1835
播放	-1836
嚴重	-1837
：）	-1838
……	-1839
AS	-1840
传播	-1841
到的	-1842
朝鮮	-1843
购物	-1844
社区	-1845
表現	-1846
改變	-1847
经验	-1848
拉丁	-1849
太平洋	-1850
取消	-1851
五个	-1852
医生	-1853
▁三	-1854
困难	-1855
職業	-1856
指挥	-1857
合物	-1858
是中国	-1859
最近	-1860
▁Al	-1861
也在	-1862
一段	-1863
长期	-1864
當中	-1865
所需	-1866
第一个	-1867
都市	-1868
意味着	-1869
▁日本	-1870
贡献	-1871
部门	-1872
年前	-1873
uc	-1874
man	-1875
ical	-1876
分配	-1877
意识	-1878
攻击	-1879
年以	-1880
开放	-1881
王國	-1882
擊敗	-1883
的外	-1884
ver	-1885
per	-1886
TV	-1887
改进	-1888
▁Com	-1889
阿尔	-1890
简单的	-1891
现实	-1892
名稱	-1893
上述	-1894
▁有	-1895
少女	-1896
是以	-1897
他人	-1898
AM	-1899
九龍	-1900
教堂	-1901
ace	-1902
▁金	-1903
韩国	-1904
ah	-1905
全面	-1906
得以	-1907
定義	-1908
空間	-1909
▁i	-1910
毕业	-1911
政治人物	-1912
▁可	-1913
ww	-1914
得主	-1915
饮食	-1916
視為	-1917
過去	-1918
斯基	-1919
适合	-1920
之下	-1921
林匹克	-1922
的第一	-1923
循环	-1924
治疗	-1925
标题	-1926
亨利	-1927
的一部分	-1928
境内	-1929
pr	-1930
量子	-1931
有一个	-1932
體育	-1933
区别	-1934
父亲	-1935
直至	-1936
规则	-1937
離開	-1938
尝试	-1939
方言	-1940
一切	-1941
時候	-1942
小的	-1943
照片	-1944
所有的	-1945
绿色	-1946
ark	-1947
路易	-1948
重建	-1949
下辖	-1950
發動	-1951
皇家	-1952
大约	-1953
山东	-1954
英语	-1955
母親	-1956
德里	-1957
共產	-1958
想要	-1959
規模	-1960
十八	-1961
中國大陸	-1962
未能	-1963
合併	-1964
ug	-1965
进一步	-1966
▁by	-1967
之中	-1968
内部	-1969
垃圾	-1970
协议	-1971
天气	-1972
比較	-1973
CD	-1974
博物馆	-1975
▁南	-1976
力和	-1977
水果	-1978
是一些	-1979
ohn	-1980
也被	-1981
中華人民共和國	-1982
的成	-1983
气体	-1984
天文台	-1985
深度	-1986
協助	-1987
持續	-1988
經常	-1989
出口	-1990
毫米	-1991
SS	-1992
产业	-1993
指揮	-1994
電視劇	-1995
商店	-1996
相关的	-1997
生成一个	-1998
周围	-1999
約翰	-2000
允许	-2001
實驗	-2002
现象	-2003
吸收	-2004
AN	-2005
家的	-2006
分享	-2007
興建	-2008
日起	-2009
斯卡	-2010
蔬菜	-2011
醫院	-2012
综合	-2013
聯邦	-2014
ple	-2015
高中	-2016
之間的	-2017
含有	-2018
冲突	-2019
飞机	-2020
三世	-2021
感染	-2022
随后	-2023
有效的	-2024
我们可以	-2025
共和国	-2026
王国	-2027
为主	-2028
也就是	-2029
宪法	-2030
爆發	-2031
▁我	-2032
圖書	-2033
▁前	-2034
地区的	-2035
年間	-2036
患者	-2037
▁北	-2038
產品	-2039
▁自	-2040
亦有	-2041
习惯	-2042
曾经	-2043
隧道	-2044
澳大利	-2045
实施	-2046
常常	-2047
天下	-2048
市民	-2049
統一	-2050
記載	-2051
海军	-2052
集合	-2053
ile	-2054
贝尔	-2055
平原	-2056
支付	-2057
发动	-2058
总结	-2059
列车	-2060
适当	-2061
广州	-2062
它們	-2063
运输	-2064
IC	-2065
ction	-2066
同盟	-2067
建立的	-2068
的时间	-2069
ire	-2070
▁根据	-2071
報告	-2072
形容	-2073
日至	-2074
學習	-2075
意义	-2076
总人口	-2077
扮演	-2078
创新	-2079
爆发	-2080
西哥	-2081
化石	-2082
数的	-2083
令人	-2084
编辑	-2085
情況	-2086
曾在	-2087
宣传	-2088
在一起	-2089
目標	-2090
地利	-2091
属的	-2092
运营	-2093
人大	-2094
AC	-2095
),	-2096
常见的	-2097
乘客	-2098
深圳	-2099
色列	-2100
人和	-2101
士兵	-2102
平面	-2103
深入	-2104
▁e	-2105
式的	-2106
日的	-2107
西藏	-2108
清单	-2109
地震	-2110
高雄	-2111
主要的	-2112
第七	-2113
英語	-2114
技巧	-2115
证明	-2116
河北	-2117
貿易	-2118
视频	-2119
天然	-2120
海岸	-2121
演唱會	-2122
寻找	-2123
大會	-2124
▁Th	-2125
巨大	-2126
保存	-2127
网页	-2128
尚未	-2129
重大	-2130
的中	-2131
排列	-2132
一致	-2133
翻译	-2134
联合国	-2135
假设	-2136
太子	-2137
荷蘭	-2138
一度	-2139
评论	-2140
pe	-2141
ath	-2142
记载	-2143
ne	-2144
合理	-2145
姆斯	-2146
变得	-2147
应对	-2148
瑞典	-2149
▁当	-2150
這樣	-2151
欢迎	-2152
使其	-2153
燃料	-2154
ram	-2155
战役	-2156
突然	-2157
它们的	-2158
並於	-2159
尼斯	-2160
ON	-2161
OS	-2162
▁an	-2163
推广	-2164
年轻	-2165
▁print	-2166
小學	-2167
知名	-2168
人民政府	-2169
▁style	-2170
墨西哥	-2171
)、	-2172
一篇	-2173
总理	-2174
公元前	-2175
利益	-2176
反應	-2177
图书	-2178
市的	-2179
兴趣	-2180
星的	-2181
解放军	-2182
情感	-2183
固定	-2184
父母	-2185
医院	-2186
ost	-2187
虚拟	-2188
生的	-2189
共和國	-2190
医学	-2191
iversity	-2192
保证	-2193
设施	-2194
的能力	-2195
旨在	-2196
责任	-2197
说明	-2198
變化	-2199
秘密	-2200
自然语言	-2201
建成	-2202
金屬	-2203
son	-2204
观察	-2205
部落	-2206
經營	-2207
威胁	-2208
排序	-2209
再度	-2210
化學	-2211
学者	-2212
批評	-2213
連續	-2214
十三	-2215
充满	-2216
比亚	-2217
一家	-2218
建議	-2219
机车	-2220
▁海	-2221
合成	-2222
▁k	-2223
計算	-2224
轨道	-2225
以色列	-2226
網路	-2227
教會	-2228
也不	-2229
訓練	-2230
最多	-2231
亚洲	-2232
哪些	-2233
山大	-2234
杰克	-2235
▁An	-2236
掌握	-2237
离开	-2238
十字	-2239
年被	-2240
宣佈	-2241
物的	-2242
In	-2243
的一种	-2244
ID	-2245
白色	-2246
构建	-2247
▁卡	-2248
只要	-2249
呼吸	-2250
mer	-2251
上下	-2252
解决问题	-2253
介绍	-2254
以前	-2255
ISBN	-2256
冠军	-2257
动力	-2258
規定	-2259
是一種	-2260
超級	-2261
ern	-2262
科学家	-2263
orld	-2264
任務	-2265
曾任	-2266
也会	-2267
tern	-2268
而被	-2269
▁此	-2270
都會	-2271
運動會	-2272
适应	-2273
同樣	-2274
陸軍	-2275
公式	-2276
电子邮件	-2277
▁飾	-2278
廣東	-2279
生存	-2280
厘米	-2281
给定的	-2282
都会	-2283
形的	-2284
年底	-2285
飛機	-2286
写一个	-2287
序列	-2288
以來	-2289
巴西	-2290
》：	-2291
IS	-2292
留下	-2293
有着	-2294
毛泽	-2295
合并	-2296
關於	-2297
的最	-2298
//	-2299
雜誌	-2300
葡萄牙	-2301
发行	-2302
▁：	-2303
日軍	-2304
▁安	-2305
演员	-2306
儿童	-2307
而不	-2308
意志	-2309
▁ret	-2310
▁with	-2311
柏林	-2312
idae	-2313
olog	-2314
作出	-2315
分鐘	-2316
同性	-2317
而不是	-2318
ric	-2319
年间	-2320
工人	-2321
ational	-2322
維持	-2323
區的	-2324
字符串	-2325
议会	-2326
LE	-2327
oy	-2328
流程	-2329
貝爾	-2330
毛泽东	-2331
智慧	-2332
于是	-2333
破坏	-2334
政府的	-2335
明治	-2336
石油	-2337
放在	-2338
總督	-2339
分裂	-2340
色彩	-2341
ee	-2342
股份	-2343
解决方案	-2344
指定	-2345
▁pro	-2346
教学	-2347
▁如果	-2348
广播	-2349
国内	-2350
相對	-2351
二氧化	-2352
系统的	-2353
的一些	-2354
拍攝	-2355
無綫	-2356
GP	-2357
下午	-2358
逻辑	-2359
到达	-2360
北方	-2361
主要是	-2362
方面的	-2363
三個	-2364
澳洲	-2365
被稱為	-2366
戰役	-2367
犹太	-2368
hy	-2369
賽事	-2370
電台	-2371
餐厅	-2372
酒店	-2373
营养	-2374
的例子	-2375
恐怖	-2376
明确	-2377
密度	-2378
空中	-2379
接收	-2380
乾隆	-2381
协会	-2382
hant	-2383
▁天	-2384
aw	-2385
az	-2386
配合	-2387
row	-2388
整個	-2389
應用	-2390
自我	-2391
原始	-2392
開放	-2393
的水	-2394
起源	-2395
金属	-2396
主演	-2397
▁:	-2398
tp	-2399
的原因	-2400
喜歡	-2401
cl	-2402
古典	-2403
達到	-2404
理想	-2405
▁New	-2406
IN	-2407
江西	-2408
为什么	-2409
行政區	-2410
大樓	-2411
英格蘭	-2412
text	-2413
自身	-2414
高級	-2415
繼承	-2416
江苏	-2417
以来	-2418
东西	-2419
幾乎	-2420
通信	-2421
更好的	-2422
回收	-2423
減少	-2424
他是	-2425
一同	-2426
举办	-2427
大使	-2428
十四	-2429
火箭	-2430
数据库	-2431
兒子	-2432
山西	-2433
应的	-2434
火山	-2435
Al	-2436
晚上	-2437
物質	-2438
主題	-2439
▁使用	-2440
行政区	-2441
之子	-2442
爾斯	-2443
保障	-2444
格式	-2445
司法	-2446
唐朝	-2447
物体	-2448
都在	-2449
爆炸	-2450
AP	-2451
平等	-2452
設置	-2453
历史上	-2454
运动员	-2455
隨後	-2456
體的	-2457
中部	-2458
▁中华人民共和国	-2459
化合物	-2460
格的	-2461
很快	-2462
变量	-2463
马来	-2464
学科	-2465
的需求	-2466
str	-2467
塑料	-2468
它是	-2469
span	-2470
ata	-2471
丰富的	-2472
國的	-2473
▁Z	-2474
再生能源	-2475
作戰	-2476
飞行	-2477
大約	-2478
法案	-2479
感受	-2480
制的	-2481
飛行	-2482
十九	-2483
意思	-2484
湖北	-2485
十五	-2486
▁Sh	-2487
▁return	-2488
适的	-2489
政权	-2490
展開	-2491
睡眠	-2492
地面	-2493
ava	-2494
互相	-2495
优势	-2496
立即	-2497
手段	-2498
月的	-2499
項目	-2500
各自	-2501
▁将	-2502
兩人	-2503
个性	-2504
优秀	-2505
期的	-2506
十七	-2507
又稱	-2508
环保	-2509
在其	-2510
紐約	-2511
原理	-2512
分布于	-2513
▁num	-2514
史上	-2515
這一	-2516
ss	-2517
面临	-2518
BA	-2519
公布	-2520
單曲	-2521
尔德	-2522
符号	-2523
階段	-2524
大多数	-2525
萬人	-2526
彼得	-2527
的概念	-2528
截至	-2529
西洋	-2530
战斗	-2531
生涯	-2532
ime	-2533
時的	-2534
狀態	-2535
几乎	-2536
月台	-2537
樂團	-2538
强调	-2539
昭和	-2540
連接	-2541
很大	-2542
娛樂	-2543
相当	-2544
的作品	-2545
▁at	-2546
cn	-2547
政權	-2548
成就	-2549
哲学	-2550
可靠	-2551
定律	-2552
人口为	-2553
",	-2554
長的	-2555
主張	-2556
▁其	-2557
中国人民	-2558
波兰	-2559
权利	-2560
信号	-2561
瑞士	-2562
快乐	-2563
中最	-2564
引入	-2565
针对	-2566
状况	-2567
股票	-2568
殖民地	-2569
一份	-2570
提名	-2571
康熙	-2572
ode	-2573
群島	-2574
設施	-2575
廣告	-2576
代理	-2577
修正	-2578
多年	-2579
密码	-2580
OM	-2581
节目	-2582
里的	-2583
长的	-2584
▁由於	-2585
被认为	-2586
为您提供	-2587
ai	-2588
指导	-2589
波斯	-2590
四个	-2591
条约	-2592
form	-2593
▁University	-2594
棒球	-2595
抗日	-2596
機會	-2597
ics	-2598
联赛	-2599
声音	-2600
月初	-2601
值得	-2602
實施	-2603
犯罪	-2604
房屋	-2605
阿爾	-2606
一帶	-2607
观众	-2608
驾驶	-2609
米的	-2610
详细	-2611
互动	-2612
委会	-2613
斯拉	-2614
領域	-2615
▁基	-2616
安装	-2617
然後	-2618
▁or	-2619
自動	-2620
課程	-2621
东南	-2622
Windows	-2623
将军	-2624
黑色	-2625
是一位	-2626
軌道	-2627
云南	-2628
變成	-2629
▁ch	-2630
上有	-2631
差异	-2632
普查	-2633
时的	-2634
特色	-2635
http	-2636
延伸	-2637
我无法	-2638
的使用	-2639
指令	-2640
ere	-2641
地铁	-2642
检测	-2643
以外	-2644
在大	-2645
解釋	-2646
的不	-2647
東北	-2648
ci	-2649
清洁	-2650
娱乐	-2651
海外	-2652
簡稱	-2653
长度	-2654
图片	-2655
伦敦	-2656
遇到	-2657
出席	-2658
te	-2659
事实	-2660
下来	-2661
找出	-2662
源自	-2663
的首	-2664
ML	-2665
戰後	-2666
原住	-2667
释放	-2668
://	-2669
的名字	-2670
同样	-2671
广场	-2672
▁提高	-2673
尊重	-2674
在一	-2675
参数	-2676
恢復	-2677
先后	-2678
投降	-2679
價值	-2680
电话	-2681
以下是	-2682
土耳	-2683
占领	-2684
____	-2685
每一	-2686
享受	-2687
ix	-2688
在一个	-2689
▁,	-2690
就像	-2691
被迫	-2692
依然	-2693
以後	-2694
ock	-2695
土耳其	-2696
角度	-2697
記者	-2698
成功的	-2699
臺北市	-2700
能够帮助	-2701
报道	-2702
王子	-2703
热带	-2704
资料	-2705
高速公路	-2706
有趣	-2707
圖書館	-2708
用途	-2709
sh	-2710
ox	-2711
▁以	-2712
▁上	-2713
阳光	-2714
反馈	-2715
登場	-2716
倫敦	-2717
烈的	-2718
机械	-2719
监督	-2720
线路	-2721
可持续	-2722
兒童	-2723
▁Pl	-2724
试图	-2725
近年	-2726
重庆	-2727
▁if	-2728
球队	-2729
月球	-2730
ase	-2731
汽車	-2732
有很多	-2733
神秘	-2734
好处	-2735
儘管	-2736
保守	-2737
細胞	-2738
费用	-2739
少数	-2740
營運	-2741
ick	-2742
法的	-2743
此后	-2744
出身	-2745
授予	-2746
粒子	-2747
拒絕	-2748
比利	-2749
浏览	-2750
示例	-2751
尤其是	-2752
打印	-2753
有效地	-2754
彼此	-2755
这句话	-2756
SA	-2757
的分	-2758
私人	-2759
反映	-2760
事故	-2761
潜在	-2762
破壞	-2763
进行了	-2764
抱歉	-2765
幫助	-2766
▁帕	-2767
游泳	-2768
()	-2769
应当	-2770
数组	-2771
连续	-2772
歡迎	-2773
博物館	-2774
地址	-2775
▁you	-2776
共產黨	-2777
拒绝	-2778
器的	-2779
舞台	-2780
會在	-2781
人們	-2782
運輸	-2783
ubl	-2784
新疆	-2785
第二次世界大	-2786
依赖	-2787
數據	-2788
特点	-2789
区的	-2790
你可以	-2791
数据的	-2792
可再生能源	-2793
so	-2794
able	-2795
進攻	-2796
设有	-2797
理事	-2798
思考	-2799
條件	-2800
發射	-2801
雙方	-2802
的政治	-2803
▁Sp	-2804
情绪	-2805
面对	-2806
向量	-2807
有时	-2808
頻道	-2809
顺序	-2810
行政院	-2811
来越	-2812
長期	-2813
婚姻	-2814
機關	-2815
半島	-2816
決賽	-2817
程式	-2818
视觉	-2819
應該	-2820
首相	-2821
产生了	-2822
另一个	-2823
資源	-2824
儿子	-2825
体系	-2826
司馬	-2827
指示	-2828
坚持	-2829
並沒有	-2830
追踪	-2831
▁Cl	-2832
双方	-2833
国会	-2834
扩展	-2835
消失	-2836
放松	-2837
▁首先	-2838
菲律	-2839
承認	-2840
解決	-2841
下令	-2842
越来越	-2843
重复	-2844
发明	-2845
Ph	-2846
提到	-2847
收錄	-2848
休息	-2849
翡翠	-2850
不斷	-2851
本地	-2852
继承	-2853
副主席	-2854
▁这个	-2855
那里	-2856
記錄	-2857
校友	-2858
而成	-2859
旅客	-2860
撤销	-2861
藝人	-2862
冬季	-2863
马克	-2864
参考	-2865
現象	-2866
目的是	-2867
以后	-2868
▁、	-2869
社会主义	-2870
ail	-2871
廣泛	-2872
还可以	-2873
运用	-2874
替代	-2875
用作	-2876
▁from	-2877
匈牙	-2878
建立了	-2879
获得了	-2880
即可	-2881
天的	-2882
國內	-2883
实行	-2884
匈牙利	-2885
培养	-2886
预算	-2887
義大利	-2888
简洁	-2889
▁陳	-2890
▁—	-2891
的情況	-2892
數量	-2893
還是	-2894
武帝	-2895
未來	-2896
教育部	-2897
總理	-2898
條約	-2899
治療	-2900
他們的	-2901
改造	-2902
充分	-2903
oog	-2904
....	-2905
清楚	-2906
而非	-2907
近代	-2908
馬來	-2909
上映	-2910
航天	-2911
常見	-2912
用來	-2913
中国共产党	-2914
ST	-2915
多數	-2916
國會	-2917
當選	-2918
世界的	-2919
第一個	-2920
图书馆	-2921
佔領	-2922
引发	-2923
得知	-2924
性质	-2925
are	-2926
ree	-2927
武汉	-2928
color	-2929
进步	-2930
ition	-2931
作为一个	-2932
土壤	-2933
评价	-2934
真实	-2935
以上的	-2936
总是	-2937
卫生	-2938
的支持	-2939
不到	-2940
独特的	-2941
可能的	-2942
温暖	-2943
少數	-2944
设定	-2945
简称	-2946
成立的	-2947
尔斯	-2948
推动	-2949
神经网络	-2950
食用	-2951
.,	-2952
東南	-2953
并没有	-2954
发射	-2955
得到了	-2956
权力	-2957
left	-2958
年後	-2959
位的	-2960
熱帶	-2961
投資	-2962
臺南	-2963
的形式	-2964
憲法	-2965
二氧化碳	-2966
的影響	-2967
身心	-2968
官員	-2969
度和	-2970
场景	-2971
接触	-2972
温室	-2973
女演員	-2974
相同的	-2975
一条	-2976
相反	-2977
公众	-2978
公开	-2979
建設	-2980
退出	-2981
性格	-2982
疫情	-2983
经典	-2984
大家	-2985
更快	-2986
專業	-2987
身體	-2988
的时候	-2989
大幅	-2990
的内容	-2991
伊朗	-2992
的基础	-2993
失败	-2994
安徽	-2995
討論	-2996
人口普查	-2997
货币	-2998
oogle	-2999
淡水	-3000
並非	-3001
rans	-3002
ount	-3003
胜利	-3004
俱乐	-3005
车辆	-3006
發售	-3007
out	-3008
校長	-3009
風格	-3010
刺激	-3011
空軍	-3012
阻止	-3013
▁您	-3014
及时	-3015
院士	-3016
eng	-3017
致力	-3018
遵守	-3019
▁al	-3020
▁加	-3021
克的	-3022
占总人口	-3023
学会	-3024
成为了	-3025
西安	-3026
偶像	-3027
▁美国	-3028
构成	-3029
▁美國	-3030
年初	-3031
诊断	-3032
▁克	-3033
气温	-3034
作詞	-3035
半岛	-3036
群体	-3037
随机	-3038
yst	-3039
也會	-3040
扩大	-3041
模拟	-3042
在香港	-3043
》(	-3044
判断	-3045
消费者	-3046
準備	-3047
布拉	-3048
整理	-3049
演奏	-3050
的意思	-3051
的过程	-3052
十大	-3053
曹操	-3054
▁从	-3055
古老	-3056
验证	-3057
国家的	-3058
組合	-3059
在于	-3060
机关	-3061
規劃	-3062
转换为	-3063
六年	-3064
记忆	-3065
ina	-3066
追求	-3067
ood	-3068
就可以	-3069
▁東	-3070
维持	-3071
民間	-3072
培训	-3073
學術	-3074
▁不	-3075
道的	-3076
长江	-3077
论文	-3078
OR	-3079
红色	-3080
高效	-3081
iss	-3082
在中国	-3083
各个	-3084
頒獎	-3085
类型的	-3086
勇敢	-3087
小型	-3088
文档	-3089
突破	-3090
ict	-3091
▁Ph	-3092
議院	-3093
似乎	-3094
業務	-3095
玻璃	-3096
请求	-3097
一系列	-3098
▁清	-3099
部長	-3100
高级	-3101
認為是	-3102
勢力	-3103
母亲	-3104
說法	-3105
免疫	-3106
澳大利亚	-3107
卡拉	-3108
演讲	-3109
损失	-3110
有時	-3111
语法	-3112
成分	-3113
線的	-3114
问题的	-3115
教师	-3116
感觉	-3117
ET	-3118
的同	-3119
信任	-3120
▁Press	-3121
ef	-3122
已知	-3123
军区	-3124
傳說	-3125
權力	-3126
处于	-3127
廣州	-3128
在日本	-3129
的世界	-3130
客户服务	-3131
当选	-3132
形状	-3133
创意	-3134
產業	-3135
变暖	-3136
失敗	-3137
节点	-3138
起來	-3139
威尔	-3140
本土	-3141
理工	-3142
金山	-3143
IP	-3144
▁他	-3145
桃園	-3146
监视	-3147
金曲	-3148
觀察	-3149
UN	-3150
個月	-3151
遗址	-3152
python	-3153
法官	-3154
報導	-3155
喜好	-3156
)：	-3157
便利	-3158
资金	-3159
多少	-3160
馬克	-3161
cri	-3162
▁Q	-3163
召开	-3164
覆盖	-3165
由此	-3166
哈尔	-3167
num	-3168
任期	-3169
眼睛	-3170
书籍	-3171
知識	-3172
强大的	-3173
分成	-3174
land	-3175
先後	-3176
內部	-3177
西斯	-3178
機械	-3179
考古	-3180
导演	-3181
臨時	-3182
大道	-3183
蛋白质	-3184
月至	-3185
第八	-3186
rap	-3187
中华民国	-3188
改編	-3189
卫星	-3190
意见	-3191
翡翠台	-3192
公爵	-3193
美的	-3194
▁白	-3195
▁第一	-3196
则是	-3197
动画	-3198
現時	-3199
朝廷	-3200
明显	-3201
爭議	-3202
组合	-3203
最低	-3204
醫學	-3205
部門	-3206
廣場	-3207
民眾	-3208
专家	-3209
消耗	-3210
我可以	-3211
多個	-3212
統計	-3213
春秋	-3214
大多數	-3215
无论	-3216
自然语言处理	-3217
线性	-3218
-{}-	-3219
年龄	-3220
《》	-3221
写作	-3222
沿海	-3223
进攻	-3224
org	-3225
取决	-3226
爵士	-3227
拍摄	-3228
杂志	-3229
▁日	-3230
▁Ex	-3231
HK	-3232
大大	-3233
三十	-3234
選手	-3235
以此	-3236
校长	-3237
海道	-3238
▁马	-3239
人數	-3240
證明	-3241
住宅	-3242
模型的	-3243
（，），	-3244
比亞	-3245
old	-3246
或其他	-3247
ux	-3248
取决于	-3249
给出	-3250
幸福	-3251
明顯	-3252
福利	-3253
这样的	-3254
东部	-3255
來說	-3256
地區的	-3257
特定的	-3258
药物	-3259
▁由于	-3260
中原	-3261
交互	-3262
优点	-3263
批评	-3264
當時的	-3265
▁Con	-3266
有著	-3267
移動	-3268
數學	-3269
奧運	-3270
牠們	-3271
主持人	-3272
这是一个	-3273
赛季	-3274
阶级	-3275
來源	-3276
在这	-3277
抵抗	-3278
城堡	-3279
服务器	-3280
尼克	-3281
put	-3282
中被	-3283
周年	-3284
指的是	-3285
ica	-3286
天空	-3287
亦是	-3288
奧林匹克	-3289
ton	-3290
安德	-3291
提供的	-3292
技术的	-3293
劳动	-3294
足够	-3295
一座	-3296
邀请	-3297
市政府	-3298
伊拉克	-3299
分支	-3300
出来	-3301
穆斯	-3302
长沙	-3303
附近的	-3304
师范	-3305
有机	-3306
洛杉	-3307
界面	-3308
美丽	-3309
百科	-3310
ome	-3311
衝突	-3312
亿元	-3313
%；	-3314
图形	-3315
鐵道	-3316
叫做	-3317
战略	-3318
事業	-3319
等于	-3320
实际上	-3321
合法	-3322
結婚	-3323
衛星	-3324
▁由	-3325
本人	-3326
但他	-3327
学位	-3328
通用	-3329
俱乐部	-3330
学术	-3331
質量	-3332
修建	-3333
农民	-3334
結合	-3335
Python	-3336
考试	-3337
解散	-3338
上帝	-3339
port	-3340
讲述	-3341
))	-3342
寻求	-3343
Ar	-3344
▁!	-3345
又称	-3346
綜合	-3347
政治局	-3348
用户的	-3349
承认	-3350
事务	-3351
征服	-3352
陈述	-3353
塞尔	-3354
女王	-3355
普及	-3356
▁def	-3357
操作系统	-3358
年由	-3359
詹姆斯	-3360
▁原	-3361
評論	-3362
▁巴	-3363
陷入	-3364
复杂的	-3365
面包	-3366
農業	-3367
自治区	-3368
編曲	-3369
車輛	-3370
乔治	-3371
年輕	-3372
野生	-3373
难以	-3374
arl	-3375
当前	-3376
沙漠	-3377
动作	-3378
聯合國	-3379
明的	-3380
創立	-3381
其中包括	-3382
HT	-3383
都可以	-3384
派遣	-3385
适当的	-3386
原住民	-3387
啟用	-3388
常用的	-3389
提取	-3390
它可以	-3391
意外	-3392
电视台	-3393
翻譯	-3394
趋势	-3395
的城市	-3396
▁二	-3397
▁it	-3398
读者	-3399
ous	-3400
领导人	-3401
針對	-3402
融合	-3403
山脉	-3404
一首	-3405
分解	-3406
EC	-3407
大气	-3408
象征	-3409
邀請	-3410
发电	-3411
的基本	-3412
ier	-3413
提醒	-3414
印刷	-3415
rit	-3416
黑暗	-3417
劇場	-3418
案件	-3419
生素	-3420
▁中國	-3421
▁$	-3422
星系	-3423
分類	-3424
▁第二	-3425
▁而	-3426
在这个	-3427
一部	-3428
兼任	-3429
編號	-3430
财政	-3431
使用了	-3432
呈现	-3433
带来了	-3434
▁col	-3435
希特	-3436
申請	-3437
研究院	-3438
IT	-3439
》）	-3440
又名	-3441
转化	-3442
▁Sch	-3443
兩種	-3444
軟體	-3445
的位置	-3446
港口	-3447
ool	-3448
臺中	-3449
轻松	-3450
推動	-3451
荷兰	-3452
聊天	-3453
财务	-3454
对话	-3455
群岛	-3456
▁res	-3457
▁太空	-3458
▁全	-3459
编写	-3460
出來	-3461
起义	-3462
政黨	-3463
陕西	-3464
公平	-3465
印象	-3466
在這	-3467
加密	-3468
定理	-3469
心的	-3470
艦隊	-3471
都能	-3472
另一方面	-3473
代替	-3474
莫斯科	-3475
美軍	-3476
共享	-3477
宣傳	-3478
的国家	-3479
▁AI	-3480
北京市	-3481
合适的	-3482
▁cl	-3483
▁j	-3484
火星	-3485
亞歷	-3486
加州	-3487
成都	-3488
OV	-3489
生于	-3490
周期	-3491
基於	-3492
是不	-3493
通道	-3494
克里	-3495
马来西亚	-3496
矛盾	-3497
已有	-3498
议员	-3499
给予	-3500
ech	-3501
最早的	-3502
哲學	-3503
以其	-3504
经营	-3505
...	-3506
上了	-3507
当地的	-3508
年建立的	-3509
bert	-3510
成果	-3511
觀測	-3512
ung	-3513
物種	-3514
演化	-3515
Cl	-3516
也能	-3517
arr	-3518
工程师	-3519
SP	-3520
族的	-3521
au	-3522
Un	-3523
自动化	-3524
▁與	-3525
打开	-3526
創造	-3527
大致	-3528
ium	-3529
提出了	-3530
地点	-3531
派的	-3532
▁Col	-3533
教宗	-3534
暴力	-3535
定位	-3536
此時	-3537
▁多	-3538
穩定	-3539
编码	-3540
美食	-3541
造成的	-3542
人生	-3543
▁int	-3544
危机	-3545
太后	-3546
家中	-3547
羽毛	-3548
一下	-3549
保健	-3550
放弃	-3551
千米	-3552
城区	-3553
中期	-3554
斯塔	-3555
科学院	-3556
实时	-3557
忠诚	-3558
在美国	-3559
临时	-3560
華人	-3561
後期	-3562
士尼	-3563
并为	-3564
整体	-3565
cript	-3566
发送	-3567
進一步	-3568
三种	-3569
作曲家	-3570
马山	-3571
实践	-3572
將其	-3573
對手	-3574
哺乳	-3575
灵活	-3576
ash	-3577
流量	-3578
▁-{	-3579
最重要的	-3580
創辦	-3581
最高的	-3582
市区	-3583
國防	-3584
浪费	-3585
▁数据	-3586
現今	-3587
的角色	-3588
实验室	-3589
德意志	-3590
约为	-3591
江南	-3592
退休	-3593
嘉義	-3594
長官	-3595
迪士尼	-3596
终于	-3597
取得了	-3598
争议	-3599
DP	-3600
英格兰	-3601
设计一个	-3602
）-	-3603
ele	-3604
的重要性	-3605
百分	-3606
▁im	-3607
CP	-3608
态度	-3609
實際上	-3610
確定	-3611
全球变暖	-3612
奥运	-3613
办公室	-3614
看法	-3615
▁根據	-3616
其實	-3617
ll	-3618
今日	-3619
▁Ed	-3620
▁be	-3621
鸡蛋	-3622
步兵	-3623
界的	-3624
届全国	-3625
测量	-3626
之戰	-3627
總部	-3628
原名	-3629
領土	-3630
);	-3631
放棄	-3632
猶太	-3633
▁与	-3634
列入	-3635
伊斯兰	-3636
年到	-3637
銷售	-3638
商人	-3639
通車	-3640
▁World	-3641
加工	-3642
恆星	-3643
民主黨	-3644
产品的	-3645
ance	-3646
每個	-3647
武装	-3648
广西	-3649
在他	-3650
在北	-3651
orn	-3652
四大	-3653
特峰	-3654
挪威	-3655
警方	-3656
▁台灣	-3657
觀眾	-3658
▁帕洛	-3659
有一些	-3660
舞蹈	-3661
众多	-3662
三角形	-3663
日常生活	-3664
二人	-3665
推行	-3666
▁張	-3667
▁†	-3668
戰士	-3669
一个人	-3670
会在	-3671
短语	-3672
关闭	-3673
定居	-3674
富士	-3675
完工	-3676
ery	-3677
议院	-3678
冒险	-3679
騎士	-3680
典禮	-3681
ave	-3682
▁通过	-3683
产生的	-3684
能够在	-3685
▁為	-3686
族群	-3687
▁帕洛马山	-3688
交换	-3689
一天	-3690
引發	-3691
erv	-3692
旗下	-3693
格蘭	-3694
的日	-3695
▁基特峰	-3696
代表大会	-3697
中间	-3698
市中心	-3699
加速	-3700
留在	-3701
商务	-3702
公共交通	-3703
每次	-3704
▁as	-3705
引用	-3706
逮捕	-3707
ans	-3708
逐步	-3709
布局	-3710
引力	-3711
政治家	-3712
▁明	-3713
▁ex	-3714
立方	-3715
VD	-3716
官员	-3717
根本	-3718
▁Mar	-3719
▁伊	-3720
等待	-3721
随时	-3722
太阳能	-3723
ject	-3724
次年	-3725
表達	-3726
链接	-3727
公安	-3728
频道	-3729
ations	-3730
▁张	-3731
感谢	-3732
申请	-3733
杭州	-3734
勝利	-3735
即位	-3736
▁com	-3737
陆军	-3738
的時候	-3739
▁该	-3740
突厥	-3741
加强	-3742
克拉	-3743
击败	-3744
設定	-3745
EN	-3746
风景	-3747
並未	-3748
水的	-3749
ology	-3750
回归	-3751
证据	-3752
传递	-3753
的神	-3754
已被	-3755
ert	-3756
ild	-3757
通知	-3758
▁太空监视	-3759
力学	-3760
協議	-3761
有可能	-3762
标签	-3763
洛克	-3764
打算	-3765
提示	-3766
ual	-3767
传输	-3768
每个人	-3769
設備	-3770
通常是	-3771
装饰	-3772
大獎	-3773
平方米	-3774
丈夫	-3775
辦公	-3776
理由	-3777
存在的	-3778
具备	-3779
書院	-3780
查看	-3781
▁然而	-3782
类别	-3783
香蕉	-3784
icro	-3785
進黨	-3786
国防	-3787
以确保	-3788
温室气体	-3789
▁周	-3790
远程	-3791
選區	-3792
七年	-3793
▁Bl	-3794
的所有	-3795
影像	-3796
文献	-3797
她在	-3798
客運	-3799
深度学习	-3800
運作	-3801
南非	-3802
运算	-3803
作战	-3804
查理	-3805
▁that	-3806
代的	-3807
生日	-3808
▁Tr	-3809
其中的	-3810
性質	-3811
供应	-3812
原则	-3813
食材	-3814
年夏季	-3815
波蘭	-3816
的部分	-3817
肌肉	-3818
ove	-3819
旅遊	-3820
更为	-3821
權利	-3822
视为	-3823
博客	-3824
德拉	-3825
太郎	-3826
年開始	-3827
搜索引擎	-3828
首位	-3829
说法	-3830
▁wh	-3831
▁提供	-3832
分布在	-3833
東西	-3834
硬件	-3835
校区	-3836
ther	-3837
密切	-3838
提及	-3839
▁奥	-3840
诗歌	-3841
▁人	-3842
是日本	-3843
栖息	-3844
页面	-3845
很大的	-3846
场所	-3847
性别	-3848
成熟	-3849
事實	-3850
入口	-3851
喬治	-3852
強調	-3853
穆斯林	-3854
的历史	-3855
估計	-3856
蓝色	-3857
也可能	-3858
电力	-3859
宣言	-3860
差異	-3861
在美國	-3862
▁黃	-3863
中正	-3864
和大	-3865
日報	-3866
种植	-3867
編輯	-3868
坦克	-3869
并将	-3870
',	-3871
▁En	-3872
加以	-3873
动词	-3874
不需要	-3875
受欢迎	-3876
城镇	-3877
姓名	-3878
各国	-3879
顾客	-3880
认识	-3881
脂肪	-3882
錦標	-3883
深刻	-3884
前身	-3885
的总	-3886
民進黨	-3887
球場	-3888
管辖	-3889
最多的	-3890
成績	-3891
事情	-3892
每日	-3893
生理	-3894
自行车	-3895
美味	-3896
智能手机	-3897
▁Ad	-3898
大革命	-3899
您需要	-3900
种族	-3901
無綫電視	-3902
遗传	-3903
批判	-3904
將會	-3905
一百	-3906
建于	-3907
格拉	-3908
記憶	-3909
有许多	-3910
▁馬	-3911
人数	-3912
黄色	-3913
台北市	-3914
上市	-3915
食谱	-3916
了他	-3917
多数	-3918
經典	-3919
▁其中	-3920
男演員	-3921
愛爾	-3922
重量	-3923
領袖	-3924
未知	-3925
Th	-3926
MS	-3927
IV	-3928
任意	-3929
的反	-3930
時任	-3931
电动	-3932
发挥	-3933
伊斯蘭	-3934
正确的	-3935
赢得	-3936
主人	-3937
ystem	-3938
</	-3939
東方	-3940
搭配	-3941
梦想	-3942
花园	-3943
都被	-3944
除此	-3945
▁目前	-3946
运动会	-3947
可以根据	-3948
▁拉	-3949
危险	-3950
。"	-3951
答案	-3952
以南	-3953
正面	-3954
醫療	-3955
此时	-3956
法蘭	-3957
真的	-3958
具体的	-3959
思维	-3960
ink	-3961
Sh	-3962
德的	-3963
機器	-3964
派出	-3965
期望	-3966
學系	-3967
健康的	-3968
专门	-3969
撰写	-3970
提交	-3971
象徵	-3972
做法	-3973
學會	-3974
试验	-3975
卡尔	-3976
的天	-3977
教練	-3978
途中	-3979
注意力	-3980
mm	-3981
展开	-3982
命名為	-3983
▁近地小行星	-3984
介紹	-3985
全市	-3986
良好	-3987
du	-3988
資格	-3989
股份有限公司	-3990
什麼	-3991
第一位	-3992
弟弟	-3993
萨克	-3994
rid	-3995
Java	-3996
外国	-3997
一人	-3998
整数	-3999
可以用	-4000
三國	-4001
理念	-4002
自主	-4003
推翻	-4004
考慮	-4005
国立	-4006
并入	-4007
▁近地小行星追踪	-4008
电池	-4009
多样性	-4010
的不同	-4011
出售	-4012
在中	-4013
祖父	-4014
ann	-4015
段落	-4016
測試	-4017
數字	-4018
以下是一些	-4019
社區	-4020
从事	-4021
友好	-4022
衛生	-4023
訪問	-4024
本书	-4025
所需的	-4026
傳播	-4027
年后	-4028
持有	-4029
被认为是	-4030
之处	-4031
年時	-4032
▁劉	-4033
另有	-4034
配置	-4035
▁月	-4036
愿意	-4037
駕駛	-4038
相应的	-4039
更改	-4040
為止	-4041
成长	-4042
无限	-4043
紅色	-4044
繁殖	-4045
▁con	-4046
面向	-4047
浪漫	-4048
碼頭	-4049
物理学	-4050
漢字	-4051
时间和	-4052
參賽	-4053
援助	-4054
競爭	-4055
多人	-4056
接觸	-4057
汉语	-4058
elf	-4059
▁}	-4060
▁水	-4061
監督	-4062
複雜	-4063
了一些	-4064
很少	-4065
缺点	-4066
面對	-4067
新竹	-4068
▁le	-4069
分校	-4070
加利	-4071
排行	-4072
格兰	-4073
管理局	-4074
感情	-4075
死刑	-4076
与其他	-4077
无线	-4078
ru	-4079
yn	-4080
教会	-4081
至於	-4082
▁为	-4083
玛丽	-4084
人才	-4085
必要的	-4086
積極	-4087
助理	-4088
团体	-4089
零售	-4090
DNA	-4091
一部分	-4092
带有	-4093
唯一的	-4094
大廈	-4095
裝甲	-4096
遗产	-4097
形成的	-4098
私立	-4099
城市的	-4100
岁的	-4101
练习	-4102
贏得	-4103
细节	-4104
AL	-4105
愛爾蘭	-4106
的第	-4107
身上	-4108
字体	-4109
新城	-4110
显著	-4111
狀況	-4112
加拉	-4113
四世	-4114
了许多	-4115
这次	-4116
三大	-4117
到達	-4118
達成	-4119
我们需要	-4120
概率	-4121
依據	-4122
信用	-4123
稱呼	-4124
聲音	-4125
走向	-4126
早上	-4127
雅典	-4128
工厂	-4129
签署	-4130
京都	-4131
跟踪	-4132
▁对	-4133
秘书	-4134
ames	-4135
开展	-4136
专辑	-4137
区块	-4138
栽培	-4139
路线	-4140
对手	-4141
天堂	-4142
財政	-4143
就讀	-4144
簡單	-4145
形态	-4146
芝加	-4147
▁於	-4148
传说	-4149
北市	-4150
是最	-4151
主张	-4152
完善	-4153
大阪	-4154
芝加哥	-4155
收藏	-4156
▁）	-4157
吉林	-4158
精确	-4159
iel	-4160
其餘	-4161
预防	-4162
發出	-4163
給予	-4164
鸟类	-4165
打破	-4166
的情况下	-4167
▁最后	-4168
办事	-4169
溫度	-4170
福州	-4171
不滿	-4172
克林	-4173
所述	-4174
机制	-4175
国家级	-4176
ower	-4177
星球	-4178
港鐵	-4179
壓力	-4180
特里	-4181
》《	-4182
一只	-4183
威脅	-4184
尽量	-4185
粵語	-4186
試圖	-4187
。“	-4188
九年	-4189
攝影	-4190
超越	-4191
▁me	-4192
文物保护	-4193
协作	-4194
客服	-4195
意識	-4196
www	-4197
法庭	-4198
追溯	-4199
--------	-4200
觀點	-4201
為一	-4202
小学	-4203
教師	-4204
种类	-4205
领袖	-4206
成绩	-4207
突出	-4208
AD	-4209
响应	-4210
大规模	-4211
動力	-4212
特性	-4213
管轄	-4214
退役	-4215
▁Hist	-4216
round	-4217
帮助您	-4218
八年	-4219
它在	-4220
身分	-4221
遭受	-4222
的结果	-4223
永久	-4224
IM	-4225
和水	-4226
att	-4227
青少年	-4228
奪得	-4229
资产	-4230
調整	-4231
方程式	-4232
指南	-4233
和社会	-4234
拿破	-4235
不受	-4236
ron	-4237
这意味着	-4238
变成	-4239
笔记	-4240
下一	-4241
挑戰	-4242
的光	-4243
遵循	-4244
生态系统	-4245
▁Re	-4246
內閣	-4247
的關係	-4248
從事	-4249
ley	-4250
的文章	-4251
奧林匹克運動會	-4252
元音	-4253
金牌	-4254
動作	-4255
規則	-4256
▁John	-4257
古巴	-4258
年和	-4259
空军	-4260
领土	-4261
就會	-4262
的手	-4263
此後	-4264
氣候	-4265
聚集	-4266
ins	-4267
捷運	-4268
理查	-4269
候选	-4270
女孩	-4271
參考	-4272
来到	-4273
的心	-4274
形成了	-4275
中国大陆的	-4276
　　	-4277
就会	-4278
让我们	-4279
积分	-4280
奖励	-4281
▁洛	-4282
保险	-4283
番茄	-4284
维亚	-4285
来实现	-4286
估计	-4287
女兒	-4288
EE	-4289
發明	-4290
亿美元	-4291
馬來西亞	-4292
榮譽	-4293
初始	-4294
第九	-4295
ism	-4296
地上	-4297
John	-4298
分之一	-4299
的事情	-4300
奥斯	-4301
數位	-4302
▁第三	-4303
gcolor	-4304
學位	-4305
市區	-4306
更容易	-4307
的目标	-4308
慈善	-4309
率領	-4310
使用者	-4311
落成	-4312
提供一个	-4313
女神	-4314
画面	-4315
未来的	-4316
意義	-4317
电视剧	-4318
就业	-4319
PC	-4320
line	-4321
就能	-4322
度过	-4323
階級	-4324
的一種	-4325
青岛	-4326
均匀	-4327
百年	-4328
觉得	-4329
岩石	-4330
真正的	-4331
居住在	-4332
东方	-4333
▁因此	-4334
的平均	-4335
以北	-4336
特徵	-4337
經驗	-4338
上海市	-4339
伯爵	-4340
函數	-4341
矩阵	-4342
高原	-4343
生活在	-4344
國語	-4345
日军	-4346
秘書	-4347
廢除	-4348
部署	-4349
示威	-4350
較為	-4351
减轻	-4352
十月	-4353
工作的	-4354
搅拌	-4355
经理	-4356
reat	-4357
isc	-4358
▁us	-4359
所在地	-4360
生於	-4361
oci	-4362
公分	-4363
加盟	-4364
法兰	-4365
提出的	-4366
文獻	-4367
爱情	-4368
周恩	-4369
教士	-4370
框架	-4371
enc	-4372
▁除了	-4373
▁光	-4374
是的	-4375
ound	-4376
公交	-4377
受傷	-4378
想象	-4379
res	-4380
候選	-4381
充足	-4382
都不	-4383
發起	-4384
國民政府	-4385
▁黑	-4386
水量	-4387
隐私	-4388
频率	-4389
在北京	-4390
ake	-4391
更名为	-4392
大公	-4393
当然	-4394
注册	-4395
占总人口的	-4396
利的	-4397
刺史	-4398
採取	-4399
资本	-4400
HD	-4401
整合	-4402
特别是	-4403
上午	-4404
极端	-4405
诺贝尔	-4406
事业	-4407
red	-4408
事物	-4409
不得不	-4410
基金會	-4411
文物保护单位	-4412
更是	-4413
支出	-4414
當年	-4415
聲優	-4416
itt	-4417
希特勒	-4418
上面	-4419
▁Mus	-4420
下了	-4421
公眾	-4422
老师	-4423
▁另外	-4424
抵達	-4425
草原	-4426
enn	-4427
蘋果	-4428
五月	-4429
允許	-4430
公斤	-4431
性別	-4432
文化的	-4433
时间的	-4434
名词	-4435
至关	-4436
免费	-4437
若干	-4438
告诉我	-4439
不明	-4440
歷史上	-4441
一带	-4442
危機	-4443
新鲜	-4444
也可	-4445
死後	-4446
当时的	-4447
组成的	-4448
致力于	-4449
amb	-4450
。）	-4451
對抗	-4452
蛋糕	-4453
流域	-4454
海上	-4455
两人	-4456
动态	-4457
弗里	-4458
节省	-4459
和服务	-4460
子女	-4461
GB	-4462
天使	-4463
另一個	-4464
印尼	-4465
小平	-4466
规范	-4467
贵族	-4468
高校	-4469
GPT	-4470
▁Ro	-4471
女主角	-4472
传统的	-4473
戏剧	-4474
經歷	-4475
CT	-4476
小組	-4477
改名	-4478
根廷	-4479
龙江	-4480
菲律賓	-4481
▁或	-4482
范围内	-4483
创办	-4484
子和	-4485
▁He	-4486
职位	-4487
處於	-4488
貢獻	-4489
是一名	-4490
南海	-4491
斯拉夫	-4492
威爾	-4493
发达	-4494
球员	-4495
("	-4496
其他的	-4497
年世界	-4498
▁Le	-4499
先进	-4500
非法	-4501
iam	-4502
ius	-4503
对外	-4504
年中	-4505
协调	-4506
律師	-4507
現任	-4508
ise	-4509
合唱	-4510
较为	-4511
ys	-4512
票房	-4513
黃金	-4514
QL	-4515
▁唐	-4516
组建	-4517
但不	-4518
多元	-4519
克里斯	-4520
结婚	-4521
客家	-4522
委书记	-4523
是香港	-4524
客户的	-4525
不起	-4526
海域	-4527
篮球	-4528
可以让	-4529
得名	-4530
花園	-4531
貴族	-4532
通訊	-4533
間的	-4534
日益	-4535
進步	-4536
pp	-4537
增加了	-4538
CC	-4539
網絡	-4540
大地	-4541
探险	-4542
障碍	-4543
早在	-4544
;"|	-4545
教學	-4546
的國家	-4547
An	-4548
▁→	-4549
紧急	-4550
依照	-4551
焦虑	-4552
莎白	-4553
研究中心	-4554
▁布	-4555
之地	-4556
间的	-4557
院長	-4558
ES	-4559
效力	-4560
查找	-4561
變得	-4562
人死亡	-4563
并于	-4564
斯克	-4565
渠道	-4566
牛奶	-4567
奴隶	-4568
的有	-4569
还能	-4570
出演	-4571
发出	-4572
的速度	-4573
PS	-4574
山地	-4575
的發展	-4576
顧問	-4577
厄尔	-4578
對象	-4579
斯大	-4580
ale	-4581
全世界	-4582
咨询	-4583
未有	-4584
CH	-4585
fl	-4586
▁四	-4587
烹饪	-4588
表达式	-4589
erson	-4590
匹配	-4591
成年	-4592
靠近	-4593
出生于	-4594
▁例如	-4595
华盛	-4596
▁ed	-4597
亞歷山大	-4598
内蒙古	-4599
以下句子	-4600
元朝	-4601
客运	-4602
院校	-4603
奧地利	-4604
兩岸	-4605
陸續	-4606
克蘭	-4607
球會	-4608
阿里	-4609
ble	-4610
除此之外	-4611
▁你	-4612
删除	-4613
戲劇	-4614
数据集	-4615
行走	-4616
論文	-4617
證據	-4618
可能性	-4619
ky	-4620
地在	-4621
外部	-4622
東部	-4623
軍的	-4624
民主党	-4625
中国人民解放军	-4626
地形	-4627
好友	-4628
儀式	-4629
明星	-4630
所謂	-4631
ener	-4632
最新	-4633
檔案	-4634
職棒	-4635
的作用	-4636
過程中	-4637
球季	-4638
老師	-4639
實行	-4640
北美	-4641
早期的	-4642
味道	-4643
符號	-4644
华盛顿	-4645
日本的	-4646
edia	-4647
幻想	-4648
心脏	-4649
購買	-4650
足球運動員	-4651
中国的	-4652
的主题	-4653
北洋	-4654
推理	-4655
这两个	-4656
專門	-4657
就有	-4658
航班	-4659
打擊	-4660
本科	-4661
驱动	-4662
ific	-4663
地中	-4664
大西洋	-4665
司令部	-4666
科學家	-4667
裝置	-4668
并非	-4669
▁sh	-4670
哈利	-4671
沈阳	-4672
管制	-4673
▁Or	-4674
UR	-4675
永远	-4676
国民党	-4677
通讯	-4678
奥地利	-4679
湖南省	-4680
百萬	-4681
贫困	-4682
電話	-4683
各國	-4684
这部	-4685
被視為	-4686
如同	-4687
▁//	-4688
▁世界	-4689
年开始	-4690
编程语言	-4691
承担	-4692
确认	-4693
的功能	-4694
布斯	-4695
波士	-4696
四個	-4697
瑟夫	-4698
五十	-4699
数据分析	-4700
認識	-4701
透明	-4702
vi	-4703
男女	-4704
男孩	-4705
人类的	-4706
完整的	-4707
西里	-4708
受歡迎	-4709
满意度	-4710
立法會	-4711
优惠	-4712
日报	-4713
格勒	-4714
带来的	-4715
下面是一个	-4716
武裝	-4717
主力	-4718
收購	-4719
耶穌	-4720
改制	-4721
结论	-4722
名單	-4723
igh	-4724
JR	-4725
传达	-4726
始人	-4727
生活方式	-4728
日治	-4729
紧张	-4730
說明	-4731
顏色	-4732
意为	-4733
敏感	-4734
▁刘	-4735
召開	-4736
山脈	-4737
抽象	-4738
▁arr	-4739
▁万	-4740
监控	-4741
等的	-4742
同时也	-4743
▁中華民國	-4744
分佈	-4745
如今	-4746
所屬	-4747
女歌手	-4748
市長	-4749
很高	-4750
境內	-4751
泰國	-4752
最後一	-4753
cess	-4754
住在	-4755
内战	-4756
纪录	-4757
原則	-4758
放置	-4759
可以是	-4760
爱的	-4761
一旦	-4762
Pl	-4763
指标	-4764
超级	-4765
英里	-4766
之战	-4767
舒适	-4768
修复	-4769
启动	-4770
地鐵	-4771
常委	-4772
尺寸	-4773
东京	-4774
塞爾	-4775
af	-4776
以為	-4777
首府	-4778
平民	-4779
职务	-4780
中國國民黨	-4781
anc	-4782
沿岸	-4783
了一种	-4784
广东省	-4785
势力	-4786
我会	-4787
現場	-4788
出現在	-4789
布尔	-4790
測量	-4791
Pro	-4792
维尔	-4793
完成了	-4794
」；	-4795
用以	-4796
团队成员	-4797
的問題	-4798
▁align	-4799
安全性	-4800
工廠	-4801
道教	-4802
是個	-4803
线的	-4804
出现在	-4805
经济增长	-4806
SE	-4807
过度	-4808
▁但	-4809
MP	-4810
点的	-4811
观测	-4812
錯誤	-4813
为用户	-4814
外國	-4815
親王	-4816
辽宁	-4817
奥运会	-4818
时期的	-4819
放入	-4820
谈判	-4821
▁下	-4822
太宗	-4823
波特	-4824
美術	-4825
民众	-4826
卡斯	-4827
撤退	-4828
▁http	-4829
簽署	-4830
oph	-4831
會有	-4832
構成	-4833
終於	-4834
维奇	-4835
每一个	-4836
的力量	-4837
安娜	-4838
祖先	-4839
aur	-4840
造成了	-4841
->	-4842
常住	-4843
弗雷	-4844
福音	-4845
三人	-4846
冥想	-4847
尼诺	-4848
的人口	-4849
蘇格蘭	-4850
以下几个	-4851
Google	-4852
團隊	-4853
法规	-4854
大夫	-4855
實現	-4856
收到	-4857
合約	-4858
百姓	-4859
angu	-4860
td	-4861
▁黄	-4862
症状	-4863
inux	-4864
一詞	-4865
漢語	-4866
妹妹	-4867
難以	-4868
條例	-4869
因为它	-4870
人体	-4871
爱尔	-4872
of	-4873
时尚	-4874
玩具	-4875
友谊	-4876
并未	-4877
▁这些	-4878
依靠	-4879
将会	-4880
▁正	-4881
开通	-4882
血液	-4883
记者	-4884
▁古	-4885
俄国	-4886
米尔	-4887
质的	-4888
▁當	-4889
包括了	-4890
時期的	-4891
航空公司	-4892
AK	-4893
民间	-4894
拆除	-4895
新界	-4896
維亞	-4897
oll	-4898
轟炸	-4899
保羅	-4900
ese	-4901
特拉	-4902
调节	-4903
▁Man	-4904
不知	-4905
亚历	-4906
像是	-4907
弗朗	-4908
强的	-4909
諾貝爾	-4910
在位	-4911
簽訂	-4912
關注	-4913
ited	-4914
纤维	-4915
聲明	-4916
等方面	-4917
放送	-4918
区块链	-4919
并不是	-4920
."	-4921
也因此	-4922
地图	-4923
地點	-4924
文艺	-4925
独特	-4926
的情况	-4927
放射	-4928
语句	-4929
官方網站	-4930
度假	-4931
斗争	-4932
地质	-4933
匈奴	-4934
right	-4935
仍有	-4936
常用	-4937
离子	-4938
賽季	-4939
》（）	-4940
美国的	-4941
能力和	-4942
主權	-4943
激励	-4944
!!	-4945
▁艾	-4946
系的	-4947
ings	-4948
琉球	-4949
克兰	-4950
路段	-4951
國際機場	-4952
宠物	-4953
三国	-4954
ates	-4955
如果你	-4956
流行的	-4957
"。	-4958
颱風	-4959
pen	-4960
屯門	-4961
出现了	-4962
▁等	-4963
。「	-4964
七月	-4965
免費	-4966
城的	-4967
提前	-4968
氧气	-4969
醫生	-4970
首席	-4971
注意的是	-4972
最小	-4973
北平	-4974
回忆	-4975
襲擊	-4976
”，“	-4977
▁山	-4978
利斯	-4979
某个	-4980
就在	-4981
游客	-4982
▁You	-4983
有所不同	-4984
仪式	-4985
本線	-4986
订单	-4987
通往	-4988
乘坐	-4989
是一部	-4990
人工智能技术	-4991
並以	-4992
人力	-4993
大眾	-4994
挖掘	-4995
维生素	-4996
學的	-4997
富汗	-4998
愉快	-4999
比喻	-5000
興趣	-5001
主流	-5002
則為	-5003
摘要	-5004
own	-5005
蒙特	-5006
依据	-5007
類型	-5008
與其他	-5009
夜晚	-5010
山的	-5011
uk	-5012
对比	-5013
的重	-5014
港元	-5015
两者	-5016
步槍	-5017
移到	-5018
amp	-5019
的风险	-5020
丹麦	-5021
價格	-5022
参谋	-5023
服装	-5024
ution	-5025
阿根廷	-5026
”）	-5027
洪水	-5028
真實	-5029
辐射	-5030
这座	-5031
进制	-5032
日翡翠台	-5033
的语言	-5034
ello	-5035
人文	-5036
信徒	-5037
soft	-5038
▁pl	-5039
▁以上	-5040
錦標賽	-5041
oo	-5042
对其	-5043
add	-5044
ublic	-5045
搜寻	-5046
飛彈	-5047
非常重要	-5048
兩者	-5049
哥伦	-5050
人工智能助手	-5051
並將	-5052
反抗	-5053
吉他	-5054
對應	-5055
王位	-5056
表格	-5057
yl	-5058
太祖	-5059
插入	-5060
豐富	-5061
▁Be	-5062
包含了	-5063
政党	-5064
併入	-5065
内存	-5066
因其	-5067
肯定	-5068
的第二	-5069
Phone	-5070
市镇	-5071
架構	-5072
观看	-5073
ife	-5074
签订	-5075
起了	-5076
和谐	-5077
垂直	-5078
湖泊	-5079
袭击	-5080
擴大	-5081
爱尔兰	-5082
促使	-5083
名叫	-5084
之上	-5085
他被	-5086
清代	-5087
原先	-5088
托勒	-5089
是為	-5090
長度	-5091
帶來	-5092
++	-5093
在西	-5094
结束后	-5095
崇拜	-5096
服役	-5097
医疗保健	-5098
▁從	-5099
首任	-5100
在他的	-5101
（）。	-5102
呈現	-5103
DVD	-5104
當局	-5105
生活的	-5106
山市	-5107
碩士	-5108
元首	-5109
血管	-5110
几种	-5111
装备	-5112
一生	-5113
自信	-5114
idth	-5115
可見	-5116
有了	-5117
外交部	-5118
导航	-5119
消除	-5120
词汇	-5121
FF	-5122
称作	-5123
的代表	-5124
异常	-5125
警告	-5126
▁德	-5127
拼音	-5128
一词	-5129
改编	-5130
诗人	-5131
里亚	-5132
摄影	-5133
标记	-5134
法语	-5135
資本	-5136
？”	-5137
各地的	-5138
▁Eng	-5139
克力	-5140
在於	-5141
构造	-5142
海南	-5143
画家	-5144
创造一个	-5145
同志	-5146
宣告	-5147
（《	-5148
我将	-5149
氏度	-5150
ade	-5151
可以用来	-5152
人所	-5153
创立	-5154
秩序	-5155
后者	-5156
衣服	-5157
了他的	-5158
▁陈	-5159
贵州	-5160
重的	-5161
绝对	-5162
古老的	-5163
ml	-5164
清洗	-5165
藉由	-5166
▁减少	-5167
成立了	-5168
將領	-5169
教徒	-5170
的话	-5171
億美元	-5172
勒斯	-5173
始终	-5174
病逝	-5175
对方	-5176
分别是	-5177
ground	-5178
me	-5179
更大的	-5180
登陸	-5181
空氣	-5182
sc	-5183
的设计	-5184
▁注意	-5185
加強	-5186
ett	-5187
▁可可	-5188
來到	-5189
屏幕	-5190
神話	-5191
自此	-5192
藥物	-5193
進士	-5194
ype	-5195
rand	-5196
南宋	-5197
意見	-5198
ald	-5199
会导致	-5200
对环境	-5201
考試	-5202
的模式	-5203
空气污染	-5204
指控	-5205
的美	-5206
ress	-5207
列為	-5208
沙田	-5209
成為了	-5210
罗马帝国	-5211
會員	-5212
輸入	-5213
农村	-5214
台中	-5215
授权	-5216
HE	-5217
主动	-5218
站的	-5219
ated	-5220
校園	-5221
的正	-5222
大帝	-5223
NBA	-5224
建築物	-5225
参观	-5226
废除	-5227
遭遇	-5228
他也	-5229
刑事	-5230
。。	-5231
巡迴	-5232
是有	-5233
甘肃	-5234
院长	-5235
島嶼	-5236
数值	-5237
這次	-5238
江苏省	-5239
乐队	-5240
为中国	-5241
"，	-5242
山区	-5243
傾向	-5244
协助	-5245
的特征	-5246
rist	-5247
icrosoft	-5248
政协	-5249
range	-5250
會長	-5251
無線	-5252
出行	-5253
阿富汗	-5254
组成部分	-5255
▁Amer	-5256
口感	-5257
作物	-5258
密的	-5259
國家的	-5260
介石	-5261
强烈	-5262
抑制	-5263
我是一个	-5264
▁Python	-5265
強烈	-5266
復興	-5267
▁are	-5268
行政区划	-5269
几何	-5270
獎項	-5271
但因	-5272
台南	-5273
TS	-5274
尔特	-5275
年号	-5276
至此	-5277
边的	-5278
八月	-5279
用品	-5280
經由	-5281
▁国王	-5282
声明	-5283
銷量	-5284
及其他	-5285
感受到	-5286
少数民族	-5287
在家	-5288
帶領	-5289
年齡	-5290
▁作詞	-5291
▁哈	-5292
大批	-5293
常务	-5294
一定的	-5295
领域的	-5296
BM	-5297
之旅	-5298
登上	-5299
直播	-5300
隊的	-5301
第一次世界大	-5302
觀光	-5303
优秀的	-5304
副主任	-5305
反而	-5306
精力	-5307
開設	-5308
參選	-5309
運用	-5310
經理	-5311
基斯坦	-5312
的大小	-5313
分离	-5314
故障	-5315
歌唱	-5316
浙江省	-5317
提琴	-5318
步行	-5319
易于	-5320
德華	-5321
橄榄	-5322
ike	-5323
四十	-5324
闻名	-5325
rop	-5326
北海道	-5327
后期	-5328
安裝	-5329
转化为	-5330
年號	-5331
海峽	-5332
IA	-5333
户外	-5334
手中	-5335
改建	-5336
電車	-5337
主管	-5338
：（	-5339
改名為	-5340
▁朱	-5341
在新	-5342
雷斯	-5343
之女	-5344
时任	-5345
身亡	-5346
处理器	-5347
▁『	-5348
日後	-5349
▁石	-5350
評價	-5351
Com	-5352
▁五	-5353
平成	-5354
更高	-5355
裡的	-5356
▁can	-5357
增設	-5358
攻打	-5359
認同	-5360
erm	-5361
ott	-5362
其中一	-5363
生长于	-5364
作業	-5365
反射	-5366
淘汰	-5367
Bl	-5368
收益	-5369
地球的	-5370
年香港	-5371
三次	-5372
房间	-5373
天王	-5374
成長	-5375
可能會	-5376
英尺	-5377
途径	-5378
二次	-5379
分别为	-5380
適合	-5381
雕塑	-5382
社會主義	-5383
被認為是	-5384
的可	-5385
責任	-5386
長子	-5387
男主角	-5388
▁曾	-5389
红军	-5390
名人	-5391
复兴	-5392
王室	-5393
app	-5394
▁米	-5395
埃尔	-5396
宁波	-5397
形容词	-5398
ograp	-5399
拜占	-5400
适用于	-5401
會的	-5402
確認	-5403
旋律	-5404
▁臺灣	-5405
日正式	-5406
河南省	-5407
中國共產黨	-5408
多種	-5409
大桥	-5410
軍團	-5411
開幕	-5412
学习和	-5413
年出版	-5414
ican	-5415
更有	-5416
得出	-5417
源于	-5418
穿越	-5419
）－	-5420
供應	-5421
综上	-5422
层次	-5423
改变了	-5424
▁York	-5425
MA	-5426
斯大林	-5427
此事	-5428
Mar	-5429
水利	-5430
造型	-5431
个性化	-5432
可是	-5433
干部	-5434
消費	-5435
面试	-5436
丹尼	-5437
道光	-5438
有一天	-5439
與其	-5440
大規模	-5441
末期	-5442
爾的	-5443
科幻	-5444
北宋	-5445
聖經	-5446
节能	-5447
▁对于	-5448
大学的	-5449
尼古	-5450
隊長	-5451
尼诺县	-5452
▁美	-5453
大戰	-5454
小姐	-5455
殺死	-5456
加利福	-5457
ackground	-5458
「」	-5459
執政	-5460
发动机	-5461
劇情	-5462
立法委員	-5463
尋找	-5464
公署	-5465
▁雖然	-5466
分別為	-5467
波罗	-5468
和他的	-5469
同步	-5470
回歸	-5471
▁class	-5472
▁可可尼诺县	-5473
辅助	-5474
轉換	-5475
▁可以	-5476
决赛	-5477
連載	-5478
隨即	-5479
▁Wh	-5480
经济学	-5481
商場	-5482
期待	-5483
模仿	-5484
黑龙江	-5485
▁>	-5486
格里	-5487
深远	-5488
州刺史	-5489
爱好	-5490
通行	-5491
▁所以	-5492
主义者	-5493
兵力	-5494
下辖的一个	-5495
体重	-5496
容量	-5497
慕容	-5498
ons	-5499
地中海	-5500
发现了	-5501
缓解	-5502
態度	-5503
收視	-5504
的目的	-5505
探讨	-5506
这项	-5507
嘗試	-5508
姓氏	-5509
语的	-5510
很好的	-5511
不良	-5512
截止	-5513
Ad	-5514
饮料	-5515
東京都	-5516
;"	-5517
起初	-5518
▁et	-5519
受到了	-5520
环境中	-5521
▁Me	-5522
▁bgcolor	-5523
注重	-5524
ternational	-5525
哥哥	-5526
月底	-5527
燃烧	-5528
在这里	-5529
保安	-5530
基隆	-5531
立陶	-5532
或服务	-5533
的食物	-5534
单元	-5535
對外	-5536
此次	-5537
fer	-5538
les	-5539
ors	-5540
悠久	-5541
立刻	-5542
出道	-5543
自殺	-5544
面上	-5545
新建	-5546
美国总统	-5547
▁Is	-5548
基本上	-5549
工艺	-5550
慕尼	-5551
的上	-5552
巴斯	-5553
手法	-5554
眾多	-5555
加入了	-5556
▁飾演	-5557
哈尔滨	-5558
分割	-5559
提倡	-5560
熟悉	-5561
路德	-5562
一级	-5563
之意	-5564
可在	-5565
勇气	-5566
鄰近	-5567
浏览器	-5568
主唱	-5569
促進	-5570
描绘	-5571
▁我们	-5572
救援	-5573
歲的	-5574
疫苗	-5575
享有	-5576
後者	-5577
这段	-5578
等方式	-5579
▁胡	-5580
▁II	-5581
特殊的	-5582
一项	-5583
▁长	-5584
定了	-5585
片段	-5586
班次	-5587
中國的	-5588
志愿	-5589
有三	-5590
衍生	-5591
让人	-5592
▁Ge	-5593
福建省	-5594
▁Windows	-5595
送到	-5596
下來	-5597
公正	-5598
氛围	-5599
CO	-5600
接任	-5601
考察	-5602
含量	-5603
情報	-5604
證實	-5605
保加	-5606
电台	-5607
都督	-5608
▁神	-5609
對方	-5610
▁==	-5611
▁综上	-5612
--||	-5613
的存在	-5614
▁result	-5615
UT	-5616
華盛	-5617
宿舍	-5618
清华	-5619
少将	-5620
会上	-5621
率领	-5622
▁用	-5623
四月	-5624
接著	-5625
週期	-5626
重視	-5627
托勒密	-5628
ym	-5629
人都	-5630
军委	-5631
瑪麗	-5632
尔的	-5633
水中	-5634
||--||	-5635
辖区	-5636
運行	-5637
文帝	-5638
結束後	-5639
室内	-5640
模特	-5641
旋转	-5642
語的	-5643
幾個	-5644
標誌	-5645
发起	-5646
第二次世界大战	-5647
器官	-5648
大脑	-5649
接替	-5650
職務	-5651
SM	-5652
信號	-5653
優勢	-5654
骑士	-5655
國軍	-5656
珊瑚	-5657
皮肤	-5658
抵达	-5659
整體	-5660
華盛頓	-5661
SO	-5662
并与	-5663
现有	-5664
貨幣	-5665
身高	-5666
巧克力	-5667
出自	-5668
化和	-5669
成人	-5670
lex	-5671
应用于	-5672
奥林匹克	-5673
世的	-5674
中所	-5675
打击	-5676
最有	-5677
衡量	-5678
因此在	-5679
出土	-5680
獎最佳	-5681
绘画	-5682
ret	-5683
立陶宛	-5684
ebook	-5685
担心	-5686
▁洛厄尔	-5687
之名	-5688
市政	-5689
ana	-5690
数据进行	-5691
Sp	-5692
ma	-5693
輻射	-5694
）、《	-5695
卡爾	-5696
完美	-5697
石器	-5698
网站的	-5699
规律	-5700
可能会导致	-5701
▁宋	-5702
que	-5703
的最高	-5704
公社	-5705
敵人	-5706
GDP	-5707
辦公室	-5708
文的	-5709
候選人	-5710
出色的	-5711
山東	-5712
引种	-5713
預計	-5714
两次	-5715
種族	-5716
孩子们	-5717
严格	-5718
口味	-5719
拯救	-5720
斯洛	-5721
詩人	-5722
个月	-5723
更為	-5724
億元	-5725
回應	-5726
夏天	-5727
晚期	-5728
荣誉	-5729
用水	-5730
更名為	-5731
体现	-5732
玫瑰	-5733
凌晨	-5734
是世界上	-5735
中子	-5736
的人物	-5737
工商	-5738
發布	-5739
ube	-5740
▁des	-5741
变为	-5742
裝備	-5743
▁El	-5744
中心的	-5745
▁到	-5746
」）	-5747
痛苦	-5748
迫使	-5749
研究生	-5750
属的植物	-5751
庆祝	-5752
本站	-5753
祭祀	-5754
简化	-5755
倾向	-5756
弟子	-5757
图案	-5758
稱之	-5759
立場	-5760
類的	-5761
接下来	-5762
文化和	-5763
bers	-5764
▁聖	-5765
边界	-5766
候选人	-5767
列为	-5768
文革	-5769
絕對	-5770
釋放	-5771
有利	-5772
無論	-5773
III	-5774
▁洛厄尔天文台	-5775
▁若	-5776
报纸	-5777
產生的	-5778
時報	-5779
激烈	-5780
生態	-5781
的西	-5782
英軍	-5783
重视	-5784
就任	-5785
ara	-5786
之父	-5787
推进	-5788
繁忙	-5789
对应	-5790
短期	-5791
斯托	-5792
边境	-5793
达成	-5794
但由於	-5795
相互作用	-5796
戰略	-5797
一片	-5798
埔寨	-5799
幹線	-5800
彰化	-5801
短篇	-5802
：〈	-5803
▁Ac	-5804
周恩来	-5805
的关系	-5806
的核心	-5807
的情況下	-5808
所谓	-5809
近地小行星搜寻	-5810
不僅	-5811
▁he	-5812
可能需要	-5813
對此	-5814
戰國	-5815
柬埔寨	-5816
國務	-5817
律师	-5818
集成	-5819
两国	-5820
形式的	-5821
ford	-5822
史密	-5823
德华	-5824
网上	-5825
很抱歉	-5826
特別是	-5827
巴勒	-5828
路易斯	-5829
和不	-5830
摄入	-5831
欧盟	-5832
负面	-5833
由人工	-5834
▁元	-5835
和新	-5836
正是	-5837
萬元	-5838
马斯	-5839
ull	-5840
同性戀	-5841
至关重要	-5842
▁History	-5843
一支	-5844
改良	-5845
的話	-5846
因斯坦	-5847
项目的	-5848
▁外	-5849
优先	-5850
假設	-5851
研发	-5852
▁el	-5853
基督徒	-5854
：），	-5855
tr	-5856
在南	-5857
出生於	-5858
篇文章	-5859
近地小行星搜寻计划	-5860
交往	-5861
優秀	-5862
可视	-5863
柴油	-5864
傳媒	-5865
尚書	-5866
以外的	-5867
組成的	-5868
幕府	-5869
年份	-5870
教科	-5871
曾被	-5872
▁游戏	-5873
ement	-5874
温室气体排放	-5875
女儿	-5876
率为	-5877
阳市	-5878
▁Stud	-5879
困難	-5880
岛屿	-5881
神话	-5882
主題曲	-5883
便捷	-5884
贷款	-5885
人口的	-5886
侵略	-5887
回应	-5888
奶酪	-5889
孔子	-5890
纳粹	-5891
他们在	-5892
仍在	-5893
剧院	-5894
唐代	-5895
山區	-5896
ward	-5897
交叉	-5898
和的	-5899
少的	-5900
等级	-5901
黄河	-5902
ater	-5903
区分	-5904
時段	-5905
體系	-5906
时间内	-5907
语音识别	-5908
慢慢	-5909
漫画	-5910
▁Am	-5911
▁國立	-5912
犹太人	-5913
親自	-5914
不但	-5915
九月	-5916
差距	-5917
收費	-5918
殺害	-5919
并通过	-5920
▁请	-5921
作的	-5922
顾问	-5923
km	-5924
三月	-5925
哈里	-5926
▁洛厄尔天文台近地小行星搜寻计划	-5927
並無	-5928
布朗	-5929
最好的	-5930
資產	-5931
最高法院	-5932
不利	-5933
年末	-5934
▁一个	-5935
学生的	-5936
更好地理解	-5937
便是	-5938
可用	-5939
委任	-5940
附属	-5941
立法院	-5942
升格	-5943
現實	-5944
办事处	-5945
拜占庭	-5946
▁×	-5947
▁武	-5948
人群	-5949
县级	-5950
时刻	-5951
約為	-5952
在那	-5953
展现	-5954
彗星	-5955
省的	-5956
脫離	-5957
▁东	-5958
分散	-5959
划归	-5960
可以被	-5961
高等教育	-5962
Hz	-5963
從而	-5964
下面是	-5965
夫斯基	-5966
二月	-5967
從此	-5968
防禦	-5969
黄金	-5970
巴基斯坦	-5971
中央委员会	-5972
染色	-5973
引种栽培	-5974
妇女	-5975
正確	-5976
保护区	-5977
丘陵	-5978
会员	-5979
病人	-5980
中使用	-5981
实体	-5982
▁其他	-5983
爾德	-5984
广泛的	-5985
交換	-5986
勳章	-5987
歐盟	-5988
大部份	-5989
▁综上所述	-5990
一條	-5991
推廣	-5992
洛斯	-5993
世界各地	-5994
AV	-5995
六月	-5996
名義	-5997
爭取	-5998
细菌	-5999
▁ab	-6000
之间的关系	-6001
人为	-6002
从此	-6003
指導	-6004
阳县	-6005
list	-6006
鱼类	-6007
▁sp	-6008
由人工引种栽培	-6009
面前	-6010
EM	-6011
授權	-6012
的多	-6013
▁Gu	-6014
決議	-6015
较低	-6016
对此	-6017
TP	-6018
马尔	-6019
价值观	-6020
计算机科学	-6021
亮的	-6022
即是	-6023
支流	-6024
有什么	-6025
体制	-6026
歲時	-6027
流动	-6028
被捕	-6029
▁北京	-6030
最为	-6031
男人	-6032
饰演	-6033
需求和	-6034
air	-6035
艺术家	-6036
化石燃料	-6037
宜蘭	-6038
携带	-6039
氣體	-6040
和分析	-6041
一张	-6042
扩张	-6043
籃球	-6044
典型的	-6045
工作效率	-6046
元素的	-6047
▁青	-6048
死后	-6049
解除	-6050
各类	-6051
季节	-6052
any	-6053
堅持	-6054
綠色	-6055
ank	-6056
avid	-6057
可以帮助您	-6058
在前	-6059
損失	-6060
笔记本	-6061
害怕	-6062
总督	-6063
进化	-6064
的時間	-6065
第三次	-6066
达尔	-6067
發電	-6068
網頁	-6069
NHK	-6070
▁De	-6071
交易所	-6072
发展的	-6073
总面积	-6074
盆地	-6075
舰队	-6076
con	-6077
能够通过	-6078
▁這	-6079
ream	-6080
江戶	-6081
俱樂	-6082
acebook	-6083
伙伴	-6084
英寸	-6085
行政長官	-6086
員工	-6087
大楼	-6088
旅程	-6089
朝日	-6090
独立的	-6091
下方	-6092
租界	-6093
常委会	-6094
印第	-6095
司马	-6096
含义	-6097
定制	-6098
度使	-6099
數的	-6100
文藝	-6101
金像	-6102
安全的	-6103
组织的	-6104
the	-6105
下游	-6106
編劇	-6107
道夫	-6108
風暴	-6109
eter	-6110
的中心	-6111
罕默	-6112
美术	-6113
障礙	-6114
写一篇	-6115
師範	-6116
树木	-6117
ini	-6118
螺旋	-6119
不在	-6120
内阁	-6121
粮食	-6122
總站	-6123
通车	-6124
十二年	-6125
事件的	-6126
富有	-6127
麦克	-6128
下列	-6129
出发	-6130
長達	-6131
决议	-6132
東亞	-6133
科研	-6134
机器学习算法	-6135
一群	-6136
做為	-6137
典型	-6138
样的	-6139
降雨	-6140
▁Vol	-6141
一场	-6142
专区	-6143
危險	-6144
太原	-6145
热情	-6146
）:	-6147
政府在	-6148
的特点	-6149
製作人	-6150
羅馬帝國	-6151
建制	-6152
沿用	-6153
系統的	-6154
合同	-6155
雍正	-6156
房子	-6157
戰鬥機	-6158
文化大革命	-6159
公佈	-6160
带领	-6161
德川	-6162
恐龍	-6163
招聘	-6164
进程	-6165
銀河	-6166
是通过	-6167
也很	-6168
月起	-6169
▁On	-6170
▁被	-6171
、《	-6172
之路	-6173
侵犯	-6174
能在	-6175
sch	-6176
全年	-6177
四川省	-6178
德軍	-6179
▁str	-6180
oe	-6181
▁最	-6182
学的	-6183
监管	-6184
是因為	-6185
illiam	-6186
早年	-6187
主辦	-6188
光的	-6189
第二次世界大戰	-6190
和管理	-6191
的名称	-6192
目前尚未	-6193
以西	-6194
勞動	-6195
關鍵	-6196
▁其次	-6197
we	-6198
內戰	-6199
风暴	-6200
DF	-6201
巴赫	-6202
裁判	-6203
earch	-6204
ute	-6205
irst	-6206
语言模型	-6207
苏州	-6208
储存	-6209
的四	-6210
談判	-6211
重力	-6212
主義者	-6213
的结构	-6214
抗議	-6215
ole	-6216
中等	-6217
健身	-6218
市长	-6219
抗议	-6220
在台灣	-6221
慕尼黑	-6222
穆罕默	-6223
已於	-6224
更换	-6225
的技术	-6226
目的地	-6227
程度上	-6228
胡椒	-6229
防守	-6230
可能导致	-6231
▁永	-6232
监测	-6233
尼亚州	-6234
▁War	-6235
能够快速	-6236
多名	-6237
汉族	-6238
海滩	-6239
运河	-6240
風險	-6241
ren	-6242
看起来	-6243
區內	-6244
戰隊	-6245
規範	-6246
主义的	-6247
張專輯	-6248
但其	-6249
强度	-6250
法令	-6251
生动	-6252
鼓勵	-6253
（；	-6254
准确地	-6255
特林	-6256
老人	-6257
你需要	-6258
OT	-6259
接口	-6260
言人	-6261
但也	-6262
地名	-6263
提高了	-6264
▁Int	-6265
同日	-6266
属性	-6267
高達	-6268
婦女	-6269
控股	-6270
夏威	-6271
天后	-6272
▁System	-6273
會議員	-6274
明確	-6275
装置	-6276
▁一般	-6277
印第安	-6278
并提供	-6279
光緒	-6280
总部	-6281
會被	-6282
汤姆	-6283
治理	-6284
演示	-6285
遊行	-6286
膨胀	-6287
SQL	-6288
▁Car	-6289
ii	-6290
效应	-6291
海水	-6292
用戶	-6293
稱作	-6294
號為	-6295
选项	-6296
的电影	-6297
▁長	-6298
專家	-6299
愛情	-6300
流亡	-6301
的山	-6302
危害	-6303
透露	-6304
mat	-6305
加斯	-6306
马拉	-6307
學士	-6308
水扁	-6309
准确性	-6310
亚马	-6311
地域	-6312
發佈	-6313
Web	-6314
alk	-6315
表现出	-6316
机的	-6317
畫家	-6318
ize	-6319
更高的	-6320
烏克蘭	-6321
米的地区	-6322
包圍	-6323
單一	-6324
神經	-6325
荃灣	-6326
不如	-6327
样本	-6328
ner	-6329
心理健康	-6330
克尔	-6331
损害	-6332
财产	-6333
生长于海拔	-6334
木星	-6335
真理	-6336
號線	-6337
▁|-	-6338
主要有	-6339
兩次	-6340
厚的	-6341
哺乳动物	-6342
”；	-6343
明代	-6344
ould	-6345
泰勒	-6346
玉米	-6347
▁中央	-6348
平行	-6349
较高	-6350
河北省	-6351
局的	-6352
草案	-6353
特別行政區	-6354
丹麥	-6355
他还	-6356
帶有	-6357
御史	-6358
里程	-6359
圆形	-6360
黑人	-6361
夏威夷	-6362
自然的	-6363
香港的	-6364
哪个	-6365
架构	-6366
歧视	-6367
▁罗	-6368
个体	-6369
平安	-6370
校舍	-6371
较大	-6372
舉行的	-6373
仅仅	-6374
天津市	-6375
原型	-6376
审查	-6377
百万	-6378
納粹	-6379
▁Off	-6380
其子	-6381
的家	-6382
下半	-6383
兩國	-6384
崛起	-6385
得分	-6386
雨林	-6387
占据	-6388
同事	-6389
说服	-6390
描述了	-6391
則有	-6392
丁堡	-6393
校园	-6394
水分	-6395
省级	-6396
羽毛球	-6397
对抗	-6398
高宗	-6399
機動	-6400
站在	-6401
和文化	-6402
HTML	-6403
ions	-6404
屏東	-6405
撰寫	-6406
ral	-6407
海平面	-6408
HR	-6409
无需	-6410
高峰	-6411
为我们	-6412
布鲁	-6413
文中	-6414
地球上	-6415
图表	-6416
展覽	-6417
一路	-6418
受伤	-6419
大師	-6420
射擊	-6421
他人的	-6422
修正案	-6423
前者	-6424
外界	-6425
首度	-6426
洛杉矶	-6427
▁Res	-6428
▁not	-6429
物理学家	-6430
教的	-6431
严重的	-6432
干涉	-6433
都要	-6434
命名为	-6435
大學的	-6436
彻底	-6437
很好	-6438
方形	-6439
▁my	-6440
人權	-6441
均有	-6442
局面	-6443
延長	-6444
消化	-6445
税收	-6446
身為	-6447
发生了	-6448
并根据	-6449
配音員	-6450
用户体验	-6451
这个句子	-6452
制品	-6453
所得	-6454
神的	-6455
财富	-6456
分別是	-6457
马克思	-6458
html	-6459
▁Sci	-6460
ative	-6461
▁該	-6462
區議會	-6463
)（	-6464
大力	-6465
容器	-6466
点击	-6467
芬兰	-6468
观的	-6469
在上海	-6470
字的	-6471
有益	-6472
消防	-6473
aul	-6474
▁Fran	-6475
望遠	-6476
人民代表大会	-6477
版的	-6478
菲利	-6479
行駛	-6480
IG	-6481
請求	-6482
十二月	-6483
li	-6484
天地	-6485
账户	-6486
OL	-6487
保罗	-6488
卓越	-6489
大于	-6490
的金	-6491
研發	-6492
时光	-6493
生物学	-6494
导弹	-6495
年成立	-6496
],	-6497
加快	-6498
接管	-6499
事實上	-6500
各有	-6501
建國	-6502
附加	-6503
在中國	-6504
頒獎典禮	-6505
以往	-6506
原有	-6507
穿过	-6508
次全国	-6509
国民政府	-6510
戰場	-6511
只需	-6512
次子	-6513
連結	-6514
！”	-6515
族自治	-6516
保險	-6517
边缘	-6518
書籍	-6519
这将	-6520
五世	-6521
太守	-6522
formation	-6523
公告	-6524
哈拉	-6525
平定	-6526
给了	-6527
自杀	-6528
通常会	-6529
去了	-6530
格林	-6531
交界	-6532
冰川	-6533
困境	-6534
又有	-6535
意思是	-6536
专注	-6537
数为	-6538
號的	-6539
▁羅	-6540
产量	-6541
光绪	-6542
洛伊	-6543
餐廳	-6544
RNA	-6545
臺灣省	-6546
召集	-6547
宋朝	-6548
習慣	-6549
附屬	-6550
的歌曲	-6551
▁因	-6552
閩南	-6553
捕捉	-6554
月份	-6555
除以	-6556
是美国	-6557
▁國	-6558
▁科	-6559
忽略	-6560
的土地	-6561
适量	-6562
▁以下	-6563
最新的	-6564
州府	-6565
社群	-6566
活动的	-6567
orth	-6568
▁Comm	-6569
上一	-6570
增長	-6571
女人	-6572
解析	-6573
聊天机器人	-6574
干扰	-6575
溶液	-6576
望遠鏡	-6577
构建一个	-6578
会的	-6579
質疑	-6580
▁选择	-6581
目前尚未由人工引种栽培	-6582
早餐	-6583
诸多	-6584
不可能	-6585
这个问题	-6586
南昌	-6587
選出	-6588
北魏	-6589
最為	-6590
端的	-6591
给我	-6592
oss	-6593
俱樂部	-6594
山东省	-6595
史蒂	-6596
脚本	-6597
軍官	-6598
的一次	-6599
科的	-6600
牛顿	-6601
福特	-6602
行人	-6603
的产品	-6604
▁Ind	-6605
US	-6606
一至	-6607
概括	-6608
顺利	-6609
澳大利亞	-6610
勋章	-6611
吉尔	-6612
弗拉	-6613
循環	-6614
村民	-6615
流感	-6616
瑜伽	-6617
人均	-6618
爾特	-6619
酒精	-6620
国际机场	-6621
包装	-6622
某种	-6623
理性	-6624
▁Web	-6625
大賽	-6626
为一	-6627
分離	-6628
周边	-6629
亚当	-6630
古屋	-6631
翌年	-6632
乌克兰	-6633
大街	-6634
連任	-6635
的日本	-6636
IR	-6637
期刊	-6638
王的	-6639
erl	-6640
等领域	-6641
邓小平	-6642
集中在	-6643
▁Colle	-6644
倒入	-6645
按钮	-6646
新人	-6647
不知道	-6648
发现的	-6649
公立	-6650
出兵	-6651
微软	-6652
董事長	-6653
內地	-6654
案例	-6655
海底	-6656
的全	-6657
者和	-6658
开头	-6659
情节	-6660
擴張	-6661
的一座	-6662
ator	-6663
關閉	-6664
oid	-6665
发生在	-6666
国旗	-6667
柠檬	-6668
uch	-6669
评分	-6670
▁Ser	-6671
冒險	-6672
的後	-6673
▁Fl	-6674
充满了	-6675
书院	-6676
大橋	-6677
过于	-6678
OP	-6679
坐标	-6680
微軟	-6681
原因是	-6682
▁And	-6683
单独	-6684
和高	-6685
密西	-6686
航海	-6687
let	-6688
的大型	-6689
〉。	-6690
士坦	-6691
氣象	-6692
癌症	-6693
运动的	-6694
其余	-6695
劇本	-6696
效應	-6697
毛澤	-6698
失去了	-6699
三位	-6700
向前	-6701
普鲁	-6702
替换	-6703
Script	-6704
升级	-6705
并对	-6706
欧元	-6707
週年	-6708
金剛	-6709
半球	-6710
回家	-6711
枢纽	-6712
uss	-6713
evel	-6714
XX	-6715
体积	-6716
新增	-6717
聯繫	-6718
蝴蝶	-6719
ays	-6720
藍色	-6721
克利	-6722
军的	-6723
声称	-6724
教區	-6725
轉乘	-6726
遺產	-6727
You	-6728
接壤	-6729
片的	-6730
节约	-6731
亚历山大	-6732
個性	-6733
千年	-6734
排除	-6735
法定	-6736
約有	-6737
关键词	-6738
哥伦比亚	-6739
停靠	-6740
生效	-6741
素食	-6742
移至	-6743
▁随着	-6744
威尼斯	-6745
ages	-6746
uper	-6747
原料	-6748
杀死	-6749
武力	-6750
来帮助	-6751
的变化	-6752
压缩	-6753
物體	-6754
的元素	-6755
來往	-6756
硕士	-6757
排行榜	-6758
数学家	-6759
毛澤東	-6760
▁For	-6761
术语	-6762
樂壇	-6763
巴勒斯坦	-6764
乡村	-6765
名单	-6766
告訴	-6767
機制	-6768
现场	-6769
議題	-6770
▁杨	-6771
某一	-6772
推出的	-6773
my	-6774
不多	-6775
为止	-6776
层的	-6777
新型	-6778
的好	-6779
ily	-6780
任天堂	-6781
的政策	-6782
假期	-6783
其次	-6784
微笑	-6785
▁文	-6786
戰車	-6787
活力	-6788
电器	-6789
拓展	-6790
也曾	-6791
余人	-6792
探测	-6793
FC	-6794
为一个	-6795
word	-6796
宣稱	-6797
模块	-6798
君士坦	-6799
地圖	-6800
云计算	-6801
行使	-6802
远的	-6803
▁至	-6804
之處	-6805
济南	-6806
為其	-6807
面粉	-6808
布魯	-6809
族人	-6810
近似	-6811
的行为	-6812
世代	-6813
执政	-6814
水库	-6815
▁为了	-6816
是美國	-6817
不满	-6818
的信	-6819
人民币	-6820
河流域	-6821
正月	-6822
找到了	-6823
▁花	-6824
你们	-6825
可汗	-6826
和小	-6827
澎湖	-6828
言論	-6829
錄音	-6830
▁确定	-6831
的安全	-6832
与其	-6833
各個	-6834
的经济	-6835
升高	-6836
寫作	-6837
▁Sm	-6838
但是在	-6839
有許多	-6840
入境	-6841
清理	-6842
odel	-6843
ouse	-6844
anguage	-6845
ony	-6846
患者的	-6847
全国重点	-6848
最著名的	-6849
不太	-6850
違反	-6851
to	-6852
中間	-6853
▁Pol	-6854
CE	-6855
维埃	-6856
亚马逊	-6857
的两个	-6858
ents	-6859
克服	-6860
接着	-6861
註冊	-6862
這樣的	-6863
开发人员	-6864
▁Comp	-6865
但仍	-6866
宇航	-6867
落在	-6868
▁保持	-6869
▁列	-6870
劇集	-6871
喜剧	-6872
改写	-6873
移交	-6874
它能够	-6875
oun	-6876
的三个	-6877
陳水扁	-6878
幽默	-6879
参加了	-6880
的歷史	-6881
穆罕默德	-6882
公會	-6883
可達	-6884
景点	-6885
缩写	-6886
alue	-6887
▁同	-6888
兴奋	-6889
指数	-6890
施工	-6891
渴望	-6892
症狀	-6893
大同	-6894
言论	-6895
Ap	-6896
不变	-6897
寒冷	-6898
李登	-6899
頻率	-6900
废弃	-6901
形狀	-6902
耶稣	-6903
配角	-6904
高山	-6905
經濟學	-6906
采用了	-6907
内心	-6908
出發	-6909
加热	-6910
茶匙	-6911
要素	-6912
防御	-6913
和支持	-6914
年平均	-6915
新生	-6916
每周	-6917
神奇	-6918
的建议	-6919
第一部	-6920
部部长	-6921
CN	-6922
失业	-6923
有一個	-6924
ensis	-6925
▁Sc	-6926
神经元	-6927
营销策略	-6928
千人	-6929
渤海	-6930
电路	-6931
Mac	-6932
工作室	-6933
版本的	-6934
▁愛	-6935
伤害	-6936
常被	-6937
清水	-6938
薩克	-6939
阿姆	-6940
成立於	-6941
name	-6942
过渡	-6943
▁斯	-6944
上游	-6945
干旱	-6946
热量	-6947
▁un	-6948
通过对	-6949
客户提供	-6950
OK	-6951
停車	-6952
初步	-6953
处的	-6954
實力	-6955
捷克	-6956
米爾	-6957
利安	-6958
当年	-6959
慶祝	-6960
萝卜	-6961
訊息	-6962
派对	-6963
網球	-6964
順利	-6965
And	-6966
屠杀	-6967
機的	-6968
肯尼	-6969
特區	-6970
隔离	-6971
▁/*	-6972
可视化	-6973
AA	-6974
新北市	-6975
的生物	-6976
監察	-6977
▁It	-6978
的价格	-6979
樂器	-6980
Linux	-6981
gram	-6982
周圍	-6983
次数	-6984
袁世	-6985
创始人	-6986
▁Par	-6987
北伐	-6988
增添	-6989
年才	-6990
棋子	-6991
泰国	-6992
穿着	-6993
碳排放	-6994
长时间	-6995
inal	-6996
總會	-6997
聲稱	-6998
两位	-6999
斯和	-7000
最好	-7001
种子	-7002
但由于	-7003
蒸汽	-7004
了一個	-7005
ital	-7006
▁它	-7007
无人	-7008
流通	-7009
神社	-7010
ael	-7011
ane	-7012
的文化	-7013
五代	-7014
光明	-7015
南越	-7016
自稱	-7017
世纪初	-7018
拉德	-7019
無限	-7020
的電	-7021
觀塘	-7022
名古屋	-7023
▁徐	-7024
亲自	-7025
各大	-7026
書記	-7027
波音	-7028
意识到	-7029
">	-7030
企圖	-7031
大氣	-7032
引人	-7033
认可	-7034
cm	-7035
懷疑	-7036
认知	-7037
是非常	-7038
rowspan	-7039
▁个	-7040
乡镇	-7041
均为	-7042
姊妹	-7043
家居	-7044
悉尼	-7045
著的	-7046
oon	-7047
by	-7048
執導	-7049
繁荣	-7050
▁pp	-7051
信息和	-7052
洛杉磯	-7053
苏格兰	-7054
暫時	-7055
的后	-7056
的要求	-7057
aj	-7058
線上	-7059
魅力	-7060
以提高	-7061
伊利	-7062
形態	-7063
精靈	-7064
运作	-7065
領導人	-7066
民政	-7067
uro	-7068
兵团	-7069
南下	-7070
格雷	-7071
緬甸	-7072
足以	-7073
定为	-7074
承受	-7075
的来说	-7076
不及	-7077
外星	-7078
相应	-7079
产品或服务	-7080
stit	-7081
做的	-7082
活跃	-7083
即将	-7084
天體	-7085
普魯	-7086
發音	-7087
設於	-7088
航空母	-7089
▁梁	-7090
和中	-7091
大理	-7092
移居	-7093
▁對	-7094
▁特	-7095
儒家	-7096
同學	-7097
隊伍	-7098
En	-7099
傳奇	-7100
布里	-7101
米至	-7102
将以下	-7103
湖北省	-7104
请提供	-7105
DS	-7106
带着	-7107
是对	-7108
深受	-7109
准确的	-7110
一组	-7111
调用	-7112
进展	-7113
首批	-7114
人们的	-7115
比利时	-7116
研究的	-7117
和西	-7118
金門	-7119
口岸	-7120
園區	-7121
棲息	-7122
牛津	-7123
相等	-7124
美麗	-7125
首個	-7126
ari	-7127
设计的	-7128
科学技术	-7129
五大	-7130
创业	-7131
协商	-7132
并将其	-7133
oz	-7134
一日	-7135
迫害	-7136
▁Qu	-7137
是否有	-7138
的机会	-7139
年成立的	-7140
真相	-7141
钢琴	-7142
高雄市	-7143
受众	-7144
史料	-7145
守護	-7146
選為	-7147
rad	-7148
▁range	-7149
改称	-7150
競選	-7151
西元	-7152
▁主	-7153
功率	-7154
因應	-7155
拉的	-7156
鸡肉	-7157
流畅	-7158
询问	-7159
支持者	-7160
其在	-7161
脱离	-7162
農民	-7163
inc	-7164
的電影	-7165
ield	-7166
上方	-7167
倾听	-7168
公约	-7169
打造	-7170
樂園	-7171
资格	-7172
主要由	-7173
可以为	-7174
一半	-7175
珍珠	-7176
年代初	-7177
獎得主	-7178
预处理	-7179
回憶	-7180
姐妹	-7181
oth	-7182
爱德华	-7183
特林那	-7184
的句子	-7185
上陣	-7186
任教	-7187
樂隊	-7188
重返	-7189
wit	-7190
牌得主	-7191
de	-7192
並與	-7193
人权	-7194
党员	-7195
审判	-7196
巡天	-7197
首的	-7198
该物种	-7199
▁卡特林那	-7200
緊急	-7201
青海	-7202
是一座	-7203
▁何	-7204
位素	-7205
气象	-7206
活躍	-7207
海峡	-7208
补充	-7209
驅逐	-7210
▁Art	-7211
ridge	-7212
委會	-7213
被判	-7214
这场	-7215
，（	-7216
孟加拉	-7217
na	-7218
听到	-7219
月中	-7220
汉字	-7221
消滅	-7222
echn	-7223
品种	-7224
尚书	-7225
归类	-7226
路口	-7227
稳定的	-7228
ever	-7229
多项	-7230
教室	-7231
缅甸	-7232
月在	-7233
洋葱	-7234
的阿	-7235
皇室	-7236
維爾	-7237
變為	-7238
▁吉	-7239
偏见	-7240
局部	-7241
日語	-7242
碰撞	-7243
的颜色	-7244
人大常委会	-7245
確保	-7246
模特兒	-7247
▁中国共产党	-7248
中立	-7249
年春	-7250
狮子	-7251
▁Se	-7252
基百科	-7253
發揮	-7254
耶路	-7255
职责	-7256
▁八	-7257
注入	-7258
的最大	-7259
关联	-7260
新华	-7261
的其他	-7262
二战	-7263
兩位	-7264
强大	-7265
起義	-7266
總督府	-7267
流傳	-7268
試驗	-7269
集体	-7270
追溯到	-7271
中也	-7272
享年	-7273
撒冷	-7274
資金	-7275
交流道	-7276
現在的	-7277
任職	-7278
▁准备	-7279
馬克思	-7280
ourn	-7281
经济发展	-7282
LP	-7283
从未	-7284
部件	-7285
高句	-7286
▁My	-7287
足够的	-7288
，），	-7289
▁法	-7290
周邊	-7291
奥尔	-7292
▁印度	-7293
投资者	-7294
曾是	-7295
總裁	-7296
邊界	-7297
十一月	-7298
更快地	-7299
IF	-7300
品質	-7301
聯軍	-7302
維多	-7303
越來	-7304
的数量	-7305
社会的	-7306
建立一个	-7307
Ex	-7308
人之	-7309
攻占	-7310
的那	-7311
麥克	-7312
一方面	-7313
LL	-7314
划分	-7315
歌劇	-7316
獲獎	-7317
時代的	-7318
的一切	-7319
相当于	-7320
年夏季奧林匹克運動會	-7321
化工	-7322
斯顿	-7323
现存	-7324
群众	-7325
（，）	-7326
局長	-7327
心理学	-7328
等級	-7329
过滤	-7330
镇压	-7331
并进行	-7332
ED	-7333
和南	-7334
的老	-7335
铁道	-7336
散文	-7337
織田	-7338
▁但是	-7339
天文學家	-7340
伦理	-7341
感覺	-7342
使他	-7343
满洲	-7344
▁*/	-7345
將軍澳	-7346
人是	-7347
教练	-7348
队伍	-7349
集的	-7350
its	-7351
▁qu	-7352
常見的	-7353
伐克	-7354
足夠	-7355
ural	-7356
许可	-7357
香草	-7358
一直在	-7359
笔记本电脑	-7360
下去	-7361
予以	-7362
無人	-7363
语言的	-7364
耶路撒冷	-7365
可供	-7366
地处	-7367
大连	-7368
巴拉	-7369
长达	-7370
開辦	-7371
▁Co	-7372
摄氏度	-7373
日下午	-7374
相關的	-7375
▁圣	-7376
支撑	-7377
曾於	-7378
节奏	-7379
设计师	-7380
以下步骤	-7381
曲线	-7382
清廷	-7383
在全球	-7384
眾議院	-7385
▁)	-7386
暗示	-7387
转向	-7388
隐藏	-7389
年代的	-7390
我们将	-7391
比赛中	-7392
卡特	-7393
德尔	-7394
每月	-7395
ety	-7396
東南亞	-7397
回复	-7398
谷歌	-7399
▁输出	-7400
富士電視台	-7401
奇幻	-7402
改用	-7403
登記	-7404
情況下	-7405
▁Ass	-7406
物流	-7407
▁後	-7408
一代	-7409
乌斯	-7410
公投	-7411
法人	-7412
数据和	-7413
獲得了	-7414
为用户提供	-7415
其后	-7416
詳細	-7417
願意	-7418
net	-7419
年日本	-7420
遇到了	-7421
co	-7422
尼泊	-7423
林肯	-7424
華語	-7425
是中國	-7426
最具	-7427
王星	-7428
分析和	-7429
在外	-7430
德克	-7431
遍历	-7432
首歌	-7433
高于	-7434
一郎	-7435
值为	-7436
感知	-7437
火车	-7438
越來越	-7439
一件	-7440
擴展	-7441
港澳	-7442
行驶	-7443
偶像團體	-7444
检索	-7445
BBC	-7446
發行的	-7447
投手	-7448
颁布	-7449
arg	-7450
之前的	-7451
更好地了解	-7452
九州	-7453
低于	-7454
利润	-7455
哥倫	-7456
均衡	-7457
左翼	-7458
滿足	-7459
上下文	-7460
苏维埃	-7461
日治時期	-7462
电子商务	-7463
俄國	-7464
eam	-7465
再加上	-7466
▁new	-7467
mp	-7468
▁楊	-7469
施行	-7470
OW	-7471
克莱	-7472
地带	-7473
校區	-7474
格斯	-7475
檢查	-7476
福德	-7477
維護	-7478
路上	-7479
嘉靖	-7480
滅亡	-7481
中華民國政府	-7482
修道	-7483
否则	-7484
品质	-7485
封建	-7486
ler	-7487
▁--	-7488
出來的	-7489
▁～	-7490
共和党	-7491
合理的	-7492
个性化的	-7493
他和	-7494
任內	-7495
傑克	-7496
善良	-7497
財產	-7498
青春	-7499
发生的	-7500
合併為	-7501
相當於	-7502
BD	-7503
則在	-7504
菜单	-7505
去除	-7506
村庄	-7507
相近	-7508
覺得	-7509
进度	-7510
▁赫	-7511
做好	-7512
受害	-7513
底部	-7514
是为	-7515
道歉	-7516
拿破仑	-7517
arch	-7518
尊敬	-7519
智利	-7520
直升	-7521
赤道	-7522
oint	-7523
Re	-7524
代数	-7525
女士	-7526
州立	-7527
承诺	-7528
来看	-7529
国家和	-7530
驱逐	-7531
解放軍	-7532
哈佛	-7533
有多	-7534
流失	-7535
騎兵	-7536
哲学家	-7537
的地位	-7538
缺陷	-7539
只在	-7540
為人	-7541
實驗室	-7542
ve	-7543
能否	-7544
▁am	-7545
▁一些	-7546
▁约翰	-7547
积极的	-7548
ning	-7549
富含	-7550
ose	-7551
托马斯	-7552
万元	-7553
为其	-7554
波羅	-7555
出一个	-7556
享用	-7557
跑道	-7558
还会	-7559
米亚	-7560
月亮	-7561
事務所	-7562
可持续发展	-7563
兩年	-7564
沿着	-7565
的花	-7566
菩薩	-7567
和一个	-7568
▁埃	-7569
俗稱	-7570
全长	-7571
eph	-7572
可以选择	-7573
px	-7574
要塞	-7575
order	-7576
ris	-7577
協定	-7578
占地	-7579
德斯	-7580
灭绝	-7581
開業	-7582
lo	-7583
心中	-7584
水和	-7585
瓦尔	-7586
這項	-7587
信用卡	-7588
史密斯	-7589
华东	-7590
戰艦	-7591
抑郁	-7592
ondon	-7593
▁吳	-7594
不列	-7595
可见	-7596
主義的	-7597
政治部	-7598
稱之為	-7599
电动汽车	-7600
重要性	-7601
下面是一些	-7602
喜愛	-7603
就被	-7604
▁Ap	-7605
▁National	-7606
區分	-7607
恒星	-7608
指向	-7609
定為	-7610
丽莎白	-7611
可以将	-7612
来源于	-7613
Le	-7614
义词	-7615
▁－	-7616
作业	-7617
表中	-7618
长春	-7619
不仅仅	-7620
▁亞	-7621
▁平	-7622
共識	-7623
发掘	-7624
書店	-7625
线上	-7626
atch	-7627
弗吉	-7628
者在	-7629
推出了	-7630
▁Mac	-7631
涵盖	-7632
irl	-7633
年轻人	-7634
催化	-7635
炸彈	-7636
的和	-7637
可用于	-7638
交付	-7639
激发	-7640
以至	-7641
拉多	-7642
尼古拉	-7643
生活中	-7644
常住人口	-7645
变换	-7646
命运	-7647
完成的	-7648
告知	-7649
轄市	-7650
主導	-7651
接下	-7652
暴露	-7653
糖尿	-7654
工程師	-7655
以为	-7656
信長	-7657
复制	-7658
西蘭	-7659
ars	-7660
微分	-7661
此一	-7662
認證	-7663
那麼	-7664
克萊	-7665
兩名	-7666
出色	-7667
布什	-7668
▁第四	-7669
roup	-7670
CR	-7671
▁z	-7672
▁Ne	-7673
▁这种	-7674
栖息地	-7675
及後	-7676
灾害	-7677
▁</	-7678
▁Rep	-7679
審查	-7680
ps	-7681
營業	-7682
直径	-7683
索引	-7684
薩斯	-7685
▁International	-7686
傷害	-7687
原來	-7688
同名	-7689
将领	-7690
这类	-7691
年美國	-7692
排名第	-7693
高质量	-7694
background	-7695
分之	-7696
里克	-7697
▁Dr	-7698
对人类	-7699
以及其他	-7700
的大部分	-7701
擅長	-7702
武士	-7703
耶律	-7704
首播	-7705
▁上海	-7706
导致了	-7707
力學	-7708
型態	-7709
景观	-7710
相对论	-7711
下载	-7712
iPhone	-7713
▁星	-7714
洪武	-7715
職員	-7716
都很	-7717
全新的	-7718
牛肉	-7719
辦事	-7720
▁最佳	-7721
两条	-7722
值的	-7723
東區	-7724
衰退	-7725
▁模型	-7726
行政區劃	-7727
書寫	-7728
說是	-7729
基本的	-7730
有趣的	-7731
cc	-7732
之为	-7733
搖滾	-7734
北部的	-7735
医学院	-7736
ki	-7737
數碼	-7738
生育	-7739
的定义	-7740
约瑟夫	-7741
完成任务	-7742
並由	-7743
强化	-7744
本名	-7745
促进了	-7746
糖尿病	-7747
古斯	-7748
安徽省	-7749
总书记	-7750
发音	-7751
奧斯	-7752
王朝的	-7753
的法律	-7754
▁Rev	-7755
▁cont	-7756
BO	-7757
会长	-7758
是用	-7759
的名稱	-7760
MV	-7761
▁如	-7762
局长	-7763
明了	-7764
李登輝	-7765
當地的	-7766
斯卡最佳	-7767
He	-7768
华北	-7769
單元	-7770
演藝	-7771
路径	-7772
site	-7773
其中一個	-7774
日於	-7775
log	-7776
会议上	-7777
参谋长	-7778
但它	-7779
初年	-7780
年他	-7781
港島	-7782
喜欢的	-7783
在内的	-7784
等因素	-7785
瀑布	-7786
縮寫	-7787
编号	-7788
諸葛	-7789
els	-7790
劇場版	-7791
同時也	-7792
在这种	-7793
了一系列	-7794
侍郎	-7795
四人	-7796
手機	-7797
相连	-7798
等於	-7799
作品的	-7800
美國的	-7801
lish	-7802
不佳	-7803
僅有	-7804
撞擊	-7805
著有	-7806
▁web	-7807
官方网站	-7808
指數	-7809
離子	-7810
罗伯特	-7811
信心	-7812
喜劇	-7813
安東	-7814
菲律宾	-7815
充滿	-7816
吐蕃	-7817
字典	-7818
}-，	-7819
的成員	-7820
處理器	-7821
中和	-7822
豪敦	-7823
urg	-7824
产品和服务	-7825
▁夏	-7826
播映	-7827
出现的	-7828
有線	-7829
主場	-7830
劉備	-7831
建有	-7832
慢性	-7833
電力	-7834
ody	-7835
公里的	-7836
出去	-7837
周末	-7838
預測	-7839
▁text	-7840
________	-7841
不用	-7842
交響	-7843
伯格	-7844
围绕	-7845
新教	-7846
其他人	-7847
方法来	-7848
知名的	-7849
基础设施	-7850
分辨	-7851
機車	-7852
次於	-7853
电气	-7854
苏丹	-7855
中文大學	-7856
为此	-7857
大衛	-7858
信息的	-7859
前後	-7860
東海	-7861
戰術	-7862
桥梁	-7863
欣赏	-7864
▁en	-7865
伟大的	-7866
副總統	-7867
军团	-7868
佛罗	-7869
入了	-7870
水域	-7871
靈魂	-7872
您提供	-7873
ille	-7874
年任	-7875
書中	-7876
进行的	-7877
▁沙	-7878
參謀	-7879
变革	-7880
武昌	-7881
▁We	-7882
野生动物	-7883
分歧	-7884
山县	-7885
島上	-7886
支配	-7887
晚餐	-7888
一些人	-7889
严格的	-7890
师范大学	-7891
使命	-7892
斯特拉	-7893
國民小學	-7894
**	-7895
▁福	-7896
开设	-7897
本部	-7898
编译	-7899
航行	-7900
身体健康	-7901
歌词	-7902
登陆	-7903
領地	-7904
监督学习	-7905
▁真	-7906
SAO	-7907
TVB	-7908
可以提供	-7909
後被	-7910
摩斯	-7911
看見	-7912
政府和	-7913
維多利亞	-7914
巴比	-7915
延安	-7916
錄影	-7917
預算	-7918
▁No	-7919
▁英國	-7920
另一种	-7921
的自然	-7922
reen	-7923
▁list	-7924
他对	-7925
姐姐	-7926
市立	-7927
模糊	-7928
鋼琴	-7929
骨骼	-7930
尼西亚	-7931
立方米	-7932
大埔	-7933
是个	-7934
王后	-7935
接受了	-7936
普鲁士	-7937
团队合作	-7938
ision	-7939
日文	-7940
溝通	-7941
的情感	-7942
类似于	-7943
▁und	-7944
军官	-7945
共产主义	-7946
政治委员	-7947
做了	-7948
經國	-7949
評估	-7950
資助	-7951
音节	-7952
的前身	-7953
全省	-7954
在該	-7955
美军	-7956
跨越	-7957
黑洞	-7958
事实上	-7959
原子核	-7960
吉斯	-7961
短的	-7962
是一项	-7963
ature	-7964
总体	-7965
草莓	-7966
永遠	-7967
滅絕	-7968
砍伐	-7969
DR	-7970
Tr	-7971
人心	-7972
因子	-7973
例外	-7974
器和	-7975
对称	-7976
速率	-7977
題材	-7978
▁ac	-7979
修訂	-7980
升級	-7981
吾尔	-7982
回族	-7983
散步	-7984
輔助	-7985
！」	-7986
战争中	-7987
上任	-7988
件事	-7989
摄像	-7990
加勒	-7991
斯里	-7992
正义	-7993
建筑物	-7994
的設計	-7995
放大	-7996
站台	-7997
電視節目	-7998
使者	-7999
少量	-8000
田中	-8001
转移	-8002
為基礎	-8003
回合	-8004
ida	-8005
世纪的	-8006
山西省	-8007
木材	-8008
沖繩	-8009
涉嫌	-8010
相机	-8011
耳曼	-8012
团结	-8013
▁As	-8014
创造力	-8015
orge	-8016
二戰	-8017
关心	-8018
孫權	-8019
而闻名	-8020
大選	-8021
年第	-8022
滿洲	-8023
过的	-8024
▁希望	-8025
〉、	-8026
公寓	-8027
大正	-8028
引导	-8029
河口	-8030
erg	-8031
erman	-8032
万吨	-8033
书中	-8034
亲王	-8035
语和	-8036
財經	-8037
ke	-8038
rt	-8039
中日	-8040
名詞	-8041
怎么	-8042
维也	-8043
而已	-8044
莎士	-8045
长安	-8046
部電影	-8047
GC	-8048
冲击	-8049
灌溉	-8050
白人	-8051
纷纷	-8052
江蘇	-8053
渐渐	-8054
和需求	-8055
在一些	-8056
▁import	-8057
oug	-8058
web	-8059
出一	-8060
加剧	-8061
省份	-8062
berg	-8063
lect	-8064
重要作用	-8065
客户满意度	-8066
引進	-8067
和发展	-8068
格拉斯	-8069
有不同的	-8070
主動	-8071
輸出	-8072
部位	-8073
放射性	-8074
称号	-8075
称呼	-8076
在某些	-8077
教育機構	-8078
全国重点文物保护单位	-8079
入选	-8080
出租	-8081
布雷	-8082
彩虹	-8083
换乘	-8084
費用	-8085
物理學	-8086
两侧	-8087
復活	-8088
河的	-8089
漸漸	-8090
ino	-8091
契丹	-8092
萨斯	-8093
预期	-8094
第一屆	-8095
分泌	-8096
宰相	-8097
降落	-8098
与他人	-8099
开始了	-8100
忠诚度	-8101
日本人	-8102
知识和	-8103
鐵路車站	-8104
▁利用	-8105
等问题	-8106
塑造	-8107
昆明	-8108
疼痛	-8109
車隊	-8110
北京大学	-8111
茨基	-8112
馬拉	-8113
▁截至	-8114
GN	-8115
会被	-8116
西拉	-8117
其中有	-8118
改名为	-8119
元件	-8120
的第三	-8121
封為	-8122
尔夫	-8123
才是	-8124
模擬	-8125
洛夫	-8126
为基础	-8127
五种	-8128
入選	-8129
城墙	-8130
獅子	-8131
當日	-8132
觀念	-8133
轻轻	-8134
閱讀	-8135
马里	-8136
▁ro	-8137
引起的	-8138
%）	-8139
具備	-8140
流浪	-8141
直属	-8142
覆蓋	-8143
做出了	-8144
設計的	-8145
中共中央政治局	-8146
▁colspan	-8147
AB	-8148
会计	-8149
前任	-8150
末年	-8151
竣工	-8152
论点	-8153
十六年	-8154
的同时	-8155
向北	-8156
她是	-8157
帶著	-8158
推進	-8159
敌人	-8160
普林	-8161
十三年	-8162
▁鄭	-8163
促销	-8164
口号	-8165
委託	-8166
孤独	-8167
宁静	-8168
種類	-8169
部和	-8170
限于	-8171
OD	-8172
原創	-8173
歌詞	-8174
毕业于	-8175
波士顿	-8176
实际情况	-8177
轨道交通	-8178
一的	-8179
一職	-8180
启用	-8181
工资	-8182
年與	-8183
outh	-8184
十一年	-8185
能够为	-8186
伊斯兰教	-8187
山口	-8188
照明	-8189
花蓮	-8190
花费	-8191
表述	-8192
不幸	-8193
刊登	-8194
号码	-8195
家具	-8196
的先	-8197
亦可	-8198
办法	-8199
恐惧	-8200
改稱	-8201
此地	-8202
菜肴	-8203
诞生	-8204
辦法	-8205
成立后	-8206
────	-8207
乃至	-8208
啟動	-8209
场合	-8210
巨人	-8211
频繁	-8212
pro	-8213
和政治	-8214
為香港	-8215
olution	-8216
人次	-8217
向南	-8218
噪音	-8219
拼写	-8220
的值	-8221
和使用	-8222
的音樂	-8223
電視動畫	-8224
.)	-8225
和解	-8226
展览	-8227
攻陷	-8228
ures	-8229
▁Can	-8230
』（	-8231
克羅	-8232
华人	-8233
摩托	-8234
跟隨	-8235
可以帮助你	-8236
实用	-8237
內政	-8238
话题	-8239
遺址	-8240
體制	-8241
参议院	-8242
不敢	-8243
剩下	-8244
嘉賓	-8245
報紙	-8246
备份	-8247
依赖于	-8248
在该	-8249
无锡	-8250
原有的	-8251
维吾尔	-8252
近年来	-8253
尔顿	-8254
观念	-8255
司令员	-8256
▁雷	-8257
土豆	-8258
待遇	-8259
治安	-8260
競賽	-8261
那个	-8262
rain	-8263
Pr	-8264
在今	-8265
悲伤	-8266
情报	-8267
納入	-8268
aut	-8269
的模式产	-8270
冷却	-8271
圖像	-8272
ude	-8273
万美元	-8274
北美洲	-8275
—《	-8276
畫面	-8277
在那里	-8278
来自于	-8279
植物的	-8280
Play	-8281
伊丽莎白	-8282
可以提高	-8283
国军	-8284
曾有	-8285
較低	-8286
但也有	-8287
Hello	-8288
▁word	-8289
中以	-8290
職位	-8291
今天的	-8292
的消息	-8293
重要的是	-8294
網上	-8295
芬蘭	-8296
古希腊	-8297
一方	-8298
混乱	-8299
基金会	-8300
百科全	-8301
进行调整	-8302
在高	-8303
延长	-8304
情形	-8305
愉悦	-8306
部下	-8307
黃色	-8308
最初的	-8309
物体的	-8310
一千	-8311
吸血	-8312
而死	-8313
▁Book	-8314
次全国人口普查	-8315
TR	-8316
办理	-8317
各省	-8318
學科	-8319
iew	-8320
▁人工智能	-8321
乐器	-8322
电磁	-8323
磁場	-8324
維奇	-8325
▁利	-8326
人為	-8327
升任	-8328
在本	-8329
域名	-8330
打敗	-8331
固定的	-8332
开发区	-8333
可能包括	-8334
Ge	-8335
党的	-8336
六世	-8337
叛亂	-8338
月刊	-8339
清除	-8340
立委	-8341
遊客	-8342
過的	-8343
部曲	-8344
这本书	-8345
室內	-8346
格尔	-8347
烤箱	-8348
这位	-8349
eck	-8350
赛事	-8351
提案	-8352
灾难	-8353
的非	-8354
辭職	-8355
now	-8356
变得更加	-8357
中国科学院	-8358
该物种的模式产	-8359
中全	-8360
而有	-8361
▁American	-8362
事後	-8363
兼容	-8364
ublish	-8365
源於	-8366
當作	-8367
被视为	-8368
》；	-8369
代谢	-8370
取出	-8371
專用	-8372
招生	-8373
當代	-8374
感兴趣	-8375
勁歌	-8376
当局	-8377
战后	-8378
战国	-8379
民意	-8380
神父	-8381
窗口	-8382
管道	-8383
聚居	-8384
發現的	-8385
斯蒂	-8386
是被	-8387
西路	-8388
▁max	-8389
座位	-8390
映射	-8391
更具	-8392
更大	-8393
联军	-8394
中的一个	-8395
三星	-8396
与此	-8397
巡洋	-8398
探測	-8399
的字	-8400
防空	-8401
arm	-8402
决策树	-8403
十八年	-8404
漫畫家	-8405
La	-8406
客观	-8407
流传	-8408
科夫	-8409
該國	-8410
ray	-8411
大城市	-8412
畢業後	-8413
▁郭	-8414
儲存	-8415
手術	-8416
南部的	-8417
子彈	-8418
極為	-8419
高清	-8420
「-{	-8421
ular	-8422
三角形的	-8423
高級中學	-8424
▁have	-8425
][	-8426
啤酒	-8427
建国	-8428
▁Mc	-8429
也没有	-8430
最近的	-8431
比利時	-8432
▁松	-8433
先前	-8434
城县	-8435
般的	-8436
血压	-8437
▁la	-8438
香港政府	-8439
之際	-8440
的人工	-8441
ample	-8442
丞相	-8443
中環	-8444
但卻	-8445
往來	-8446
样式	-8447
短暫	-8448
礼物	-8449
西兰	-8450
限定	-8451
青山	-8452
的控制	-8453
▁Cent	-8454
▁Phil	-8455
徒步	-8456
相继	-8457
聯絡	-8458
發現了	-8459
会对	-8460
層的	-8461
贊助	-8462
－）	-8463
尼西亞	-8464
iver	-8465
. 	-8466
第十二	-8467
席位	-8468
竞选	-8469
腓特	-8470
逃亡	-8471
金斯	-8472
高架	-8473
ats	-8474
许多人	-8475
▁var	-8476
")	-8477
生長	-8478
ham	-8479
▁Ag	-8480
理查德	-8481
Am	-8482
半径	-8483
當天	-8484
贵的	-8485
副部长	-8486
台灣的	-8487
旋轉	-8488
而出	-8489
軍人	-8490
推薦	-8491
等同	-8492
隶属	-8493
向西	-8494
扫描	-8495
移植	-8496
脊椎	-8497
影响力	-8498
回国	-8499
干燥	-8500
泉州	-8501
藤原	-8502
▁All	-8503
▁分	-8504
報道	-8505
彩色	-8506
权威	-8507
車廂	-8508
▁建立	-8509
出現了	-8510
五個	-8511
摩擦	-8512
石头	-8513
控制的	-8514
肯尼迪	-8515
又在	-8516
概述	-8517
照顧	-8518
光合作	-8519
被任命	-8520
▁每	-8521
吉爾	-8522
氣旋	-8523
為由	-8524
醫師	-8525
▁主要	-8526
所在的	-8527
是位於	-8528
ka	-8529
优雅	-8530
德语	-8531
森堡	-8532
銅鑼	-8533
之一的	-8534
聖誕	-8535
ets	-8536
數學家	-8537
duction	-8538
确实	-8539
引起了	-8540
您没有	-8541
的想法	-8542
▁Love	-8543
自然保护区	-8544
學園	-8545
河畔	-8546
监狱	-8547
繼位	-8548
▁Ab	-8549
創辦人	-8550
十七年	-8551
抗日战争	-8552
Station	-8553
賽車	-8554
这也	-8555
选手	-8556
长子	-8557
不确定	-8558
较高的	-8559
vers	-8560
':	-8561
場地	-8562
互動	-8563
光线	-8564
古蹟	-8565
拿下	-8566
河道	-8567
电源	-8568
直徑	-8569
祖母	-8570
誕生	-8571
让你	-8572
ROM	-8573
南美洲	-8574
子公司	-8575
▁Trans	-8576
供奉	-8577
卡通	-8578
och	-8579
剧本	-8580
真人	-8581
领地	-8582
技术和	-8583
改制為	-8584
設計師	-8585
交通工具	-8586
伽利	-8587
創建	-8588
喇嘛	-8589
土木	-8590
惡魔	-8591
维也纳	-8592
icial	-8593
▁this	-8594
ichael	-8595
信奉	-8596
元朗	-8597
小于	-8598
片尾	-8599
风能	-8600
icle	-8601
unction	-8602
EX	-8603
从中	-8604
厨房	-8605
島的	-8606
政变	-8607
登堡	-8608
訊號	-8609
UND	-8610
政變	-8611
河谷	-8612
綜藝	-8613
辞职	-8614
aus	-8615
世纪末	-8616
他认为	-8617
广州市	-8618
来进行	-8619
work	-8620
▁Cor	-8621
得多	-8622
行程	-8623
极大的	-8624
AG	-8625
▁江	-8626
位居	-8627
譯為	-8628
词语	-8629
▁do	-8630
尋求	-8631
灰色	-8632
迄今	-8633
▁然后	-8634
可以减少	-8635
南路	-8636
原作	-8637
又被	-8638
岁时	-8639
谢谢	-8640
重慶	-8641
ene	-8642
激烈的	-8643
上是	-8644
后被	-8645
簽約	-8646
蜘蛛	-8647
让我	-8648
防衛	-8649
香料	-8650
的特有	-8651
胡萝卜	-8652
菲利普	-8653
选择一个	-8654
三重	-8655
他与	-8656
公演	-8657
必需	-8658
忍者	-8659
活性	-8660
長安	-8661
秘书长	-8662
colspan	-8663
商務	-8664
寿命	-8665
轰炸	-8666
南斯拉夫	-8667
▁中国人民	-8668
她們	-8669
必然	-8670
照顾	-8671
週刊	-8672
命名的	-8673
成立于	-8674
快捷	-8675
數目	-8676
融化	-8677
辦理	-8678
也沒有	-8679
在使用	-8680
日發售	-8681
進行了	-8682
历史学家	-8683
be	-8684
▁卷	-8685
口徑	-8686
始于	-8687
组件	-8688
ION	-8689
有用的	-8690
的事件	-8691
需要在	-8692
其实	-8693
暫停	-8694
為此	-8695
车队	-8696
ury	-8697
美丽的	-8698
物理學家	-8699
之亂	-8700
他曾	-8701
而來	-8702
吸引力	-8703
措施来	-8704
江西省	-8705
介入	-8706
立场	-8707
▁尽管	-8708
（）、	-8709
width	-8710
℃，	-8711
一級	-8712
主体	-8713
元帥	-8714
勞工	-8715
小心	-8716
拥堵	-8717
洛阳	-8718
作品中	-8719
大聯盟	-8720
於香港	-8721
获得者	-8722
深远的影响	-8723
Facebook	-8724
一架	-8725
上半	-8726
假日	-8727
▁网络	-8728
橄榄油	-8729
的学生	-8730
的學生	-8731
的环境	-8732
用户可以	-8733
加索	-8734
往返	-8735
水源	-8736
特区	-8737
联合会	-8738
一本	-8739
以致	-8740
官至	-8741
或不	-8742
擔心	-8743
缺失	-8744
起草	-8745
管理和	-8746
ember	-8747
化物	-8748
否定	-8749
哪种	-8750
短暂	-8751
雅各	-8752
））	-8753
世紀的	-8754
年左右	-8755
國旗	-8756
圣经	-8757
美好	-8758
航空母艦	-8759
''	-8760
即將	-8761
名列	-8762
字塔	-8763
學名	-8764
的下	-8765
看作	-8766
货物	-8767
ugh	-8768
混淆	-8769
邊的	-8770
飞船	-8771
即時	-8772
学和	-8773
市鎮	-8774
指的	-8775
紫色	-8776
后来的	-8777
公子	-8778
很难	-8779
晚年	-8780
西夏	-8781
锦标	-8782
面臨	-8783
理解和	-8784
頒獎禮	-8785
isch	-8786
收购	-8787
日被	-8788
馬爾	-8789
轟炸機	-8790
▁如果您	-8791
生物多样性	-8792
南朝	-8793
場所	-8794
巴塞	-8795
徒刑	-8796
谨慎	-8797
赋予	-8798
的身份	-8799
腓特烈	-8800
▁Per	-8801
▁奧	-8802
勝出	-8803
猪笼	-8804
的本	-8805
盛行	-8806
正式的	-8807
通常在	-8808
人民法院	-8809
强制	-8810
自立	-8811
这只	-8812
配备	-8813
臺中市	-8814
▁Mon	-8815
手术	-8816
优质的	-8817
同位素	-8818
隸屬	-8819
猪笼草	-8820
而成的	-8821
是從	-8822
迎接	-8823
爱因斯坦	-8824
中将	-8825
次于	-8826
死于	-8827
灣仔	-8828
直线	-8829
秀吉	-8830
跑步	-8831
朝鲜半岛	-8832
PT	-8833
封面	-8834
屠殺	-8835
碎片	-8836
鎮壓	-8837
协定	-8838
土星	-8839
▁ph	-8840
西北部	-8841
位于中国	-8842
所使用的	-8843
县城	-8844
怀疑	-8845
頒發	-8846
▁Mag	-8847
创作一个	-8848
宮崎	-8849
褐色	-8850
製作的	-8851
厦门	-8852
尽力	-8853
直角	-8854
隋朝	-8855
共和黨	-8856
很容易	-8857
的父親	-8858
▁else	-8859
▁秦	-8860
为你	-8861
人被	-8862
修斯	-8863
北极	-8864
硫酸	-8865
視覺	-8866
雲林	-8867
颁发	-8868
飲食	-8869
點的	-8870
较大的	-8871
Or	-8872
乘法	-8873
全境	-8874
右翼	-8875
延續	-8876
是大	-8877
時常	-8878
极其	-8879
的两	-8880
还原	-8881
防护	-8882
面部	-8883
Int	-8884
无线电	-8885
全體	-8886
前进	-8887
徹底	-8888
镜头	-8889
防火	-8890
建议您	-8891
感激	-8892
迷你	-8893
傳統的	-8894
mall	-8895
over	-8896
全身	-8897
神聖	-8898
繪畫	-8899
级别	-8900
OVID	-8901
个人信息	-8902
▁Google	-8903
剩余	-8904
新星	-8905
盟軍	-8906
航線	-8907
ora	-8908
並不是	-8909
分布於	-8910
和技术	-8911
复杂度	-8912
日耳曼	-8913
奖项	-8914
巴尔	-8915
穿著	-8916
軟件	-8917
交通部	-8918
的自由	-8919
锦标赛	-8920
▁trans	-8921
夸克	-8922
权益	-8923
还在	-8924
用户界面	-8925
竞争对手	-8926
旁白	-8927
進而	-8928
▁id	-8929
宇航员	-8930
的描述	-8931
臺南市	-8932
可以考虑	-8933
委员会委员	-8934
人称	-8935
分區	-8936
清末	-8937
率先	-8938
萨尔	-8939
▁Br	-8940
建築師	-8941
葡萄酒	-8942
▁sum	-8943
▁※	-8944
▁台	-8945
了对	-8946
农场	-8947
周刊	-8948
坐在	-8949
登山	-8950
融入	-8951
它们在	-8952
相似的	-8953
领导者	-8954
书写	-8955
亦為	-8956
哈德	-8957
漢人	-8958
辣椒	-8959
大火	-8960
流入	-8961
证实	-8962
诸如	-8963
New	-8964
多年的	-8965
陕西省	-8966
head	-8967
列宁	-8968
球场	-8969
alse	-8970
)(	-8971
▁超	-8972
汤匙	-8973
重修	-8974
的过程中	-8975
公車	-8976
生前	-8977
皆為	-8978
走廊	-8979
是一款	-8980
帮助他们	-8981
▁六	-8982
即為	-8983
各界	-8984
城鎮	-8985
快的	-8986
是他	-8987
TBS	-8988
清晰的	-8989
结构和	-8990
roid	-8991
骑自行车	-8992
培育	-8993
折扣	-8994
als	-8995
▁虽然	-8996
列表中	-8997
誉为	-8998
讀者	-8999
鈴木	-9000
，，	-9001
的形象	-9002
通常由	-9003
aster	-9004
其頓	-9005
合金	-9006
意為	-9007
老虎	-9008
节日	-9009
长城	-9010
工学院	-9011
▁杜	-9012
」(	-9013
始皇	-9014
景区	-9015
分类为	-9016
iction	-9017
Qu	-9018
▁梅	-9019
在天	-9020
攻入	-9021
本來	-9022
陆续	-9023
▁TV	-9024
My	-9025
手槍	-9026
時空	-9027
缺少	-9028
一直到	-9029
强烈的	-9030
受欢迎的	-9031
Microsoft	-9032
是其	-9033
死於	-9034
配備	-9035
▁At	-9036
▁HT	-9037
举行的	-9038
对不起	-9039
这些信息	-9040
在地	-9041
宁夏	-9042
的法	-9043
硬盘	-9044
说话	-9045
ibr	-9046
不存在	-9047
愛德華	-9048
的能量	-9049
仔细	-9050
區別	-9051
只好	-9052
季後	-9053
巨星	-9054
迭代	-9055
都城	-9056
软件开发	-9057
▁Music	-9058
▁木	-9059
一道	-9060
全体	-9061
原来	-9062
实例	-9063
效益	-9064
邊境	-9065
是为了	-9066
第二个	-9067
让他们	-9068
蘇丹	-9069
是因为	-9070
▁据	-9071
龍的	-9072
污染物	-9073
尾巴	-9074
清真	-9075
貨物	-9076
不等	-9077
实力	-9078
審判	-9079
桂林	-9080
一般的	-9081
第一批	-9082
阿姆斯特	-9083
▁Part	-9084
強化	-9085
描寫	-9086
中文版	-9087
旗下的	-9088
bo	-9089
▁地	-9090
立的	-9091
亞洲電視	-9092
哥倫比亞	-9093
明白	-9094
紅磡	-9095
▁作为	-9096
法兰克	-9097
不被	-9098
星星	-9099
認可	-9100
和数据	-9101
取自	-9102
獨立的	-9103
夫婦	-9104
进而	-9105
配料	-9106
都需要	-9107
press	-9108
▁London	-9109
低於	-9110
患有	-9111
提議	-9112
正義	-9113
牡丹	-9114
登基	-9115
纺织	-9116
成功地	-9117
是一家	-9118
现在的	-9119
▁Mat	-9120
的可能性	-9121
火焰	-9122
老鼠	-9123
股權	-9124
▁Gl	-9125
古埃及	-9126
也要	-9127
則以	-9128
提议	-9129
精英	-9130
获胜	-9131
郑州	-9132
采访	-9133
里面	-9134
的女性	-9135
统治者	-9136
相关信息	-9137
▁School	-9138
之初	-9139
联络	-9140
工作和	-9141
兔子	-9142
大众	-9143
收回	-9144
生殖	-9145
降水量	-9146
▁Soci	-9147
免受	-9148
其為	-9149
在海	-9150
流動	-9151
神圣	-9152
认真	-9153
led	-9154
竞争力	-9155
kg	-9156
優惠	-9157
千葉	-9158
大和	-9159
料理	-9160
演講	-9161
秋季	-9162
论坛	-9163
▁国际	-9164
我需要	-9165
的效果	-9166
美味的	-9167
▁Net	-9168
您可以使用	-9169
奥林匹克运动会	-9170
主播	-9171
宦官	-9172
监察	-9173
增強	-9174
承諾	-9175
相邻	-9176
終點	-9177
▁步骤	-9178
cy	-9179
公益	-9180
区间	-9181
布莱	-9182
更換	-9183
欺诈	-9184
殺人	-9185
而後	-9186
出版的	-9187
哲學家	-9188
程度的	-9189
未被	-9190
流派	-9191
液体	-9192
锅中	-9193
一直是	-9194
修道院	-9195
只需要	-9196
OC	-9197
重點	-9198
预计	-9199
鲜艳	-9200
在不同	-9201
猶太人	-9202
的特殊	-9203
藝術家	-9204
▁Min	-9205
":	-9206
偵探	-9207
摧毁	-9208
雕刻	-9209
一封	-9210
仍是	-9211
城邦	-9212
標示	-9213
游行	-9214
煤炭	-9215
精准	-9216
不断地	-9217
出来的	-9218
系统中	-9219
放松身心	-9220
▁成	-9221
传感	-9222
发育	-9223
大中	-9224
時刻	-9225
检察	-9226
機槍	-9227
銅鑼灣	-9228
现任	-9229
遷至	-9230
ero	-9231
微生物	-9232
▁Bar	-9233
天子	-9234
戰敗	-9235
構造	-9236
此前	-9237
水上	-9238
只有一	-9239
虚拟现实	-9240
全數	-9241
心和	-9242
苗栗	-9243
陪伴	-9244
高祖	-9245
ien	-9246
吸引了	-9247
的社会	-9248
的結果	-9249
舒适的	-9250
八達	-9251
大厦	-9252
安东	-9253
".	-9254
('	-9255
Fl	-9256
傑出	-9257
制成	-9258
卫视	-9259
對其	-9260
对应的	-9261
编写一个	-9262
培養	-9263
大选	-9264
用了	-9265
而得名	-9266
帮助我们	-9267
香港電影	-9268
临床	-9269
事宜	-9270
入球	-9271
宋代	-9272
對話	-9273
开工	-9274
比特	-9275
湿地	-9276
的音	-9277
船隻	-9278
里士	-9279
雕像	-9280
Net	-9281
▁RD	-9282
能提供	-9283
EL	-9284
創新	-9285
恶意	-9286
更名	-9287
火力	-9288
NET	-9289
动物的	-9290
ustom	-9291
一共	-9292
凭借	-9293
大概	-9294
好奇	-9295
格鲁	-9296
淇淋	-9297
：，	-9298
前后	-9299
晋升	-9300
黄油	-9301
▁制定	-9302
个人的	-9303
是如何	-9304
▁史	-9305
入圍	-9306
判斷	-9307
戀愛	-9308
政委	-9309
流的	-9310
物語	-9311
關東	-9312
集體	-9313
南北朝	-9314
包围	-9315
已在	-9316
總監	-9317
遺傳	-9318
专业的	-9319
強大的	-9320
ument	-9321
中央人民政府	-9322
▁普	-9323
分数	-9324
嚴格	-9325
就读	-9326
捐款	-9327
發達	-9328
社團	-9329
行省	-9330
进口	-9331
僅次於	-9332
来计算	-9333
生产力	-9334
际关系	-9335
▁Arch	-9336
ography	-9337
▁吴	-9338
林彪	-9339
牵引	-9340
終止	-9341
電荷	-9342
清政府	-9343
通常需要	-9344
▁中華人民共和國	-9345
EP	-9346
場景	-9347
很有	-9348
東漢	-9349
类的	-9350
興起	-9351
農曆	-9352
▁总的来说	-9353
六十	-9354
戰機	-9355
摧毀	-9356
新区	-9357
有意	-9358
沙拉	-9359
混亂	-9360
種子	-9361
累積	-9362
中央政府	-9363
之時	-9364
产物	-9365
写道	-9366
在上	-9367
安妮	-9368
故意	-9369
爾夫	-9370
相繼	-9371
紛紛	-9372
诸侯	-9373
這段	-9374
奥斯曼	-9375
法兰西	-9376
omas	-9377
出于	-9378
單獨	-9379
專案	-9380
泰山	-9381
稱號	-9382
？」	-9383
冰淇淋	-9384
有一定	-9385
被广泛	-9386
人與	-9387
剧情	-9388
在第	-9389
監製	-9390
高地	-9391
馬其頓	-9392
描述一个	-9393
身心健康	-9394
NT	-9395
储蓄	-9396
大象	-9397
故此	-9398
號碼	-9399
隔年	-9400
ird	-9401
普魯士	-9402
切成	-9403
和海	-9404
柏拉	-9405
浓度	-9406
物件	-9407
空调	-9408
教育和	-9409
文章的	-9410
呼吁	-9411
對稱	-9412
球迷	-9413
自称	-9414
证券	-9415
性行為	-9416
科技大學	-9417
上校	-9418
动车	-9419
客串	-9420
幾何	-9421
心情	-9422
政務	-9423
美好的	-9424
▁红	-9425
一等	-9426
冬天	-9427
晶体	-9428
漏洞	-9429
種植	-9430
草地	-9431
運算	-9432
開啟	-9433
min	-9434
帮助你	-9435
▁相	-9436
公頃	-9437
專利	-9438
％，	-9439
oot	-9440
年人口	-9441
日發行	-9442
在校	-9443
地帶	-9444
外籍	-9445
時會	-9446
par	-9447
他認為	-9448
需要考虑	-9449
▁your	-9450
之事	-9451
兴建	-9452
她们	-9453
代表作	-9454
查尔斯	-9455
男歌手	-9456
atus	-9457
全民	-9458
和黑	-9459
我是	-9460
虚构	-9461
車道	-9462
十五年	-9463
注意到	-9464
的步骤	-9465
山坡	-9466
用在	-9467
里亞	-9468
uck	-9469
▁英国	-9470
可靠性	-9471
根据您的	-9472
De	-9473
Wh	-9474
一場	-9475
形目	-9476
托洛	-9477
甲烷	-9478
讲话	-9479
叙利亚	-9480
杰克逊	-9481
▁name	-9482
该物种的模式产地在	-9483
台幣	-9484
洞穴	-9485
它通过	-9486
这也是	-9487
领导的	-9488
洛陽	-9489
维克	-9490
邊緣	-9491
技能和	-9492
被認為	-9493
evelop	-9494
ternet	-9495
▁非	-9496
当代	-9497
星座	-9498
获奖	-9499
西域	-9500
）」	-9501
▁Cal	-9502
把它	-9503
磷酸	-9504
骑兵	-9505
世界盃	-9506
新技术	-9507
的女兒	-9508
程序员	-9509
illa	-9510
削弱	-9511
玄宗	-9512
阿斯	-9513
在當時	-9514
一套	-9515
他與	-9516
调试	-9517
途經	-9518
達爾	-9519
▁定期	-9520
年代末	-9521
并使用	-9522
生产总	-9523
的地區	-9524
科学研究	-9525
不停	-9526
中西	-9527
学士	-9528
金额	-9529
Ed	-9530
▁汉	-9531
不論	-9532
两岸	-9533
对待	-9534
帝王	-9535
強制	-9536
色情	-9537
轉向	-9538
公司在	-9539
美國總統	-9540
的生活方式	-9541
安县	-9542
醫藥	-9543
風雲	-9544
原為	-9545
四周	-9546
的最佳	-9547
这就是	-9548
研究人员	-9549
东汉	-9550
宗室	-9551
并被	-9552
推文	-9553
決策	-9554
记住	-9555
之所以	-9556
發動機	-9557
自由的	-9558
▁Air	-9559
大量数据	-9560
自动驾驶	-9561
CS	-9562
不大	-9563
史稱	-9564
当中	-9565
改成	-9566
的地区	-9567
是中华人民共和国	-9568
Sc	-9569
搭乘	-9570
摩爾	-9571
雷達	-9572
era	-9573
▁智能	-9574
Tube	-9575
  	-9576
兴起	-9577
其父	-9578
天体	-9579
移除	-9580
的朋友	-9581
秘書長	-9582
二百	-9583
肥胖	-9584
出現的	-9585
美国人	-9586
蔣經國	-9587
ales	-9588
他所	-9589
听众	-9590
得票	-9591
複製	-9592
▁中華	-9593
尼亞州	-9594
百分点	-9595
这种方法	-9596
全長	-9597
度量	-9598
灭亡	-9599
轉為	-9600
迁至	-9601
当选为	-9602
西南部	-9603
名誉	-9604
国有	-9605
档案	-9606
標本	-9607
珠海	-9608
结尾	-9609
播出的	-9610
氧化物	-9611
的活动	-9612
展現	-9613
翰林	-9614
孩子的	-9615
德里克	-9616
日凌晨	-9617
ally	-9618
之內	-9619
凤凰	-9620
本片	-9621
評審	-9622
主要以	-9623
▁Life	-9624
▁她	-9625
交給	-9626
住房	-9627
全美	-9628
夫妻	-9629
奏曲	-9630
建模	-9631
徐州	-9632
激素	-9633
觀音	-9634
較少	-9635
辩论	-9636
除非	-9637
动植物	-9638
印度的	-9639
日上午	-9640
适量的	-9641
人稱	-9642
合肥	-9643
株式	-9644
死去	-9645
豆腐	-9646
雲南	-9647
ISO	-9648
需要的	-9649
▁Har	-9650
成为一个	-9651
.）	-9652
▁華	-9653
條款	-9654
高达	-9655
这些数据	-9656
▁蔡	-9657
其所	-9658
死者	-9659
起兵	-9660
der	-9661
▁〈	-9662
分隔	-9663
希伯	-9664
降水	-9665
塞克斯	-9666
教育家	-9667
这使得	-9668
▁art	-9669
资本主义	-9670
▁Chan	-9671
内地	-9672
各式	-9673
和阿	-9674
巴布	-9675
廣西	-9676
深深	-9677
企业的	-9678
第一代	-9679
中央政治局	-9680
協調	-9681
巴爾	-9682
繼任	-9683
罪行	-9684
衰落	-9685
較高	-9686
之年號	-9687
伽利略	-9688
神秘的	-9689
萬美元	-9690
认为是	-9691
文化遗产	-9692
正式成立	-9693
ichard	-9694
▁后	-9695
不變	-9696
品的	-9697
学堂	-9698
新罗	-9699
罪名	-9700
零件	-9701
▁Bi	-9702
第一任	-9703
蔣中正	-9704
世界各地的	-9705
▁Christ	-9706
中断	-9707
依賴	-9708
升降	-9709
和一	-9710
慈禧	-9711
持久	-9712
早已	-9713
纳德	-9714
ein	-9715
副书记	-9716
第十一	-9717
As	-9718
古城	-9719
天氣	-9720
改裝	-9721
教区	-9722
的自	-9723
鬥爭	-9724
▁國際	-9725
教育的	-9726
的一天	-9727
乐团	-9728
佛羅	-9729
國道	-9730
当天	-9731
社長	-9732
装甲	-9733
▁设计	-9734
称之为	-9735
面积为	-9736
倡导	-9737
描写	-9738
清華	-9739
路由	-9740
标志着	-9741
▁波	-9742
但被	-9743
製成	-9744
路军	-9745
陝西	-9746
▁当然	-9747
十四年	-9748
省政府	-9749
▁無	-9750
位列	-9751
公務	-9752
叛乱	-9753
尖沙	-9754
流放	-9755
港台	-9756
過於	-9757
工作者	-9758
来提高	-9759
的计划	-9760
减缓	-9761
卡西	-9762
大奖	-9763
它能	-9764
广义	-9765
攜帶	-9766
游击	-9767
背叛	-9768
野餐	-9769
影響力	-9770
的精神	-9771
这个词	-9772
▁七	-9773
不懈	-9774
多樣	-9775
客人	-9776
改由	-9777
是从	-9778
狐狸	-9779
孫中山	-9780
▁Cont	-9781
不安	-9782
影展	-9783
氨基	-9784
简历	-9785
適應	-9786
中扮演	-9787
亚当斯	-9788
以及在	-9789
以防止	-9790
个百分点	-9791
不同类型的	-9792
房地	-9793
民生	-9794
準確	-9795
的思想	-9796
ournal	-9797
PI	-9798
ze	-9799
前期	-9800
参见	-9801
同治	-9802
扩建	-9803
收录	-9804
▁表示	-9805
奠定了	-9806
疾病的	-9807
菲尔德	-9808
▁der	-9809
▁亚	-9810
座堂	-9811
段的	-9812
長沙	-9813
▁民國	-9814
可靠的	-9815
很重要	-9816
得到的	-9817
以免	-9818
共计	-9819
判決	-9820
制片	-9821
存的	-9822
常数	-9823
当今	-9824
景色	-9825
讓他	-9826
课堂	-9827
这时	-9828
陣營	-9829
國務院	-9830
建立起	-9831
比賽中	-9832
金字塔	-9833
为客户提供	-9834
伍德	-9835
北上	-9836
绘制	-9837
知名度	-9838
個體	-9839
宣称	-9840
巴伐	-9841
鳳凰	-9842
代表团	-9843
有价值	-9844
體育館	-9845
乐意	-9846
像素	-9847
准则	-9848
工会	-9849
明亮	-9850
歧視	-9851
代表的	-9852
博士学位	-9853
同情	-9854
年獲	-9855
指责	-9856
推断	-9857
為大	-9858
米亞	-9859
諮詢	-9860
▁九	-9861
不合	-9862
团长	-9863
外出	-9864
寄生	-9865
平静	-9866
总局	-9867
被告	-9868
西湖	-9869
路的	-9870
ump	-9871
企业家	-9872
时代的	-9873
来确定	-9874
lement	-9875
三百	-9876
佐藤	-9877
出戰	-9878
岛上	-9879
蒂安	-9880
順序	-9881
下一个	-9882
和非	-9883
山上	-9884
日記	-9885
率的	-9886
这两	-9887
黎明	-9888
依次	-9889
物资	-9890
衛隊	-9891
违反	-9892
或者是	-9893
看到了	-9894
;}-（	-9895
主权	-9896
攻勢	-9897
蝙蝠	-9898
读书	-9899
辛亥	-9900
同性恋	-9901
海平面上升	-9902
▁百	-9903
便宜	-9904
公約	-9905
派人	-9906
行列	-9907
货运	-9908
off	-9909
和维护	-9910
是世界	-9911
搅拌均匀	-9912
OH	-9913
峡谷	-9914
烏斯	-9915
垃圾邮件	-9916
旧址	-9917
裝飾	-9918
音频	-9919
首領	-9920
的基础上	-9921
▁尼	-9922
戰中	-9923
检验	-9924
火灾	-9925
的兩	-9926
魚類	-9927
osh	-9928
仅次于	-9929
亞軍	-9930
太多	-9931
奴隸	-9932
私有	-9933
聞名	-9934
國防部	-9935
奪取	-9936
将在	-9937
极为	-9938
评为	-9939
box	-9940
▁SE	-9941
▁计算	-9942
的音乐	-9943
▁Rec	-9944
MB	-9945
要在	-9946
通常包括	-9947
修復	-9948
全新	-9949
具體	-9950
左派	-9951
数列	-9952
语系	-9953
超人	-9954
這場	-9955
八達通	-9956
表面的	-9957
imes	-9958
電影作品	-9959
▁市	-9960
ック	-9961
兵器	-9962
历任	-9963
汽油	-9964
看出	-9965
諸侯	-9966
鳥類	-9967
有两个	-9968
能力的	-9969
以及中国大陆的	-9970
▁康	-9971
他又	-9972
伺服	-9973
号的	-9974
我想	-9975
早晨	-9976
的五	-9977
明清	-9978
urr	-9979
出入口	-9980
音樂會	-9981
第一次世界大战	-9982
保證	-9983
偏好	-9984
劇中	-9985
北大	-9986
战胜	-9987
翅膀	-9988
个国家	-9989
人民的	-9990
赢得了	-9991
义务	-9992
也就	-9993
除外	-9994
”），	-9995
▁因為	-9996
加勒比	-9997
来描述	-9998
▁让	-9999
一点	-10000
來看	-10001
感和	-10002
或稱	-10003
启发	-10004
心臟	-10005
总之	-10006
拓跋	-10007
▁OS	-10008
法蘭克	-10009
根据自己的	-10010
安置	-10011
曝光	-10012
米蘭	-10013
這類	-10014
阐述	-10015
参与者	-10016
aint	-10017
出場	-10018
資料庫	-10019
莎士比亚	-10020
〉，	-10021
奠基	-10022
離婚	-10023
mon	-10024
▁ev	-10025
的帮助	-10026
DC	-10027
DE	-10028
中途	-10029
服裝	-10030
證券	-10031
電池	-10032
way	-10033
▁加入	-10034
来表示	-10035
的主題	-10036
的选择	-10037
不必要的	-10038
可以用于	-10039
简要	-10040
奧運會	-10041
後來的	-10042
;}-，	-10043
bl	-10044
仁宗	-10045
位数	-10046
幼稚	-10047
开源	-10048
燃燒	-10049
現為	-10050
環保	-10051
ena	-10052
▁法国	-10053
负面影响	-10054
人造	-10055
司徒	-10056
担忧	-10057
潮州	-10058
登录	-10059
的總	-10060
那样	-10061
定义为	-10062
是為了	-10063
的特性	-10064
内有	-10065
家庄	-10066
既有	-10067
過世	-10068
一開始	-10069
始終	-10070
布萊	-10071
強度	-10072
認定	-10073
wik	-10074
▁tr	-10075
▁Des	-10076
宗教信仰	-10077
▁prov	-10078
▁self	-10079
一所	-10080
不管	-10081
全線	-10082
干预	-10083
战场	-10084
酒吧	-10085
▁初	-10086
▁蘇	-10087
ush	-10088
什么是	-10089
最后一	-10090
混合物	-10091
ason	-10092
休闲	-10093
伤亡	-10094
公理	-10095
官兵	-10096
尔多	-10097
正则	-10098
流星	-10099
編碼	-10100
討伐	-10101
邏輯	-10102
地理位置	-10103
和多	-10104
纳米	-10105
营造	-10106
補充	-10107
通勤	-10108
鄂圖	-10109
鑽石	-10110
▁在这个	-10111
帮助人们	-10112
位元	-10113
區間	-10114
呼籲	-10115
推移	-10116
橫濱	-10117
籌備	-10118
肺炎	-10119
|||	-10120
以下的	-10121
展示了	-10122
生命的	-10123
阿拉斯	-10124
有一定的	-10125
廠商	-10126
植被	-10127
聪明	-10128
这款	-10129
道具	-10130
露营	-10131
目标受众	-10132
▁于	-10133
氯化	-10134
ful	-10135
农田	-10136
前夕	-10137
卡罗	-10138
威斯	-10139
愤怒	-10140
於此	-10141
日由	-10142
有害	-10143
積分	-10144
摄像头	-10145
atic	-10146
self	-10147
▁Java	-10148
強的	-10149
爱国	-10150
片中	-10151
論壇	-10152
日本電視台	-10153
DA	-10154
形势	-10155
生意	-10156
蜜蜂	-10157
RE	-10158
”“	-10159
在內	-10160
尽快	-10161
浸會	-10162
診斷	-10163
中央军委	-10164
选择合适的	-10165
元璋	-10166
城际	-10167
體積	-10168
的决定	-10169
進步黨	-10170
主导	-10171
债务	-10172
大战	-10173
灯泡	-10174
科目	-10175
索尼	-10176
裡面	-10177
语气	-10178
邮政	-10179
加速度	-10180
的公司	-10181
歷史學家	-10182
MC	-10183
确立	-10184
eta	-10185
学习新	-10186
拿破崙	-10187
元老	-10188
北海	-10189
國小	-10190
损坏	-10191
罪犯	-10192
这条	-10193
金鐘	-10194
领先	-10195
ior	-10196
紐西蘭	-10197
经历了	-10198
▁漢	-10199
借助	-10200
南投	-10201
向上	-10202
孙中山	-10203
irect	-10204
▁名	-10205
不易	-10206
利率	-10207
吉祥	-10208
投诉	-10209
精心	-10210
维多	-10211
老挝	-10212
衝擊	-10213
走了	-10214
专注于	-10215
日開始	-10216
的行為	-10217
裔美國	-10218
▁THE	-10219
文艺复兴	-10220
▁Live	-10221
二的	-10222
千里	-10223
皆有	-10224
群眾	-10225
▁函数	-10226
▁生	-10227
班機	-10228
认证	-10229
財務	-10230
主人公	-10231
尖沙咀	-10232
希望能	-10233
東日本	-10234
的意义	-10235
第十三	-10236
环境保护	-10237
两年	-10238
延续	-10239
張學	-10240
ington	-10241
El	-10242
▁方	-10243
小孩	-10244
沙皇	-10245
環球	-10246
金星	-10247
发表了	-10248
提供更	-10249
蔣介石	-10250
公顷	-10251
敘述	-10252
歌舞	-10253
起源于	-10254
有助于提高	-10255
ta	-10256
丢失	-10257
之人	-10258
否則	-10259
外表	-10260
富豪	-10261
杀害	-10262
itle	-10263
▁was	-10264
不詳	-10265
争取	-10266
用法	-10267
的南	-10268
確立	-10269
系数	-10270
％。	-10271
进行分类	-10272
HP	-10273
〉）	-10274
不一	-10275
低地	-10276
回报	-10277
均為	-10278
歌剧	-10279
電磁	-10280
可能有	-10281
天然气	-10282
能源消耗	-10283
UM	-10284
保卫	-10285
各州	-10286
工會	-10287
清新	-10288
群的	-10289
迪斯	-10290
高於	-10291
▁国家	-10292
各自的	-10293
的香港	-10294
》（），	-10295
Be	-10296
▁把	-10297
抗战	-10298
抵制	-10299
數個	-10300
訴訟	-10301
財團	-10302
購物	-10303
une	-10304
則由	-10305
战士	-10306
的二	-10307
CPU	-10308
ely	-10309
清楚地	-10310
的新闻	-10311
ility	-10312
團結	-10313
多芬	-10314
拉特	-10315
橙色	-10316
維斯	-10317
存在着	-10318
很高的	-10319
發生在	-10320
NS	-10321
元帅	-10322
全力	-10323
温带	-10324
玩耍	-10325
確實	-10326
质疑	-10327
高丽	-10328
▁故事	-10329
例如在	-10330
吸血鬼	-10331
太阳系	-10332
帮助用户	-10333
使人	-10334
后果	-10335
山峰	-10336
西汉	-10337
钓鱼	-10338
uth	-10339
游戏的	-10340
火车站	-10341
的說法	-10342
遥远的	-10343
ms	-10344
▁子	-10345
▁據	-10346
奇怪	-10347
存活	-10348
嵌入	-10349
巴克	-10350
想到	-10351
真空	-10352
老年	-10353
迁徙	-10354
ask	-10355
第二大	-10356
年代中期	-10357
在中国大陆	-10358
加尔	-10359
口的	-10360
和其	-10361
它将	-10362
從未	-10363
恩斯	-10364
无数	-10365
校方	-10366
知縣	-10367
该国	-10368
div	-10369
eum	-10370
机器学习模型	-10371
和对	-10372
家康	-10373
於同年	-10374
▁是一个	-10375
伊斯蘭教	-10376
熱帶氣旋	-10377
▁Serv	-10378
▁David	-10379
▁Inter	-10380
一句	-10381
三種	-10382
失望	-10383
并以	-10384
波动	-10385
辦事處	-10386
铁路局	-10387
ison	-10388
▁Instit	-10389
台視	-10390
未经	-10391
武田	-10392
IBM	-10393
uff	-10394
反映了	-10395
基本法	-10396
發展的	-10397
清华大学	-10398
On	-10399
世宗	-10400
怪物	-10401
收费	-10402
數值	-10403
日晚	-10404
消极	-10405
皮膚	-10406
ross	-10407
一事	-10408
在水	-10409
大师	-10410
拉姆	-10411
拟合	-10412
落的	-10413
金钱	-10414
▁為了	-10415
境内的	-10416
很高兴	-10417
期徒刑	-10418
保加利亚	-10419
东风	-10420
中將	-10421
宣誓	-10422
戰時	-10423
政使	-10424
编制	-10425
随之	-10426
類別	-10427
體重	-10428
▁La	-10429
压力和	-10430
inese	-10431
▁Play	-10432
任职	-10433
包容	-10434
四季	-10435
时报	-10436
溶解	-10437
許可	-10438
较小	-10439
可以从	-10440
的日子	-10441
让用户	-10442
、、、、	-10443
▁太	-10444
▁苏	-10445
党委	-10446
晉級	-10447
生母	-10448
但因為	-10449
分子的	-10450
北路	-10451
帽子	-10452
檢察	-10453
用地	-10454
過度	-10455
陶瓷	-10456
指定的	-10457
的关键	-10458
的文本	-10459
达到了	-10460
还包括	-10461
西班牙语	-10462
县的	-10463
命運	-10464
封锁	-10465
河西	-10466
站至	-10467
ape	-10468
wan	-10469
以下几	-10470
在这一	-10471
紧密	-10472
轉變	-10473
體長	-10474
agram	-10475
▁William	-10476
他以	-10477
情人	-10478
模板	-10479
求解	-10480
澳门	-10481
縣長	-10482
郵政	-10483
青衣	-10484
erb	-10485
ope	-10486
中學校	-10487
二十年	-10488
帝國的	-10489
来完成	-10490
的妻子	-10491
的比例	-10492
▁all	-10493
同時也是	-10494
年世界盃	-10495
▁建	-10496
电站	-10497
空調	-10498
經費	-10499
英超	-10500
表情	-10501
IVE	-10502
世紀初	-10503
代表隊	-10504
收視率	-10505
羅馬尼亞	-10506
▁【	-10507
停车	-10508
圓形	-10509
法語	-10510
激光	-10511
策划	-10512
维修	-10513
马丁	-10514
Sch	-10515
for	-10516
健康和	-10517
小提琴	-10518
水资源	-10519
等人的	-10520
後世	-10521
民黨	-10522
err	-10523
來自於	-10524
有哪些	-10525
高句丽	-10526
GA	-10527
百合	-10528
監獄	-10529
而来	-10530
車身	-10531
存在于	-10532
UNDAM	-10533
计算机程序	-10534
▁及	-10535
交响	-10536
家和	-10537
传教士	-10538
尼克松	-10539
面临着	-10540
朝日電視台	-10541
能够更好地	-10542
▁Society	-10543
加冕	-10544
国共	-10545
小镇	-10546
排球	-10547
練習	-10548
虐待	-10549
電流	-10550
来解决	-10551
勇士	-10552
大軍	-10553
會上	-10554
看着	-10555
被俘	-10556
金陵	-10557
乘以	-10558
大名	-10559
性地	-10560
父子	-10561
盟友	-10562
維修	-10563
的母親	-10564
与之	-10565
丧失	-10566
分行	-10567
新一	-10568
Fran	-10569
』，	-10570
之用	-10571
后代	-10572
榮獲	-10573
▁Pe	-10574
支持和	-10575
的事物	-10576
研究者	-10577
witter	-10578
知的	-10579
終身	-10580
队长	-10581
戰爭中	-10582
质量和	-10583
通过了	-10584
uman	-10585
平方千米	-10586
UP	-10587
叙述	-10588
宫殿	-10589
操控	-10590
权的	-10591
疑问	-10592
隐喻	-10593
也就是说	-10594
交由	-10595
协同	-10596
现今	-10597
高層	-10598
会产生	-10599
外交官	-10600
ster	-10601
需要注意的是	-10602
五百	-10603
探險	-10604
林中	-10605
海的	-10606
變形	-10607
重写	-10608
飓风	-10609
哈萨克	-10610
第一名	-10611
▁Science	-10612
▁要	-10613
人事	-10614
分化	-10615
年因	-10616
德爾	-10617
混凝	-10618
白天	-10619
股東	-10620
bit	-10621
朱元璋	-10622
的一部	-10623
天文学家	-10624
史称	-10625
多項	-10626
安定	-10627
微博	-10628
本書	-10629
紫外	-10630
該校	-10631
hys	-10632
三角洲	-10633
巡迴演唱會	-10634
修订	-10635
增至	-10636
施加	-10637
期限	-10638
河水	-10639
让他	-10640
体育场	-10641
旧金山	-10642
涉及到	-10643
的成功	-10644
：-{	-10645
队的	-10646
开始在	-10647
機器人	-10648
view	-10649
中南	-10650
干净	-10651
抓住	-10652
按时	-10653
改組	-10654
數十	-10655
牺牲	-10656
講述	-10657
開通	-10658
是一份	-10659
六四	-10660
刚刚	-10661
多為	-10662
拓扑	-10663
昆虫	-10664
花生	-10665
送往	-10666
之後的	-10667
▁Park	-10668
一台	-10669
位在	-10670
外观	-10671
議席	-10672
难度	-10673
ven	-10674
有些人	-10675
条件下	-10676
縣政府	-10677
國家公園	-10678
COVID	-10679
ya	-10680
地表	-10681
奶油	-10682
推測	-10683
改元	-10684
都以	-10685
倾向于	-10686
威爾斯	-10687
上將	-10688
写的	-10689
吉思	-10690
崩溃	-10691
引进	-10692
弗兰	-10693
手的	-10694
泄露	-10695
电流	-10696
精彩	-10697
美人	-10698
，）	-10699
成员国	-10700
年諾貝爾	-10701
一面	-10702
大区	-10703
掌控	-10704
橙子	-10705
研制	-10706
者為	-10707
間接	-10708
陆地	-10709
▁em	-10710
亚热带	-10711
的动物	-10712
ella	-10713
大部分的	-10714
民主進步黨	-10715
六个	-10716
國中	-10717
地質	-10718
攻克	-10719
文庫	-10720
特尔	-10721
独自	-10722
直隶	-10723
ING	-10724
qrt	-10725
▁Em	-10726
▁up	-10727
年去世	-10728
罗马尼亚	-10729
▁女	-10730
」「	-10731
对您	-10732
披萨	-10733
印度洋	-10734
勁歌金曲	-10735
前方	-10736
夺取	-10737
手下	-10738
接待	-10739
率軍	-10740
自贡	-10741
賽馬	-10742
以便我	-10743
罗斯福	-10744
部分的	-10745
▁臺北市	-10746
不便	-10747
不错	-10748
中大	-10749
州和	-10750
故居	-10751
格局	-10752
次數	-10753
毀滅	-10754
製片	-10755
方向的	-10756
清真寺	-10757
entence	-10758
他為	-10759
兩大	-10760
心灵	-10761
极大	-10762
民用	-10763
短缺	-10764
群體	-10765
艰难	-10766
造船	-10767
领事	-10768
仍然是	-10769
ha	-10770
▁那	-10771
改進	-10772
武術	-10773
縣市	-10774
年以来	-10775
混凝土	-10776
蒋介石	-10777
鄂圖曼	-10778
更有效地	-10779
足球俱乐部	-10780
年建立的教育機構	-10781
Dr	-10782
下旬	-10783
传奇	-10784
深夜	-10785
示范	-10786
突擊	-10787
por	-10788
自己是	-10789
主要包括	-10790
可以利用	-10791
ts	-10792
斯巴	-10793
滋病	-10794
猩猩	-10795
钢铁	-10796
▁紅	-10797
開播	-10798
cel	-10799
和经济	-10800
在世界	-10801
▁len	-10802
▁vol	-10803
No	-10804
▁田	-10805
二级	-10806
創意	-10807
夕法	-10808
威力	-10809
标识	-10810
牧師	-10811
并不能	-10812
廣東省	-10813
的观点	-10814
英國的	-10815
更多信息	-10816
中華民國總統	-10817
复合	-10818
山海	-10819
情緒	-10820
完成后	-10821
圖案	-10822
星等	-10823
直辖	-10824
電氣	-10825
的声音	-10826
君士坦丁堡	-10827
傷亡	-10828
勁爆	-10829
消灭	-10830
萬張	-10831
國家隊	-10832
新台幣	-10833
的意见	-10834
記憶體	-10835
世俗	-10836
是很	-10837
目录	-10838
簡化	-10839
这份	-10840
三明治	-10841
年加入	-10842
流行音樂	-10843
计算机视觉	-10844
分店	-10845
多德	-10846
夫的	-10847
封为	-10848
射线	-10849
巴拿	-10850
曹魏	-10851
會社	-10852
望远	-10853
深水	-10854
顶部	-10855
idd	-10856
▁作曲	-10857
▁高雄	-10858
古希臘	-10859
可分為	-10860
基础上	-10861
每个人都	-10862
▁about	-10863
指引	-10864
採訪	-10865
质数	-10866
选民	-10867
值得一	-10868
在过去	-10869
中毒	-10870
之稱	-10871
標題	-10872
的長	-10873
相遇	-10874
電信	-10875
ipp	-10876
《》，	-10877
式月台	-10878
是使用	-10879
其中一个	-10880
客户需求	-10881
string	-10882
]。	-10883
▁莫	-10884
唱歌	-10885
權的	-10886
獲勝	-10887
诸塞	-10888
了很多	-10889
ength	-10890
........	-10891
兩條	-10892
廢止	-10893
棉花	-10894
还要	-10895
還要	-10896
归类为	-10897
了自己的	-10898
▁无	-10899
传入	-10900
劇團	-10901
官僚	-10902
描繪	-10903
现金	-10904
停車場	-10905
功能的	-10906
季後賽	-10907
有任何	-10908
稳定性	-10909
醫學院	-10910
apan	-10911
藉此	-10912
见于	-10913
语中	-10914
进士	-10915
的任务	-10916
sort	-10917
▁English	-10918
IL	-10919
其为	-10920
原址	-10921
媒介	-10922
安静	-10923
山縣	-10924
山谷	-10925
火炮	-10926
精度	-10927
蜂蜜	-10928
颗粒	-10929
ean	-10930
▁ST	-10931
嚴重的	-10932
的情形	-10933
系列的	-10934
美國海軍	-10935
▁塔	-10936
决心	-10937
創下	-10938
坚果	-10939
歸類	-10940
濒危	-10941
音速	-10942
黨員	-10943
制作的	-10944
的应用	-10945
而言之	-10946
選舉中	-10947
▁Inc	-10948
制定一个	-10949
xford	-10950
公所	-10951
卸任	-10952
爭奪	-10953
礼貌	-10954
隆坡	-10955
难忘	-10956
如何在	-10957
▁but	-10958
不够	-10959
专利	-10960
单曲	-10961
板橋	-10962
食性	-10963
但它们	-10964
適用於	-10965
ines	-10966
SL	-10967
偶然	-10968
几年	-10969
尚有	-10970
比尔	-10971
水晶	-10972
限於	-10973
▁東京	-10974
台灣省	-10975
的教育	-10976
vent	-10977
ibrary	-10978
br	-10979
于此	-10980
多彩	-10981
後於	-10982
法拉	-10983
異常	-10984
處的	-10985
资助	-10986
電路	-10987
▁所有	-10988
和日本	-10989
的人士	-10990
的內容	-10991
迈克尔	-10992
深处	-10993
ule	-10994
为他们	-10995
yc	-10996
一期	-10997
小巴	-10998
惩罚	-10999
戰的	-11000
政务	-11001
春季	-11002
有機	-11003
考入	-11004
致命	-11005
頭部	-11006
的家庭	-11007
错误的	-11008
▁College	-11009
在任	-11010
次的	-11011
物浦	-11012
碳酸	-11013
优缺点	-11014
年中国	-11015
有一种	-11016
辽宁省	-11017
ating	-11018
不含	-11019
为人	-11020
人體	-11021
军在	-11022
動員	-11023
攻下	-11024
大地震	-11025
并且在	-11026
（）：	-11027
这样可以	-11028
傳入	-11029
史記	-11030
王安	-11031
競技	-11032
osa	-11033
的中国	-11034
还需要	-11035
韓國男子	-11036
style	-11037
▁Mark	-11038
名义	-11039
地势	-11040
快樂	-11041
的解	-11042
羅德	-11043
东南亚	-11044
二十四	-11045
萨诸塞	-11046
革命軍	-11047
香港電台	-11048
arles	-11049
以下是一个	-11050
为您提供帮助	-11051
城巴	-11052
天才	-11053
寺院	-11054
巴嫩	-11055
年入	-11056
日子	-11057
蔓延	-11058
可能在	-11059
指揮官	-11060
alth	-11061
Ro	-11062
乐趣	-11063
加载	-11064
炮兵	-11065
跟随	-11066
CSS	-11067
产阶级	-11068
隸屬於	-11069
也有一些	-11070
SD	-11071
▁格	-11072
使之	-11073
霸王	-11074
ola	-11075
充足的	-11076
化学家	-11077
客户端	-11078
延伸至	-11079
技术来	-11080
存在一些	-11081
投入服務	-11082
不了	-11083
亦會	-11084
亦被	-11085
建於	-11086
方针	-11087
迪南	-11088
隊員	-11089
上面的	-11090
的兒子	-11091
LECT	-11092
中都	-11093
克雷	-11094
南开	-11095
嬰兒	-11096
情境	-11097
登记	-11098
缓慢	-11099
他們在	-11100
平均值	-11101
做出贡献	-11102
Em	-11103
之心	-11104
日记	-11105
球的	-11106
▁政府	-11107
星期六	-11108
物联网	-11109
人口密度	-11110
国家公园	-11111
他不	-11112
八十	-11113
刊物	-11114
区和	-11115
外觀	-11116
歐陽	-11117
的教	-11118
腐败	-11119
长为	-11120
片尾曲	-11121
黎巴嫩	-11122
▁Med	-11123
争论	-11124
埃德	-11125
奇妙	-11126
它也	-11127
撤出	-11128
黑白	-11129
API	-11130
▁自由	-11131
三十年	-11132
▁Pre	-11133
▁website	-11134
凝聚	-11135
強大	-11136
彈藥	-11137
战列	-11138
摇滚	-11139
瑞克	-11140
甲板	-11141
西伯	-11142
見到	-11143
轄區	-11144
大將軍	-11145
故事的	-11146
甚至是	-11147
电影节	-11148
健康饮食	-11149
事變	-11150
军人	-11151
哈伊	-11152
密集	-11153
廈門	-11154
撤銷	-11155
暂时	-11156
瀏覽	-11157
艾米	-11158
鴉片	-11159
光合作用	-11160
了在	-11161
信義	-11162
擅长	-11163
為何	-11164
选为	-11165
键盘	-11166
的基礎	-11167
reet	-11168
维多利亚	-11169
体内	-11170
多位	-11171
招收	-11172
滑雪	-11173
赫尔	-11174
領隊	-11175
另一種	-11176
大学生	-11177
技术在	-11178
垄断	-11179
工黨	-11180
忙碌	-11181
書局	-11182
神宗	-11183
邪恶	-11184
▁确保	-11185
提到的	-11186
望远镜	-11187
类似的	-11188
總經理	-11189
唱片公司	-11190
属的动物	-11191
日常生活中	-11192
la	-11193
七十	-11194
不必	-11195
之美	-11196
前來	-11197
完結	-11198
本作	-11199
瓦解	-11200
聚会	-11201
音符	-11202
风味	-11203
inn	-11204
的成本	-11205
感到非常	-11206
浸會大學	-11207
这篇文章	-11208
▁Kong	-11209
之家	-11210
可达	-11211
曲目	-11212
條目	-11213
次日	-11214
精確	-11215
聯會	-11216
這裡	-11217
▁Im	-11218
英国的	-11219
duct	-11220
博客文章	-11221
最受歡迎	-11222
有所帮助	-11223
这部电影	-11224
提供了一个	-11225
以東	-11226
做到	-11227
塞拜	-11228
师长	-11229
祖籍	-11230
约有	-11231
〉、〈	-11232
十九年	-11233
▁Techn	-11234
:#	-11235
SH	-11236
ij	-11237
交匯	-11238
夜間	-11239
直通	-11240
博物院	-11241
和个人	-11242
并确保	-11243
开发的	-11244
现代化	-11245
法律法规	-11246
三千	-11247
从小	-11248
前進	-11249
大王	-11250
夫妇	-11251
英法	-11252
～（	-11253
皇太后	-11254
舉辦的	-11255
▁How	-11256
▁华	-11257
初中	-11258
季節	-11259
希尔	-11260
縣立	-11261
釣魚	-11262
大法官	-11263
始建于	-11264
效率和	-11265
数据中	-11266
极大地	-11267
的数字	-11268
的機會	-11269
erry	-11270
灵魂	-11271
纸张	-11272
義務	-11273
ied	-11274
節度使	-11275
一边	-11276
码头	-11277
被殺	-11278
通货	-11279
毕业后	-11280
ities	-11281
人民出版社	-11282
亦在	-11283
場合	-11284
摩洛	-11285
林业	-11286
热门	-11287
▁->	-11288
委员长	-11289
尽可能	-11290
冰箱	-11291
大於	-11292
後方	-11293
的白	-11294
积累	-11295
詞彙	-11296
递归	-11297
重複	-11298
金的	-11299
工作中	-11300
新幹線	-11301
等信息	-11302
自然界	-11303
自身的	-11304
ique	-11305
ring	-11306
urch	-11307
NE	-11308
克罗	-11309
參見	-11310
拖延	-11311
近平	-11312
雄性	-11313
一次性	-11314
也称为	-11315
逝世于	-11316
的目的是	-11317
▁龍	-11318
夺得	-11319
日和	-11320
激情	-11321
首领	-11322
」（）	-11323
月中旬	-11324
▁Che	-11325
加油	-11326
大英	-11327
某種	-11328
米兰	-11329
第三方	-11330
▁意大利	-11331
最古老的	-11332
通过使用	-11333
▁Smith	-11334
▁泰	-11335
喜爱	-11336
夢想	-11337
掌管	-11338
村落	-11339
竞赛	-11340
诉讼	-11341
长官	-11342
統治者	-11343
南洋	-11344
年於	-11345
星光	-11346
机和	-11347
灵感	-11348
环绕	-11349
珠江	-11350
病例	-11351
總是	-11352
萬曆	-11353
年正式	-11354
法西斯	-11355
的特色	-11356
与此同时	-11357
农业生产	-11358
一款	-11359
主打	-11360
之神	-11361
向外	-11362
毛利	-11363
阿布	-11364
会影响	-11365
帝国的	-11366
研究表明	-11367
年人口普查	-11368
ization	-11369
▁孫	-11370
▁赵	-11371
中英	-11372
内置	-11373
数十	-11374
童軍	-11375
ger	-11376
ather	-11377
wo	-11378
参赛	-11379
夜间	-11380
實踐	-11381
封鎖	-11382
权限	-11383
歷代	-11384
毫無	-11385
烈士	-11386
网球	-11387
巴尼亞	-11388
年亞洲	-11389
的方向	-11390
女子團體	-11391
BE	-11392
常规	-11393
筛选	-11394
航线	-11395
莉亞	-11396
认同	-11397
以便在	-11398
减少了	-11399
珊瑚礁	-11400
这是一种	-11401
到底	-11402
妖怪	-11403
考量	-11404
erc	-11405
▁se	-11406
了許多	-11407
和信息	-11408
的地理	-11409
）——	-11410
▁Sec	-11411
')	-11412
▁孙	-11413
七世	-11414
多为	-11415
揭示	-11416
水面	-11417
激活	-11418
運河	-11419
Con	-11420
的美國	-11421
組織的	-11422
我们应该	-11423
將於	-11424
时空	-11425
狙擊	-11426
算是	-11427
腓力	-11428
語音	-11429
语义	-11430
▁少将	-11431
先进的	-11432
内部的	-11433
第二代	-11434
行政单位	-11435
争夺	-11436
人格	-11437
仪器	-11438
冷静	-11439
客戶	-11440
意指	-11441
縣的	-11442
英鎊	-11443
不一定	-11444
周围的	-11445
意味著	-11446
这包括	-11447
yp	-11448
終結	-11449
英九	-11450
世界中	-11451
写一首	-11452
初始化	-11453
所使用	-11454
提供商	-11455
明显的	-11456
的一个重要	-11457
NN	-11458
探討	-11459
讽刺	-11460
转变	-11461
餘人	-11462
ama	-11463
參賽者	-11464
年首次	-11465
桃園市	-11466
负责人	-11467
黑龙江省	-11468
上訴	-11469
分的	-11470
医药	-11471
善于	-11472
asc	-11473
家族的	-11474
彼得堡	-11475
街道办事处	-11476
])	-11477
一輛	-11478
亮度	-11479
广阔	-11480
廣義	-11481
录音	-11482
▁用户	-11483
与客户	-11484
这一点	-11485
cept	-11486
▁饰	-11487
一周	-11488
攻佔	-11489
精選	-11490
编剧	-11491
》：“	-11492
无论是	-11493
法蘭西	-11494
深圳市	-11495
额外的	-11496
塞爾維亞	-11497
没有任何	-11498
リー	-11499
天安	-11500
无关	-11501
暗殺	-11502
极限	-11503
职能	-11504
负担	-11505
ume	-11506
參議院	-11507
秦始皇	-11508
連續劇	-11509
▁China	-11510
充电	-11511
开支	-11512
會計	-11513
永恒	-11514
致使	-11515
顯著	-11516
太平天	-11517
改革开放	-11518
的特有植物	-11519
也称	-11520
估算	-11521
偏差	-11522
典礼	-11523
包裹	-11524
埃爾	-11525
以避免	-11526
地下鐵	-11527
羅伯特	-11528
角色的	-11529
下辖以下	-11530
二八	-11531
半徑	-11532
可行	-11533
名胜	-11534
地貌	-11535
契約	-11536
客機	-11537
實體	-11538
業者	-11539
章程	-11540
餐具	-11541
」），	-11542
传感器	-11543
科學院	-11544
ander	-11545
足球运动员	-11546
▁Project	-11547
▁除	-11548
他将	-11549
傳染	-11550
声誉	-11551
手指	-11552
比起	-11553
纪律	-11554
金朝	-11555
ura	-11556
iter	-11557
人类活动	-11558
极端天气	-11559
▁City	-11560
三名	-11561
修辞	-11562
光譜	-11563
地亚	-11564
戴维	-11565
扬州	-11566
版权	-11567
產量	-11568
▁we	-11569
的具体	-11570
高效的	-11571
▁out	-11572
日本政府	-11573
生产总值	-11574
▁%	-11575
下載	-11576
外圍	-11577
實質	-11578
犧牲	-11579
級的	-11580
說話	-11581
象棋	-11582
雨水	-11583
灵活性	-11584
销售额	-11585
沒有任何	-11586
便于	-11587
前面	-11588
宝藏	-11589
次郎	-11590
温和	-11591
著称	-11592
鰭魚	-11593
ala	-11594
作業系統	-11595
解释为什么	-11596
富裕	-11597
希爾	-11598
开启	-11599
果实	-11600
較大	-11601
olf	-11602
和美国	-11603
女性的	-11604
建筑师	-11605
从而提高	-11606
IX	-11607
ba	-11608
yd	-11609
一批	-11610
交戰	-11611
别人	-11612
您在	-11613
明智	-11614
民航	-11615
觀看	-11616
ada	-11617
句子中	-11618
保护环境	-11619
为他	-11620
事变	-11621
克爾	-11622
搬到	-11623
边形	-11624
遷往	-11625
ept	-11626
▁()	-11627
世界杯	-11628
蛋白質	-11629
這兩個	-11630
||||	-11631
▁King	-11632
▁number	-11633
住宿	-11634
佔據	-11635
淮南	-11636
画作	-11637
石灰	-11638
较少	-11639
▁sc	-11640
世紀末	-11641
算法来	-11642
飛行員	-11643
一九	-11644
份子	-11645
信念	-11646
制服	-11647
各項	-11648
园林	-11649
工藝	-11650
微波	-11651
戰事	-11652
水道	-11653
火車	-11654
詹姆	-11655
”）。	-11656
之后的	-11657
在臺灣	-11658
密西根	-11659
等多种	-11660
立法會議員	-11661
不好	-11662
中興	-11663
失利	-11664
星际	-11665
涵蓋	-11666
角的	-11667
过多	-11668
》：「	-11669
尼泊尔	-11670
政策的	-11671
畢業於	-11672
生活中的	-11673
SC	-11674
ール	-11675
優先	-11676
和他	-11677
子上	-11678
德語	-11679
志願	-11680
有四	-11681
棕色	-11682
行業	-11683
难民	-11684
一句话	-11685
和建议	-11686
和目标	-11687
服务的	-11688
ices	-11689
巴特	-11690
开采	-11691
汉堡	-11692
甲基	-11693
認知	-11694
说的	-11695
iet	-11696
学校的	-11697
德里希	-11698
可可	-11699
斯在	-11700
最少	-11701
氏族	-11702
电荷	-11703
虛構	-11704
西德	-11705
远离	-11706
遠東	-11707
雌性	-11708
▁位於	-11709
布拉格	-11710
葡萄糖	-11711
始於	-11712
才會	-11713
鲁迅	-11714
Col	-11715
游戏中	-11716
近年來	-11717
全港	-11718
時被	-11719
泽民	-11720
的子	-11721
胡同	-11722
讀書	-11723
随即	-11724
▁Gr	-11725
的儿子	-11726
的經濟	-11727
届全国政协	-11728
ambridge	-11729
▁次	-11730
中美	-11731
分区	-11732
哈迪	-11733
壓縮	-11734
比率	-11735
瓦拉	-11736
盈利	-11737
了大量	-11738
中國人民	-11739
▁反	-11740
俄亥	-11741
出局	-11742
博覽	-11743
各方	-11744
國籍	-11745
場的	-11746
天水	-11747
条例	-11748
漫步	-11749
祝福	-11750
膨脹	-11751
通商	-11752
酸奶	-11753
霍夫	-11754
預備	-11755
ABC	-11756
alt	-11757
吉思汗	-11758
），《	-11759
三等	-11760
傀儡	-11761
单一	-11762
字节	-11763
巴马	-11764
的北	-11765
硝酸	-11766
與大	-11767
起到	-11768
距今	-11769
餐饮	-11770
}-、	-11771
俄亥俄	-11772
收錄於	-11773
隶属于	-11774
西拉天文台	-11775
制裁	-11776
每秒	-11777
筹备	-11778
茶叶	-11779
詩歌	-11780
連串	-11781
预报	-11782
》，《	-11783
不平等	-11784
在一次	-11785
可以追溯到	-11786
兩側	-11787
支部	-11788
聚类	-11789
首个	-11790
▁第五	-11791
年完工	-11792
ense	-11793
代表大會	-11794
写一篇关于	-11795
▁Robert	-11796
卡片	-11797
民俗	-11798
鏡頭	-11799
▁對於	-11800
的标准	-11801
提供帮助	-11802
非常重要的	-11803
作为一个人工智能助手	-11804
岁及	-11805
无穷	-11806
景觀	-11807
湿润	-11808
疲劳	-11809
终身	-11810
美式	-11811
设在	-11812
身边	-11813
制度的	-11814
区别在于	-11815
)^	-11816
之王	-11817
夥伴	-11818
牙齒	-11819
物資	-11820
肖像	-11821
ces	-11822
制造业	-11823
學生會	-11824
数据来	-11825
首歌曲	-11826
aceae	-11827
一時	-11828
习俗	-11829
履行	-11830
影視	-11831
經紀	-11832
iff	-11833
受害者	-11834
理工学院	-11835
▁char	-11836
丁目	-11837
乐观	-11838
你好	-11839
嘉慶	-11840
獨自	-11841
缩短	-11842
連同	-11843
事件中	-11844
和朋友	-11845
安東尼	-11846
%、	-11847
向东	-11848
年及	-11849
气氛	-11850
辯論	-11851
適當	-11852
人们对	-11853
众议院	-11854
伺服器	-11855
目前的	-11856
聯賽冠軍	-11857
▁拉西拉天文台	-11858
)/	-11859
人氣	-11860
封闭	-11861
山水	-11862
比重	-11863
野战	-11864
頭銜	-11865
有不少	-11866
董事长	-11867
▁Group	-11868
即时	-11869
填海	-11870
山顶	-11871
轉播	-11872
進軍	-11873
▁促进	-11874
在英國	-11875
故事中	-11876
核武器	-11877
美尼亚	-11878
一書	-11879
型号	-11880
▁ad	-11881
▁许多	-11882
影响了	-11883
敘利亞	-11884
無線電	-11885
的情绪	-11886
倫理	-11887
曼哈	-11888
氣溫	-11889
热爱	-11890
集結	-11891
青铜	-11892
irc	-11893
在其他	-11894
停留	-11895
司机	-11896
和北	-11897
季风	-11898
开幕	-11899
曼谷	-11900
的代	-11901
裁定	-11902
西比	-11903
金馬	-11904
▁非常	-11905
有不同	-11906
被誉为	-11907
提供一些	-11908
mo	-11909
他为	-11910
加里	-11911
參觀	-11912
同為	-11913
哈特	-11914
展出	-11915
曲的	-11916
陵墓	-11917
二进制	-11918
管理的	-11919
费尔德	-11920
▁STS	-11921
不断发展	-11922
一號	-11923
付款	-11924
向的	-11925
物業	-11926
驅動	-11927
取代了	-11928
吉林省	-11929
自己在	-11930
▁Boy	-11931
这有助于	-11932
ional	-11933
仅有	-11934
同学	-11935
尺度	-11936
年秋	-11937
把他	-11938
會以	-11939
激动	-11940
首爾	-11941
的好处	-11942
的感觉	-11943
设计和	-11944
資本主義	-11945
Me	-11946
ops	-11947
原本的	-11948
生物的	-11949
生活质量	-11950
▁inter	-11951
Ne	-11952
▁總	-11953
中书	-11954
之星	-11955
反攻	-11956
寫成	-11957
意圖	-11958
所属	-11959
整數	-11960
眼鏡	-11961
船只	-11962
資深	-11963
路徑	-11964
並且在	-11965
和处理	-11966
查爾斯	-11967
舊金山	-11968
上演	-11969
也许	-11970
书法	-11971
始祖	-11972
權益	-11973
江湖	-11974
派系	-11975
點是	-11976
下面的	-11977
特色的	-11978
的限制	-11979
都具有	-11980
rich	-11981
塞尔维亚	-11982
日本女性	-11983
中央研究院	-11984
▁土	-11985
▁英	-11986
之久	-11987
民事	-11988
獨裁	-11989
科尔	-11990
函数的	-11991
的权利	-11992
交通运输	-11993
交汇	-11994
则为	-11995
前景	-11996
奉天	-11997
客车	-11998
敏捷	-11999
李世	-12000
水準	-12001
法老	-12002
海豚	-12003
潮流	-12004
的機	-12005
糧食	-12006
太陽系	-12007
导致的	-12008
為台灣	-12009
ideo	-12010
弗吉尼亚	-12011
您的问题	-12012
托洛茨基	-12013
可以帮助我们	-12014
乒乓	-12015
他對	-12016
光照	-12017
旗帜	-12018
益处	-12019
督察	-12020
體型	-12021
）／	-12022
NLP	-12023
翻译成	-12024
進行的	-12025
加拿大的	-12026
並有	-12027
哥特	-12028
在不	-12029
是非	-12030
書法	-12031
柯南	-12032
被人	-12033
解剖	-12034
▁——	-12035
教科文	-12036
塔尔	-12037
捐赠	-12038
野外	-12039
以减少	-12040
关键字	-12041
胡椒粉	-12042
Open	-12043
传媒	-12044
兵部	-12045
千瓦	-12046
新店	-12047
童年	-12048
這兩	-12049
（“	-12050
="#	-12051
pos	-12052
是位于	-12053
袁世凯	-12054
重大的	-12055
▁function	-12056
]，	-12057
一角	-12058
現有	-12059
香气	-12060
arn	-12061
▁关于	-12062
利物浦	-12063
都是由	-12064
创作一首	-12065
三郎	-12066
不相	-12067
以东	-12068
假面	-12069
傳輸	-12070
出入	-12071
忘记	-12072
當然	-12073
相較	-12074
轉型	-12075
這時	-12076
以前的	-12077
摩洛哥	-12078
與日本	-12079
▁width	-12080
ck	-12081
兰州	-12082
化為	-12083
历代	-12084
同期	-12085
巩固	-12086
玛雅	-12087
蒙德	-12088
HER	-12089
rix	-12090
原来的	-12091
所謂的	-12092
羅斯福	-12093
鼓励人们	-12094
企图	-12095
生平	-12096
艾伦	-12097
魁北	-12098
▁同年	-12099
▁如何	-12100
▁进行	-12101
又稱為	-12102
很乐意	-12103
所有人	-12104
星期日	-12105
rown	-12106
二等	-12107
剑桥	-12108
大卫	-12109
射击	-12110
戰死	-12111
招募	-12112
支線	-12113
江市	-12114
溫泉	-12115
百貨	-12116
總共	-12117
老子	-12118
▁阿尔	-12119
企業家	-12120
员工的	-12121
是多少	-12122
的理论	-12123
▁常	-12124
不想	-12125
並被	-12126
增多	-12127
教材	-12128
显得	-12129
為期	-12130
細菌	-12131
迁移	-12132
通稱	-12133
魔戒	-12134
出版了	-12135
的女儿	-12136
人工智能在	-12137
保持良好的	-12138
PE	-12139
▁心	-12140
ター	-12141
切碎	-12142
投放	-12143
結論	-12144
人類的	-12145
的人生	-12146
研究和	-12147
可以有效	-12148
东亚	-12149
借用	-12150
固体	-12151
官话	-12152
專科	-12153
总额	-12154
日照	-12155
纵队	-12156
香味	-12157
apt	-12158
運動的	-12159
主教座堂	-12160
您没有提供	-12161
上台	-12162
之际	-12163
人与	-12164
前所	-12165
射線	-12166
潜力	-12167
燃油	-12168
种群	-12169
误差	-12170
鸟儿	-12171
我不能	-12172
▁西班牙	-12173
地方政府	-12174
bs	-12175
五千	-12176
先進	-12177
库存	-12178
明天	-12179
松山	-12180
桌面	-12181
给他	-12182
这对	-12183
馬斯	-12184
▁Microsoft	-12185
之和	-12186
人有	-12187
则在	-12188
是将	-12189
曾為	-12190
購入	-12191
---	-12192
}-」	-12193
▁教育	-12194
保留了	-12195
化學家	-12196
确定的	-12197
▁Journal	-12198
擴建	-12199
放映	-12200
新兴	-12201
此舉	-12202
爸爸	-12203
轉移	-12204
Tom	-12205
年上映	-12206
有利于	-12207
亲爱的	-12208
平台上	-12209
幼稚園	-12210
的看法	-12211
结构的	-12212
諸葛亮	-12213
ider	-12214
提供更多的	-12215
BL	-12216
列寧	-12217
总裁	-12218
探究	-12219
暴雨	-12220
甲骨	-12221
皇子	-12222
行車	-12223
負擔	-12224
▁Li	-12225
第十四	-12226
算法的	-12227
阿波罗	-12228
辛亥革命	-12229
印度尼西亚	-12230
uf	-12231
折射	-12232
罗德	-12233
長江	-12234
黑客	-12235
公開賽	-12236
都沒有	-12237
otal	-12238
形成一个	-12239
inger	-12240
ograph	-12241
YouTube	-12242
▁Associ	-12243
傳遞	-12244
出家	-12245
沙滩	-12246
製的	-12247
被發現	-12248
足球賽	-12249
历史文化	-12250
可以快速	-12251
尤其是在	-12252
接下来的	-12253
值得注意的是	-12254
一項	-12255
他於	-12256
房間	-12257
数百	-12258
继任	-12259
八大	-12260
土著	-12261
對戰	-12262
愛的	-12263
纳入	-12264
rew	-12265
印度教	-12266
ible	-12267
▁III	-12268
世界上最	-12269
▁雙	-12270
合适	-12271
將在	-12272
零食	-12273
的道路	-12274
图灵	-12275
容納	-12276
封印	-12277
接駁	-12278
進口	-12279
▁德国	-12280
升格為	-12281
及香港	-12282
民主派	-12283
uz	-12284
▁京	-12285
人道	-12286
修饰	-12287
傳承	-12288
型號	-12289
据说	-12290
比上	-12291
瓦爾	-12292
田徑	-12293
範疇	-12294
相對於	-12295
至今仍	-12296
一篇关于	-12297
工作人员	-12298
維基百科	-12299
通常用于	-12300
在这种情况下	-12301
PlayStation	-12302
分開	-12303
家乡	-12304
懷孕	-12305
留学	-12306
的副	-12307
elp	-12308
在同一	-12309
打印机	-12310
理事会	-12311
ives	-12312
光子	-12313
分开	-12314
塔利	-12315
维特	-12316
eat	-12317
其主要	-12318
合作的	-12319
iP	-12320
地獄	-12321
大字	-12322
就此	-12323
後續	-12324
批复	-12325
本质	-12326
泰坦	-12327
ift	-12328
云南省	-12329
的列表	-12330
輻鰭魚	-12331
=|||	-12332
▁data	-12333
▁Center	-12334
下台	-12335
之歌	-12336
人性	-12337
午餐	-12338
喪失	-12339
它会	-12340
张家	-12341
日是	-12342
终止	-12343
芯片	-12344
變更	-12345
預定	-12346
飯店	-12347
市辖区	-12348
通货膨胀	-12349
ource	-12350
▁Oxford	-12351
乌拉	-12352
了其	-12353
光年	-12354
冠状	-12355
冠狀	-12356
干擾	-12357
所作	-12358
楚国	-12359
给人	-12360
近期	-12361
ano	-12362
中國人	-12363
時間的	-12364
已经成为	-12365
“”	-12366
、「	-12367
亞視	-12368
北站	-12369
召回	-12370
大清	-12371
家园	-12372
居於	-12373
手持	-12374
旺角	-12375
最优	-12376
硬币	-12377
謀殺	-12378
選民	-12379
預防	-12380
了一段	-12381
战争的	-12382
開始在	-12383
卡羅	-12384
媽媽	-12385
布爾	-12386
布置	-12387
打開	-12388
捕食	-12389
波尔	-12390
游擊	-12391
白金	-12392
馬丁	-12393
在內的	-12394
▁add	-12395
之夜	-12396
发酵	-12397
幹部	-12398
明帝	-12399
温柔	-12400
玉山	-12401
王朱	-12402
處長	-12403
重組	-12404
長大	-12405
魯斯	-12406
AKB	-12407
吉隆坡	-12408
天文学	-12409
計算機	-12410
JavaScript	-12411
依法	-12412
平壤	-12413
是要	-12414
有其	-12415
片頭	-12416
相機	-12417
Mus	-12418
rib	-12419
任何人	-12420
和视频	-12421
有限的	-12422
每年的	-12423
獨特的	-12424
這也是	-12425
降雨量	-12426
▁Ang	-12427
▁將	-12428
之役	-12429
乌鲁	-12430
否認	-12431
大队	-12432
已故	-12433
年幼	-12434
忽视	-12435
日程	-12436
權威	-12437
畜牧	-12438
編寫	-12439
趨勢	-12440
陌生	-12441
rol	-12442
▁海勒	-12443
最佳的	-12444
纽约市	-12445
都非常	-12446
歐洲國家	-12447
训练模型	-12448
▁中国人民解放军	-12449
RO	-12450
也为	-12451
交替	-12452
假如	-12453
全程	-12454
努尔	-12455
头脑	-12456
常務	-12457
據點	-12458
比的	-12459
清晨	-12460
特蘭	-12461
結局	-12462
給了	-12463
與此	-12464
pha	-12465
▁Ev	-12466
东北部	-12467
创造了	-12468
最後的	-12469
第二天	-12470
總司令	-12471
航空航天	-12472
▁塞	-12473
假名	-12474
固醇	-12475
存款	-12476
差别	-12477
是新	-12478
正教	-12479
聯網	-12480
鄉村	-12481
风雨	-12482
uel	-12483
和挑战	-12484
和时间	-12485
市场的	-12486
被用来	-12487
革命军	-12488
股票价格	-12489
▁中华民国	-12490
個別	-12491
加爾	-12492
各项	-12493
四方	-12494
少將	-12495
後才	-12496
斯堡	-12497
注射	-12498
遗迹	-12499
ula	-12500
工程院	-12501
年在位	-12502
▁Girl	-12503
ua	-12504
▁向	-12505
得獎	-12506
撞击	-12507
現存	-12508
租借	-12509
给您	-12510
股市	-12511
薩爾	-12512
ney	-12513
是唯一	-12514
的一段	-12515
的人们	-12516
的有效	-12517
设备的	-12518
▁One	-12519
中央电视台	-12520
RT	-12521
导体	-12522
▁fl	-12523
数量的	-12524
格拉底	-12525
金黄色	-12526
內有	-12527
則會	-12528
威士	-12529
導體	-12530
开创	-12531
影视	-12532
斯德	-12533
景點	-12534
法典	-12535
派兵	-12536
线索	-12537
超市	-12538
雇主	-12539
内容的	-12540
准备好	-12541
史蒂芬	-12542
尼克斯	-12543
矿物质	-12544
▁Act	-12545
就业机会	-12546
铁路车站	-12547
SN	-12548
公使	-12549
内核	-12550
四面	-12551
回來	-12552
地级	-12553
并用	-12554
指責	-12555
維也	-12556
譽為	-12557
郡王	-12558
驻地	-12559
很多人	-12560
的照片	-12561
直轄市	-12562
这两种	-12563
▁...	-12564
其中一些	-12565
▁海勒卡拉	-12566
人工智能系统	-12567
三省	-12568
即为	-12569
反之	-12570
多尔	-12571
愛國	-12572
法和	-12573
琳娜	-12574
生下	-12575
西州	-12576
識別	-12577
起飛	-12578
重播	-12579
民族的	-12580
粒子的	-12581
节度使	-12582
▁Bro	-12583
yr	-12584
之道	-12585
各级	-12586
山下	-12587
規格	-12588
路站	-12589
连任	-12590
飲料	-12591
key	-12592
▁澳門	-12593
讲述了	-12594
中国国家	-12595
中止	-12596
大都	-12597
弹性	-12598
普拉	-12599
東晉	-12600
聽到	-12601
起点	-12602
跳舞	-12603
全面的	-12604
常用于	-12605
ange	-12606
一一	-12607
俗称	-12608
品種	-12609
打入	-12610
數百	-12611
矿产	-12612
确切	-12613
輕鐵	-12614
達尼	-12615
露出	-12616
irt	-12617
关系的	-12618
其中最	-12619
是台灣	-12620
的定義	-12621
輻鰭魚綱	-12622
产生了深远的影响	-12623
]]	-12624
倒塌	-12625
全日	-12626
塞俄	-12627
歇尔	-12628
病情	-12629
軍在	-12630
参与度	-12631
年轻的	-12632
張單曲	-12633
是否为	-12634
總統府	-12635
超新星	-12636
FA	-12637
亮相	-12638
修行	-12639
宗旨	-12640
巡撫	-12641
感恩	-12642
终点	-12643
體驗	-12644
▁最终	-12645
和一些	-12646
拉丁文	-12647
巴士路線	-12648
语音助手	-12649
CL	-12650
uy	-12651
培訓	-12652
聚合	-12653
间接	-12654
克拉克	-12655
对方的	-12656
發生的	-12657
的标志	-12658
社會的	-12659
Co	-12660
▁歌	-12661
仙女	-12662
元的	-12663
劃分	-12664
就要	-12665
欣賞	-12666
洗衣	-12667
相差	-12668
等多	-12669
阿基	-12670
顶点	-12671
南京市	-12672
的版本	-12673
國立臺灣	-12674
存放	-12675
德州	-12676
斯頓	-12677
日出	-12678
星際	-12679
沙特	-12680
的古	-12681
頒布	-12682
▁设定	-12683
不包括	-12684
来到了	-12685
第二個	-12686
香港島	-12687
工作场所	-12688
的一部份	-12689
是下辖的一个	-12690
CA	-12691
明珠	-12692
直观	-12693
空襲	-12694
站房	-12695
背鰭	-12696
電動	-12697
領先	-12698
內政部	-12699
每一個	-12700
CM	-12701
平坦	-12702
收取	-12703
杰出	-12704
販售	-12705
龙头	-12706
unt	-12707
划分为	-12708
的一面	-12709
音樂家	-12710
▁sub	-12711
交通大学	-12712
保加利亞	-12713
原文	-12714
哈赤	-12715
正好	-12716
破裂	-12717
而上	-12718
▁因为	-12719
▁定义	-12720
有时候	-12721
随时随	-12722
集团军	-12723
工程学院	-12724
電視劇集	-12725
一班	-12726
低音	-12727
動詞	-12728
屍體	-12729
德勒	-12730
悲剧	-12731
收获	-12732
汗国	-12733
不超过	-12734
保守派	-12735
後來在	-12736
深刻的	-12737
占总人口比例	-12738
完顏	-12739
漢族	-12740
語系	-12741
難民	-12742
公司和	-12743
在许多	-12744
完美的	-12745
影响的	-12746
萨克森	-12747
取得成功	-12748
对我们的	-12749
事项	-12750
人也	-12751
使徒	-12752
售票	-12753
条款	-12754
灌木	-12755
足協	-12756
Car	-12757
KBS	-12758
▁通常	-12759
捷克斯	-12760
約瑟夫	-12761
传记	-12762
兵團	-12763
外科	-12764
投影	-12765
核酸	-12766
步枪	-12767
耕地	-12768
的说法	-12769
https	-12770
以下几个方面	-12771
Jo	-12772
丽丝	-12773
之作	-12774
二期	-12775
会有	-12776
失蹤	-12777
字形	-12778
愿望	-12779
接到	-12780
碳水	-12781
長老	-12782
中世纪	-12783
以获得	-12784
在政治	-12785
帶來的	-12786
需要对	-12787
Apple	-12788
两大	-12789
夏侯	-12790
智力	-12791
温馨	-12792
潜艇	-12793
爭論	-12794
病的	-12795
螢幕	-12796
階層	-12797
隕石	-12798
acy	-12799
▁{|	-12800
月下旬	-12801
森林里	-12802
考虑到	-12803
ears	-12804
高速铁路	-12805
▁information	-12806
▁香	-12807
代之	-12808
局势	-12809
嶺南	-12810
弱的	-12811
护理	-12812
擊退	-12813
暴動	-12814
短片	-12815
走到	-12816
ote	-12817
皇太子	-12818
高等法院	-12819
技术的发展	-12820
BI	-12821
乙烯	-12822
代碼	-12823
命题	-12824
平日	-12825
年來	-12826
谴责	-12827
起點	-12828
較多	-12829
预订	-12830
高棉	-12831
不足以	-12832
代表了	-12833
小說家	-12834
第一届	-12835
與美國	-12836
▁Hol	-12837
的一系列	-12838
gy	-12839
▁毛	-12840
一律	-12841
个镇	-12842
公墓	-12843
千克	-12844
召喚	-12845
在被	-12846
导师	-12847
進修	-12848
關聯	-12849
ady	-12850
」，「	-12851
副总统	-12852
温暖的	-12853
▁Ant	-12854
▁Reg	-12855
重点实验室	-12856
▁Publish	-12857
但她	-12858
儀器	-12859
奔跑	-12860
朝的	-12861
聯合會	-12862
enry	-12863
简洁明了	-12864
哥華	-12865
天花	-12866
安葬	-12867
眾人	-12868
）《	-12869
mar	-12870
ient	-12871
捷克斯洛	-12872
电子游戏	-12873
相似之处	-12874
▁Brit	-12875
ictionary	-12876
FM	-12877
▁火	-12878
列举	-12879
航站	-12880
莱茵	-12881
饼干	-12882
▁按照	-12883
大學生	-12884
宇宙的	-12885
已知的	-12886
年球季	-12887
的形成	-12888
智能家居	-12889
职业生涯	-12890
部副部长	-12891
碳水化合物	-12892
。(	-12893
专用	-12894
作畫	-12895
你們	-12896
八世	-12897
意图	-12898
支柱	-12899
精灵	-12900
華僑	-12901
该校	-12902
革新	-12903
▁**	-12904
为人类	-12905
是由于	-12906
錄影帶	-12907
馬英九	-12908
成吉思汗	-12909
amily	-12910
print	-12911
GO	-12912
独裁	-12913
行本	-12914
里昂	-12915
鋼鐵	-12916
LED	-12917
副总理	-12918
魁北克	-12919
burg	-12920
级行政单位	-12921
▁while	-12922
中壢	-12923
演变	-12924
郡的	-12925
了一场	-12926
分布式	-12927
法国的	-12928
生长在	-12929
的社會	-12930
顺序排列	-12931
便會	-12932
動工	-12933
向他	-12934
清初	-12935
演技	-12936
翌日	-12937
肉类	-12938
菲尔	-12939
这么	-12940
逃往	-12941
風景	-12942
sum	-12943
場比賽	-12944
維也納	-12945
部电影	-12946
Br	-12947
不分	-12948
封閉	-12949
打败	-12950
指標	-12951
求职	-12952
的石	-12953
臺東	-12954
For	-12955
urt	-12956
▁客户	-12957
▁支持	-12958
了一次	-12959
勇敢的	-12960
毕业生	-12961
的一半	-12962
这不仅	-12963
部作品	-12964
icode	-12965
iness	-12966
▁社交媒体	-12967
▁State	-12968
▁盐	-12969
出场	-12970
前来	-12971
師團	-12972
文書	-12973
潮汐	-12974
環繞	-12975
视野	-12976
賦予	-12977
關羽	-12978
▁检查	-12979
年期間	-12980
file	-12981
eneral	-12982
供给	-12983
保定	-12984
六個	-12985
军长	-12986
发售	-12987
太極	-12988
對他	-12989
年均	-12990
或缺	-12991
軍艦	-12992
只有在	-12993
对社会	-12994
的背景	-12995
文化中心	-12996
通常使用	-12997
input	-12998
▁著	-12999
可惜	-13000
奉命	-13001
尼的	-13002
每週	-13003
竞技	-13004
豐臣	-13005
参议员	-13006
可分为	-13007
和国家	-13008
的策略	-13009
▁work	-13010
委員會委員	-13011
切割	-13012
反复	-13013
和在	-13014
後因	-13015
斯理	-13016
春天	-13017
有序	-13018
欢乐	-13019
汗國	-13020
沃尔	-13021
法規	-13022
级的	-13023
语态	-13024
▁位于	-13025
三部曲	-13026
億港元	-13027
网站上	-13028
▁HTML	-13029
▁Research	-13030
共振	-13031
地主	-13032
文人	-13033
气压	-13034
策劃	-13035
莉莉	-13036
调料	-13037
郊区	-13038
▁no	-13039
▁隨著	-13040
ences	-13041
二元	-13042
容許	-13043
射入	-13044
當初	-13045
菠菜	-13046
reg	-13047
年以來	-13048
產生了	-13049
ency	-13050
▁Mod	-13051
▁Work	-13052
▁Institute	-13053
全线	-13054
名譽	-13055
搭載	-13056
擴充	-13057
更低	-13058
穿梭	-13059
足利	-13060
这就	-13061
里达	-13062
oud	-13063
江泽民	-13064
的居民	-13065
高加索	-13066
广播电台	-13067
随时随地	-13068
▁家	-13069
你在	-13070
出於	-13071
办学	-13072
武功	-13073
而又	-13074
自古	-13075
ased	-13076
角色扮演	-13077
▁Cambridge	-13078
判决	-13079
国外	-13080
壮族	-13081
媽祖	-13082
孤立	-13083
揭露	-13084
普利	-13085
此類	-13086
率兵	-13087
能的	-13088
過渡	-13089
阿克	-13090
高斯	-13091
和中国	-13092
普通话	-13093
▁加拿大	-13094
避免使用	-13095
▁Mart	-13096
▁rowspan	-13097
TE	-13098
伯拉	-13099
保育	-13100
填詞	-13101
墓地	-13102
廣島	-13103
开封	-13104
湘潭	-13105
補給	-13106
见到	-13107
诺曼	-13108
黨的	-13109
▁测试	-13110
同一个	-13111
的一位	-13112
類似的	-13113
颜色的	-13114
ming	-13115
onom	-13116
协商会议	-13117
同时也是	-13118
DD	-13119
一大	-13120
一點	-13121
光速	-13122
剩餘	-13123
和約	-13124
強迫	-13125
板块	-13126
現已	-13127
答應	-13128
起始	-13129
道士	-13130
麻省	-13131
斯科特	-13132
生产的	-13133
oice	-13134
朝鮮半島	-13135
ersion	-13136
很久	-13137
直流	-13138
纖維	-13139
罕見	-13140
衣物	-13141
鞍山	-13142
ani	-13143
东南部	-13144
另一位	-13145
应该是	-13146
第四次	-13147
表示为	-13148
▁Plan	-13149
▁time	-13150
阿爾巴尼亞	-13151
不願	-13152
东海	-13153
储量	-13154
处决	-13155
學派	-13156
梯度	-13157
甲組	-13158
蜂鸟	-13159
論述	-13160
▁全球	-13161
三國志	-13162
写字母	-13163
布斯堡	-13164
消費者	-13165
蔡英文	-13166
清洁能源	-13167
▁sentence	-13168
在内	-13169
大洋	-13170
搜尋	-13171
新宿	-13172
新浪	-13173
背面	-13174
預期	-13175
gan	-13176
王安石	-13177
簡單的	-13178
发生变化	-13179
▁will	-13180
ny	-13181
中东	-13182
分局	-13183
卑斯	-13184
囚禁	-13185
圣母	-13186
壽命	-13187
想像	-13188
新冠	-13189
明尼	-13190
氣壓	-13191
耳朵	-13192
聖母	-13193
适宜	-13194
隱藏	-13195
▁法國	-13196
在英国	-13197
威尔士	-13198
adem	-13199
▁曹	-13200
仿佛	-13201
政法	-13202
無關	-13203
现为	-13204
营业	-13205
我没有	-13206
目标和	-13207
相对于	-13208
经济的	-13209
▁James	-13210
==	-13211
FS	-13212
大略	-13213
摩天	-13214
洗手	-13215
濃度	-13216
磁场	-13217
翻新	-13218
▁增强	-13219
啟用的	-13220
添加到	-13221
▁end	-13222
之间的区别	-13223
"（	-13224
世祖	-13225
主办	-13226
修理	-13227
您所	-13228
瞄準	-13229
而异	-13230
財富	-13231
麵包	-13232
在这些	-13233
▁Pal	-13234
共計	-13235
外语	-13236
废物	-13237
恐慌	-13238
所著	-13239
撤回	-13240
方位	-13241
电信	-13242
腹部	-13243
額外	-13244
高兴	-13245
的单词	-13246
随着时间的	-13247
HO	-13248
大海	-13249
的长	-13250
術語	-13251
▁时间	-13252
安德烈	-13253
深入的	-13254
▁News	-13255
重要的作用	-13256
▁Network	-13257
不敵	-13258
不详	-13259
圣诞	-13260
惊喜	-13261
日落	-13262
电车	-13263
省会	-13264
代表着	-13265
工程系	-13266
彰化縣	-13267
的一般	-13268
納粹德國	-13269
ights	-13270
NO	-13271
▁瓦	-13272
▁霍	-13273
不堪	-13274
人間	-13275
作了	-13276
到来	-13277
动机	-13278
合一	-13279
墙壁	-13280
奋斗	-13281
專注	-13282
產物	-13283
船舶	-13284
调味	-13285
▁Er	-13286
。……	-13287
也不能	-13288
能量的	-13289
以下几点	-13290
客户体验	-13291
民族主义	-13292
attle	-13293
关节	-13294
前線	-13295
所生	-13296
新村	-13297
权重	-13298
残疾	-13299
緊張	-13300
而其	-13301
解答	-13302
诚实	-13303
院的	-13304
大自然	-13305
穩定的	-13306
▁新北市	-13307
品牌形象	-13308
是一种非常	-13309
学部	-13310
少奇	-13311
德堡	-13312
數為	-13313
文法	-13314
標記	-13315
看看	-13316
線性	-13317
護照	-13318
人民幣	-13319
新产品	-13320
曾多次	-13321
閩南語	-13322
冠狀病毒	-13323
森林砍伐	-13324
弗里德里希	-13325
AX	-13326
所能	-13327
操纵	-13328
業餘	-13329
氨酸	-13330
西周	-13331
文明的	-13332
的過程	-13333
date	-13334
积极参与	-13335
hemat	-13336
▁This	-13337
提高工作效率	-13338
乡镇级行政单位	-13339
卜杜	-13340
大蒜	-13341
少林	-13342
山本	-13343
打倒	-13344
某個	-13345
正統	-13346
毫不	-13347
祭司	-13348
纳斯	-13349
蒂斯	-13350
觀賞	-13351
遺跡	-13352
销量	-13353
有一座	-13354
留下的	-13355
科学校	-13356
海拔高度	-13357
管理系统	-13358
▁more	-13359
国家级自然保护区	-13360
他说	-13361
圍繞	-13362
年版	-13363
爵位	-13364
習俗	-13365
耶夫	-13366
鐵綫	-13367
obe	-13368
奖得主	-13369
控制了	-13370
的努力	-13371
的态度	-13372
金像獎	-13373
▁ind	-13374
▁接下来	-13375
工业革命	-13376
urope	-13377
At	-13378
内在	-13379
增大	-13380
布列	-13381
愛好	-13382
招待	-13383
者是	-13384
衰變	-13385
las	-13386
rey	-13387
▁Do	-13388
文化中	-13389
潜在的	-13390
▁Tom	-13391
网络安全	-13392
▁https	-13393
za	-13394
一中	-13395
一行	-13396
企劃	-13397
全家	-13398
卡路	-13399
原创	-13400
普勒	-13401
樣的	-13402
首長	-13403
实现了	-13404
西部的	-13405
ious	-13406
您可以在	-13407
空气质量	-13408
▁numbers	-13409
可夢	-13410
坐落	-13411
服用	-13412
極限	-13413
氏的	-13414
省长	-13415
起的	-13416
静态	-13417
县级市	-13418
呈现出	-13419
在欧洲	-13420
定義為	-13421
战列舰	-13422
足球聯賽	-13423
常务委员会	-13424
`，	-13425
亦即	-13426
南极	-13427
又以	-13428
座椅	-13429
指针	-13430
編組	-13431
视角	-13432
▁威廉	-13433
这个过程	-13434
人工智能的	-13435
GUNDAM	-13436
▁House	-13437
自动驾驶汽车	-13438
▁民	-13439
万历	-13440
佩戴	-13441
忽必	-13442
手工	-13443
日后	-13444
歷任	-13445
社团	-13446
舉人	-13447
重傷	-13448
为人们	-13449
当我们	-13450
為主的	-13451
▁Mil	-13452
▁min	-13453
▁趙	-13454
可口	-13455
因果	-13456
婚礼	-13457
川縣	-13458
悟空	-13459
艾莉	-13460
退位	-13461
阶层	-13462
的官方	-13463
的第一个	-13464
Twitter	-13465
FL	-13466
中午	-13467
书的	-13468
发言	-13469
差別	-13470
扩散	-13471
毒品	-13472
營養	-13473
猜想	-13474
的半	-13475
组装	-13476
了一份	-13477
回到了	-13478
普通話	-13479
的特徵	-13480
類型的	-13481
中的应用	-13482
写一个关于	-13483
MD	-13484
一流	-13485
上班	-13486
好像	-13487
年為	-13488
摩根	-13489
據說	-13490
月任	-13491
条目	-13492
职工	-13493
講座	-13494
）,	-13495
塞拜疆	-13496
尊敬的	-13497
號班機	-13498
▁per	-13499
▁von	-13500
不可或缺	-13501
全集	-13502
简短	-13503
耶和	-13504
董卓	-13505
隆美	-13506
領事	-13507
傳教士	-13508
劳动力	-13509
在這個	-13510
寶可夢	-13511
心血管	-13512
格兰特	-13513
溫哥華	-13514
量子力学	-13515
東京電視台	-13516
▁按	-13517
住所	-13518
占有	-13519
反派	-13520
塔基	-13521
宫廷	-13522
成一	-13523
执导	-13524
文集	-13525
昆蟲	-13526
格爾	-13527
秘鲁	-13528
绍兴	-13529
高音	-13530
是目前	-13531
clop	-13532
count	-13533
▁Open	-13534
Android	-13535
下面是一个简单的	-13536
▁戴	-13537
哈爾	-13538
地亞	-13539
尼日	-13540
感應	-13541
每种	-13542
決心	-13543
陰陽	-13544
主题的	-13545
的程序	-13546
size	-13547
马萨诸塞	-13548
▁count	-13549
▁更	-13550
中外	-13551
排斥	-13552
李宗	-13553
活泼	-13554
港府	-13555
特兰	-13556
率和	-13557
盖茨	-13558
虛擬	-13559
譯本	-13560
ser	-13561
▁现在	-13562
最小的	-13563
範圍內	-13564
abel	-13565
同性婚姻	-13566
付费	-13567
冶金	-13568
加深	-13569
化身	-13570
在三	-13571
安市	-13572
容纳	-13573
小吃	-13574
尼爾	-13575
幼儿	-13576
悬挂	-13577
檢測	-13578
正如	-13579
沿途	-13580
该市	-13581
高潮	-13582
已经被	-13583
的國際	-13584
紀錄片	-13585
重庆市	-13586
株式會社	-13587
生产效率	-13588
ender	-13589
▁sort	-13590
ication	-13591
交给	-13592
人或	-13593
屋苑	-13594
杂货	-13595
格魯	-13596
题材	-13597
的宗教	-13598
的小说	-13599
的工具	-13600
ness	-13601
▁Her	-13602
这种情况	-13603
ecial	-13604
▁公	-13605
一艘	-13606
倫多	-13607
對立	-13608
新任	-13609
晚間	-13610
毫无	-13611
管弦	-13612
精通	-13613
转型	-13614
錄製	-13615
高温	-13616
▁bl	-13617
▁他的	-13618
▁这一	-13619
的美国	-13620
详细的	-13621
飞行员	-13622
ones	-13623
▁Paul	-13624
我们可以使用	-13625
evelopment	-13626
sg	-13627
它还	-13628
日内	-13629
明末	-13630
極大	-13631
波德	-13632
版權	-13633
翻唱	-13634
非凡	-13635
麗的	-13636
一定要	-13637
明顯的	-13638
　　　　	-13639
星期一至	-13640
理工大学	-13641
社会科学	-13642
重要的角色	-13643
▁Enter	-13644
numbers	-13645
候补	-13646
我不	-13647
田村	-13648
總長	-13649
合并为	-13650
在巴黎	-13651
發展出	-13652
第二位	-13653
拉丁美洲	-13654
客户的需求	-13655
减少温室气体排放	-13656
传染	-13657
共识	-13658
原定	-13659
同月	-13660
大河	-13661
平板	-13662
政司	-13663
武漢	-13664
自從	-13665
西蒙	-13666
車廠	-13667
拉丁语	-13668
波士頓	-13669
深呼吸	-13670
記者會	-13671
atab	-13672
itch	-13673
在不同的	-13674
政治协商会议	-13675
▁Chinese	-13676
之首	-13677
先行	-13678
关税	-13679
壘打	-13680
宮廷	-13681
獎金	-13682
細節	-13683
軍方	-13684
辽东	-13685
队员	-13686
我才能	-13687
空气中	-13688
不同的是	-13689
也被称为	-13690
吸引人的	-13691
▁South	-13692
二者	-13693
但有	-13694
君子	-13695
回國	-13696
定价	-13697
明報	-13698
谷物	-13699
體字	-13700
发布的	-13701
来吸引	-13702
主要用于	-13703
▁这是一个	-13704
公共交通工具	-13705
▁近	-13706
信件	-13707
内外	-13708
岗位	-13709
拘捕	-13710
额外	-13711
年完成	-13712
引发了	-13713
支持的	-13714
的人工智能	-13715
女子偶像團體	-13716
年成立的公司	-13717
▁烏	-13718
努斯	-13719
四位	-13720
在與	-13721
填写	-13722
姑娘	-13723
子弟	-13724
您好	-13725
晶片	-13726
聚落	-13727
▁Bo	-13728
在歐洲	-13729
白色的	-13730
相比之下	-13731
初次	-13732
大將	-13733
桃花	-13734
陣亡	-13735
win	-13736
▁Go	-13737
▁清朝	-13738
制造商	-13739
戰爭的	-13740
為中心	-13741
的交通	-13742
级联赛	-13743
最主要的	-13744
isual	-13745
▁Edition	-13746
▁麥	-13747
专员	-13748
中視	-13749
佔地	-13750
前提	-13751
動態	-13752
友人	-13753
罕见	-13754
魔鬼	-13755
Man	-13756
的唯一	-13757
該公司	-13758
bject	-13759
▁Library	-13760
▁比	-13761
一是	-13762
佩斯	-13763
史记	-13764
挑选	-13765
教派	-13766
有助	-13767
表彰	-13768
護理	-13769
里奥	-13770
隨之	-13771
您的网站	-13772
▁True	-13773
内陆	-13774
建安	-13775
戈尔	-13776
成像	-13777
死的	-13778
獨特	-13779
相傳	-13780
继位	-13781
金額	-13782
oto	-13783
raw	-13784
▁〉。	-13785
德国的	-13786
足球隊	-13787
師範大學	-13788
最后一个	-13789
獎牌得主	-13790
采取措施	-13791
協商	-13792
品尝	-13793
它由	-13794
王公	-13795
私家	-13796
给你	-13797
高铁	-13798
制定的	-13799
减轻压力	-13800
族自治县	-13801
▁hist	-13802
▁Power	-13803
哈根	-13804
填充	-13805
女皇	-13806
普京	-13807
月被	-13808
有用	-13809
法则	-13810
西站	-13811
诺夫	-13812
ilm	-13813
是指在	-13814
領導的	-13815
thod	-13816
图像识别	-13817
数据科学	-13818
▁model	-13819
▁时	-13820
后续	-13821
头衔	-13822
摩尔	-13823
曲線	-13824
藏族	-13825
衛視	-13826
赫鲁	-13827
问卷	-13828
Par	-13829
lor	-13830
之一是	-13831
出現於	-13832
的成績	-13833
的資料	-13834
與中國	-13835
ling	-13836
andom	-13837
以示	-13838
伊藤	-13839
光学	-13840
农历	-13841
月號	-13842
能和	-13843
这家	-13844
遊樂	-13845
▁本魚	-13846
在全国	-13847
年以前	-13848
的父亲	-13849
风格的	-13850
可以分为	-13851
國民革命軍	-13852
stagram	-13853
ca	-13854
da	-13855
中性	-13856
国土	-13857
好評	-13858
委托	-13859
开办	-13860
後在	-13861
日圓	-13862
滨海	-13863
特朗	-13864
艾爾	-13865
透过	-13866
isp	-13867
的五个	-13868
的国际	-13869
建议一个	-13870
军事委员会	-13871
偏向	-13872
字段	-13873
學說	-13874
州长	-13875
教導	-13876
紫阳	-13877
芭蕾	-13878
▁公司	-13879
也有人	-13880
建造的	-13881
國民大會	-13882
社會科學	-13883
能够根据	-13884
▁Museum	-13885
sy	-13886
▁秋	-13887
▁；	-13888
多以	-13889
官吏	-13890
情節	-13891
牙齿	-13892
）》	-13893
它們的	-13894
结果为	-13895
Super	-13896
▁重	-13897
刚果	-13898
受損	-13899
宽度	-13900
才有	-13901
攻破	-13902
星空	-13903
烘焙	-13904
矩陣	-13905
賠償	-13906
迁往	-13907
電壓	-13908
氨基酸	-13909
警察局	-13910
adio	-13911
▁卡特林那巡天	-13912
介面	-13913
入學	-13914
号为	-13915
市内	-13916
开辟	-13917
接手	-13918
變身	-13919
里希	-13920
增加到	-13921
多项式	-13922
生產的	-13923
以下几种	-13924
▁public	-13925
之城	-13926
傳送	-13927
和弦	-13928
憤怒	-13929
相連	-13930
遇上	-13931
魔術	-13932
DOS	-13933
不列顛	-13934
為主題	-13935
系主任	-13936
alys	-13937
電子遊戲	-13938
▁卡特林那巡天系统	-13939
RP	-13940
▁雪	-13941
之称	-13942
仍未	-13943
北區	-13944
升為	-13945
命中	-13946
场地	-13947
家用	-13948
殺手	-13949
街頭	-13950
還在	-13951
来表达	-13952
科大学	-13953
被用于	-13954
ince	-13955
冠状病毒	-13956
綜藝節目	-13957
ocial	-13958
主编	-13959
付出	-13960
光學	-13961
北面	-13962
印地	-13963
四种	-13964
就已	-13965
把握	-13966
時裝	-13967
紅軍	-13968
置於	-13969
諾斯	-13970
《》（	-13971
在印度	-13972
北洋政府	-13973
▁Server	-13974
克劳	-13975
宙斯	-13976
志明	-13977
源地	-13978
潛艇	-13979
语境	-13980
型机车	-13981
第二季	-13982
較大的	-13983
olar	-13984
代表性的	-13985
面向对象	-13986
體長可達	-13987
result	-13988
▁皮	-13989
亞太	-13990
南站	-13991
器材	-13992
國有	-13993
嫌疑	-13994
樹林	-13995
波的	-13996
清軍	-13997
西區	-13998
▁一個	-13999
任务的	-14000
原子的	-14001
很快就	-14002
開發的	-14003
可以直接	-14004
哈布斯堡	-14005
实际应用	-14006
年度最佳	-14007
上将	-14008
增援	-14009
屋邨	-14010
怪獸	-14011
整除	-14012
海报	-14013
珍妮	-14014
舞曲	-14015
諷刺	-14016
豐田	-14017
集會	-14018
预先	-14019
公務員	-14020
天文學	-14021
年美国	-14022
弗拉基	-14023
总司令	-14024
特有的	-14025
这对于	-14026
这是一	-14027
Type	-14028
被任命为	-14029
▁like	-14030
MM	-14031
商标	-14032
是我	-14033
邮票	-14034
SBS	-14035
▁To	-14036
▁魔法	-14037
去世后	-14038
组织和	-14039
ader	-14040
训练数据	-14041
yg	-14042
上都	-14043
前去	-14044
北非	-14045
反擊	-14046
巨型	-14047
昔日	-14048
水泥	-14049
防線	-14050
IEC	-14051
ago	-14052
为中心	-14053
历史的	-14054
游泳池	-14055
的成绩	-14056
通常以	-14057
潜在客户	-14058
国务院批准	-14059
GL	-14060
宇文	-14061
將他	-14062
恶化	-14063
环节	-14064
财经	-14065
逃到	-14066
電梯	-14067
ico	-14068
安东尼	-14069
居委会	-14070
第一家	-14071
地球上的	-14072
巴伐利亚	-14073
有線電視	-14074
應付	-14075
歷經	-14076
沉默	-14077
目錄	-14078
福爾	-14079
辭去	-14080
遺體	-14081
開創	-14082
ita	-14083
友好的	-14084
旅游业	-14085
陸戰隊	-14086
osaur	-14087
▁Association	-14088
口腔	-14089
只會	-14090
多半	-14091
客量	-14092
工部	-14093
年与	-14094
普森	-14095
總署	-14096
逃离	-14097
選票	-14098
ARS	-14099
伴随着	-14100
也是一个	-14101
作为一种	-14102
发展中国	-14103
如何使用	-14104
工业大学	-14105
香港大學	-14106
高等学校	-14107
一幅	-14108
前行	-14109
多夫	-14110
尼德	-14111
檢驗	-14112
率军	-14113
素的	-14114
约束	-14115
配件	-14116
阻碍	-14117
▁Af	-14118
嘉義縣	-14119
是两种	-14120
理想的	-14121
统计学	-14122
conom	-14123
▁Official	-14124
▁老	-14125
依舊	-14126
和三	-14127
安提	-14128
年又	-14129
温州	-14130
熊猫	-14131
金色	-14132
電訊	-14133
體內	-14134
（？	-14135
巴洛克	-14136
的人群	-14137
的著作	-14138
共產主義	-14139
ission	-14140
William	-14141
一层	-14142
伴奏	-14143
原为	-14144
土卫	-14145
在阿	-14146
女生	-14147
归属	-14148
拿到	-14149
繁榮	-14150
色调	-14151
處決	-14152
見於	-14153
議長	-14154
MBC	-14155
ima	-14156
心理學	-14157
思想家	-14158
發生了	-14159
book	-14160
的意思是	-14161
▁some	-14162
▁Language	-14163
▁再	-14164
▁出	-14165
ング	-14166
优质	-14167
佛陀	-14168
掉了	-14169
新興	-14170
波那	-14171
為名	-14172
猜测	-14173
白云	-14174
行李	-14175
譯名	-14176
身邊	-14177
通俗	-14178
ICE	-14179
乒乓球	-14180
在一個	-14181
快速地	-14182
數據庫	-14183
動畫電影	-14184
最後一次	-14185
CV	-14186
▁萬	-14187
▁魏	-14188
劇院	-14189
反共	-14190
坚定	-14191
對付	-14192
平息	-14193
户籍	-14194
木齐	-14195
浓郁	-14196
知府	-14197
紀元	-14198
那州	-14199
采集	-14200
奥斯卡	-14201
為日本	-14202
速度和	-14203
都属于	-14204
stru	-14205
作为一名	-14206
促销活动	-14207
百科全书	-14208
ering	-14209
捷克斯洛伐克	-14210
`。	-14211
▁莱	-14212
中斷	-14213
偵察	-14214
八卦	-14215
写成	-14216
可爱	-14217
右手	-14218
同行	-14219
福岡	-14220
这首	-14221
原子序	-14222
定义的	-14223
引人注	-14224
Game	-14225
▁May	-14226
斯洛伐克	-14227
阿拉斯加	-14228
SV	-14229
五人	-14230
大敗	-14231
女真	-14232
守护	-14233
托尔	-14234
拆卸	-14235
括号	-14236
歌迷	-14237
湿度	-14238
縣治	-14239
部族	-14240
是下辖的一个乡镇级行政单位	-14241
▁洪	-14242
两名	-14243
司機	-14244
生死	-14245
界限	-14246
着陆	-14247
辅音	-14248
高麗	-14249
存在於	-14250
月開始	-14251
原住民族	-14252
▁Hall	-14253
小龍	-14254
恐龙	-14255
托爾	-14256
法軍	-14257
看来	-14258
西貢	-14259
高鐵	-14260
魔女	-14261
aly	-14262
ues	-14263
基因组	-14264
已成为	-14265
衛斯理	-14266
▁Day	-14267
给定一个	-14268
value	-14269
-（	-14270
IE	-14271
▁赤	-14272
亦曾	-14273
储备	-14274
安平	-14275
干預	-14276
总量	-14277
有兩	-14278
李氏	-14279
毁灭	-14280
窗户	-14281
等价	-14282
輔導	-14283
中醫藥	-14284
内心的	-14285
宮崎駿	-14286
屏東縣	-14287
生成的	-14288
的一项	-14289
reak	-14290
乌鲁木齐	-14291
自然资源	-14292
Trans	-14293
title	-14294
香港中文大學	-14295
▁〜	-14296
上去	-14297
光谱	-14298
厚度	-14299
密碼	-14300
明德	-14301
此类	-14302
沿著	-14303
爬行	-14304
看似	-14305
藝員	-14306
譴責	-14307
進化	-14308
進駐	-14309
埃塞俄	-14310
康熙帝	-14311
的管理	-14312
结束了	-14313
电视节目	-14314
azine	-14315
▁双	-14316
中方	-14317
中東	-14318
之乱	-14319
壁画	-14320
山站	-14321
平反	-14322
惡化	-14323
海口	-14324
越大	-14325
車手	-14326
过来	-14327
里尼	-14328
饭店	-14329
举行了	-14330
但後來	-14331
加斯加	-14332
各种各	-14333
弗雷德	-14334
沟通能力	-14335
个县	-14336
伴侶	-14337
否決	-14338
意的	-14339
的熱	-14340
種種	-14341
英美	-14342
附設	-14343
！（	-14344
vir	-14345
但仍然	-14346
創始人	-14347
局局長	-14348
▁博	-14349
利桑	-14350
变形	-14351
后又	-14352
漢書	-14353
聯隊	-14354
被动	-14355
說服	-14356
鋼彈	-14357
陽明	-14358
▁CD	-14359
也非常	-14360
并开始	-14361
改編自	-14362
减少浪费	-14363
倫斯	-14364
宝石	-14365
山頂	-14366
急性	-14367
支那	-14368
日语	-14369
男爵	-14370
龍科	-14371
lin	-14372
交匯處	-14373
傳佛教	-14374
外星人	-14375
控制器	-14376
國民中學	-14377
▁FROM	-14378
▁Jack	-14379
▁transl	-14380
下属	-14381
世家	-14382
亞目	-14383
元代	-14384
國共	-14385
电压	-14386
的雙	-14387
的黑	-14388
途徑	-14389
金錢	-14390
iki	-14391
威士忌	-14392
选择的	-14393
都没有	-14394
年啟用的	-14395
中是	-14396
会谈	-14397
奉行	-14398
改以	-14399
范畴	-14400
變動	-14401
反革命	-14402
然而在	-14403
物质的	-14404
蒙古族	-14405
▁world	-14406
Ab	-14407
先鋒	-14408
宿主	-14409
局勢	-14410
与中国	-14411
标准化	-14412
获得的	-14413
专科学校	-14414
无产阶级	-14415
▁Person	-14416
亦於	-14417
开心	-14418
政事	-14419
生子	-14420
緩慢	-14421
▁+=	-14422
▁di	-14423
▁ne	-14424
也成為	-14425
人们在	-14426
全球化	-14427
特洛伊	-14428
play	-14429
▁Mem	-14430
▁Pat	-14431
▁Port	-14432
社交媒体上	-14433
越来越多的	-14434
▁就	-14435
专线	-14436
促成	-14437
傍晚	-14438
公会	-14439
卻被	-14440
右派	-14441
后世	-14442
和尚	-14443
塔的	-14444
婚禮	-14445
日元	-14446
毒性	-14447
發掘	-14448
睡觉	-14449
线条	-14450
關西	-14451
降至	-14452
▁经济	-14453
、-{	-14454
其中以	-14455
战役中	-14456
撒哈拉	-14457
最大值	-14458
puter	-14459
修女	-14460
切尔	-14461
則被	-14462
劍橋	-14463
叔叔	-14464
台的	-14465
搜查	-14466
石頭	-14467
类比	-14468
▁研究	-14469
生物學	-14470
美術館	-14471
▁GPT	-14472
旅客鐵道	-14473
太极	-14474
所辖	-14475
抗戰	-14476
施政	-14477
末端	-14478
極端	-14479
水手	-14480
渲染	-14481
雅克	-14482
Har	-14483
umn	-14484
君主制	-14485
奖最佳	-14486
的主角	-14487
的长度	-14488
过程中的	-14489
▁High	-14490
和机器学习	-14491
MI	-14492
上古	-14493
並為	-14494
也都	-14495
事先	-14496
协和	-14497
官話	-14498
戲院	-14499
海盜	-14500
电能	-14501
金正	-14502
预言	-14503
就已经	-14504
巴尼亚	-14505
所以在	-14506
現代化	-14507
的作者	-14508
ruct	-14509
RI	-14510
原著	-14511
名录	-14512
汉口	-14513
碗中	-14514
秦国	-14515
米德	-14516
老闆	-14517
街头	-14518
長者	-14519
乾隆帝	-14520
人類學	-14521
只剩下	-14522
廣播劇	-14523
您想要	-14524
旅行的	-14525
的女孩	-14526
AY	-14527
ao	-14528
为由	-14529
乌尔	-14530
产权	-14531
军政	-14532
城門	-14533
多家	-14534
奧爾	-14535
寶石	-14536
射手	-14537
数码	-14538
日月	-14539
见证	-14540
追擊	-14541
雷达	-14542
构成的	-14543
死亡率	-14544
热力学	-14545
留下了	-14546
的植物	-14547
的角度	-14548
者之一	-14549
ords	-14550
党委书记	-14551
机器人的	-14552
epart	-14553
field	-14554
urrent	-14555
剥夺	-14556
华侨	-14557
壮丽	-14558
建的	-14559
或在	-14560
拍照	-14561
清军	-14562
用到	-14563
衰期	-14564
——《	-14565
和教育	-14566
的一条	-14567
舞台劇	-14568
通常會	-14569
鐵達尼	-14570
交通拥堵	-14571
スト	-14572
屋顶	-14573
岸的	-14574
東涌	-14575
演變	-14576
薩拉	-14577
PDF	-14578
并获得	-14579
的物品	-14580
hann	-14581
三分之一	-14582
▁Pres	-14583
igital	-14584
▁_	-14585
▁葉	-14586
一間	-14587
之大	-14588
內亞	-14589
分组	-14590
崩潰	-14591
巫师	-14592
恐懼	-14593
晤士	-14594
結盟	-14595
布政使	-14596
曼德拉	-14597
本身的	-14598
為主要	-14599
的最新	-14600
追溯至	-14601
ople	-14602
rome	-14603
资产阶级	-14604
▁半	-14605
伯里	-14606
体型	-14607
判定	-14608
婴儿	-14609
开国	-14610
谈话	-14611
陸地	-14612
百分之	-14613
的弟弟	-14614
转换成	-14615
arth	-14616
▁Ret	-14617
目标客户	-14618
蘋果日報	-14619
▁nums	-14620
▁手	-14621
一无	-14622
中古	-14623
大堂	-14624
水系	-14625
炎热	-14626
玄武	-14627
留守	-14628
矿物	-14629
配套	-14630
oul	-14631
▁動畫	-14632
愉快的	-14633
更多地	-14634
電影節	-14635
Alex	-14636
天主教徒	-14637
客户反馈	-14638
情感分析	-14639
江戶時代	-14640
▁Expl	-14641
▁已	-14642
女優	-14643
專欄	-14644
汉朝	-14645
法師	-14646
陪同	-14647
陰謀	-14648
erk	-14649
世纪中	-14650
工业部	-14651
鄭成功	-14652
▁请注意	-14653
ricon	-14654
香港浸會大學	-14655
----------------	-14656
共用	-14657
安理	-14658
巴巴	-14659
战俘	-14660
本的	-14661
欲望	-14662
死了	-14663
沉积	-14664
琉璃	-14665
繪製	-14666
西侧	-14667
里奇	-14668
▁到了	-14669
交響曲	-14670
请注意	-14671
可以看到	-14672
人工神经网络	-14673
atabase	-14674
▁provide	-14675
Fi	-14676
TL	-14677
▁起	-14678
俘虜	-14679
感冒	-14680
插曲	-14681
景象	-14682
槍管	-14683
無效	-14684
观赏	-14685
麻雀	-14686
史上最	-14687
忽必烈	-14688
有關的	-14689
约翰逊	-14690
mann	-14691
▁Award	-14692
▁Japan	-14693
▁language	-14694
南端	-14695
台獨	-14696
寫道	-14697
戰勝	-14698
文稿	-14699
節奏	-14700
Ind	-14701
大气层	-14702
当前的	-14703
纪念碑	-14704
▁del	-14705
降低成本	-14706
加利福尼亚州	-14707
你会	-14708
前列	-14709
只得	-14710
夏日	-14711
很難	-14712
是多	-14713
牛頓	-14714
特有	-14715
角落	-14716
警務	-14717
開展	-14718
陽光	-14719
val	-14720
波那契	-14721
的地下	-14722
看起來	-14723
规定的	-14724
）、（	-14725
NASA	-14726
”：	-14727
▁內	-14728
▁河	-14729
凡尔	-14730
卡的	-14731
國土	-14732
家里	-14733
就業	-14734
市和	-14735
用性	-14736
相加	-14737
維吉	-14738
詮釋	-14739
论证	-14740
頻繁	-14741
▁增加	-14742
您希望	-14743
文本中	-14744
明确的	-14745
标准的	-14746
气体的	-14747
第三代	-14748
采取行动	-14749
人口最多的	-14750
▁Office	-14751
""	-14752
.《	-14753
▁·	-14754
二級	-14755
半年	-14756
否认	-14757
星雲	-14758
焦點	-14759
維克	-14760
诺伊	-14761
走出	-14762
超出	-14763
逃避	-14764
▁SP	-14765
与家人	-14766
书记处	-14767
发行的	-14768
纪念馆	-14769
人际关系	-14770
它是一种	-14771
这是因为	-14772
▁Hong	-14773
▁爱	-14774
一隻	-14775
合共	-14776
年获	-14777
普罗	-14778
發言	-14779
神论	-14780
鼓舞	-14781
eth	-14782
▁新城	-14783
▁系统	-14784
▁電影	-14785
一年的	-14786
主义和	-14787
科学与	-14788
野战军	-14789
data	-14790
广泛应用	-14791
石器时代	-14792
正则表达式	-14793
也因	-14794
克勞	-14795
專員	-14796
影集	-14797
李克	-14798
校址	-14799
留學	-14800
相望	-14801
耀邦	-14802
落入	-14803
车厢	-14804
ten	-14805
不符合	-14806
大教堂	-14807
太空船	-14808
的起源	-14809
▁Law	-14810
健康状况	-14811
應用程式	-14812
道格拉斯	-14813
ident	-14814
ilver	-14815
▁Disc	-14816
▁stud	-14817
主機	-14818
助攻	-14819
天橋	-14820
寺庙	-14821
当你	-14822
推崇	-14823
数目	-14824
牧师	-14825
等式	-14826
貨運	-14827
身材	-14828
預言	-14829
頭髮	-14830
itz	-14831
並成為	-14832
也開始	-14833
的网站	-14834
个人喜好	-14835
UE	-14836
下轄	-14837
业余	-14838
九巴	-14839
井上	-14840
功臣	-14841
政局	-14842
歐元	-14843
混血	-14844
热能	-14845
现状	-14846
贝克	-14847
魚雷	-14848
不使用	-14849
所取代	-14850
raph	-14851
博士學位	-14852
David	-14853
alysis	-14854
▁Engine	-14855
▁States	-14856
▁柳	-14857
是對	-14858
時尚	-14859
歡樂	-14860
福尔	-14861
語文	-14862
貝克	-14863
逃離	-14864
遠的	-14865
eve	-14866
发布了	-14867
起源於	-14868
obal	-14869
▁North	-14870
全書	-14871
动员	-14872
哈希	-14873
太太	-14874
年所	-14875
快餐	-14876
我在	-14877
收復	-14878
敗給	-14879
末代	-14880
流经	-14881
苏里	-14882
補助	-14883
谚语	-14884
马力	-14885
Don	-14886
八路军	-14887
的命令	-14888
等地的	-14889
都有其	-14890
食物和	-14891
itor	-14892
▁Red	-14893
▁sch	-14894
itable	-14895
之情	-14896
五行	-14897
信中	-14898
夜空	-14899
復仇	-14900
提问	-14901
电机	-14902
運送	-14903
重于	-14904
也包括	-14905
例子中	-14906
在第一	-14907
奧斯卡	-14908
甘肃省	-14909
的主人	-14910
简单易	-14911
精神病	-14912
纪录片	-14913
）、「	-14914
▁Mor	-14915
线性回归	-14916
第一次世界大戰	-14917
作客	-14918
党内	-14919
南面	-14920
和第	-14921
嶼山	-14922
年有	-14923
相應	-14924
足總	-14925
鲁斯	-14926
iro	-14927
取消了	-14928
問題的	-14929
因此被	-14930
移动设备	-14931
▁German	-14932
功夫	-14933
向下	-14934
子集	-14935
導彈	-14936
推测	-14937
波多	-14938
納德	-14939
红楼	-14940
諸多	-14941
gar	-14942
原來的	-14943
未來的	-14944
▁Out	-14945
眾議院議員	-14946
ection	-14947
TA	-14948
▁防	-14949
偶数	-14950
听说	-14951
唐山	-14952
建交	-14953
後裔	-14954
满族	-14955
瑞拉	-14956
的王	-14957
的表	-14958
相隔	-14959
银河	-14960
ATP	-14961
办公厅	-14962
的算法	-14963
lease	-14964
区块链技术	-14965
▁string	-14966
第六次全国人口普查	-14967
▁》	-14968
▁内	-14969
五四	-14970
交涉	-14971
吉拉	-14972
商家	-14973
失業	-14974
布蘭	-14975
德军	-14976
有大	-14977
照射	-14978
艺人	-14979
英宗	-14980
被指	-14981
躲避	-14982
都尉	-14983
高橋	-14984
（「	-14985
▁不過	-14986
▁社会	-14987
可行的	-14988
很可能	-14989
最後在	-14990
iana	-14991
历史上的	-14992
消费者的	-14993
内蒙古自治区	-14994
俄语	-14995
包裝	-14996
后在	-14997
战败	-14998
环球	-14999
真菌	-15000
臨床	-15001
让您	-15002
▁Dec	-15003
营销活动	-15004
▁Star	-15005
▁United	-15006
代號	-15007
同伴	-15008
天府	-15009
实数	-15010
思路	-15011
最先	-15012
湯姆	-15013
烤盘	-15014
角川	-15015
遊記	-15016
链表	-15017
uan	-15018
▁CH	-15019
▁改善	-15020
區議員	-15021
女藝人	-15022
电影的	-15023
万平方米	-15024
不同之处	-15025
化学反应	-15026
只是一个	-15027
有很大的	-15028
能够促进	-15029
能够提供	-15030
苹果公司	-15031
riend	-15032
ih	-15033
▁副	-15034
主編	-15035
四次	-15036
有功	-15037
毗邻	-15038
米高	-15039
胞胎	-15040
重型	-15041
UTC	-15042
▁歐洲	-15043
充分的	-15044
卡洛斯	-15045
将它们	-15046
无限的	-15047
的运动	-15048
其中一種	-15049
自然灾害	-15050
虚拟助手	-15051
▁find	-15052
▁首	-15053
从前	-15054
他把	-15055
分數	-15056
工农	-15057
曼聯	-15058
朱德	-15059
科隆	-15060
配樂	-15061
關心	-15062
魔王	-15063
▁Jo	-15064
也需要	-15065
他们对	-15066
参与了	-15067
开发者	-15068
意义的	-15069
爱好者	-15070
难忘的	-15071
▁app	-15072
允许用户	-15073
▁各	-15074
▁富	-15075
▁约	-15076
前鋒	-15077
急救	-15078
标点	-15079
爪哇	-15080
萨拉	-15081
费尔	-15082
轉投	-15083
遠征	-15084
那裡	-15085
▁用于	-15086
并提高	-15087
新市鎮	-15088
格勒内	-15089
音乐会	-15090
其中包含	-15091
▁Great	-15092
▁許	-15093
之内	-15094
亚种	-15095
停播	-15096
劉邦	-15097
文森	-15098
會談	-15099
清明	-15100
莎拉	-15101
行事	-15102
邊形	-15103
頭角	-15104
OVA	-15105
在当时	-15106
有力的	-15107
的活動	-15108
第二任	-15109
雷爾斯	-15110
ophy	-15111
一段时间	-15112
快速发展	-15113
▁微	-15114
叱咤	-15115
圖形	-15116
在下	-15117
在小	-15118
安慰	-15119
征收	-15120
暂停	-15121
水稻	-15122
稍微	-15123
索瓦	-15124
）→	-15125
丹尼士	-15126
就已經	-15127
庞大的	-15128
方法是	-15129
的原始	-15130
直升機	-15131
uild	-15132
▁Wil	-15133
范围内的	-15134
不出	-15135
之弟	-15136
也将	-15137
北投	-15138
噴射	-15139
大人	-15140
威特	-15141
市內	-15142
所示	-15143
来减少	-15144
的事实	-15145
的文字	-15146
中国政府	-15147
户外活动	-15148
金融机构	-15149
▁over	-15150
一邊	-15151
僅僅	-15152
内亚	-15153
国道	-15154
導師	-15155
拉格	-15156
有史	-15157
橄欖	-15158
澄清	-15159
离婚	-15160
简介	-15161
读取	-15162
音的	-15163
免疫力	-15164
斯塔夫	-15165
曾一度	-15166
水平的	-15167
oman	-15168
不像	-15169
刻意	-15170
前途	-15171
噪声	-15172
圆的	-15173
的书	-15174
石勒	-15175
粉絲	-15176
降解	-15177
隨機	-15178
饥饿	-15179
▁避免	-15180
副教授	-15181
启用的	-15182
显示器	-15183
拉丁字母	-15184
斐波那契	-15185
inter	-15186
PL	-15187
』。	-15188
三峡	-15189
东侧	-15190
佛山	-15191
刑法	-15192
在台	-15193
导数	-15194
的空	-15195
監視	-15196
科普	-15197
荔枝	-15198
落敗	-15199
虚假	-15200
血型	-15201
衝鋒	-15202
角逐	-15203
谋杀	-15204
闪烁	-15205
Mag	-15206
新聞台	-15207
有多种	-15208
降低了	-15209
Jack	-15210
佛罗里达	-15211
▁Class	-15212
占領	-15213
吞吐	-15214
單純	-15215
孔雀	-15216
槍械	-15217
海姆	-15218
特洛	-15219
艾森	-15220
血統	-15221
雷克	-15222
风光	-15223
首脑	-15224
ems	-15225
互聯網	-15226
和研究	-15227
或多个	-15228
enth	-15229
进行排序	-15230
▁sqrt	-15231
▁都	-15232
佔有	-15233
听取	-15234
會將	-15235
氟化	-15236
水庫	-15237
港區	-15238
演說	-15239
硬體	-15240
神庙	-15241
製品	-15242
起伏	-15243
轉會	-15244
逃跑	-15245
二二八	-15246
智慧和	-15247
泰晤士	-15248
的生产	-15249
相关性	-15250
aiwan	-15251
▁comp	-15252
)-	-15253
上涨	-15254
代管	-15255
吉亚	-15256
吸入	-15257
團長	-15258
寵物	-15259
年时	-15260
特克	-15261
獲頒	-15262
耐心	-15263
華視	-15264
遍布	-15265
適用	-15266
頭的	-15267
不稳定	-15268
嘉義市	-15269
来预测	-15270
环境的	-15271
的军事	-15272
从而减少	-15273
▁赫雷爾斯	-15274
cyclop	-15275
>`	-15276
It	-15277
lt	-15278
▁丁	-15279
五位	-15280
仇恨	-15281
古籍	-15282
大事	-15283
审计	-15284
山路	-15285
带上	-15286
後代	-15287
战术	-15288
比斯	-15289
水流	-15290
涡轮	-15291
潮湿	-15292
率部	-15293
番禺	-15294
配偶	-15295
集会	-15296
上使用	-15297
偉大的	-15298
宾夕法	-15299
有兩個	-15300
病毒的	-15301
的人類	-15302
可以采取	-15303
Intel	-15304
overn	-15305
亞美	-15306
則於	-15307
守備	-15308
寫的	-15309
摆脱	-15310
操縱	-15311
普里	-15312
未經	-15313
民兵	-15314
照亮	-15315
終極	-15316
選拔	-15317
重心	-15318
阿瑟	-15319
馬里	-15320
主要在	-15321
几内亚	-15322
安全和	-15323
日舉行	-15324
皇帝的	-15325
相對論	-15326
ship	-15327
特别是在	-15328
因素的影响	-15329
偶尔	-15330
抵御	-15331
日間	-15332
札幌	-15333
棋盘	-15334
獎章	-15335
磁性	-15336
編譯	-15337
航道	-15338
菲爾	-15339
警員	-15340
计数	-15341
門的	-15342
順治	-15343
预热	-15344
駐守	-15345
或使用	-15346
中的所有	-15347
电话号码	-15348
绝大多数	-15349
格勒内费尔德	-15350
▁Program	-15351
ット	-15352
加大	-15353
屬性	-15354
总数	-15355
武將	-15356
煤矿	-15357
疆域	-15358
作者的	-15359
則認為	-15360
詹姆士	-15361
防火墙	-15362
馬德里	-15363
ista	-15364
ried	-15365
一个人的	-15366
人大代表	-15367
密西西比	-15368
RS	-15369
三日	-15370
了新	-15371
失控	-15372
失踪	-15373
将来	-15374
手臂	-15375
散射	-15376
整洁	-15377
核能	-15378
甲午	-15379
等到	-15380
約克	-15381
译为	-15382
长大	-15383
。」（	-15384
今日的	-15385
日晚上	-15386
最高峰	-15387
染色体	-15388
的传统	-15389
small	-15390
中小	-15391
列斯	-15392
埼玉	-15393
妥善	-15394
它与	-15395
最快	-15396
气息	-15397
膳食	-15398
西雅	-15399
轉運	-15400
过了	-15401
克斯坦	-15402
▁沈	-15403
个乡	-15404
也以	-15405
侵入	-15406
側的	-15407
同胞	-15408
奠定	-15409
平常	-15410
根源	-15411
案的	-15412
歇爾	-15413
治通	-15414
神奈	-15415
參議員	-15416
大型的	-15417
是人类	-15418
的状态	-15419
第一大	-15420
它们之间	-15421
希望能够	-15422
▁Online	-15423
下设	-15424
之所	-15425
受益	-15426
和无	-15427
寶貝	-15428
巴哈	-15429
才被	-15430
托夫	-15431
提早	-15432
提起	-15433
现已	-15434
禁令	-15435
蘑菇	-15436
鞏固	-15437
巡洋艦	-15438
的傳統	-15439
航站楼	-15440
委員會主席	-15441
马克思主义	-15442
下辖以下地区	-15443
之时	-15444
偵測	-15445
民營	-15446
气球	-15447
猛烈	-15448
秦王	-15449
組長	-15450
经费	-15451
退化	-15452
都由	-15453
aps	-15454
剩下的	-15455
百分比	-15456
的秘密	-15457
第一座	-15458
软件的	-15459
但我可以	-15460
市人民政府	-15461
Robert	-15462
▁Michael	-15463
▁开	-15464
光滑	-15465
別人	-15466
劳工	-15467
卻是	-15468
商標	-15469
回復	-15470
國外	-15471
帖木	-15472
常數	-15473
性戀	-15474
破解	-15475
負面	-15476
这幅	-15477
▁文化	-15478
作用力	-15479
动物园	-15480
司令官	-15481
打破了	-15482
是基于	-15483
选举中	-15484
array	-15485
▁array	-15486
.（	-15487
MO	-15488
Te	-15489
史前	-15490
后面	-15491
城中	-15492
定向	-15493
收缩	-15494
放到	-15495
波利	-15496
etal	-15497
▁Sim	-15498
他的作品	-15499
列出三个	-15500
other	-15501
日本女性聲優	-15502
但未	-15503
可由	-15504
国歌	-15505
地產	-15506
官職	-15507
显然	-15508
月到	-15509
立體	-15510
討厭	-15511
代表性	-15512
保守黨	-15513
和政府	-15514
如果有	-15515
文本的	-15516
音樂劇	-15517
ittle	-15518
▁Time	-15519
中信	-15520
他就	-15521
分組	-15522
受损	-15523
奈良	-15524
并无	-15525
彈匣	-15526
有毒	-15527
獵人	-15528
礼仪	-15529
線路	-15530
質子	-15531
这会	-15532
ato	-15533
▁明朝	-15534
▁第六	-15535
一個月	-15536
不同於	-15537
人受傷	-15538
▁off	-15539
能源效率	-15540
▁Books	-15541
届中央委员会	-15542
DB	-15543
IO	-15544
仙人	-15545
但我	-15546
偶爾	-15547
士林	-15548
抗原	-15549
拘留	-15550
杏仁	-15551
甚麼	-15552
維埃	-15553
鍵盤	-15554
间隔	-15555
鼠标	-15556
在法国	-15557
接受的	-15558
本哈根	-15559
文藝復興	-15560
ugust	-15561
分院	-15562
头部	-15563
損害	-15564
金刚	-15565
▁包括	-15566
为您的	-15567
它具有	-15568
思想的	-15569
新世界	-15570
旅行者	-15571
是全球	-15572
的成就	-15573
系教授	-15574
雲林縣	-15575
ocal	-15576
▁has	-15577
也有助于	-15578
详细信息	-15579
饮食习惯	-15580
▁which	-15581
代入	-15582
你能	-15583
可被	-15584
圍攻	-15585
局限	-15586
干线	-15587
您对	-15588
攝政	-15589
榴彈	-15590
离散	-15591
縮短	-15592
自旋	-15593
處死	-15594
GBT	-15595
ref	-15596
▁德國	-15597
二十八	-15598
和人类	-15599
材料的	-15600
的一大	-15601
袁世凱	-15602
▁ass	-15603
海洋生物	-15604
▁Count	-15605
ological	-15606
▁Company	-15607
尸体	-15608
李光	-15609
炸弹	-15610
玉祥	-15611
西漢	-15612
言之	-15613
金日	-15614
▁语言	-15615
地方的	-15616
并解释	-15617
星期五	-15618
立法局	-15619
给出的	-15620
▁Max	-15621
andard	-15622
▁龙	-15623
上限	-15624
京城	-15625
又是	-15626
外形	-15627
將來	-15628
山城	-15629
情的	-15630
托管	-15631
扭曲	-15632
深的	-15633
的性	-15634
筆記	-15635
農村	-15636
%），	-15637
▁Sl	-15638
▁後來	-15639
拥有一	-15640
最适合	-15641
治所在	-15642
的服务	-15643
的表現	-15644
还没有	-15645
努尔哈赤	-15646
坚持不懈	-15647
GE	-15648
▁音	-15649
三分	-15650
人及	-15651
元培	-15652
割讓	-15653
北條	-15654
尼基	-15655
座的	-15656
方針	-15657
活塞	-15658
級別	-15659
蓬勃	-15660
諾夫	-15661
，"	-15662
也不是	-15663
可以指	-15664
和理解	-15665
地方法	-15666
的技術	-15667
高等學校	-15668
移动应用程序	-15669
一杯	-15670
并由	-15671
应急	-15672
文教	-15673
正值	-15674
河川	-15675
管治	-15676
Sam	-15677
两个人	-15678
單行本	-15679
準決賽	-15680
赵紫阳	-15681
▁its	-15682
两边	-15683
仓库	-15684
則徐	-15685
四军	-15686
回了	-15687
建構	-15688
怎麼	-15689
明史	-15690
果實	-15691
疏散	-15692
绿化	-15693
胡安	-15694
過往	-15695
与人类	-15696
人物的	-15697
推动了	-15698
时间表	-15699
牠們的	-15700
的建筑	-15701
cast	-15702
▁act	-15703
熱帶風暴	-15704
卫队	-15705
司司	-15706
吏部	-15707
囚犯	-15708
宗的	-15709
年夏	-15710
开除	-15711
旗幟	-15712
日到	-15713
日向	-15714
曾與	-15715
温泉	-15716
约占	-15717
考生	-15718
販賣	-15719
隔離	-15720
年前的	-15721
西西里	-15722
该地区	-15723
▁one	-15724
里士多德	-15725
如果您需要	-15726
巨大的影响	-15727
神圣罗马帝国	-15728
TC	-15729
一小	-15730
反叛	-15731
和白	-15732
总和	-15733
感官	-15734
敦煌	-15735
暗中	-15736
東路	-15737
江县	-15738
派往	-15739
瑟琳	-15740
的公	-15741
终结	-15742
和家人	-15743
的材料	-15744
的行政	-15745
的高度	-15746
▁his	-15747
保持联系	-15748
哥本哈根	-15749
rough	-15750
▁先	-15751
主體	-15752
他還	-15753
張國	-15754
猴子	-15755
的開	-15756
看待	-15757
背部	-15758
舆论	-15759
芝士	-15760
订阅	-15761
edu	-15762
體育場	-15763
一張	-15764
之妻	-15765
份额	-15766
保密	-15767
所致	-15768
故宮	-15769
晓夫	-15770
激进	-15771
炮台	-15772
稱帝	-15773
米尼	-15774
編制	-15775
赛车	-15776
赞助	-15777
過海	-15778
鸚鵡	-15779
Off	-15780
▁Cr	-15781
供应商	-15782
分类法	-15783
年代起	-15784
▁Sal	-15785
对其进行	-15786
的第一個	-15787
国家和地区	-15788
epartment	-15789
PM	-15790
▁嘉	-15791
三家	-15792
勃艮	-15793
华南	-15794
对他	-15795
新莊	-15796
狩猎	-15797
由來	-15798
目睹	-15799
瞬间	-15800
稀有	-15801
英军	-15802
英镑	-15803
認爲	-15804
起訴	-15805
逃走	-15806
那时	-15807
首部	-15808
All	-15809
▁so	-15810
〉，《	-15811
全壘打	-15812
和优化	-15813
新鲜的	-15814
比其他	-15815
演唱会	-15816
的计算	-15817
米特里	-15818
巴士總站	-15819
日本帝國	-15820
鐵達尼號	-15821
之變	-15822
二千	-15823
古今	-15824
失效	-15825
将被	-15826
幕後	-15827
成名	-15828
文憑	-15829
東吳	-15830
海賊	-15831
珍惜	-15832
的词	-15833
纠正	-15834
農場	-15835
阵亡	-15836
面团	-15837
馬達	-15838
Mon	-15839
get	-15840
不相同	-15841
可使用	-15842
所組成	-15843
▁《》（	-15844
越来越多	-15845
oseph	-15846
▁Commun	-15847
ks	-15848
亞當	-15849
口號	-15850
塔克	-15851
惊讶	-15852
維新	-15853
花卉	-15854
霍尔	-15855
细胞的	-15856
（）（	-15857
▁End	-15858
▁let	-15859
平均气温	-15860
年启用的	-15861
的人口为	-15862
弗雷德里克	-15863
KE	-15864
介於	-15865
写下	-15866
外傳	-15867
手上	-15868
獲取	-15869
肿瘤	-15870
英屬	-15871
药品	-15872
遷徙	-15873
電機	-15874
▁亞洲	-15875
公安部	-15876
成一个	-15877
我们要	-15878
最后的	-15879
综合性	-15880
而成為	-15881
该公司	-15882
保持健康	-15883
World	-15884
也可以通过	-15885
▁Black	-15886
ference	-15887
▁iPhone	-15888
南阳	-15889
可选	-15890
塞琉	-15891
收敛	-15892
来了	-15893
正規	-15894
过敏	-15895
长约	-15896
随意	-15897
▁收集	-15898
不列颠	-15899
個國家	-15900
卡路里	-15901
和工作	-15902
有一位	-15903
icus	-15904
专业人士	-15905
職業學校	-15906
▁Aust	-15907
▁America	-15908
届全国人民代表大会	-15909
Ac	-15910
DJ	-15911
出使	-15912
在与	-15913
塔斯	-15914
永康	-15915
深海	-15916
災難	-15917
玻利	-15918
短信	-15919
胡適	-15920
見證	-15921
連鎖	-15922
）※	-15923
从一个	-15924
变量的	-15925
总经理	-15926
因为它们	-15927
联邦政府	-15928
阿姆斯特丹	-15929
取向	-15930
可信	-15931
地说	-15932
山村	-15933
巡回	-15934
德罗	-15935
為例	-15936
用餐	-15937
：[	-15938
▁儘管	-15939
主要為	-15940
大小的	-15941
并最终	-15942
成年人	-15943
日内瓦	-15944
有一次	-15945
生物体	-15946
的普及	-15947
的理論	-15948
程序的	-15949
▁Lim	-15950
投入使用	-15951
模型的性能	-15952
▁SELECT	-15953
保有	-15954
傳記	-15955
全文	-15956
冷战	-15957
壟斷	-15958
天台	-15959
当作	-15960
歐美	-15961
法學	-15962
節日	-15963
編入	-15964
英皇	-15965
露天	-15966
che	-15967
艺术品	-15968
这些问题	-15969
Sm	-15970
▁袁	-15971
一说	-15972
不定	-15973
业绩	-15974
严谨	-15975
內陸	-15976
必定	-15977
排水	-15978
決戰	-15979
行銷	-15980
雨量	-15981
▁ap	-15982
▁安全	-15983
▁），	-15984
不满意	-15985
以满足	-15986
唐玄宗	-15987
的中國	-15988
目前已	-15989
▁以下是	-15990
在线课程	-15991
外交政策	-15992
这个短语	-15993
ND	-15994
▁卢	-15995
▁国	-15996
三维	-15997
乘积	-15998
书店	-15999
但這	-16000
安南	-16001
幼兒	-16002
明媚	-16003
條文	-16004
橋樑	-16005
芳香	-16006
诸葛	-16007
诺斯	-16008
选出	-16009
龍類	-16010
EEE	-16011
day	-16012
eli	-16013
伯拉罕	-16014
年之前	-16015
所谓的	-16016
的人类	-16017
的聲音	-16018
評論家	-16019
ball	-16020
▁man	-16021
风景名胜	-16022
一顆	-16023
兄長	-16024
围棋	-16025
射程	-16026
有两	-16027
激進	-16028
療法	-16029
雇佣	-16030
鸦片	-16031
AMD	-16032
变成了	-16033
年推出	-16034
的东西	-16035
胡耀邦	-16036
连接到	-16037
inus	-16038
lear	-16039
wood	-16040
天气预报	-16041
機動戰士	-16042
革命委员会	-16043
▁Econom	-16044
一体	-16045
兩地	-16046
剧场	-16047
卷积	-16048
口罩	-16049
天鹅	-16050
好了	-16051
录制	-16052
损伤	-16053
教皇	-16054
特和	-16055
究竟	-16056
而他	-16057
解体	-16058
路面	-16059
輿論	-16060
面貌	-16061
▁公元	-16062
▁南京	-16063
》），	-16064
第一期	-16065
金曲獎	-16066
中国古代	-16067
数据结构	-16068
ellig	-16069
一号	-16070
中隊	-16071
修筑	-16072
喜悦	-16073
幾年	-16074
影評	-16075
恶劣	-16076
故鄉	-16077
无效	-16078
树叶	-16079
的超	-16080
與他	-16081
gen	-16082
ros	-16083
▁有些	-16084
不同于	-16085
不同意	-16086
同一個	-16087
心脏病	-16088
東北部	-16089
獲得者	-16090
繼承人	-16091
进入了	-16092
人口增加	-16093
生态环境	-16094
万平方公里	-16095
▁Linux	-16096
东站	-16097
优美	-16098
刺殺	-16099
勇者	-16100
咸豐	-16101
宮殿	-16102
帆船	-16103
彭德	-16104
德文	-16105
紅外	-16106
蒸发	-16107
这片	-16108
重组	-16109
▁下辖	-16110
万人次	-16111
代表團	-16112
供应链	-16113
有大量	-16114
通常被	-16115
遊戲中	-16116
食物的	-16117
更准确地	-16118
理工學院	-16119
▁Public	-16120
▁空	-16121
備受	-16122
单个	-16123
周瑜	-16124
羅門	-16125
其實是	-16126
前所未	-16127
存储在	-16128
家庭的	-16129
希望您	-16130
強烈的	-16131
指挥官	-16132
正方形	-16133
的紀錄	-16134
二十世紀	-16135
东路	-16136
分明	-16137
占比	-16138
地和	-16139
州長	-16140
幹事	-16141
所說	-16142
效忠	-16143
旅途	-16144
树林	-16145
水力	-16146
滥用	-16147
焦点	-16148
石碑	-16149
背後	-16150
車牌	-16151
风力	-16152
umb	-16153
▁欧洲	-16154
▁直到	-16155
发电机	-16156
并返回	-16157
我們的	-16158
未知的	-16159
等功能	-16160
非正式	-16161
统计数据	-16162
stein	-16163
▁input	-16164
主观	-16165
也对	-16166
但却	-16167
勇于	-16168
在她	-16169
崇禎	-16170
年为	-16171
强迫	-16172
改组	-16173
水位	-16174
王家	-16175
約在	-16176
緣故	-16177
落實	-16178
词典	-16179
較小	-16180
選秀	-16181
阻力	-16182
鳄梨	-16183
ais	-16184
出租车	-16185
快速的	-16186
现有的	-16187
贵州省	-16188
anth	-16189
body	-16190
▁cal	-16191
▁would	-16192
lection	-16193
WS	-16194
▁伯	-16195
一國	-16196
了三	-16197
和外	-16198
岛的	-16199
年紀	-16200
有名	-16201
有权	-16202
本来	-16203
武德	-16204
液體	-16205
精细	-16206
踏上	-16207
黨內	-16208
%）、	-16209
▁学习	-16210
一开始	-16211
即使在	-16212
建立在	-16213
甚至在	-16214
马哈迪	-16215
，-{	-16216
ival	-16217
亚美尼亚	-16218
对您有所帮助	-16219
rd	-16220
人名	-16221
某人	-16222
清澈	-16223
直隸	-16224
而這	-16225
複合	-16226
饲养	-16227
BSD	-16228
sub	-16229
。”“	-16230
为主要	-16231
的做法	-16232
管理员	-16233
idea	-16234
的平均值	-16235
與此同時	-16236
▁Service	-16237
之日	-16238
九二	-16239
升为	-16240
博览	-16241
喀什	-16242
增进	-16243
泡沫	-16244
以帮助	-16245
公交车	-16246
吉他手	-16247
的另一	-16248
过多的	-16249
这三个	-16250
長時間	-16251
ictor	-16252
xx	-16253
▁時	-16254
均由	-16255
比爾	-16256
生化	-16257
电阻	-16258
迦太	-16259
高层	-16260
鹿港	-16261
：『	-16262
可以使	-16263
塔利班	-16264
olid	-16265
▁mat	-16266
几次	-16267
北極	-16268
它被	-16269
山田	-16270
并向	-16271
成祖	-16272
披露	-16273
松江	-16274
梅花	-16275
中加入	-16276
房地产	-16277
系统和	-16278
证明了	-16279
iginal	-16280
SI	-16281
▁单	-16282
▁開	-16283
介质	-16284
到大	-16285
后于	-16286
吸烟	-16287
周长	-16288
套件	-16289
延迟	-16290
得的	-16291
拉夫	-16292
汪精	-16293
渔业	-16294
理浩	-16295
講談	-16296
Sir	-16297
▁亨利	-16298
佛罗伦	-16299
描述的	-16300
王国的	-16301
需要使用	-16302
▁Team	-16303
▁Tour	-16304
的重要组成部分	-16305
▁了	-16306
▁来	-16307
一枚	-16308
主的	-16309
他將	-16310
们的	-16311
便携	-16312
各類	-16313
园区	-16314
奖章	-16315
学说	-16316
底层	-16317
总会	-16318
支廳	-16319
烧烤	-16320
疑似	-16321
相鄰	-16322
较多	-16323
镇江	-16324
长征	-16325
变化的	-16326
差不多	-16327
年發表	-16328
柠檬汁	-16329
由香港	-16330
转移到	-16331
▁False	-16332
上也	-16333
不当	-16334
代词	-16335
南韓	-16336
四郎	-16337
家臣	-16338
實業	-16339
晶體	-16340
欢笑	-16341
特種	-16342
种种	-16343
落地	-16344
語中	-16345
足迹	-16346
一般在	-16347
体现在	-16348
前身為	-16349
即使是	-16350
目标是	-16351
豐富的	-16352
一般来说	-16353
共同努力	-16354
atural	-16355
▁Thomas	-16356
Ag	-16357
Go	-16358
▁施	-16359
塔尼	-16360
存取	-16361
安息	-16362
屬的	-16363
撒上	-16364
病原	-16365
花費	-16366
若望	-16367
這麼	-16368
▁Up	-16369
▁這個	-16370
很强的	-16371
後來被	-16372
足球队	-16373
里程碑	-16374
加勒比海	-16375
一把	-16376
东欧	-16377
僧人	-16378
哈密	-16379
多有	-16380
宣戰	-16381
樓宇	-16382
進展	-16383
Art	-16384
▁Te	-16385
▁技术	-16386
戰役中	-16387
總冠軍	-16388
贝多芬	-16389
▁Sam	-16390
市场营销	-16391
iform	-16392
国民革命军	-16393
〉〈	-16394
住了	-16395
作法	-16396
分手	-16397
南極	-16398
卡洛	-16399
林斯	-16400
河和	-16401
給他	-16402
該地	-16403
質數	-16404
轮胎	-16405
量產	-16406
雪山	-16407
二十五	-16408
失业率	-16409
臺灣的	-16410
零售商	-16411
中亚	-16412
人對	-16413
划入	-16414
叶斯	-16415
困扰	-16416
宁县	-16417
小於	-16418
山寺	-16419
师生	-16420
成爲	-16421
教義	-16422
文武	-16423
法治	-16424
糟糕	-16425
結業	-16426
结局	-16427
量和	-16428
▁杰克	-16429
出版物	-16430
勃艮第	-16431
所用的	-16432
日开始	-16433
美国和	-16434
製造商	-16435
阿卜杜	-16436
▁Rob	-16437
人们可以	-16438
ouble	-16439
▁incl	-16440
agement	-16441
▁article	-16442
▁Encyclop	-16443
].	-16444
▁两	-16445
▁春	-16446
不見	-16447
丝绸	-16448
分出	-16449
巡抚	-16450
投靠	-16451
登月	-16452
落後	-16453
鞋子	-16454
Ele	-16455
▁台北	-16456
刘少奇	-16457
废弃物	-16458
志愿军	-16459
探测器	-16460
探险家	-16461
的態度	-16462
经典的	-16463
运行的	-16464
▁Don	-16465
维基百科	-16466
美国国家	-16467
这些建议	-16468
電視廣播	-16469
ffect	-16470
能够帮助我们	-16471
▁Richard	-16472
roduction	-16473
▁盧	-16474
上空	-16475
剛果	-16476
并行	-16477
往来	-16478
波希	-16479
爾頓	-16480
立体	-16481
算术	-16482
組的	-16483
網民	-16484
遷入	-16485
▁一种	-16486
▁代表	-16487
▁在线	-16488
▁民国	-16489
▁關於	-16490
几十年	-16491
市场上	-16492
统一的	-16493
资源的	-16494
可以得到	-16495
国共内战	-16496
电力机车	-16497
他說	-16498
匿名	-16499
報復	-16500
報章	-16501
大安	-16502
妈妈	-16503
板上	-16504
滑冰	-16505
粵劇	-16506
质子	-16507
轉而	-16508
野心	-16509
长途	-16510
雷特	-16511
首演	-16512
他开始	-16513
和治疗	-16514
女演员	-16515
的一所	-16516
精美的	-16517
迦太基	-16518
ayer	-16519
▁Ann	-16520
▁在一个	-16521
年代初期	-16522
▁除此之外	-16523
KB	-16524
一文	-16525
休閒	-16526
实习	-16527
巴馬	-16528
平時	-16529
成份	-16530
早安	-16531
注音	-16532
神學	-16533
节水	-16534
英勇	-16535
詢問	-16536
证书	-16537
關節	-16538
陶器	-16539
（、	-16540
▁Ma	-16541
城市和	-16542
延伸到	-16543
来获得	-16544
的外观	-16545
结构化	-16546
acter	-16547
阿尔巴尼亚	-16548
Gl	-16549
、“	-16550
人脸	-16551
又譯	-16552
安打	-16553
幸存	-16554
廉政	-16555
毅力	-16556
豪華	-16557
oom	-16558
▁制作	-16559
也开始	-16560
但沒有	-16561
古斯特	-16562
可通过	-16563
品牌的	-16564
构成了	-16565
被列入	-16566
领域中	-16567
列表中的	-16568
开发一个	-16569
成为一名	-16570
热带雨林	-16571
很大程度上	-16572
Er	-16573
不已	-16574
了大	-16575
其顿	-16576
列克	-16577
华中	-16578
后裔	-16579
的基	-16580
科斯	-16581
貴妃	-16582
重用	-16583
長約	-16584
馬路	-16585
高手	-16586
cul	-16587
▁自然	-16588
在任何	-16589
威尔逊	-16590
源代码	-16591
第十六	-16592
較高的	-16593
找到一个	-16594
吸引更多的	-16595
需要大量的	-16596
Is	-16597
Se	-16598
fo	-16599
俳句	-16600
光芒	-16601
增值	-16602
幻灯	-16603
會合	-16604
會面	-16605
水深	-16606
缩小	-16607
至元	-16608
谈论	-16609
Big	-16610
MHz	-16611
▁设置	-16612
但没有	-16613
在所有	-16614
客家人	-16615
根据地	-16616
法國的	-16617
的政府	-16618
羅拉多	-16619
要注意	-16620
講談社	-16621
象征着	-16622
tain	-16623
▁Bas	-16624
▁Gal	-16625
奖获得者	-16626
提供更多	-16627
ュー	-16628
商圈	-16629
將之	-16630
擴散	-16631
永和	-16632
漳州	-16633
見面	-16634
BBS	-16635
代言人	-16636
和其它	-16637
太陽的	-16638
明亮的	-16639
Mark	-16640
▁pre	-16641
一定程度上	-16642
▁Guide	-16643
▁Information	-16644
專訪	-16645
巡演	-16646
明日	-16647
是自	-16648
至尊	-16649
車的	-16650
载人	-16651
迦牟	-16652
《-{	-16653
大使馆	-16654
是法国	-16655
男配角	-16656
第五次	-16657
agon	-16658
▁mac	-16659
iforn	-16660
▁part	-16661
主要分布在	-16662
▁萨	-16663
一块	-16664
一辆	-16665
代數	-16666
保衛	-16667
切片	-16668
拉萨	-16669
火腿	-16670
用手	-16671
白話	-16672
聲母	-16673
與新	-16674
西門	-16675
馬力	-16676
？）	-16677
▁了解	-16678
、、、	-16679
也因為	-16680
普通的	-16681
遊戲的	-16682
最常见的	-16683
以大	-16684
十个	-16685
升至	-16686
处罚	-16687
建校	-16688
战中	-16689
檢討	-16690
欺凌	-16691
狭义	-16692
私下	-16693
租金	-16694
追逐	-16695
過後	-16696
▁代码	-16697
交流和	-16698
時間內	-16699
演出的	-16700
离开了	-16701
铁道部	-16702
rick	-16703
硕士学位	-16704
计算机的	-16705
......	-16706
创建一个包含	-16707
iu	-16708
▁任	-16709
下跌	-16710
大為	-16711
存有	-16712
憑藉	-16713
撤离	-16714
教程	-16715
永乐	-16716
演義	-16717
甘肅	-16718
症的	-16719
行道	-16720
閃電	-16721
」）。	-16722
动力学	-16723
是我们	-16724
有能力	-16725
的生命	-16726
美元的	-16727
Word	-16728
▁Jul	-16729
历史悠久	-16730
reate	-16731
▁Alex	-16732
▁Form	-16733
奥斯曼帝国	-16734
三级	-16735
之母	-16736
北周	-16737
升起	-16738
和反	-16739
小麦	-16740
救出	-16741
消毒	-16742
笑话	-16743
西的	-16744
讓人	-16745
跳水	-16746
冥王星	-16747
為臺灣	-16748
而受到	-16749
免疫系统	-16750
廣播公司	-16751
我们使用	-16752
技术学院	-16753
岁及以上的	-16754
go	-16755
▁即	-16756
▁川	-16757
不應	-16758
亞種	-16759
养殖	-16760
原生	-16761
强壮	-16762
德利	-16763
懸掛	-16764
梵蒂	-16765
灯光	-16766
王莽	-16767
造的	-16768
雷根	-16769
OVE	-16770
ify	-16771
年獲得	-16772
年至今	-16773
影響了	-16774
方式和	-16775
發生於	-16776
第十五	-16777
erse	-16778
ories	-16779
软件工程师	-16780
主语	-16781
初级	-16782
剪刀	-16783
变异	-16784
太和	-16785
头发	-16786
巴格	-16787
捐贈	-16788
燕京	-16789
红旗	-16790
致死	-16791
苗族	-16792
路斯	-16793
了一座	-16794
柏拉图	-16795
活動的	-16796
研究员	-16797
示威者	-16798
電影的	-16799
▁NGC	-16800
知识分子	-16801
James	-16802
uring	-16803
▁their	-16804
社交媒体平台	-16805
UI	-16806
▁受	-16807
严峻	-16808
亦稱	-16809
刪除	-16810
制动	-16811
午夜	-16812
友善	-16813
古迹	-16814
因病	-16815
圖片	-16816
城内	-16817
姊姊	-16818
录取	-16819
是全	-16820
月号	-16821
未曾	-16822
柳州	-16823
汇报	-16824
為他	-16825
福克	-16826
羚羊	-16827
自成	-16828
走进	-16829
新华网	-16830
方面军	-16831
的学习	-16832
继承人	-16833
董事會	-16834
表現出	-16835
fess	-16836
人口增长	-16837
影响力的	-16838
▁value	-16839
回答您的问题	-16840
电子邮件地址	-16841
所殺	-16842
所知	-16843
擔當	-16844
服从	-16845
機體	-16846
聲調	-16847
被杀	-16848
追蹤	-16849
阻礙	-16850
}-（	-16851
了中国	-16852
会根据	-16853
动车组	-16854
東印度	-16855
的程度	-16856
音乐家	-16857
▁Mal	-16858
金牌得主	-16859
aking	-16860
PA	-16861
士官	-16862
奧多	-16863
底下	-16864
本質	-16865
污水	-16866
治所	-16867
置于	-16868
罹患	-16869
进军	-16870
造林	-16871
過來	-16872
除去	-16873
▁我的	-16874
▁答案	-16875
▁鼓励	-16876
是一所	-16877
有以下	-16878
orus	-16879
▁Dem	-16880
▁tem	-16881
他的名字	-16882
usiness	-16883
GT	-16884
七大	-16885
写了	-16886
北角	-16887
友情	-16888
当他	-16889
投奔	-16890
整修	-16891
暑假	-16892
最長	-16893
维希	-16894
越高	-16895
远东	-16896
邪惡	-16897
）”	-16898
▁[[	-16899
▁同时	-16900
不過在	-16901
发明了	-16902
畢業生	-16903
翰林院	-16904
表面上	-16905
假面騎士	-16906
▁另一方面	-16907
▁first	-16908
!（	-16909
LC	-16910
▁丹	-16911
不住	-16912
写出	-16913
区内	-16914
台語	-16915
提斯	-16916
树的	-16917
漢朝	-16918
球衣	-16919
約定	-16920
认定	-16921
遠離	-16922
雙層	-16923
魔力	-16924
为学生	-16925
会议员	-16926
的小說	-16927
第一季	-16928
通常指	-16929
师范学院	-16930
tware	-16931
▁里	-16932
ティ	-16933
加法	-16934
国锋	-16935
奇迹	-16936
學界	-16937
家可	-16938
旁的	-16939
淀粉	-16940
當晚	-16941
站間	-16942
繁多	-16943
缺席	-16944
若是	-16945
釜山	-16946
鬥士	-16947
原本是	-16948
咖啡因	-16949
年获得	-16950
引入了	-16951
来获取	-16952
的一支	-16953
的可能	-16954
致力於	-16955
HTTP	-16956
▁英格蘭	-16957
成为中国	-16958
工程院院士	-16959
一番	-16960
取名	-16961
处长	-16962
就算	-16963
沉浸	-16964
瞬間	-16965
穿過	-16966
等职	-16967
紡織	-16968
統帥	-16969
網際	-16970
總計	-16971
菩提	-16972
预备	-16973
arb	-16974
优先级	-16975
呼吸道	-16976
和安全	-16977
开发和	-16978
星期一	-16979
汉武帝	-16980
的需要	-16981
而代之	-16982
族自治州	-16983
随着时间的推移	-16984
WW	-16985
▁今	-16986
▁會	-16987
为新	-16988
便可	-16989
出境	-16990
南至	-16991
廟宇	-16992
搜集	-16993
摩尼	-16994
景德	-16995
林的	-16996
毛里	-16997
汇率	-16998
省道	-16999
蒙山	-17000
跟著	-17001
遣使	-17002
隊友	-17003
众多的	-17004
和自由	-17005
型號為	-17006
引人入	-17007
的現象	-17008
相结合	-17009
较小的	-17010
▁SQL	-17011
佛罗伦萨	-17012
香港特別行政區	-17013
▁\	-17014
▁库	-17015
但这	-17016
傾斜	-17017
南山	-17018
合稱	-17019
在世	-17020
擊中	-17021
注释	-17022
該年	-17023
譬如	-17024
靈感	-17025
默认	-17026
Ant	-17027
max	-17028
▁工作	-17029
两部分	-17030
减少对	-17031
參加了	-17032
電影導演	-17033
以防	-17034
传动	-17035
假定	-17036
名城	-17037
广大	-17038
很小	-17039
所用	-17040
打出	-17041
数千	-17042
看见	-17043
菜品	-17044
葬于	-17045
葵涌	-17046
調節	-17047
起诉	-17048
追加	-17049
面具	-17050
顺治	-17051
▁TO	-17052
「」（	-17053
以及对	-17054
以增加	-17055
還包括	-17056
面積約	-17057
香草精	-17058
ache	-17059
▁天主教	-17060
国家元首	-17061
wh	-17062
塑膠	-17063
大賞	-17064
大隊	-17065
柔软	-17066
罷工	-17067
與小	-17068
還會	-17069
附件	-17070
Pal	-17071
ios	-17072
▁基于	-17073
反应堆	-17074
有一種	-17075
朋友们	-17076
深水埗	-17077
用户名	-17078
負責人	-17079
在线学习	-17080
大学教授	-17081
▁潘	-17082
举例	-17083
亞科	-17084
典籍	-17085
哥拉	-17086
在各	-17087
我要	-17088
标注	-17089
欧拉	-17090
民权	-17091
為新	-17092
王李	-17093
芒果	-17094
迪克	-17095
郵件	-17096
鄉鎮	-17097
阴谋	-17098
▁上述	-17099
轻松地	-17100
长度为	-17101
關係的	-17102
face	-17103
大规模的	-17104
锻炼身体	-17105
▁Island	-17106
▁余	-17107
▁沃	-17108
主机	-17109
写信	-17110
分界	-17111
境界	-17112
尼尔	-17113
德和	-17114
提督	-17115
早於	-17116
晴朗	-17117
有力	-17118
水星	-17119
永安	-17120
淮河	-17121
溪流	-17122
稀少	-17123
编组	-17124
罢工	-17125
而下	-17126
▁du	-17127
▁km	-17128
威斯康	-17129
的意義	-17130
的成员	-17131
编辑器	-17132
革命的	-17133
▁Club	-17134
wikitable	-17135
▁千	-17136
▁合	-17137
场的	-17138
孫策	-17139
構想	-17140
此種	-17141
的聖	-17142
船上	-17143
new	-17144
女配角	-17145
届中央	-17146
栖息在	-17147
涵盖了	-17148
輸入法	-17149
▁Fre	-17150
一个新的	-17151
二十二年	-17152
▁form	-17153
▁Super	-17154
HS	-17155
ui	-17156
亞的	-17157
列傳	-17158
反击	-17159
时速	-17160
核子	-17161
禮儀	-17162
變換	-17163
連線	-17164
龐大	-17165
作出了	-17166
君主立	-17167
定义了	-17168
德國的	-17169
▁BBC	-17170
云南等地	-17171
具体情况	-17172
型数据库	-17173
面部识别	-17174
时间和精力	-17175
不下	-17176
佛像	-17177
升空	-17178
搭檔	-17179
護衛	-17180
谢尔	-17181
跳跃	-17182
近的	-17183
马达	-17184
巴比伦	-17185
建筑群	-17186
建造了	-17187
文化部	-17188
爆发后	-17189
至少有	-17190
鄧小平	-17191
ants	-17192
less	-17193
▁联合国	-17194
完成工作	-17195
阿塞拜疆	-17196
三天	-17197
为大	-17198
交配	-17199
停刊	-17200
哪里	-17201
在了	-17202
增设	-17203
宏观	-17204
层面	-17205
巨蛋	-17206
手动	-17207
沼泽	-17208
猫和	-17209
獎勵	-17210
現金	-17211
电报	-17212
莱坞	-17213
蜀漢	-17214
轿车	-17215
高考	-17216
创作的	-17217
名稱為	-17218
实用的	-17219
每小時	-17220
為中國	-17221
都會區	-17222
Paul	-17223
raft	-17224
▁Rel	-17225
丰富多彩	-17226
加密货币	-17227
地方法院	-17228
▁spec	-17229
▁Peter	-17230
年启用的铁路车站	-17231
aa	-17232
交谈	-17233
伊莉	-17234
或称	-17235
禮拜	-17236
米拉	-17237
蒙哥	-17238
里達	-17239
隋唐	-17240
只能在	-17241
可以由	-17242
实现的	-17243
将这些	-17244
有关的	-17245
李世民	-17246
等其他	-17247
通用的	-17248
遭到了	-17249
隆美爾	-17250
不断学习	-17251
人民日报	-17252
战争期间	-17253
最後一個	-17254
經濟學家	-17255
（；），	-17256
▁Explor	-17257
一族	-17258
一颗	-17259
上車	-17260
共演	-17261
军阀	-17262
及大	-17263
外来	-17264
後又	-17265
文理	-17266
洛特	-17267
防治	-17268
饱和	-17269
ado	-17270
举一个	-17271
并保持	-17272
有名的	-17273
火車站	-17274
▁dis	-17275
将给定的	-17276
文学作品	-17277
▁崔	-17278
▁道	-17279
一八	-17280
不肯	-17281
为期	-17282
九十	-17283
国籍	-17284
大成	-17285
後人	-17286
改任	-17287
时会	-17288
橡胶	-17289
股东	-17290
补贴	-17291
談話	-17292
习近平	-17293
十字架	-17294
压力的	-17295
又称为	-17296
它不仅	-17297
居住的	-17298
社会学	-17299
eder	-17300
香港演員	-17301
▁Street	-17302
亚军	-17303
产值	-17304
千萬	-17305
台東	-17306
审核	-17307
對比	-17308
手稿	-17309
捕获	-17310
掀起	-17311
斯图	-17312
杜魯	-17313
极地	-17314
格鬥	-17315
港的	-17316
純粹	-17317
索尔	-17318
而后	-17319
贝格	-17320
起飞	-17321
內部的	-17322
抗氧化	-17323
的依赖	-17324
的名義	-17325
盃冠軍	-17326
HERE	-17327
▁Val	-17328
公民投票	-17329
十大中文	-17330
可能会对	-17331
慢性疾病	-17332
ester	-17333
也可以使用	-17334
Internet	-17335
eh	-17336
伴侣	-17337
刘邦	-17338
在全	-17339
大碟	-17340
奇数	-17341
密特	-17342
小林	-17343
托克	-17344
教导	-17345
熟练	-17346
牌照	-17347
矩形	-17348
讲座	-17349
vis	-17350
则认为	-17351
创新的	-17352
吞吐量	-17353
最长的	-17354
林則徐	-17355
的標準	-17356
複雜的	-17357
设立了	-17358
运动和	-17359
迦牟尼	-17360
意识形态	-17361
武汉大学	-17362
视觉效果	-17363
orial	-17364
AF	-17365
▁作	-17366
▁謝	-17367
一门	-17368
中路	-17369
充沛	-17370
农药	-17371
因在	-17372
复仇	-17373
子里	-17374
密钥	-17375
小子	-17376
微子	-17377
新年	-17378
永不	-17379
田径	-17380
空降	-17381
突变	-17382
美女	-17383
首映	-17384
▁約翰	-17385
並開始	-17386
分辨率	-17387
▁计算机	-17388
絕大多數	-17389
需要进行	-17390
严厉	-17391
乘搭	-17392
利息	-17393
單車	-17394
時有	-17395
為食	-17396
荊州	-17397
辩护	-17398
RAM	-17399
卡斯特	-17400
及利亞	-17401
和决策	-17402
的主力	-17403
的统治	-17404
福克斯	-17405
二十世纪	-17406
▁List	-17407
▁路	-17408
两组	-17409
入学	-17410
大乘	-17411
工事	-17412
或被	-17413
排出	-17414
法学	-17415
生机	-17416
町村	-17417
華北	-17418
視野	-17419
震撼	-17420
CNN	-17421
ira	-17422
▁控制	-17423
▁當時	-17424
哈里森	-17425
天水圍	-17426
科技的	-17427
认识到	-17428
▁新加坡	-17429
中央大學	-17430
二十三年	-17431
有期徒刑	-17432
减少碳排放	-17433
國歌	-17434
正规	-17435
游牧	-17436
締結	-17437
配上	-17438
陣容	-17439
为主的	-17440
好朋友	-17441
總書記	-17442
過去的	-17443
代表人物	-17444
意大利面	-17445
是否存在	-17446
▁奥斯卡最佳	-17447
」：	-17448
一口	-17449
中書	-17450
公牛	-17451
剧团	-17452
加熱	-17453
啟德	-17454
声调	-17455
大明	-17456
屋頂	-17457
康复	-17458
戲曲	-17459
投訴	-17460
每位	-17461
法制	-17462
特律	-17463
研討	-17464
）/	-17465
fox	-17466
▁之後	-17467
▁生物	-17468
制定了	-17469
希腊语	-17470
的报告	-17471
第一所	-17472
行业的	-17473
even	-17474
▁Nov	-17475
俄羅斯的	-17476
建筑面积	-17477
赫鲁晓夫	-17478
score	-17479
乙酸	-17480
以太	-17481
以求	-17482
伯恩	-17483
克洛	-17484
前端	-17485
平地	-17486
幼年	-17487
心靈	-17488
收容	-17489
称赞	-17490
綁架	-17491
萊茵	-17492
鲜花	-17493
出生在	-17494
在未来	-17495
年成為	-17496
於日本	-17497
ront	-17498
民族主義	-17499
繁忙時間	-17500
這部電影	-17501
中醫藥學院	-17502
以便更好地	-17503
》-	-17504
一书	-17505
侵害	-17506
倾斜	-17507
党派	-17508
六甲	-17509
列传	-17510
古蘭	-17511
奢侈	-17512
崇祯	-17513
曹丕	-17514
潛在	-17515
百济	-17516
研讨	-17517
空手	-17518
顯得	-17519
新西兰	-17520
肯塔基	-17521
蘇維埃	-17522
政治部主任	-17523
▁Dream	-17524
俾斯	-17525
光復	-17526
出品	-17527
和美	-17528
城縣	-17529
寓言	-17530
持股	-17531
撤離	-17532
文史	-17533
月后	-17534
机务	-17535
正比	-17536
毫升	-17537
氣氛	-17538
王府	-17539
结识	-17540
響應	-17541
麒麟	-17542
中全会	-17543
功能和	-17544
塞琉古	-17545
為首的	-17546
部分地区	-17547
▁Elst	-17548
▁Fire	-17549
::	-17550
mi	-17551
no	-17552
▁野	-17553
並稱	-17554
即今	-17555
單打	-17556
太大	-17557
开车	-17558
引爆	-17559
张伯	-17560
心率	-17561
懲罰	-17562
接納	-17563
是中	-17564
為首	-17565
着手	-17566
累计	-17567
自願	-17568
顧客	-17569
馬上	-17570
esp	-17571
uto	-17572
▁現代	-17573
咖啡馆	-17574
因为他	-17575
来存储	-17576
第十八	-17577
这个人	-17578
银行的	-17579
严重影响	-17580
如果我们	-17581
用户输入	-17582
七個	-17583
不高	-17584
之力	-17585
双重	-17586
師生	-17587
摄政	-17588
有個	-17589
法例	-17590
王世	-17591
自从	-17592
身的	-17593
送至	-17594
鲜明	-17595
▁内容	-17596
打印出	-17597
比较和	-17598
的小型	-17599
的行動	-17600
苗栗縣	-17601
蔡元培	-17602
▁par	-17603
美国政府	-17604
財團法人	-17605
opter	-17606
一向	-17607
之乡	-17608
印加	-17609
大山	-17610
想出	-17611
护照	-17612
時為	-17613
米特	-17614
纳税	-17615
聯手	-17616
臺幣	-17617
馬可	-17618
}-。	-17619
▁管理	-17620
您应该	-17621
的出现	-17622
的同時	-17623
的英文	-17624
next	-17625
▁Dis	-17626
一系列的	-17627
不断改进	-17628
寻求帮助	-17629
Na	-17630
SU	-17631
个数	-17632
乾燥	-17633
公国	-17634
内燃	-17635
城區	-17636
开拓	-17637
或多	-17638
拉普	-17639
支撐	-17640
月光	-17641
树立	-17642
绝望	-17643
血糖	-17644
配方	-17645
EST	-17646
了不少	-17647
计算出	-17648
过去的	-17649
马其顿	-17650
ains	-17651
▁Del	-17652
健康问题	-17653
Unicode	-17654
PN	-17655
上尉	-17656
人人	-17657
其间	-17658
否决	-17659
對待	-17660
差點	-17661
帕克	-17662
日以	-17663
決於	-17664
瞭解	-17665
總值	-17666
缓存	-17667
而定	-17668
赫爾	-17669
AST	-17670
”（）	-17671
例子是	-17672
分类器	-17673
南方的	-17674
博覽會	-17675
土家族	-17676
将数据	-17677
工業區	-17678
第一台	-17679
語言的	-17680
▁有一天	-17681
通常具有	-17682
▁Histor	-17683
▁也	-17684
光度	-17685
副都	-17686
參演	-17687
墓葬	-17688
外來	-17689
影子	-17690
未婚	-17691
求和	-17692
燕麦	-17693
版中	-17694
竟然	-17695
總數	-17696
諸如	-17697
貪污	-17698
违法	-17699
青蛙	-17700
一個人	-17701
中获得	-17702
傳統上	-17703
击败了	-17704
唐太宗	-17705
年電影	-17706
摩托车	-17707
王國的	-17708
的局面	-17709
语言学	-17710
值得一提	-17711
每个人的	-17712
等方面的	-17713
▁there	-17714
ei	-17715
▁十	-17716
▁范	-17717
亚科	-17718
停用	-17719
北纬	-17720
后勤	-17721
四百	-17722
孟子	-17723
帕特	-17724
指代	-17725
曲折	-17726
朝政	-17727
核糖	-17728
王妃	-17729
站点	-17730
米勒	-17731
讨伐	-17732
问答	-17733
CEO	-17734
Red	-17735
为首的	-17736
听起来	-17737
的一生	-17738
的区别	-17739
红楼梦	-17740
起到了	-17741
appy	-17742
大学校长	-17743
▁Cour	-17744
ショ	-17745
七个	-17746
也使	-17747
优异	-17748
光源	-17749
发的	-17750
唐人	-17751
塔爾	-17752
常在	-17753
東側	-17754
江北	-17755
由其	-17756
飼養	-17757
馬場	-17758
urs	-17759
在南京	-17760
宜蘭縣	-17761
志愿者	-17762
是一次	-17763
的商品	-17764
研究室	-17765
Fire	-17766
▁Not	-17767
▁She	-17768
移动应用	-17769
EV	-17770
公國	-17771
吉卜	-17772
央视	-17773
奪回	-17774
家鄉	-17775
尼采	-17776
橫跨	-17777
流逝	-17778
美齡	-17779
记得	-17780
道理	-17781
麥可	-17782
鼻子	-17783
▁城市	-17784
如果是	-17785
年成为	-17786
惊人的	-17787
石家庄	-17788
设备和	-17789
家庭成员	-17790
總統選舉	-17791
的主要原因	-17792
▁color	-17793
▁能	-17794
三級	-17795
上水	-17796
俘虏	-17797
动荡	-17798
南區	-17799
占用	-17800
大典	-17801
大将	-17802
布羅	-17803
引導	-17804
比分	-17805
直選	-17806
车道	-17807
高压	-17808
黃埔	-17809
GPS	-17810
vel	-17811
希伯來	-17812
幻灯片	-17813
是他的	-17814
殖民者	-17815
紀念館	-17816
以下单词	-17817
愛因斯坦	-17818
确保您的	-17819
这一过程	-17820
▁East	-17821
▁West	-17822
▁site	-17823
▁Green	-17824
oftware	-17825
▁Philos	-17826
东德	-17827
之音	-17828
他于	-17829
以供	-17830
伊凡	-17831
凱撒	-17832
叶子	-17833
士的	-17834
太保	-17835
守恒	-17836
引致	-17837
徽宗	-17838
拉里	-17839
武王	-17840
評為	-17841
适用	-17842
▁列传	-17843
主教练	-17844
升降機	-17845
西方的	-17846
▁Met	-17847
新成立的	-17848
主要分布于	-17849
▁Media	-17850
ライ	-17851
住院	-17852
商船	-17853
回去	-17854
帕拉	-17855
性交	-17856
教廷	-17857
日前	-17858
服飾	-17859
沿線	-17860
目光	-17861
说出	-17862
賽中	-17863
飞翔	-17864
▁本作	-17865
不清楚	-17866
体育馆	-17867
和行为	-17868
有時會	-17869
正常的	-17870
都是在	-17871
▁rel	-17872
阳光明媚	-17873
▁Lear	-17874
▁edition	-17875
▁;	-17876
三段	-17877
义和	-17878
出血	-17879
友誼	-17880
回来	-17881
声母	-17882
常有	-17883
旅館	-17884
社的	-17885
空格	-17886
華裔	-17887
著重	-17888
被困	-17889
选票	-17890
陈列	-17891
鹦鹉	-17892
▁XP	-17893
和美國	-17894
iddle	-17895
能够有效地	-17896
Mr	-17897
▁佐	-17898
上層	-17899
不成	-17900
则有	-17901
利奥	-17902
反转	-17903
啟發	-17904
抒情	-17905
村的	-17906
洋基	-17907
axy	-17908
▁許多	-17909
为企业	-17910
分公司	-17911
华国锋	-17912
向量机	-17913
年建立	-17914
极高的	-17915
水果和	-17916
理事長	-17917
精确的	-17918
职业发展	-17919
提供更好的	-17920
▁│	-17921
▁定	-17922
塞拉	-17923
大兴	-17924
孙权	-17925
巧妙	-17926
幸運	-17927
手册	-17928
汉书	-17929
线和	-17930
道菜	-17931
隨時	-17932
電阻	-17933
为自己	-17934
以保持	-17935
但最终	-17936
年落成	-17937
特斯拉	-17938
香港人	-17939
imal	-17940
▁公元前	-17941
各种各样的	-17942
对数据进行	-17943
岁的人口为	-17944
我们的生活	-17945
ifornia	-17946
▁Dictionary	-17947
岭南	-17948
忍受	-17949
書房	-17950
标语	-17951
桓公	-17952
火災	-17953
當成	-17954
粤语	-17955
而與	-17956
要么	-17957
议题	-17958
账号	-17959
那個	-17960
阴影	-17961
▁材料	-17962
▁苹果	-17963
内容和	-17964
的文件	-17965
第三个	-17966
慈禧太后	-17967
第一书记	-17968
網際網路	-17969
您可以根据	-17970
archive	-17971
党组	-17972
女巫	-17973
實習	-17974
感謝	-17975
成效	-17976
植树	-17977
比克	-17978
渗透	-17979
玻色	-17980
秦朝	-17981
穿上	-17982
站和	-17983
粉丝	-17984
翻炒	-17985
聘請	-17986
达赖	-17987
運營	-17988
%）。	-17989
▁全国	-17990
不公平	-17991
抗生素	-17992
杰出的	-17993
片頭曲	-17994
的一條	-17995
的中央	-17996
的权力	-17997
最后一次	-17998
▁Studies	-17999
▁所	-18000
占卜	-18001
及第	-18002
四名	-18003
执法	-18004
标本	-18005
的低	-18006
盐和	-18007
肥料	-18008
麻烦	-18009
；《	-18010
▁早期	-18011
▁输入	-18012
放置在	-18013
發言人	-18014
的现象	-18015
萬年前	-18016
选择了	-18017
。”（《	-18018
戰爭期間	-18019
斯特拉斯	-18020
时间管理	-18021
elect	-18022
index	-18023
▁Road	-18024
▁Europe	-18025
九江	-18026
但此	-18027
侦探	-18028
動的	-18029
動量	-18030
和人	-18031
多重	-18032
巴利	-18033
懂得	-18034
最強	-18035
机动	-18036
核准	-18037
約瑟	-18038
美金	-18039
西山	-18040
解密	-18041
解體	-18042
貧窮	-18043
開拓	-18044
間諜	-18045
门外	-18046
首張	-18047
了一位	-18048
什维克	-18049
决定了	-18050
战斗机	-18051
▁ISO	-18052
▁Jan	-18053
格鲁吉亚	-18054
这种方式	-18055
eyond	-18056
ディ	-18057
三代	-18058
互通	-18059
以一	-18060
勇往	-18061
台上	-18062
围攻	-18063
寓意	-18064
封信	-18065
平县	-18066
戰俘	-18067
更在	-18068
本文	-18069
特點	-18070
生病	-18071
用語	-18072
相撞	-18073
立花	-18074
纳尔	-18075
见解	-18076
论述	-18077
Ben	-18078
gin	-18079
事物的	-18080
大学和	-18081
大将军	-18082
对我们	-18083
成立後	-18084
的原则	-18085
的新聞	-18086
的著名	-18087
研究中	-18088
群体的	-18089
蓝色的	-18090
宗教改革	-18091
师范学校	-18092
經濟發展	-18093
obile	-18094
▁Gold	-18095
提供了一种	-18096
ification	-18097
不清	-18098
丽莎	-18099
停泊	-18100
川县	-18101
意即	-18102
戰線	-18103
牌的	-18104
的短	-18105
神戶	-18106
車型	-18107
郎中	-18108
题目	-18109
驗證	-18110
體操	-18111
NBC	-18112
世紀時	-18113
影响到	-18114
描述为	-18115
於台灣	-18116
於美國	-18117
的意見	-18118
的指示	-18119
真实的	-18120
azon	-18121
取而代之	-18122
Power	-18123
ustomer	-18124
▁element	-18125
DO	-18126
乐园	-18127
傳出	-18128
吸取	-18129
图标	-18130
在原	-18131
实质	-18132
平埔	-18133
战区	-18134
托尼	-18135
收复	-18136
更能	-18137
東歐	-18138
武宗	-18139
流水	-18140
無敵	-18141
芬奇	-18142
萬名	-18143
迪亞	-18144
退伍	-18145
院系	-18146
颁奖	-18147
URL	-18148
eel	-18149
以确定	-18150
張學友	-18151
每小时	-18152
的一名	-18153
蒙特利	-18154
雅典娜	-18155
▁气候变化	-18156
前所未有的	-18157
常住人口为	-18158
是一个非常	-18159
这可以通过	-18160
%（	-18161
▁希	-18162
之手	-18163
供电	-18164
奇蹟	-18165
宜昌	-18166
尼拉	-18167
怎样	-18168
換取	-18169
新秀	-18170
沮丧	-18171
犹豫	-18172
盟军	-18173
直線	-18174
納爾	-18175
胜地	-18176
遷移	-18177
天安门	-18178
成員國	-18179
的名义	-18180
青岛市	-18181
不仅仅是	-18182
回收利用	-18183
verse	-18184
▁Review	-18185
▁彭	-18186
▁行	-18187
之以	-18188
光碟	-18189
加裝	-18190
相容	-18191
笑容	-18192
签约	-18193
素质	-18194
赞成	-18195
通志	-18196
遗体	-18197
里得	-18198
）(	-18199
▁具有	-18200
取決於	-18201
土地的	-18202
安大略	-18203
年夏天	-18204
拉丁語	-18205
的分析	-18206
的前提	-18207
的增加	-18208
金大中	-18209
了大量的	-18210
克羅地亞	-18211
bgcolor	-18212
▁George	-18213
分布于中国大陆的	-18214
▁乌	-18215
侮辱	-18216
冰岛	-18217
刑部	-18218
唯有	-18219
埋葬	-18220
复数	-18221
太湖	-18222
家长	-18223
恰当	-18224
戰績	-18225
是將	-18226
暢銷	-18227
氧氣	-18228
浸信	-18229
直前	-18230
納斯	-18231
莉絲	-18232
萊塢	-18233
赔偿	-18234
那不	-18235
黎世	-18236
top	-18237
▁製作	-18238
可以与	-18239
在其中	-18240
地使用	-18241
方法和	-18242
生产和	-18243
的演出	-18244
的狀態	-18245
第二名	-18246
贝叶斯	-18247
还有一些	-18248
ucation	-18249
sk	-18250
世嘉	-18251
债券	-18252
入獄	-18253
减小	-18254
奥多	-18255
女友	-18256
後再	-18257
戒嚴	-18258
武藏	-18259
沈括	-18260
续航	-18261
远远	-18262
面糊	-18263
▁第七	-18264
▁角色	-18265
底特律	-18266
自行車	-18267
领导下	-18268
在此之前	-18269
需要通过	-18270
各少数民族	-18271
年亞洲運動會	-18272
PP	-18273
上传	-18274
中場	-18275
你想	-18276
動機	-18277
合資	-18278
大甲	-18279
天生	-18280
市境	-18281
次序	-18282
气味	-18283
绩效	-18284
航艦	-18285
西面	-18286
转而	-18287
辉煌	-18288
重申	-18289
▁作為	-18290
公民的	-18291
得票率	-18292
执行的	-18293
斐迪南	-18294
经验和	-18295
森林公园	-18296
克里斯蒂安	-18297
▁Polit	-18298
伟大	-18299
克隆	-18300
即便	-18301
发光	-18302
受命	-18303
咸丰	-18304
外型	-18305
李明	-18306
浪潮	-18307
西岸	-18308
辞去	-18309
陷阱	-18310
音效	-18311
黨籍	-18312
▁中将	-18313
▁國家	-18314
在国际	-18315
學校的	-18316
政策和	-18317
LGBT	-18318
ides	-18319
▁San	-18320
二十四年	-18321
棒球選手	-18322
▁Sing	-18323
星期一至五	-18324
年夏季奥林匹克运动会	-18325
iy	-18326
住民	-18327
加的	-18328
取材	-18329
娃娃	-18330
寫真	-18331
常規	-18332
採購	-18333
支线	-18334
泛指	-18335
牛仔	-18336
監禁	-18337
縣道	-18338
组长	-18339
肥沃	-18340
表单	-18341
達賴	-18342
餐馆	-18343
▁地球	-18344
与美国	-18345
再利用	-18346
副作用	-18347
提到了	-18348
斯蒂芬	-18349
的目標	-18350
aker	-18351
omen	-18352
共有人口	-18353
强化学习	-18354
殖民地的	-18355
▁book	-18356
计算机系统	-18357
Oricon	-18358
ration	-18359
▁Studio	-18360
KA	-18361
▁去	-18362
▁韓	-18363
和下	-18364
塞斯	-18365
天山	-18366
就職	-18367
年級	-18368
店的	-18369
总长	-18370
指派	-18371
推力	-18372
減輕	-18373
礼拜	-18374
站前	-18375
藥師	-18376
采购	-18377
它们都	-18378
的孩子	-18379
Li	-18380
化成	-18381
史丹	-18382
團的	-18383
嫁給	-18384
官邸	-18385
小野	-18386
弘治	-18387
形勢	-18388
得很	-18389
普羅	-18390
朝向	-18391
演说	-18392
致敬	-18393
连通	-18394
邻居	-18395
eff	-18396
參與了	-18397
天王星	-18398
巡洋舰	-18399
毛主席	-18400
的因素	-18401
的游戏	-18402
篇小说	-18403
风景区	-18404
pect	-18405
▁俄罗斯	-18406
国家安全	-18407
atory	-18408
pm	-18409
▁赛	-18410
並把	-18411
久保	-18412
出面	-18413
刻有	-18414
創刊	-18415
均可	-18416
奇異	-18417
安縣	-18418
將近	-18419
淋巴	-18420
的內	-18421
米饭	-18422
著手	-18423
要点	-18424
轉任	-18425
黨部	-18426
）　	-18427
med	-18428
則是在	-18429
然后将	-18430
的遊戲	-18431
臺北縣	-18432
麥理浩	-18433
黑色的	-18434
ahoo	-18435
大自然的	-18436
民主主義	-18437
achine	-18438
应对气候变化	-18439
GM	-18440
We	-18441
〜（	-18442
不丹	-18443
专题	-18444
伯克	-18445
军衔	-18446
学派	-18447
山丘	-18448
年是	-18449
支队	-18450
救助	-18451
樓高	-18452
的木	-18453
薪酬	-18454
麦卡	-18455
Bob	-18456
COM	-18457
TCP	-18458
不再是	-18459
探讨了	-18460
的含义	-18461
▁Ltd	-18462
客运专线	-18463
引人入胜	-18464
自然科学	-18465
▁Hand	-18466
▁page	-18467
George	-18468
Michael	-18469
TO	-18470
▁關	-18471
▁黎	-18472
两座	-18473
公有	-18474
卫兵	-18475
受邀	-18476
哥白	-18477
墜毀	-18478
專線	-18479
就职	-18480
极具	-18481
渦輪	-18482
街上	-18483
远征	-18484
重奏	-18485
，〈	-18486
▁学校	-18487
▁巴黎	-18488
利比亚	-18489
大流行	-18490
天然氣	-18491
的质量	-18492
艾滋病	-18493
類似於	-18494
购物体验	-18495
通过分析	-18496
籃球運動員	-18497
届全国人大常委会	-18498
▁紫	-18499
三子	-18500
也將	-18501
他用	-18502
唐书	-18503
困惑	-18504
土衛	-18505
幫忙	-18506
德曼	-18507
有五	-18508
殺了	-18509
環狀	-18510
田野	-18511
篡改	-18512
老板	-18513
薩摩	-18514
西側	-18515
遇見	-18516
ACK	-18517
▁小林	-18518
年建成	-18519
想象力	-18520
會議上	-18521
突出的	-18522
自由黨	-18523
驅逐艦	-18524
ague	-18525
iner	-18526
二十一年	-18527
短时间内	-18528
ocket	-18529
Instagram	-18530
二字	-18531
伊勢	-18532
传教	-18533
冷戰	-18534
利潤	-18535
合格	-18536
宣宗	-18537
对立	-18538
我愛	-18539
海关	-18540
無力	-18541
狩獵	-18542
瓜分	-18543
的愛	-18544
皇冠	-18545
結尾	-18546
華特	-18547
误解	-18548
预定	-18549
Cal	-18550
INE	-18551
在家中	-18552
森林中	-18553
源自於	-18554
發表了	-18555
的軍事	-18556
马德里	-18557
cent	-18558
udio	-18559
九龍巴士	-18560
阿拉伯人	-18561
▁Coun	-18562
▁type	-18563
HI	-18564
▁郑	-18565
佛寺	-18566
出賽	-18567
參數	-18568
大仙	-18569
季度	-18570
已于	-18571
後備	-18572
應對	-18573
签证	-18574
调控	-18575
走私	-18576
BAS	-18577
GNU	-18578
ids	-18579
ota	-18580
set	-18581
▁非洲	-18582
《》。	-18583
中含有	-18584
也无法	-18585
劃分為	-18586
南投縣	-18587
ovie	-18588
▁Sur	-18589
只有一个	-18590
的一個縣	-18591
行政区域	-18592
西班牙的	-18593
关系型数据库	-18594
並向	-18595
南華	-18596
哈姆	-18597
宗座	-18598
开关	-18599
江青	-18600
發育	-18601
的歌	-18602
等都	-18603
职权	-18604
至于	-18605
语族	-18606
贊成	-18607
风俗	-18608
馬利	-18609
asy	-18610
一般是	-18611
亞歷山	-18612
就读于	-18613
的清单	-18614
職人員	-18615
超过了	-18616
char	-18617
民主主义	-18618
不容	-18619
不符	-18620
事人	-18621
史诗	-18622
在野	-18623
抗爭	-18624
新颖	-18625
是谁	-18626
李嘉	-18627
歸還	-18628
省委	-18629
省略	-18630
秦國	-18631
级数	-18632
设为	-18633
钥匙	-18634
頂級	-18635
▁Of	-18636
▁越南	-18637
▁部分	-18638
做什么	-18639
半导体	-18640
大约为	-18641
幾內亞	-18642
瀏覽器	-18643
當中的	-18644
紀念碑	-18645
给出了	-18646
Cont	-18647
▁Ben	-18648
▁Rem	-18649
中使用的	-18650
标点符号	-18651
项目管理	-18652
tainment	-18653
岁及以上的人口为	-18654
香港浸會大學中醫藥學院	-18655
不止	-18656
五星	-18657
定都	-18658
弯曲	-18659
戏曲	-18660
文和	-18661
衰竭	-18662
运载	-18663
▁开始	-18664
「」，	-18665
指挥部	-18666
最後被	-18667
的健康	-18668
的區域	-18669
脂肪酸	-18670
aria	-18671
▁Sum	-18672
▁Sun	-18673
中華職棒	-18674
清華大學	-18675
十大中文金曲	-18676
年啟用的鐵路車站	-18677
之多	-18678
书面	-18679
可怕	-18680
家長	-18681
并有	-18682
或許	-18683
泉山	-18684
溶于	-18685
百度	-18686
的文	-18687
经由	-18688
ega	-18689
他自己	-18690
发挥着	-18691
古罗马	-18692
好莱坞	-18693
氏温度	-18694
焦虑和	-18695
爱丽丝	-18696
的人员	-18697
的正式	-18698
的科学	-18699
被称作	-18700
这首歌	-18701
合作伙伴	-18702
戰國時代	-18703
网络连接	-18704
国务院总理	-18705
〉（	-18706
之分	-18707
京师	-18708
叔父	-18709
德在	-18710
服饰	-18711
松鼠	-18712
機率	-18713
欧阳	-18714
步道	-18715
空白	-18716
而以	-18717
辛格	-18718
遇难	-18719
锦涛	-18720
驻扎	-18721
及文化	-18722
最大化	-18723
表达了	-18724
風格的	-18725
可以尝试	-18726
恶意软件	-18727
所造成的	-18728
quest	-18729
▁Free	-18730
▁cell	-18731
▁First	-18732
可以帮助人们	-18733
CF	-18734
sw	-18735
做成	-18736
內外	-18737
北至	-18738
展望	-18739
巴登	-18740
席次	-18741
幾種	-18742
承擔	-18743
最长	-18744
疯狂	-18745
石化	-18746
稻田	-18747
补给	-18748
▁Sw	-18749
分之二	-18750
创造出	-18751
前香港	-18752
是臺灣	-18753
東南部	-18754
正確的	-18755
的商业	-18756
的權力	-18757
给我们	-18758
航海家	-18759
被发现	-18760
ough	-18761
viro	-18762
客服代表	-18763
电子设备	-18764
冷卻	-18765
塔夫	-18766
复活	-18767
字幕	-18768
宝贵	-18769
宪章	-18770
拜訪	-18771
新式	-18772
旁边	-18773
机组	-18774
琵琶	-18775
街区	-18776
輕易	-18777
郵票	-18778
鼎盛	-18779
▁不过	-18780
少量的	-18781
并确定	-18782
艾森豪	-18783
采取了	-18784
sych	-18785
戰爭爆發	-18786
自由意志	-18787
▁into	-18788
变得越来越	-18789
人以	-18790
先天	-18791
政体	-18792
教训	-18793
气旋	-18794
相处	-18795
考克	-18796
转为	-18797
门户	-18798
aya	-18799
在德国	-18800
多年來	-18801
的发生	-18802
▁Pan	-18803
就是一个	-18804
都有自己的	-18805
▁online	-18806
▌▌	-18807
一对	-18808
亚瑟	-18809
千代	-18810
南宁	-18811
口语	-18812
君王	-18813
困擾	-18814
姿態	-18815
居屋	-18816
思潮	-18817
改正	-18818
暗杀	-18819
此為	-18820
渡輪	-18821
港督	-18822
游览	-18823
蓝莓	-18824
貴州	-18825
轻易	-18826
rat	-18827
▁分析	-18828
农产品	-18829
大氣層	-18830
日成立	-18831
月正式	-18832
的操作	-18833
让人们	-18834
勇往直前	-18835
意大利的	-18836
提出一个	-18837
科技大学	-18838
科羅拉多	-18839
进行分析	-18840
▁help	-18841
中共中央总书记	-18842
UD	-18843
▁入	-18844
▁銀	-18845
並對	-18846
中葉	-18847
也叫	-18848
停辦	-18849
先發	-18850
兵役	-18851
北越	-18852
大军	-18853
對決	-18854
平和	-18855
搞笑	-18856
涂抹	-18857
索斯	-18858
考证	-18859
華納	-18860
這位	-18861
麗絲	-18862
一起去	-18863
几分钟	-18864
古蘭經	-18865
是可以	-18866
的台灣	-18867
佛羅里達	-18868
吸引更多	-18869
季风气候	-18870
更好地管理	-18871
▁韦	-18872
▁風	-18873
一說	-18874
交战	-18875
作霖	-18876
光線	-18877
动量	-18878
圣殿	-18879
急行	-18880
接种	-18881
朴正	-18882
沫若	-18883
治愈	-18884
與李	-18885
防護	-18886
难题	-18887
▁家庭	-18888
包括有	-18889
复杂性	-18890
感谢您	-18891
最終在	-18892
ouis	-18893
sole	-18894
人民公社	-18895
化学物质	-18896
學者認為	-18897
▁Paris	-18898
▁system	-18899
▁background	-18900
ty	-18901
▁貝	-18902
不動	-18903
之死	-18904
咳嗽	-18905
堡的	-18906
居留	-18907
延遲	-18908
從小	-18909
機上	-18910
維基	-18911
转入	-18912
迁入	-18913
gor	-18914
▁PC	-18915
位置的	-18916
個人的	-18917
合法的	-18918
同义词	-18919
形文字	-18920
理事會	-18921
苏联的	-18922
菲爾德	-18923
预训练	-18924
占地面积	-18925
治疗方案	-18926
ister	-18927
委员会主任	-18928
%"	-18929
介于	-18930
呂布	-18931
和前	-18932
專題	-18933
復出	-18934
日內	-18935
普朗	-18936
更斯	-18937
更早	-18938
桌子	-18939
無雙	-18940
王氏	-18941
票价	-18942
纬度	-18943
莲花	-18944
買賣	-18945
车手	-18946
過了	-18947
黃帝	-18948
eek	-18949
「」。	-18950
中国人	-18951
中找到	-18952
低收入	-18953
到一个	-18954
张专辑	-18955
西元前	-18956
观众的	-18957
还能够	-18958
哈利波特	-18959
行政督察	-18960
棒球運動員	-18961
▁Design	-18962
信託	-18963
們的	-18964
句話	-18965
插件	-18966
时段	-18967
溫和	-18968
演繹	-18969
緊密	-18970
苷酸	-18971
迪亚	-18972
長久	-18973
附中	-18974
▁康熙	-18975
了这个	-18976
做出的	-18977
應用於	-18978
的总和	-18979
米哈伊	-18980
不可避免	-18981
取得了巨大的	-18982
第七次全国人口普查	-18983
▁姜	-18984
▁藍	-18985
伊比	-18986
判处	-18987
國安	-18988
壓迫	-18989
大部	-18990
清醒	-18991
盛世	-18992
臀鰭	-18993
血腥	-18994
這座	-18995
采纳	-18996
omb	-18997
恆星的	-18998
極大的	-18999
医科大学	-19000
可持续性	-19001
美国宪法	-19002
econd	-19003
istics	-19004
▁佛	-19005
下落	-19006
丛林	-19007
中尉	-19008
人中	-19009
会见	-19010
力士	-19011
多達	-19012
拥抱	-19013
放出	-19014
杂交	-19015
樓梯	-19016
母語	-19017
熱門	-19018
程車	-19019
轨迹	-19020
這也	-19021
饥荒	-19022
oma	-19023
▁完成	-19024
人之一	-19025
分佈於	-19026
動物的	-19027
已成為	-19028
有一段	-19029
然后再	-19030
產階級	-19031
自治區	-19032
製造的	-19033
语言和	-19034
路由器	-19035
aven	-19036
经济学家	-19037
东经	-19038
事項	-19039
即在	-19040
可知	-19041
基輔	-19042
外面	-19043
帖子	-19044
引言	-19045
正统	-19046
油田	-19047
油画	-19048
溫暖	-19049
真是	-19050
粉嶺	-19051
细分	-19052
贵妃	-19053
身穿	-19054
運轉	-19055
陛下	-19056
▁假设	-19057
上进行	-19058
中提到	-19059
使人们	-19060
司馬懿	-19061
在國際	-19062
对全球	-19063
平方呎	-19064
支持下	-19065
聖公會	-19066
金日成	-19067
▁ser	-19068
俄亥俄州	-19069
年毕业于	-19070
弗朗索瓦	-19071
加利福尼亚	-19072
下滑	-19073
依旧	-19074
地壳	-19075
大纲	-19076
揭幕	-19077
教父	-19078
明威	-19079
相接	-19080
神祇	-19081
罗那	-19082
設在	-19083
通话	-19084
齐国	-19085
Max	-19086
▁go	-19087
▁健康	-19088
參謀長	-19089
奥巴马	-19090
的威胁	-19091
问题和	-19092
▁Spr	-19093
国家主席	-19094
年出版的	-19095
进行比较	-19096
讲述了一个	-19097
集团有限公司	-19098
▁Mathemat	-19099
▁陶	-19100
▁魔	-19101
休斯	-19102
八里	-19103
化妆	-19104
口音	-19105
吞噬	-19106
夢幻	-19107
室外	-19108
巴林	-19109
數次	-19110
相交	-19111
矮星	-19112
羅賓	-19113
起事	-19114
軸心	-19115
這部	-19116
阿兹	-19117
Ang	-19118
▁人类	-19119
找不到	-19120
来控制	-19121
演算法	-19122
通常比	-19123
黨主席	-19124
olit	-19125
一段時間	-19126
两个数字	-19127
專科學校	-19128
▁Hill	-19129
ulation	-19130
全国人民代表大会	-19131
-）	-19132
▁÷	-19133
▁達	-19134
口碑	-19135
吾爾	-19136
壮观	-19137
它为	-19138
帶動	-19139
往後	-19140
每人	-19141
海中	-19142
理学	-19143
病患	-19144
的真	-19145
長篇	-19146
香山	-19147
高昂	-19148
dom	-19149
kin	-19150
不久後	-19151
北方的	-19152
是一件	-19153
着一个	-19154
二十六年	-19155
自然选择	-19156
▁Mess	-19157
假說	-19158
和田	-19159
客觀	-19160
庇护	-19161
楚國	-19162
機能	-19163
牲畜	-19164
福斯	-19165
縮小	-19166
諾曼	-19167
起步	-19168
进球	-19169
造就	-19170
遇刺	-19171
量化	-19172
阻擋	-19173
阿勒	-19174
len	-19175
ras	-19176
▁Kn	-19177
▁优化	-19178
》）。	-19179
占领了	-19180
和应用	-19181
对中国	-19182
年以后	-19183
等原因	-19184
被授予	-19185
國會議員	-19186
▁Mill	-19187
发展中国家	-19188
▁using	-19189
我是一个人工智能助手	-19190
PR	-19191
▁萊	-19192
不死	-19193
亦不	-19194
先驱	-19195
博文	-19196
各部	-19197
复旦	-19198
拓宽	-19199
生在	-19200
綽號	-19201
自助	-19202
ban	-19203
▁经过	-19204
不断的	-19205
二十二	-19206
使他们	-19207
包括在	-19208
它们是	-19209
會產生	-19210
蒙古人	-19211
▁Leg	-19212
位於香港	-19213
▁Phot	-19214
哈萨克斯坦	-19215
数据可视化	-19216
服务提供商	-19217
年世界盃足球賽	-19218
其間	-19219
加藤	-19220
厂商	-19221
壓制	-19222
敵軍	-19223
為該	-19224
粉碎	-19225
花朵	-19226
變遷	-19227
近乎	-19228
配有	-19229
開出	-19230
並獲得	-19231
各式各	-19232
新竹縣	-19233
總教練	-19234
行星的	-19235
西日本	-19236
那就是	-19237
他们认为	-19238
它们能够	-19239
方便用户	-19240
▁Church	-19241
五角	-19242
京師	-19243
仍以	-19244
儒略	-19245
兩度	-19246
卡夫	-19247
卧室	-19248
合體	-19249
屏蔽	-19250
帶到	-19251
微的	-19252
推导	-19253
晚清	-19254
武铉	-19255
河中	-19256
波爾	-19257
游记	-19258
火炬	-19259
續集	-19260
航母	-19261
逼近	-19262
阿密	-19263
▁這是	-19264
个人口	-19265
大使館	-19266
完成後	-19267
是當時	-19268
瑪麗亞	-19269
的概率	-19270
的環境	-19271
配备了	-19272
龐大的	-19273
亿立方米	-19274
如何影响	-19275
ector	-19276
ozilla	-19277
▁Development	-19278
二维	-19279
傳教	-19280
務局	-19281
升序	-19282
基的	-19283
外地	-19284
奶奶	-19285
字體	-19286
巴里	-19287
托邦	-19288
提拔	-19289
新民	-19290
普尔	-19291
月和	-19292
校名	-19293
海戰	-19294
熔岩	-19295
特派	-19296
給出	-19297
蘇州	-19298
蘇軍	-19299
试着	-19300
軟條	-19301
重重	-19302
Sky	-19303
rot	-19304
保持着	-19305
大屠杀	-19306
染色體	-19307
萨斯州	-19308
阿道夫	-19309
随后的	-19310
首次在	-19311
▁Lee	-19312
▁Pet	-19313
人口数量	-19314
候补委员	-19315
城际铁路	-19316
((	-19317
ME	-19318
℃。	-19319
優異	-19320
凯撒	-19321
勃勃	-19322
取景	-19323
口径	-19324
洛林	-19325
科索	-19326
簡介	-19327
陣地	-19328
音節	-19329
主要为	-19330
可能对	-19331
多元化	-19332
徹斯特	-19333
我们在	-19334
是德国	-19335
是研究	-19336
芭蕾舞	-19337
属的一种	-19338
更多关于	-19339
的支持下	-19340
cient	-19341
带来更多的	-19342
,"	-19343
一女	-19344
东莞	-19345
丽叶	-19346
兹别	-19347
净化	-19348
占星	-19349
執照	-19350
引述	-19351
截然	-19352
會與	-19353
照耀	-19354
甘蔗	-19355
看守	-19356
神仙	-19357
蘭卡	-19358
要有	-19359
评选	-19360
起降	-19361
都将	-19362
離島	-19363
今河南	-19364
场比赛	-19365
增加值	-19366
是英国	-19367
最重要	-19368
海王星	-19369
的平方	-19370
的建議	-19371
社會學	-19372
許多人	-19373
well	-19374
▁Die	-19375
短篇小说	-19376
之間的關係	-19377
立法會選舉	-19378
搜索引擎优化	-19379
▁Theory	-19380
与他	-19381
伯斯	-19382
依附	-19383
傲慢	-19384
元和	-19385
全能	-19386
半部	-19387
变动	-19388
城南	-19389
層面	-19390
山南	-19391
市委	-19392
平凡	-19393
总管	-19394
想起	-19395
拍賣	-19396
振興	-19397
日及	-19398
梅克	-19399
海因	-19400
的風	-19401
複數	-19402
试点	-19403
軍政	-19404
鲸鱼	-19405
小學校	-19406
由于其	-19407
的分類	-19408
简短的	-19409
紐約市	-19410
编译器	-19411
许可证	-19412
Amer	-19413
List	-19414
ette	-19415
四分之一	-19416
教育學院	-19417
自由主義	-19418
▁LIVE	-19419
分布在中国大陆的	-19420
!"	-19421
为食	-19422
人等	-19423
伦斯	-19424
侵蚀	-19425
借款	-19426
固有	-19427
城乡	-19428
專屬	-19429
巫師	-19430
畫作	-19431
礦物	-19432
福田	-19433
科特	-19434
称帝	-19435
糖果	-19436
衡阳	-19437
豪华	-19438
阻挡	-19439
十字军	-19440
為什麼	-19441
的支持者	-19442
umber	-19443
中国国民党	-19444
一對	-19445
从来	-19446
吞并	-19447
和安	-19448
均以	-19449
姿势	-19450
實用	-19451
布兰	-19452
常任	-19453
情景	-19454
振动	-19455
求助	-19456
狀元	-19457
祖国	-19458
童話	-19459
花了	-19460
貨櫃	-19461
运转	-19462
通航	-19463
Per	-19464
▁算法	-19465
会出现	-19466
学习者	-19467
恢复了	-19468
的代码	-19469
的性格	-19470
▁是一种	-19471
中的角色	-19472
句子中的	-19473
感谢您的	-19474
搜索结果	-19475
睡眠质量	-19476
阿拉伯语	-19477
有助于减少	-19478
根据给定的	-19479
风景名胜区	-19480
是非常重要的	-19481
一职	-19482
令其	-19483
分工	-19484
執法	-19485
投身	-19486
拉尔	-19487
旗艦	-19488
與之	-19489
酸性	-19490
XML	-19491
决定的	-19492
境內的	-19493
珍珠港	-19494
告诉我们	-19495
我们能够	-19496
有限责任	-19497
全国人大常委会	-19498
MG	-19499
TF	-19500
▁~	-19501
上杉	-19502
丛中	-19503
先知	-19504
天上	-19505
总共	-19506
收看	-19507
政協	-19508
樹木	-19509
步驟	-19510
液态	-19511
臭氧	-19512
近親	-19513
预约	-19514
uit	-19515
▁皇帝	-19516
另一些	-19517
和方法	-19518
多倫多	-19519
社会中	-19520
空间站	-19521
自由和	-19522
被譽為	-19523
▁any	-19524
▁Cult	-19525
计算机能够	-19526
▁program	-19527
▁曲	-19528
▁曼	-19529
三菱	-19530
不上	-19531
体操	-19532
典藏	-19533
北約	-19534
厨师	-19535
太上	-19536
带动	-19537
影業	-19538
惠州	-19539
时被	-19540
本次	-19541
椅子	-19542
江陵	-19543
海盗	-19544
烏拉	-19545
長崎	-19546
首屆	-19547
Gal	-19548
▁现代	-19549
▁超級	-19550
华氏度	-19551
外圍賽	-19552
的决策	-19553
直升机	-19554
節目的	-19555
與英國	-19556
觀察到	-19557
開始了	-19558
orry	-19559
vert	-19560
▁个性化	-19561
成為一個	-19562
ality	-19563
▁Found	-19564
overnment	-19565
▁兩	-19566
》「	-19567
交出	-19568
关东	-19569
启超	-19570
家屬	-19571
尤里	-19572
影音	-19573
承包	-19574
挫折	-19575
新潟	-19576
曾以	-19577
有如	-19578
朝阳	-19579
樣本	-19580
直立	-19581
稍後	-19582
索不	-19583
舉例	-19584
送給	-19585
雙重	-19586
黨外	-19587
▁dp	-19588
不容易	-19589
发展和	-19590
哈薩克	-19591
国内外	-19592
宇宙中	-19593
普遍的	-19594
流媒体	-19595
独一无	-19596
耶和華	-19597
萬港元	-19598
elle	-19599
inae	-19600
▁Def	-19601
商業電台	-19602
地球表面	-19603
在中國大陸	-19604
▁right	-19605
万里	-19606
传承	-19607
变更	-19608
和李	-19609
惡劣	-19610
文昌	-19611
斗六	-19612
正當	-19613
白山	-19614
禁忌	-19615
聚焦	-19616
胡佛	-19617
Can	-19618
史学家	-19619
处理和	-19620
它通常	-19621
并促进	-19622
後不久	-19623
會造成	-19624
特洛甫	-19625
現今的	-19626
第二屆	-19627
适应性	-19628
都督府	-19629
oyal	-19630
亞美尼亞	-19631
使用的是	-19632
大陆时期	-19633
學士學位	-19634
太阳能电池	-19635
▁Frank	-19636
py	-19637
亞運	-19638
伸展	-19639
公孫	-19640
内务	-19641
历经	-19642
压迫	-19643
字面	-19644
左手	-19645
布罗	-19646
帕尔	-19647
此举	-19648
民歌	-19649
流體	-19650
瘋狂	-19651
石刻	-19652
站厅	-19653
豪斯	-19654
ULL	-19655
ela	-19656
ias	-19657
mun	-19658
劳动党	-19659
半衰期	-19660
和香港	-19661
已经在	-19662
所作的	-19663
方便地	-19664
的保护	-19665
的物理	-19666
让客户	-19667
通常为	-19668
▁her	-19669
但實際上	-19670
修辞手法	-19671
少數民族	-19672
当地居民	-19673
德川家康	-19674
這是因為	-19675
香港配音	-19676
比较和对比	-19677
ashington	-19678
BB	-19679
傳達	-19680
头痛	-19681
寺廟	-19682
接入	-19683
玛格	-19684
白石	-19685
祺瑞	-19686
能被	-19687
警報	-19688
鄉民	-19689
酋长	-19690
霍普	-19691
：-	-19692
SEO	-19693
个字符	-19694
但如果	-19695
国防部	-19696
比上年	-19697
的客户	-19698
的節目	-19699
第十七	-19700
iger	-19701
rian	-19702
官方语言	-19703
ledge	-19704
迪士尼樂園	-19705
elligence	-19706
▁柯	-19707
万余	-19708
下有	-19709
不适	-19710
县和	-19711
可樂	-19712
坚决	-19713
堡垒	-19714
天主	-19715
天後	-19716
有线	-19717
波长	-19718
清潔	-19719
点数	-19720
組別	-19721
署長	-19722
自轉	-19723
處分	-19724
釋出	-19725
PSP	-19726
以至于	-19727
年年底	-19728
的一份	-19729
的味道	-19730
的特定	-19731
足球員	-19732
read	-19733
▁Are	-19734
▁Sup	-19735
▁sim	-19736
人力资源	-19737
年诺贝尔	-19738
输入数据	-19739
gr	-19740
上腺	-19741
低的	-19742
初代	-19743
刺杀	-19744
华丽	-19745
南島	-19746
反向	-19747
合計	-19748
宣战	-19749
成语	-19750
手套	-19751
拳道	-19752
揭發	-19753
校董	-19754
理學	-19755
興盛	-19756
費城	-19757
齐齐	-19758
▁政治	-19759
二世的	-19760
会发生	-19761
体现了	-19762
数字化	-19763
段祺瑞	-19764
的类型	-19765
等工作	-19766
chen	-19767
以下陈述	-19768
列出五个	-19769
副委员长	-19770
能够帮助您	-19771
Office	-19772
▁個	-19773
▁單	-19774
▁蕭	-19775
▁電	-19776
东晋	-19777
嚴厲	-19778
固态	-19779
大调	-19780
天神	-19781
孙子	-19782
学金	-19783
官網	-19784
宣帝	-19785
我对	-19786
政界	-19787
易懂	-19788
架空	-19789
生菜	-19790
精致	-19791
贫穷	-19792
边防	-19793
追捕	-19794
Vol	-19795
企业和	-19796
和评估	-19797
哥伦布	-19798
在整个	-19799
最接近	-19800
的性能	-19801
orts	-19802
特區政府	-19803
委员会主席	-19804
▁Martin	-19805
’，	-19806
▁q	-19807
也常	-19808
兑换	-19809
[...]
