<pad>	0
<unk>	0
<s>	0
</s>	0
<0x00>	0
<0x01>	0
<0x02>	0
<0x03>	0
<0x04>	0
<0x05>	0
<0x06>	0
<0x07>	0
<0x08>	0
<0x09>	0
<0x0A>	0
<0x0B>	0
<0x0C>	0
<0x0D>	0
<0x0E>	0
<0x0F>	0
<0x10>	0
<0x11>	0
<0x12>	0
<0x13>	0
<0x14>	0
<0x15>	0
<0x16>	0
<0x17>	0
<0x18>	0
<0x19>	0
<0x1A>	0
<0x1B>	0
<0x1C>	0
<0x1D>	0
<0x1E>	0
<0x1F>	0
<0x20>	0
<0x21>	0
<0x22>	0
<0x23>	0
<0x24>	0
<0x25>	0
<0x26>	0
<0x27>	0
<0x28>	0
<0x29>	0
<0x2A>	0
<0x2B>	0
<0x2C>	0
<0x2D>	0
<0x2E>	0
<0x2F>	0
<0x30>	0
<0x31>	0
<0x32>	0
<0x33>	0
<0x34>	0
<0x35>	0
<0x36>	0
<0x37>	0
<0x38>	0
<0x39>	0
<0x3A>	0
<0x3B>	0
<0x3C>	0
<0x3D>	0
<0x3E>	0
<0x3F>	0
<0x40>	0
<0x41>	0
<0x42>	0
<0x43>	0
<0x44>	0
<0x45>	0
<0x46>	0
<0x47>	0
<0x48>	0
<0x49>	0
<0x4A>	0
<0x4B>	0
<0x4C>	0
<0x4D>	0
<0x4E>	0
<0x4F>	0
<0x50>	0
<0x51>	0
<0x52>	0
<0x53>	0
<0x54>	0
<0x55>	0
<0x56>	0
<0x57>	0
<0x58>	0
<0x59>	0
<0x5A>	0
<0x5B>	0
<0x5C>	0
<0x5D>	0
<0x5E>	0
<0x5F>	0
<0x60>	0
<0x61>	0
<0x62>	0
<0x63>	0
<0x64>	0
<0x65>	0
<0x66>	0
<0x67>	0
<0x68>	0
<0x69>	0
<0x6A>	0
<0x6B>	0
<0x6C>	0
<0x6D>	0
<0x6E>	0
<0x6F>	0
<0x70>	0
<0x71>	0
<0x72>	0
<0x73>	0
<0x74>	0
<0x75>	0
<0x76>	0
<0x77>	0
<0x78>	0
<0x79>	0
<0x7A>	0
<0x7B>	0
<0x7C>	0
<0x7D>	0
<0x7E>	0
<0x7F>	0
<0x80>	0
<0x81>	0
<0x82>	0
<0x83>	0
<0x84>	0
<0x85>	0
<0x86>	0
<0x87>	0
<0x88>	0
<0x89>	0
<0x8A>	0
<0x8B>	0
<0x8C>	0
<0x8D>	0
<0x8E>	0
<0x8F>	0
<0x90>	0
<0x91>	0
<0x92>	0
<0x93>	0
<0x94>	0
<0x95>	0
<0x96>	0
<0x97>	0
<0x98>	0
<0x99>	0
<0x9A>	0
<0x9B>	0
<0x9C>	0
<0x9D>	0
<0x9E>	0
<0x9F>	0
<0xA0>	0
<0xA1>	0
<0xA2>	0
<0xA3>	0
<0xA4>	0
<0xA5>	0
<0xA6>	0
<0xA7>	0
<0xA8>	0
<0xA9>	0
<0xAA>	0
<0xAB>	0
<0xAC>	0
<0xAD>	0
<0xAE>	0
<0xAF>	0
<0xB0>	0
<0xB1>	0
<0xB2>	0
<0xB3>	0
<0xB4>	0
<0xB5>	0
<0xB6>	0
<0xB7>	0
<0xB8>	0
<0xB9>	0
<0xBA>	0
<0xBB>	0
<0xBC>	0
<0xBD>	0
<0xBE>	0
<0xBF>	0
<0xC0>	0
<0xC1>	0
<0xC2>	0
<0xC3>	0
<0xC4>	0
<0xC5>	0
<0xC6>	0
<0xC7>	0
<0xC8>	0
<0xC9>	0
<0xCA>	0
<0xCB>	0
<0xCC>	0
<0xCD>	0
<0xCE>	0
<0xCF>	0
<0xD0>	0
<0xD1>	0
<0xD2>	0
<0xD3>	0
<0xD4>	0
<0xD5>	0
<0xD6>	0
<0xD7>	0
<0xD8>	0
<0xD9>	0
<0xDA>	0
<0xDB>	0
<0xDC>	0
<0xDD>	0
<0xDE>	0
<0xDF>	0
<0xE0>	0
<0xE1>	0
<0xE2>	0
<0xE3>	0
<0xE4>	0
<0xE5>	0
<0xE6>	0
<0xE7>	0
<0xE8>	0
<0xE9>	0
<0xEA>	0
<0xEB>	0
<0xEC>	0
<0xED>	0
<0xEE>	0
<0xEF>	0
<0xF0>	0
<0xF1>	0
<0xF2>	0
<0xF3>	0
<0xF4>	0
<0xF5>	0
<0xF6>	0
<0xF7>	0
<0xF8>	0
<0xF9>	0
<0xFA>	0
<0xFB>	0
<0xFC>	0
<0xFD>	0
<0xFE>	0
<0xFF>	0
▁t	-0
▁a	-1
he	-2
in	-3
on	-4
re	-5
▁the	-6
at	-7
er	-8
▁s	-9
▁o	-10
is	-11
▁c	-12
en	-13
or	-14
it	-15
al	-16
es	-17
▁w	-18
▁f	-19
an	-20
ion	-21
▁p	-22
le	-23
▁b	-24
▁of	-25
▁an	-26
ar	-27
▁d	-28
ou	-29
▁m	-30
ing	-31
▁in	-32
ic	-33
ed	-34
▁to	-35
ct	-36
▁th	-37
om	-38
▁$	-39
▁is	-40
▁and	-41
▁e	-42
st	-43
▁n	-44
▁I	-45
et	-46
▁T	-47
ro	-48
▁\	-49
ve	-50
ent	-51
ra	-52
as	-53
▁(	-54
▁l	-55
ut	-56
▁h	-57
im	-58
ot	-59
▁re	-60
ly	-61
ation	-62
ll	-63
ow	-64
▁g	-65
▁S	-66
ig	-67
▁A	-68
▁for	-69
ce	-70
▁u	-71
##	-72
se	-73
▁y	-74
ol	-75
▁that	-76
▁be	-77
qu	-78
um	-79
▁on	-80
am	-81
ul	-82
id	-83
▁C	-84
▁=	-85
if	-86
ver	-87
ch	-88
▁it	-89
ith	-90
▁you	-91
▁The	-92
▁M	-93
▁P	-94
▁st	-95
▁con	-96
▁pro	-97
od	-98
ge	-99
ay	-100
ur	-101
▁v	-102
▁with	-103
il	-104
▁as	-105
..	-106
ate	-107
▁are	-108
ab	-109
▁F	-110
ction	-111
pl	-112
▁ex	-113
▁-	-114
el	-115
te	-116
un	-117
▁we	-118
ri	-119
▁at	-120
▁wh	-121
▁D	-122
$$	-123
igh	-124
▁W	-125
ir	-126
ter	-127
os	-128
▁this	-129
▁R	-130
pe	-131
est	-132
▁com	-133
▁B	-134
}{	-135
ist	-136
▁r	-137
▁H	-138
▁##	-139
▁can	-140
mat	-141
ad	-142
▁L	-143
▁$$	-144
ight	-145
▁or	-146
▁by	-147
▁N	-148
▁E	-149
▁se	-150
nd	-151
res	-152
▁de	-153
ple	-154
rac	-155
ity	-156
▁•	-157
her	-158
iv	-159
ave	-160
ac	-161
ore	-162
per	-163
▁not	-164
ive	-165
ld	-166
ine	-167
ke	-168
▁su	-169
and	-170
em	-171
pt	-172
nt	-173
frac	-174
ant	-175
rom	-176
▁$\	-177
{\	-178
art	-179
int	-180
ial	-181
ment	-182
▁O	-183
ill	-184
▁al	-185
us	-186
▁+	-187
▁ne	-188
ers	-189
▁G	-190
▁do	-191
ble	-192
▁have	-193
▁us	-194
ta	-195
th	-196
ould	-197
end	-198
ure	-199
pp	-200
ical	-201
fe	-202
_{	-203
▁Th	-204
}$	-205
▁from	-206
▁x	-207
ess	-208
ich	-209
▁sh	-210
ph	-211
▁po	-212
▁In	-213
ies	-214
math	-215
ag	-216
oc	-217
ft	-218
iz	-219
og	-220
^{	-221
ue	-222
▁J	-223
ult	-224
▁whe	-225
▁ch	-226
xt	-227
▁me	-228
ber	-229
ome	-230
▁qu	-231
--	-232
ind	-233
▁if	-234
▁"	-235
▁he	-236
ions	-237
unction	-238
▁k	-239
ations	-240
ust	-241
▁le	-242
orm	-243
▁ma	-244
age	-245
▁which	-246
▁num	-247
▁equ	-248
▁all	-249
}\	-250
able	-251
▁#	-252
fere	-253
...	-254
ang	-255
act	-256
▁but	-257
all	-258
▁ab	-259
__	-260
▁[	-261
▁{	-262
rou	-263
ass	-264
ide	-265
).	-266
▁will	-267
ort	-268
oo	-269
ans	-270
ud	-271
▁function	-272
ated	-273
ite	-274
ame	-275
put	-276
),	-277
▁tr	-278
ps	-279
▁res	-280
▁one	-281
ase	-282
red	-283
ime	-284
our	-285
▁'	-286
out	-287
ect	-288
ork	-289
ener	-290
right	-291
ther	-292
to	-293
du	-294
▁val	-295
ard	-296
▁so	-297
ack	-298
ari	-299
ace	-300
ens	-301
▁cl	-302
▁im	-303
ach	-304
▁mat	-305
▁co	-306
▁U	-307
▁Y	-308
ast	-309
ign	-310
ally	-311
▁j	-312
▁un	-313
▁This	-314
▁V	-315
ma	-316
▁sol	-317
ution	-318
ew	-319
ition	-320
▁&	-321
▁pl	-322
▁###	-323
ics	-324
▁has	-325
▁dif	-326
▁use	-327
▁mod	-328
ary	-329
ile	-330
wo	-331
ance	-332
▁there	-333
▁your	-334
▁out	-335
▁–	-336
▁then	-337
}}	-338
erm	-339
cl	-340
ence	-341
▁If	-342
▁sp	-343
ous	-344
ata	-345
▁K	-346
are	-347
)$	-348
▁some	-349
▁sy	-350
▁ad	-351
▁li	-352
ub	-353
left	-354
ong	-355
ric	-356
ord	-357
ff	-358
ond	-359
ample	-360
▁two	-361
ep	-362
blem	-363
▁>	-364
so	-365
ost	-366
▁set	-367
▁$$\	-368
ound	-369
text	-370
▁per	-371
▁ar	-372
▁point	-373
▁any	-374
fin	-375
gh	-376
ys	-377
▁ver	-378
▁number	-379
ru	-380
▁We	-381
▁form	-382
now	-383
▁would	-384
oll	-385
ks	-386
form	-387
cc	-388
ator	-389
av	-390
▁was	-391
▁part	-392
▁sim	-393
▁sc	-394
ress	-395
ree	-396
▁differe	-397
▁more	-398
▁comp	-399
irst	-400
ject	-401
▁ob	-402
ain	-403
▁spe	-404
▁get	-405
ire	-406
▁inte	-407
eg	-408
▁other	-409
  	-410
eth	-411
ry	-412
▁what	-413
ory	-414
one	-415
▁time	-416
ode	-417
▁how	-418
ip	-419
▁problem	-420
rib	-421
ollow	-422
▁than	-423
ents	-424
▁work	-425
ram	-426
▁pos	-427
▁using	-428
we	-429
▁It	-430
cul	-431
▁i	-432
ative	-433
▁bet	-434
▁Wh	-435
▁up	-436
ose	-437
ap	-438
ak	-439
▁ele	-440
row	-441
▁go	-442
▁where	-443
▁need	-444
▁}	-445
▁giv	-446
▁like	-447
▁:	-448
▁inter	-449
▁Q	-450
au	-451
▁when	-452
▁follow	-453
▁know	-454
stem	-455
▁dis	-456
▁cal	-457
▁vari	-458
▁my	-459
vel	-460
▁only	-461
▁.	-462
ink	-463
tain	-464
▁For	-465
▁about	-466
▁dist	-467
les	-468
op	-469
▁– 	-470
▁sub	-471
enc	-472
▁no	-473
$.	-474
▁data	-475
▁app	-476
rt	-477
ook	-478
sw	-479
▁Re	-480
▁<	-481
▁line	-482
estion	-483
(\	-484
▁each	-485
▁first	-486
▁am	-487
ice	-488
sum	-489
imes	-490
ates	-491
the	-492
▁ev	-493
▁gener	-494
com	-495
▁also	-496
mathb	-497
▁cont	-498
▁An	-499
▁Mat	-500
▁cor	-501
----	-502
plic	-503
rm	-504
▁####	-505
ular	-506
}$$	-507
▁man	-508
▁different	-509
▁value	-510
ors	-511
▁same	-512
▁St	-513
=\	-514
ange	-515
ove	-516
▁te	-517
▁find	-518
ible	-519
▁pre	-520
ility	-521
low	-522
dot	-523
▁just	-524
ear	-525
ov	-526
nder	-527
▁does	-528
▁fi	-529
▁show	-530
nce	-531
▁Con	-532
cre	-533
qrt	-534
raph	-535
ize	-536
▁model	-537
▁Pro	-538
eng	-539
▁exp	-540
▁result	-541
▁|	-542
ays	-543
$,	-544
▁used	-545
ex	-546
▁they	-547
its	-548
ween	-549
▁integ	-550
▁add	-551
▁trans	-552
▁over	-553
▁const	-554
▁/	-555
▁answ	-556
▁should	-557
ues	-558
eld	-559
▁How	-560
led	-561
ec	-562
▁cur	-563
▁...	-564
▁,	-565
▁ind	-566
▁z	-567
▁between	-568
▁its	-569
rad	-570
▁system	-571
ating	-572
vi	-573
ount	-574
sqrt	-575
))	-576
▁rel	-577
▁par	-578
▁rep	-579
____	-580
old	-581
▁into	-582
ments	-583
ual	-584
▁given	-585
▁such	-586
oth	-587
▁ 	-588
▁example	-589
rix	-590
ause	-591
▁under	-592
▁ro	-593
ib	-594
ise	-595
▁see	-596
pect	-597
▁You	-598
▁des	-599
ces	-600
▁Ex	-601
▁these	-602
ings	-603
play	-604
lo	-605
▁wr	-606
▁So	-607
urn	-608
ient	-609
ough	-610
▁ty	-611
▁imp	-612
▁*	-613
▁question	-614
ific	-615
ethod	-616
hemat	-617
▁comm	-618
▁defin	-619
yle	-620
▁ap	-621
==	-622
ract	-623
cal	-624
tt	-625
▁equation	-626
resent	-627
pi	-628
cess	-629
ne	-630
ption	-631
▁following	-632
▁comple	-633
▁det	-634
▁term	-635
▁mult	-636
▁What	-637
▁bec	-638
ian	-639
ser	-640
ia	-641
▁grou	-642
▁inst	-643
ince	-644
▁X	-645
ruct	-646
line	-647
▁ph	-648
▁want	-649
ron	-650
bab	-651
▁Com	-652
▁non	-653
der	-654
ied	-655
▁answer	-656
▁way	-657
very	-658
▁bas	-659
als	-660
▁case	-661
▁pa	-662
ower	-663
▁spec	-664
▁new	-665
▁pr	-666
▁class	-667
▁produ	-668
ck	-669
▁calcul	-670
ake	-671
set	-672
ail	-673
cdot	-674
▁en	-675
ray	-676
▁may	-677
olog	-678
);	-679
mathrm	-680
▁fact	-681
sion	-682
arg	-683
ically	-684
itt	-685
▁reg	-686
ick	-687
▁acc	-688
▁them	-689
▁ag	-690
▁As	-691
bers	-692
▁appro	-693
}{\	-694
▁don	-695
▁col	-696
amet	-697
gy	-698
)(	-699
style	-700
ie	-701
▁sec	-702
dis	-703
fore	-704
ctor	-705
ffic	-706
▁cons	-707
▁Z	-708
ater	-709
▁Al	-710
▁here	-711
▁could	-712
▁“	-713
▁method	-714
val	-715
ument	-716
▁Ch	-717
ning	-718
,\	-719
hen	-720
con	-721
pr	-722
fect	-723
xim	-724
irc	-725
)\	-726
egin	-727
rent	-728
▁solution	-729
▁because	-730
▁think	-731
cent	-732
angle	-733
▁Qu	-734
ug	-735
omet	-736
▁sm	-737
▁fin	-738
playstyle	-739
▁comput	-740
▁probab	-741
ict	-742
ote	-743
▁He	-744
begin	-745
▁act	-746
ength	-747
▁dire	-748
bra	-749
ithm	-750
▁corre	-751
▁code	-752
▁str	-753
▁ser	-754
ox	-755
▁make	-756
▁field	-757
gor	-758
▁Let	-759
▁min	-760
mathbb	-761
▁@	-762
arge	-763
▁meas	-764
▁very	-765
▁ve	-766
of	-767
▁their	-768
▁poss	-769
▁values	-770
sc	-771
▁int	-772
▁sign	-773
}^{	-774
displaystyle	-775
▁There	-776
▁right	-777
▁state	-778
uch	-779
ced	-780
ually	-781
clud	-782
err	-783
ature	-784
▁tri	-785
▁ed	-786
pert	-787
▁hel	-788
▁stud	-789
fter	-790
▁every	-791
▁To	-792
▁many	-793
▁prov	-794
▁ac	-795
▁test	-796
.,	-797
▁both	-798
over	-799
ole	-800
hes	-801
ctions	-802
ral	-803
hed	-804
tern	-805
ath	-806
▁second	-807
lect	-808
▁oper	-809
▁now	-810
▁our	-811
ever	-812
ures	-813
▁space	-814
▁bl	-815
▁partic	-816
gebra	-817
▁sum	-818
itive	-819
ax	-820
cept	-821
▁end	-822
},	-823
▁order	-824
▁ext	-825
}^	-826
vers	-827
//	-828
ark	-829
▁numbers	-830
▁mean	-831
ization	-832
ational	-833
ages	-834
ci	-835
iew	-836
app	-837
▁distrib	-838
▁start	-839
ell	-840
ik	-841
yn	-842
▁look	-843
ss	-844
▁been	-845
▁multi	-846
-\	-847
▁post	-848
▁anal	-849
ym	-850
da	-851
▁graph	-852
arrow	-853
▁\\	-854
formation	-855
ify	-856
ampl	-857
ider	-858
▁requ	-859
)$$	-860
▁elect	-861
amb	-862
▁Un	-863
▁above	-864
▁object	-865
▁di	-866
theta	-867
ish	-868
up	-869
▁ener	-870
▁ret	-871
pha	-872
own	-873
ting	-874
)=	-875
ero	-876
AT	-877
▁But	-878
▁real	-879
▁functions	-880
▁points	-881
sin	-882
▁inv	-883
}(	-884
ull	-885
rough	-886
de	-887
▁most	-888
▁def	-889
ines	-890
ful	-891
)^	-892
▁formul	-893
▁well	-894
bl	-895
▁file	-896
par	-897
ension	-898
ized	-899
▁Sh	-900
▁sur	-901
ix	-902
times	-903
▁em	-904
stand	-905
ential	-906
://	-907
▁top	-908
eta	-909
other	-910
cos	-911
▁err	-912
▁loc	-913
io	-914
▁est	-915
agn	-916
tic	-917
▁contain	-918
▁general	-919
▁ent	-920
gram	-921
▁much	-922
▁De	-923
▁even	-924
ob	-925
▁help	-926
ities	-927
▁try	-928
▁year	-929
ffect	-930
▁energy	-931
ubl	-932
andom	-933
▁ke	-934
sp	-935
▁let	-936
▁matrix	-937
not	-938
ases	-939
▁cre	-940
▁list	-941
▁che	-942
▁small	-943
ism	-944
ved	-945
ables	-946
▁possible	-947
igin	-948
read	-949
▁fe	-950
▁lim	-951
inu	-952
▁der	-953
pos	-954
quenc	-955
ier	-956
▁read	-957
▁vol	-958
],	-959
ression	-960
▁must	-961
▁bound	-962
▁correct	-963
▁run	-964
",	-965
ute	-966
▁paramet	-967
▁through	-968
elta	-969
gorithm	-970
ons	-971
▁dec	-972
here	-973
mathcal	-974
work	-975
▁measure	-976
orem	-977
▁input	-978
ource	-979
fty	-980
--------	-981
utions	-982
ock	-983
ident	-984
▁equal	-985
▁group	-986
infty	-987
▁current	-988
}_{	-989
▁log	-990
):	-991
▁expl	-992
ane	-993
tal	-994
▁were	-995
estions	-996
ambda	-997
▁process	-998
ology	-999
▁type	-1000
    	-1001
round	-1002
▁take	-1003
olution	-1004
ng	-1005
▁hy	-1006
rest	-1007
▁conf	-1008
mathbf	-1009
▁#####	-1010
▁return	-1011
oint	-1012
▁supp	-1013
alpha	-1014
▁And	-1015
▁output	-1016
▁since	-1017
▁aut	-1018
▁fl	-1019
sel	-1020
▁ang	-1021
^{-	-1022
▁long	-1023
▁Math	-1024
▁tra	-1025
ference	-1026
for	-1027
pro	-1028
pend	-1029
▁represent	-1030
▁theory	-1031
igure	-1032
▁Post	-1033
▁conver	-1034
aces	-1035
ots	-1036
_{\	-1037
▁sym	-1038
▁fil	-1039
part	-1040
pen	-1041
▁assum	-1042
()	-1043
▁Is	-1044
etic	-1045
ormal	-1046
▁say	-1047
ank	-1048
▁equations	-1049
ides	-1050
▁Ph	-1051
▁)	-1052
ined	-1053
▁${\	-1054
ometh	-1055
▁quant	-1056
▁eas	-1057
▁rad	-1058
omething	-1059
▁linear	-1060
▁view	-1061
aw	-1062
+\	-1063
▁char	-1064
▁desc	-1065
und	-1066
arch	-1067
▁poly	-1068
▁estim	-1069
....	-1070
▁change	-1071
▁ide	-1072
▁vector	-1073
▁Then	-1074
▁circ	-1075
▁length	-1076
ward	-1077
▁sing	-1078
▁mass	-1079
ysis	-1080
▁Now	-1081
▁fre	-1082
▁cond	-1083
▁after	-1084
ild	-1085
▁back	-1086
▁understand	-1087
▁squ	-1088
ilar	-1089
▁import	-1090
▁On	-1091
itions	-1092
ars	-1093
▁{\	-1094
▁exist	-1095
omial	-1096
▁deriv	-1097
▁bu	-1098
▁Mathemat	-1099
▁paper	-1100
▁algorithm	-1101
▁found	-1102
iqu	-1103
andard	-1104
▁propert	-1105
ann	-1106
▁means	-1107
▁includ	-1108
▁results	-1109
amples	-1110
▁product	-1111
fer	-1112
▁div	-1113
▁ass	-1114
fficient	-1115
▁opt	-1116
▁constant	-1117
▁htt	-1118
▁size	-1119
▁incre	-1120
orph	-1121
align	-1122
▁distribution	-1123
ynam	-1124
▁tak	-1125
▁terms	-1126
lim	-1127
▁cent	-1128
ited	-1129
▁good	-1130
▁high	-1131
▁rat	-1132
▁random	-1133
▁did	-1134
▁formula	-1135
**	-1136
▁probability	-1137
▁struct	-1138
▁rec	-1139
bit	-1140
ule	-1141
▁three	-1142
lambda	-1143
▁Se	-1144
mu	-1145
▁disc	-1146
▁complex	-1147
▁gre	-1148
ackage	-1149
ho	-1150
phi	-1151
py	-1152
sing	-1153
▁based	-1154
ner	-1155
raw	-1156
▁power	-1157
▁error	-1158
abel	-1159
imension	-1160
▁determ	-1161
▁tem	-1162
▁text	-1163
▁program	-1164
eb	-1165
face	-1166
chn	-1167
igma	-1168
▁seem	-1169
ified	-1170
▁below	-1171
imal	-1172
▁et	-1173
▁down	-1174
▁something	-1175
log	-1176
▁gu	-1177
ript	-1178
quence	-1179
eps	-1180
▁When	-1181
▁zero	-1182
▁still	-1183
▁%	-1184
vious	-1185
▁called	-1186
▁charact	-1187
▁pe	-1188
get	-1189
▁simple	-1190
▁$(	-1191
\\	-1192
▁interest	-1193
▁rem	-1194
ision	-1195
oid	-1196
▁might	-1197
▁those	-1198
▁direct	-1199
bol	-1200
ton	-1201
▁information	-1202
ead	-1203
▁met	-1204
▁why	-1205
▁typ	-1206
lease	-1207
verse	-1208
▁rate	-1209
met	-1210
▁origin	-1211
▁mathemat	-1212
ither	-1213
▁ident	-1214
▁Here	-1215
▁being	-1216
king	-1217
▁May	-1218
▁variable	-1219
lear	-1220
▁depend	-1221
osed	-1222
▁obser	-1223
me	-1224
====	-1225
▁had	-1226
bin	-1227
equ	-1228
▁Cl	-1229
▁However	-1230
▁algebra	-1231
pond	-1232
▁av	-1233
}=	-1234
▁effect	-1235
atist	-1236
________	-1237
ves	-1238
ality	-1239
▁defined	-1240
▁area	-1241
rightarrow	-1242
}}{	-1243
▁too	-1244
ysics	-1245
ross	-1246
▁loo	-1247
nal	-1248
▁--	-1249
▁without	-1250
partial	-1251
▁true	-1252
itial	-1253
▁perform	-1254
▁element	-1255
▁Jo	-1256
▁lear	-1257
▁left	-1258
ily	-1259
▁Te	-1260
amma	-1261
ulation	-1262
▁variables	-1263
▁while	-1264
array	-1265
dd	-1266
plication	-1267
ired	-1268
ins	-1269
ern	-1270
rol	-1271
▁hand	-1272
ration	-1273
▁single	-1274
▁distance	-1275
▁standard	-1276
hat	-1277
▁positive	-1278
ason	-1279
▁series	-1280
▁arg	-1281
ivers	-1282
uss	-1283
dfrac	-1284
self	-1285
ense	-1286
▁another	-1287
sh	-1288
}_	-1289
▁magn	-1290
be	-1291
▁less	-1292
nomial	-1293
ural	-1294
▁though	-1295
. 	-1296
▁off	-1297
▁least	-1298
port	-1299
▁exact	-1300
▁level	-1301
▁Or	-1302
ype	-1303
▁ge	-1304
▁really	-1305
▁Find	-1306
raction	-1307
ten	-1308
▁That	-1309
col	-1310
org	-1311
uring	-1312
mon	-1313
anks	-1314
▁scal	-1315
}$.	-1316
▁large	-1317
▁frequenc	-1318
ased	-1319
▁problems	-1320
view	-1321
ways	-1322
ving	-1323
▁finite	-1324
rodu	-1325
▁write	-1326
▁before	-1327
ilon	-1328
ordin	-1329
▁consider	-1330
$-	-1331
▁times	-1332
gg	-1333
▁allow	-1334
ER	-1335
▁solve	-1336
umn	-1337
epend	-1338
▁chang	-1339
▁theorem	-1340
▁give	-1341
ts	-1342
respond	-1343
ume	-1344
▁exper	-1345
▁force	-1346
▁last	-1347
▁`	-1348
▁total	-1349
ately	-1350
ted	-1351
vec	-1352
rid	-1353
tem	-1354
▁att	-1355
▁sure	-1356
▁describ	-1357
▁mon	-1358
▁similar	-1359
ember	-1360
ault	-1361
▁limit	-1362
▁sample	-1363
ival	-1364
▁word	-1365
ade	-1366
ided	-1367
.)	-1368
tex	-1369
▁name	-1370
$$.	-1371
▁particular	-1372
▁Oct	-1373
▁respect	-1374
▁radi	-1375
IN	-1376
▁sequence	-1377
▁ax	-1378
atic	-1379
oss	-1380
pec	-1381
▁el	-1382
▁sl	-1383
ets	-1384
inuous	-1385
▁?	-1386
▁doi	-1387
▁neg	-1388
▁correspond	-1389
In	-1390
▁again	-1391
▁doesn	-1392
)}	-1393
▁obtain	-1394
▁infin	-1395
▁questions	-1396
side	-1397
ators	-1398
▁pred	-1399
▁unit	-1400
▁wave	-1401
uc	-1402
ium	-1403
▁polynomial	-1404
▁bit	-1405
tr	-1406
The	-1407
angu	-1408
ople	-1409
▁present	-1410
▁check	-1411
',	-1412
oci	-1413
▁always	-1414
ww	-1415
▁call	-1416
▁Jan	-1417
▁Sep	-1418
▁side	-1419
▁Ab	-1420
▁net	-1421
idth	-1422
{{	-1423
▁//	-1424
▁wor	-1425
pre	-1426
use	-1427
▁factor	-1428
▁deg	-1429
^{\	-1430
ven	-1431
$$,	-1432
▁No	-1433
ertain	-1434
▁elements	-1435
nect	-1436
dx	-1437
ensity	-1438
▁maxim	-1439
plement	-1440
▁proof	-1441
▁count	-1442
action	-1443
cel	-1444
nces	-1445
sub	-1446
▁around	-1447
▁solutions	-1448
▁fix	-1449
itud	-1450
▁coe	-1451
▁Note	-1452
▁character	-1453
ene	-1454
▁square	-1455
name	-1456
aving	-1457
iod	-1458
▁Tr	-1459
▁den	-1460
str	-1461
omorph	-1462
▁Jun	-1463
rary	-1464
▁gra	-1465
▁open	-1466
▁expect	-1467
▁normal	-1468
kes	-1469
▁Cal	-1470
ON	-1471
▁years	-1472
▁initial	-1473
▁electron	-1474
ield	-1475
▁done	-1476
▁Thanks	-1477
▁Cont	-1478
▁analysis	-1479
istic	-1480
▁complete	-1481
}$,	-1482
ification	-1483
space	-1484
▁Since	-1485
▁approxim	-1486
▁math	-1487
▁q	-1488
▁pass	-1489
▁car	-1490
ability	-1491
box	-1492
thing	-1493
▁At	-1494
▁reason	-1495
df	-1496
min	-1497
▁difference	-1498
wise	-1499
li	-1500
ystem	-1501
▁flow	-1502
_\	-1503
▁Mod	-1504
▁either	-1505
ention	-1506
less	-1507
▁Mar	-1508
▁Apr	-1509
▁people	-1510
▁Dec	-1511
iss	-1512
▁Do	-1513
▁path	-1514
▁step	-1515
}}\	-1516
ocument	-1517
▁approach	-1518
ga	-1519
sigma	-1520
▁redu	-1521
▁Feb	-1522
▁beh	-1523
plies	-1524
ared	-1525
ior	-1526
▁free	-1527
ublic	-1528
ash	-1529
▁compon	-1530
▁ref	-1531
▁structure	-1532
▁pair	-1533
▁better	-1534
▁gives	-1535
})	-1536
▁Su	-1537
▁pat	-1538
ourse	-1539
ters	-1540
▁Sch	-1541
▁techn	-1542
ivity	-1543
ering	-1544
plied	-1545
matrix	-1546
▁range	-1547
▁version	-1548
Te	-1549
man	-1550
ames	-1551
▁temper	-1552
▁key	-1553
▁Question	-1554
ah	-1555
▁image	-1556
ST	-1557
▁known	-1558
▁systems	-1559
▁cy	-1560
▁light	-1561
▁speed	-1562
▁project	-1563
ining	-1564
▁going	-1565
mer	-1566
▁command	-1567
ocity	-1568
▁Le	-1569
▁Can	-1570
▁Aug	-1571
let	-1572
▁definition	-1573
▁By	-1574
ique	-1575
bar	-1576
▁addition	-1577
▁put	-1578
▁diff	-1579
▁happ	-1580
ependent	-1581
ope	-1582
▁integral	-1583
ices	-1584
▁views	-1585
▁frequency	-1586
::	-1587
▁coordin	-1588
ometry	-1589
▁certain	-1590
way	-1591
ont	-1592
stract	-1593
▁mom	-1594
▁sa	-1595
oun	-1596
▁Dis	-1597
▁few	-1598
▁she	-1599
▁support	-1600
ody	-1601
}}$	-1602
ness	-1603
▁common	-1604
ool	-1605
▁Me	-1606
▁sit	-1607
rit	-1608
▁occ	-1609
beta	-1610
olds	-1611
AR	-1612
roup	-1613
▁dom	-1614
▁rest	-1615
ouble	-1616
▁main	-1617
▁print	-1618
indow	-1619
▁actually	-1620
▁whether	-1621
▁angle	-1622
▁${	-1623
▁Sim	-1624
▁Not	-1625
▁equival	-1626
omega	-1627
ailable	-1628
▁doc	-1629
▁works	-1630
▁made	-1631
▁multiple	-1632
ges	-1633
tage	-1634
▁source	-1635
▁Res	-1636
▁table	-1637
▁Ar	-1638
crete	-1639
erial	-1640
inary	-1641
▁instead	-1642
mod	-1643
▁My	-1644
itude	-1645
▁his	-1646
▁pot	-1647
▁predict	-1648
("	-1649
▁vel	-1650
▁spect	-1651
leq	-1652
quad	-1653
▁One	-1654
▁cost	-1655
▁langu	-1656
onal	-1657
▁minim	-1658
▁lines	-1659
▁column	-1660
itle	-1661
verage	-1662
▁Jul	-1663
▁hig	-1664
ape	-1665
chan	-1666
▁seems	-1667
▁study	-1668
▁properties	-1669
▁Ap	-1670
stit	-1671
▁low	-1672
▁next	-1673
▁New	-1674
uth	-1675
place	-1676
▁shown	-1677
ware	-1678
ively	-1679
▁http	-1680
▁best	-1681
▁control	-1682
(-	-1683
^\	-1684
▁follows	-1685
▁expression	-1686
▁cap	-1687
tical	-1688
rict	-1689
▁rot	-1690
▁direction	-1691
comm	-1692
▁negative	-1693
▁inc	-1694
velop	-1695
".	-1696
oad	-1697
▁plot	-1698
▁important	-1699
▁Pl	-1700
▁appe	-1701
▁design	-1702
els	-1703
ients	-1704
▁implement	-1705
oy	-1706
pon	-1707
▁able	-1708
itten	-1709
▁diag	-1710
▁idea	-1711
▁course	-1712
▁got	-1713
▁page	-1714
▁All	-1715
▁things	-1716
▁dig	-1717
)$.	-1718
plications	-1719
▁fram	-1720
▁Ne	-1721
▁calculate	-1722
sol	-1723
▁water	-1724
▁within	-1725
▁original	-1726
▁Im	-1727
▁ra	-1728
▁surface	-1729
/(	-1730
▁figure	-1731
▁explain	-1732
▁mov	-1733
MAT	-1734
▁who	-1735
▁period	-1736
ished	-1737
▁book	-1738
▁temperature	-1739
▁trying	-1740
olar	-1741
back	-1742
▁mot	-1743
SE	-1744
▁prove	-1745
umber	-1746
▁connect	-1747
ctors	-1748
usion	-1749
▁pop	-1750
▁sets	-1751
▁integer	-1752
▁super	-1753
yth	-1754
ready	-1755
▁hard	-1756
alle	-1757
▁enc	-1758
$\	-1759
▁atom	-1760
▁artic	-1761
▁weight	-1762
▁cannot	-1763
urther	-1764
▁amount	-1765
document	-1766
iversity	-1767
wh	-1768
▁create	-1769
ournal	-1770
igen	-1771
▁option	-1772
▁parameters	-1773
▁network	-1774
OR	-1775
*}	-1776
▁condition	-1777
▁position	-1778
ules	-1779
▁velocity	-1780
▁far	-1781
▁numer	-1782
ists	-1783
▁Ste	-1784
oot	-1785
ives	-1786
▁local	-1787
day	-1788
%%	-1789
▁density	-1790
▁previous	-1791
####	-1792
▁dat	-1793
▁place	-1794
▁iss	-1795
▁apply	-1796
▁simpl	-1797
▁coll	-1798
▁array	-1799
▁available	-1800
▁fraction	-1801
}+	-1802
▁ago	-1803
iment	-1804
▁Posts	-1805
▁already	-1806
▁contains	-1807
ln	-1808
esc	-1809
ience	-1810
▁models	-1811
▁differential	-1812
iron	-1813
▁eval	-1814
by	-1815
ger	-1816
▁separ	-1817
▁First	-1818
▁^	-1819
ateg	-1820
▁lower	-1821
▁parameter	-1822
AL	-1823
▁makes	-1824
▁vis	-1825
wn	-1826
▁exactly	-1827
▁files	-1828
▁moment	-1829
ital	-1830
▁clear	-1831
▁enough	-1832
——	-1833
aps	-1834
epsilon	-1835
▁ask	-1836
▁sugg	-1837
▁thing	-1838
arth	-1839
▁lat	-1840
▁potential	-1841
ittle	-1842
▁curve	-1843
▁sat	-1844
▁adv	-1845
ird	-1846
imensional	-1847
ES	-1848
▁due	-1849
▁draw	-1850
▁string	-1851
▁tre	-1852
gen	-1853
AN	-1854
Delta	-1855
▁shows	-1856
▁Sol	-1857
anation	-1858
ails	-1859
▁methods	-1860
▁specific	-1861
="	-1862
ply	-1863
new	-1864
▁cases	-1865
▁infinite	-1866
▁mem	-1867
▁These	-1868
▁Calcul	-1869
▁Equ	-1870
▁quantum	-1871
▁transform	-1872
▁row	-1873
▁wrong	-1874
▁etc	-1875
apter	-1876
odes	-1877
▁short	-1878
▁La	-1879
▁turn	-1880
lection	-1881
icle	-1882
]{	-1883
▁_	-1884
orre	-1885
▁hom	-1886
▁lot	-1887
▁symbol	-1888
▁working	-1889
▁rema	-1890
▁circle	-1891
++	-1892
▁build	-1893
▁larg	-1894
ood	-1895
ott	-1896
anc	-1897
iven	-1898
▁nat	-1899
▁Anal	-1900
▁ca	-1901
▁groups	-1902
▁develop	-1903
▁required	-1904
▁play	-1905
▁tool	-1906
▁package	-1907
▁define	-1908
EE	-1909
ferences	-1910
lation	-1911
alk	-1912
class	-1913
``	-1914
med	-1915
delta	-1916
▁Ind	-1917
▁With	-1918
▁->	-1919
alse	-1920
color	-1921
oper	-1922
▁sense	-1923
▁Nov	-1924
point	-1925
▁four	-1926
▁Sci	-1927
▁System	-1928
▁construct	-1929
isf	-1930
big	-1931
cise	-1932
ming	-1933
▁spaces	-1934
▁Sc	-1935
ants	-1936
▁Pre	-1937
▁bre	-1938
ances	-1939
▁volume	-1940
▁Also	-1941
▁press	-1942
▁symmet	-1943
▁derivative	-1944
DF	-1945
▁pers	-1946
▁having	-1947
: 	-1948
▁Ge	-1949
▁Che	-1950
▁cho	-1951
iting	-1952
▁sever	-1953
eration	-1954
rho	-1955
air	-1956
")	-1957
oose	-1958
▁Using	-1959
▁signal	-1960
▁statist	-1961
▁Man	-1962
▁little	-1963
▁maximum	-1964
▁integr	-1965
▁kind	-1966
▁evalu	-1967
▁Thus	-1968
▁section	-1969
▁Problem	-1970
▁default	-1971
rr	-1972
▁pric	-1973
▁express	-1974
▁mach	-1975
DE	-1976
▁Solution	-1977
▁several	-1978
].	-1979
▁cos	-1980
▁fast	-1981
▁doing	-1982
▁University	-1983
ey	-1984
}=\	-1985
allel	-1986
▁written	-1987
▁statement	-1988
viron	-1989
▁Sub	-1990
▁own	-1991
▁examples	-1992
ags	-1993
▁quite	-1994
ription	-1995
fra	-1996
gamma	-1997
ission	-1998
▁mole	-1999
▁occur	-2000
▁often	-2001
▁necess	-2002
ert	-2003
abl	-2004
ython	-2005
▁easy	-2006
plicit	-2007
▁dynam	-2008
▁independent	-2009
▁link	-2010
▁along	-2011
▁percent	-2012
▁hal	-2013
▁fixed	-2014
St	-2015
ring	-2016
▁said	-2017
▁simply	-2018
bal	-2019
inc	-2020
duct	-2021
▁Use	-2022
ek	-2023
▁related	-2024
▁index	-2025
AC	-2026
▁higher	-2027
▁account	-2028
▁triangle	-2029
▁Li	-2030
▁map	-2031
▁quad	-2032
▁document	-2033
▁Mathematics	-2034
dt	-2035
▁bel	-2036
▁Joined	-2037
▁Eng	-2038
▁Example	-2039
▁material	-2040
▁equivalent	-2041
▁Dif	-2042
▁average	-2043
▁reference	-2044
▁tell	-2045
word	-2046
▁From	-2047
▁~	-2048
▁domain	-2049
TeX	-2050
----------------	-2051
▁indic	-2052
▁user	-2053
▁label	-2054
▁probably	-2055
eq	-2056
▁rather	-2057
▁states	-2058
)-	-2059
▁Ed	-2060
ording	-2061
▁argument	-2062
▁types	-2063
ometric	-2064
▁associ	-2065
▁introdu	-2066
▁eigen	-2067
</	-2068
\;	-2069
▁pri	-2070
▁select	-2071
co	-2072
▁plane	-2073
pot	-2074
▁fam	-2075
▁auth	-2076
atures	-2077
▁satisf	-2078
▁else	-2079
rangle	-2080
▁useful	-2081
▁relative	-2082
urb	-2083
▁full	-2084
▁lead	-2085
▁search	-2086
▁answers	-2087
▁comment	-2088
arget	-2089
▁uses	-2090
▁students	-2091
}-	-2092
▁big	-2093
▁mark	-2094
▁mechan	-2095
ml	-2096
▁corresponding	-2097
▁More	-2098
▁base	-2099
itor	-2100
▁via	-2101
AM	-2102
),(	-2103
▁Comput	-2104
▁conditions	-2105
cm	-2106
▁sw	-2107
▁continuous	-2108
]:	-2109
linear	-2110
▁looking	-2111
ift	-2112
▁move	-2113
IT	-2114
\,	-2115
▁stre	-2116
▁day	-2117
arent	-2118
▁assume	-2119
ency	-2120
time	-2121
ological	-2122
▁>>	-2123
)+	-2124
▁‘	-2125
▁(\	-2126
▁closed	-2127
date	-2128
section	-2129
▁interval	-2130
ially	-2131
▁Supp	-2132
▁behav	-2133
▁invol	-2134
▁Physics	-2135
▁pattern	-2136
▁Last	-2137
▁cell	-2138
inal	-2139
ching	-2140
edia	-2141
AB	-2142
▁beg	-2143
asing	-2144
▁language	-2145
▁They	-2146
▁expon	-2147
▁property	-2148
rite	-2149
where	-2150
ection	-2151
▁ratio	-2152
uration	-2153
▁double	-2154
▁pp	-2155
▁provide	-2156
▁Why	-2157
▁lib	-2158
];	-2159
ensor	-2160
▁observ	-2161
▁hour	-2162
data	-2163
idual	-2164
ega	-2165
▁toget	-2166
▁Journal	-2167
▁concept	-2168
▁Show	-2169
▁pres	-2170
package	-2171
▁together	-2172
▁changes	-2173
▁regular	-2174
▁bi	-2175
▁plan	-2176
uments	-2177
▁integers	-2178
▁pract	-2179
▁article	-2180
▁·	-2181
uit	-2182
cular	-2183
▁Expl	-2184
iled	-2185
▁learn	-2186
▁format	-2187
▁https	-2188
)$,	-2189
▁PM	-2190
IC	-2191
▁analy	-2192
utes	-2193
▁eng	-2194
▁mess	-2195
▁added	-2196
')	-2197
ries	-2198
▁&=	-2199
▁says	-2200
▁strong	-2201
pping	-2202
ccess	-2203
▁units	-2204
▁needed	-2205
omorphism	-2206
▁guess	-2207
ats	-2208
iform	-2209
▁;	-2210
▁Per	-2211
astic	-2212
ored	-2213
▁law	-2214
▁great	-2215
▁pur	-2216
▁Vol	-2217
lli	-2218
vice	-2219
▁determine	-2220
▁invest	-2221
========	-2222
fl	-2223
▁phot	-2224
vert	-2225
▁come	-2226
▁impro	-2227
▁natural	-2228
iply	-2229
▁whole	-2230
ery	-2231
▁rese	-2232
▁special	-2233
ren	-2234
▁box	-2235
▁lay	-2236
▁resist	-2237
▁sk	-2238
▁flu	-2239
▁suggest	-2240
ised	-2241
rack	-2242
▁combin	-2243
▁radius	-2244
▁quadr	-2245
▁please	-2246
▁En	-2247
▁rule	-2248
vironment	-2249
SS	-2250
circ	-2251
plot	-2252
length	-2253
▁Zbl	-2254
value	-2255
▁operator	-2256
most	-2257
▁words	-2258
▁during	-2259
▁exists	-2260
}.	-2261
ety	-2262
▁See	-2263
▁learning	-2264
▁AM	-2265
▁itself	-2266
▁final	-2267
aves	-2268
▁charge	-2269
▁root	-2270
ceed	-2271
nown	-2272
▁Are	-2273
ruction	-2274
▁experiment	-2275
▁require	-2276
ds	-2277
psi	-2278
▁GMAT	-2279
▁center	-2280
usepackage	-2281
▁sem	-2282
▁height	-2283
pm	-2284
▁Inte	-2285
▁load	-2286
comes	-2287
xy	-2288
rop	-2289
fficients	-2290
▁application	-2291
iles	-2292
▁mode	-2293
though	-2294
▁phase	-2295
ilities	-2296
▁degree	-2297
fo	-2298
▁opp	-2299
▁days	-2300
        	-2301
pty	-2302
ieve	-2303
▁takes	-2304
▁magnetic	-2305
)}{	-2306
▁<-	-2307
▁mis	-2308
▁axis	-2309
ategory	-2310
mega	-2311
icult	-2312
▁Abstract	-2313
▁Given	-2314
▁Therefore	-2315
])	-2316
LE	-2317
▁—	-2318
ograph	-2319
▁performance	-2320
ended	-2321
▁Posted	-2322
oriz	-2323
▁never	-2324
▁Trans	-2325
file	-2326
▁old	-2327
▁compute	-2328
▁usually	-2329
▁keep	-2330
▁sche	-2331
▁close	-2332
|\	-2333
▁minimum	-2334
▁hyper	-2335
▁prime	-2336
▁ways	-2337
▁looks	-2338
▁access	-2339
▁gl	-2340
rote	-2341
vari	-2342
▁del	-2343
atch	-2344
dots	-2345
▁block	-2346
iter	-2347
ources	-2348
▁sides	-2349
▁recent	-2350
lex	-2351
▁Any	-2352
▁Gener	-2353
]$	-2354
ii	-2355
inter	-2356
cur	-2357
hesis	-2358
▁Cons	-2359
▁inverse	-2360
▁Be	-2361
▁inequ	-2362
▁further	-2363
max	-2364
▁Which	-2365
▁×	-2366
▁grav	-2367
▁II	-2368
▁Par	-2369
inear	-2370
hn	-2371
▁head	-2372
▁public	-2373
position	-2374
▁estimate	-2375
amp	-2376
▁cm	-2377
▁isn	-2378
▁matter	-2379
▁objects	-2380
▁voltage	-2381
▁relations	-2382
▁Hel	-2383
▁note	-2384
dro	-2385
vent	-2386
▁yet	-2387
aries	-2388
▁Some	-2389
▁inside	-2390
reg	-2391
az	-2392
▁valid	-2393
ysical	-2394
▁boundary	-2395
▁reaction	-2396
off	-2397
sec	-2398
rypt	-2399
▁Ser	-2400
▁Answ	-2401
ferent	-2402
▁include	-2403
▁ball	-2404
pg	-2405
ump	-2406
▁half	-2407
net	-2408
solute	-2409
▁Pr	-2410
▁Yes	-2411
idence	-2412
▁config	-2413
)/	-2414
▁parallel	-2415
rel	-2416
like	-2417
earch	-2418
▁ring	-2419
▁color	-2420
▁Fin	-2421
▁Sp	-2422
tempt	-2423
▁loop	-2424
▁dimension	-2425
][	-2426
loat	-2427
▁tried	-2428
▁ear	-2429
▁heat	-2430
▁discuss	-2431
lobal	-2432
▁mathematical	-2433
lev	-2434
▁==	-2435
****	-2436
:\	-2437
Ex	-2438
ector	-2439
inder	-2440
▁Out	-2441
▁parts	-2442
xx	-2443
▁game	-2444
▁stra	-2445
▁wrote	-2446
ares	-2447
▁ir	-2448
idd	-2449
ires	-2450
▁signific	-2451
▁After	-2452
▁fields	-2453
▁instance	-2454
▁interesting	-2455
sim	-2456
▁cross	-2457
elf	-2458
son	-2459
omin	-2460
▁accel	-2461
used	-2462
▁Int	-2463
▁consist	-2464
▁coefficients	-2465
~~	-2466
▁whose	-2467
ensions	-2468
operator	-2469
▁diagram	-2470
▁tree	-2471
▁autom	-2472
bf	-2473
▁report	-2474
▁relation	-2475
▁Po	-2476
subset	-2477
('	-2478
}^{\	-2479
▁greater	-2480
▁web	-2481
▁Part	-2482
SC	-2483
ica	-2484
rices	-2485
, 	-2486
var	-2487
my	-2488
edu	-2489
frak	-2490
uation	-2491
▁representation	-2492
▁world	-2493
▁vectors	-2494
tau	-2495
▁generated	-2496
▁obtained	-2497
lean	-2498
Omega	-2499
atter	-2500
▁pressure	-2501
▁smaller	-2502
▁…	-2503
uck	-2504
▁coordinates	-2505
ask	-2506
pose	-2507
uted	-2508
tices	-2509
▁once	-2510
▁physics	-2511
opy	-2512
lish	-2513
▁Figure	-2514
!!	-2515
cer	-2516
gence	-2517
▁width	-2518
rum	-2519
ponse	-2520
ategor	-2521
▁assign	-2522
ife	-2523
▁frame	-2524
mathfrak	-2525
▁Function	-2526
▁care	-2527
▁perm	-2528
▁needs	-2529
▁across	-2530
▁rece	-2531
▁Thank	-2532
nu	-2533
▁air	-2534
▁compar	-2535
anced	-2536
label	-2537
▁mention	-2538
▁component	-2539
which	-2540
▁fund	-2541
mal	-2542
ands	-2543
load	-2544
ldots	-2545
▁Theory	-2546
lor	-2547
▁exec	-2548
▁price	-2549
▁Statist	-2550
ches	-2551
▁adj	-2552
ibility	-2553
{(	-2554
▁grad	-2555
▁Ad	-2556
ament	-2557
▁Home	-2558
▁crit	-2559
orrect	-2560
▁making	-2561
www	-2562
hing	-2563
▁Reg	-2564
hi	-2565
▁Algebra	-2566
known	-2567
▁Of	-2568
▁optim	-2569
actions	-2570
▁however	-2571
▁Add	-2572
▁Mult	-2573
▁node	-2574
▁Consider	-2575
▁dri	-2576
width	-2577
ftware	-2578
▁computer	-2579
▁near	-2580
▁geometry	-2581
ref	-2582
book	-2583
▁connected	-2584
map	-2585
▁Top	-2586
▁break	-2587
▁population	-2588
▁coefficient	-2589
)=\	-2590
ste	-2591
order	-2592
▁seen	-2593
▁region	-2594
▁issue	-2595
▁third	-2596
▁cou	-2597
▁grow	-2598
▁subset	-2599
eter	-2600
oard	-2601
▁spl	-2602
▁unt	-2603
orizon	-2604
▁environment	-2605
def	-2606
onym	-2607
with	-2608
▁sin	-2609
▁thus	-2610
▁mathematics	-2611
uff	-2612
mber	-2613
ublished	-2614
operatorname	-2615
hip	-2616
▁rect	-2617
▁Please	-2618
▁directly	-2619
ms	-2620
 [	-2621
rier	-2622
itted	-2623
ht	-2624
bed	-2625
▁br	-2626
▁choose	-2627
dimensional	-2628
any	-2629
▁Systems	-2630
▁applications	-2631
geq	-2632
wards	-2633
▁Member	-2634
▁increase	-2635
▁Mon	-2636
range	-2637
▁circuit	-2638
ED	-2639
aim	-2640
ooth	-2641
▁angles	-2642
gan	-2643
▁Dynam	-2644
▁proper	-2645
▁Suppose	-2646
ences	-2647
EN	-2648
▁norm	-2649
▁begin	-2650
▁Mathematical	-2651
abor	-2652
▁particle	-2653
]]	-2654
▁arbit	-2655
▁capac	-2656
▁cub	-2657
▁anything	-2658
ams	-2659
oles	-2660
▁Open	-2661
▁orbit	-2662
▁context	-2663
▁thought	-2664
▁provided	-2665
▁fit	-2666
inger	-2667
}[	-2668
▁Set	-2669
▁scale	-2670
▁compact	-2671
▁ins	-2672
raint	-2673
▁edge	-2674
▁basic	-2675
▁−	-2676
▁Data	-2677
▁App	-2678
ustom	-2679
do	-2680
ogle	-2681
▁item	-2682
▁larger	-2683
▁applied	-2684
{-	-2685
▁Rel	-2686
Th	-2687
irt	-2688
cdots	-2689
▁accept	-2690
▁engine	-2691
▁uniform	-2692
▁difficult	-2693
dc	-2694
ef	-2695
Pro	-2696
▁indiv	-2697
▁various	-2698
▁expected	-2699
▁clust	-2700
▁motion	-2701
utor	-2702
▁edited	-2703
▁described	-2704
cont	-2705
ledge	-2706
▁noise	-2707
▁script	-2708
ounter	-2709
▁month	-2710
AS	-2711
ered	-2712
▁Your	-2713
▁multiply	-2714
▁components	-2715
exp	-2716
▁Co	-2717
▁sort	-2718
▁interpre	-2719
iki	-2720
▁commun	-2721
icro	-2722
▁Step	-2723
▁Hence	-2724
aced	-2725
▁respectively	-2726
▁Det	-2727
ansion	-2728
▁decre	-2729
ooks	-2730
▁asym	-2731
▁names	-2732
▁associated	-2733
▁Ma	-2734
▁Class	-2735
type	-2736
osite	-2737
▁later	-2738
tty	-2739
atex	-2740
▁red	-2741
▁binary	-2742
▁generate	-2743
UT	-2744
tan	-2745
▁dim	-2746
Right	-2747
}\\	-2748
▁Ob	-2749
ious	-2750
▁event	-2751
▁attempt	-2752
ION	-2753
▁gas	-2754
ecause	-2755
▁Number	-2756
overline	-2757
isk	-2758
▁\,	-2759
resh	-2760
)^{	-2761
arily	-2762
icture	-2763
▁shape	-2764
medi	-2765
izing	-2766
▁body	-2767
▁odd	-2768
af	-2769
ij	-2770
zz	-2771
ottom	-2772
▁easily	-2773
▁vertex	-2774
▁Ga	-2775
▁conve	-2776
▁steps	-2777
pri	-2778
rate	-2779
▁card	-2780
otal	-2781
▁Col	-2782
▁chem	-2783
▁subt	-2784
▁taking	-2785
▁window	-2786
ET	-2787
na	-2788
clude	-2789
▁partial	-2790
▁substit	-2791
▁Analysis	-2792
▁therefore	-2793
Cl	-2794
▁summ	-2795
▁taken	-2796
▁!	-2797
▁cir	-2798
▁significant	-2799
^*	-2800
▁(-	-2801
aper	-2802
▁until	-2803
▁becomes	-2804
▁factors	-2805
che	-2806
rag	-2807
▁appear	-2808
function	-2809
'(	-2810
ze	-2811
▁pick	-2812
▁sent	-2813
▁yield	-2814
ises	-2815
▁Stud	-2816
ampling	-2817
▁dx	-2818
ounds	-2819
levant	-2820
▁necessary	-2821
OM	-2822
sk	-2823
inci	-2824
▁Theorem	-2825
▁algebraic	-2826
irect	-2827
pped	-2828
▁nice	-2829
idered	-2830
▁created	-2831
▁notation	-2832
flow	-2833
▁Test	-2834
▁didn	-2835
▁simul	-2836
▁someone	-2837
▁matrices	-2838
▁$$(	-2839
▁getting	-2840
▁electric	-2841
▁mix	-2842
▁pack	-2843
▁considered	-2844
iff	-2845
▁target	-2846
▁running	-2847
▁Go	-2848
▁sto	-2849
num	-2850
▁goes	-2851
▁options	-2852
mm	-2853
sm	-2854
bert	-2855
ends	-2856
▁hydro	-2857
yl	-2858
▁Comp	-2859
▁entire	-2860
htt	-2861
▁edit	-2862
▁upper	-2863
onymous	-2864
rror	-2865
ometimes	-2866
eed	-2867
ouse	-2868
▁research	-2869
reen	-2870
tact	-2871
▁allows	-2872
▁machine	-2873
▁regression	-2874
$$\	-2875
▁Well	-2876
▁trad	-2877
▁manif	-2878
▁quick	-2879
▁differenti	-2880
▁altern	-2881
▁details	-2882
ideo	-2883
▁View	-2884
▁conv	-2885
▁rules	-2886
▁Science	-2887
▁response	-2888
▁sufficient	-2889
ale	-2890
cle	-2891
top	-2892
allen	-2893
itting	-2894
cap	-2895
▁neut	-2896
▁happen	-2897
▁unique	-2898
▁absolute	-2899
▁clos	-2900
▁pretty	-2901
▁port	-2902
▁hypot	-2903
▁contrib	-2904
((	-2905
OS	-2906
}}{\	-2907
.$	-2908
lope	-2909
vial	-2910
▁Art	-2911
▁site	-2912
▁install	-2913
▁including	-2914
no	-2915
▁graphs	-2916
▁individual	-2917
ably	-2918
▁memory	-2919
▁display	-2920
▁perfect	-2921
▁provides	-2922
▁Car	-2923
▁away	-2924
▁straight	-2925
group	-2926
iding	-2927
▁Comm	-2928
▁Inst	-2929
▁loss	-2930
▁horizon	-2931
OT	-2932
▁likely	-2933
▁moving	-2934
▁errors	-2935
▁algorithms	-2936
▁Hi	-2937
ussian	-2938
lt	-2939
rees	-2940
▁actual	-2941
alue	-2942
comp	-2943
▁starting	-2944
ken	-2945
haps	-2946
ison	-2947
▁Ret	-2948
por	-2949
rap	-2950
▁fun	-2951
script	-2952
ipedia	-2953
Ch	-2954
ameter	-2955
▁LaTeX	-2956
▁regard	-2957
▁thanks	-2958
ML	-2959
ikipedia	-2960
▁subject	-2961
pdf	-2962
▁propos	-2963
Com	-2964
▁tw	-2965
▁Tags	-2966
▁weak	-2967
▁comes	-2968
▁returns	-2969
Rightarrow	-2970
CH	-2971
come	-2972
▁Mark	-2973
allenge	-2974
ush	-2975
▁Bl	-2976
itch	-2977
roll	-2978
▁self	-2979
▁additional	-2980
ived	-2981
▁ach	-2982
▁pi	-2983
ending	-2984
▁basis	-2985
fit	-2986
ifier	-2987
▁Defin	-2988
▁filter	-2989
▁vertices	-2990
▁la	-2991
ites	-2992
▁indu	-2993
▁particles	-2994
[\	-2995
▁comb	-2996
▁hours	-2997
▁Origin	-2998
▁specified	-2999
▁everything	-3000
________________	-3001
cs	-3002
cing	-3003
atives	-3004
mail	-3005
based	-3006
▁author	-3007
ID	-3008
▁synt	-3009
▁Explanation	-3010
hom	-3011
ster	-3012
▁library	-3013
jor	-3014
}(\	-3015
const	-3016
▁Intern	-3017
▁_{	-3018
▁ant	-3019
▁electrons	-3020
test	-3021
▁med	-3022
▁logic	-3023
▁review	-3024
▁explicit	-3025
▁topic	-3026
bb	-3027
axis	-3028
▁pay	-3029
▁Does	-3030
▁operation	-3031
izes	-3032
sert	-3033
▁operators	-3034
see	-3035
ional	-3036
▁iter	-3037
ground	-3038
▁denomin	-3039
ched	-3040
ling	-3041
▁Act	-3042
▁Rep	-3043
▁therm	-3044
▁ground	-3045
▁metric	-3046
yp	-3047
otes	-3048
▁score	-3049
mission	-3050
▁Method	-3051
▁finding	-3052
▁Opt	-3053
ising	-3054
▁fore	-3055
▁proport	-3056
▁Cur	-3057
▁gen	-3058
▁features	-3059
=-	-3060
psilon	-3061
▁samples	-3062
▁according	-3063
LL	-3064
▁foc	-3065
ocation	-3066
▁classes	-3067
▁inequality	-3068
▁AB	-3069
▁slow	-3070
▁spin	-3071
▁Inter	-3072
▁Answer	-3073
▁produce	-3074
RE	-3075
ids	-3076
▁ones	-3077
▁avoid	-3078
▁solving	-3079
ptic	-3080
vices	-3081
▁Just	-3082
={	-3083
▁Di	-3084
hood	-3085
▁depends	-3086
▁yes	-3087
''	-3088
▁hum	-3089
ifying	-3090
▁calculated	-3091
PS	-3092
}+\	-3093
▁Gu	-3094
angular	-3095
omorphic	-3096
▁reading	-3097
▁Discrete	-3098
osp	-3099
ploy	-3100
▁cut	-3101
▁]	-3102
uthor	-3103
▁meaning	-3104
▁acceleration	-3105
▁$-	-3106
▁Ac	-3107
▁ess	-3108
▁Elect	-3109
▁rational	-3110
▁expansion	-3111
ortun	-3112
langle	-3113
▁organ	-3114
▁choice	-3115
▁online	-3116
▁containing	-3117
ples	-3118
▁category	-3119
,-	-3120
rule	-3121
▁hist	-3122
ussion	-3123
▁practice	-3124
values	-3125
▁coordinate	-3126
ler	-3127
▁PDF	-3128
▁hold	-3129
▁week	-3130
▁identity	-3131
▁Non	-3132
▁hence	-3133
ips	-3134
tag	-3135
prime	-3136
change	-3137
▁action	-3138
▁decimal	-3139
▁almost	-3140
▁appropri	-3141
▁multiplication	-3142
%%%%	-3143
more	-3144
▁talk	-3145
▁remov	-3146
▁vertical	-3147
▁constraint	-3148
ai	-3149
ino	-3150
oney	-3151
▁Other	-3152
▁happens	-3153
▁calculation	-3154
▁}{	-3155
cell	-3156
aneous	-3157
▁Earth	-3158
▁equil	-3159
▁nothing	-3160
▁Different	-3161
▁success	-3162
su	-3163
pgf	-3164
angent	-3165
▁become	-3166
▁arbitrary	-3167
▁claim	-3168
jection	-3169
=(	-3170
po	-3171
▁Two	-3172
▁match	-3173
bon	-3174
▁chain	-3175
▁completely	-3176
▁operations	-3177
down	-3178
quences	-3179
▁obvious	-3180
ava	-3181
▁Rem	-3182
cup	-3183
▁Log	-3184
▁repe	-3185
▁false	-3186
▁easier	-3187
▁magnitude	-3188
."	-3189
\{	-3190
▁empty	-3191
▁behavior	-3192
▁anonymous	-3193
list	-3194
orry	-3195
▁seg	-3196
->	-3197
Re	-3198
aches	-3199
▁software	-3200
————	-3201
▁Desc	-3202
▁Spec	-3203
▁vers	-3204
▁Python	-3205
rd	-3206
scill	-3207
▁spectrum	-3208
??	-3209
land	-3210
omen	-3211
clusion	-3212
▁observed	-3213
▁Questions	-3214
)*	-3215
)]	-3216
}]	-3217
faces	-3218
▁sites	-3219
resents	-3220
▁physical	-3221
olic	-3222
▁momentum	-3223
FT	-3224
▁:=	-3225
▁Each	-3226
▁conc	-3227
amental	-3228
▁princi	-3229
abla	-3230
▁Free	-3231
▁digits	-3232
entially	-3233
▁Sum	-3234
▁ill	-3235
▁Text	-3236
▁message	-3237
}}$$	-3238
▁home	-3239
▁roots	-3240
▁others	-3241
▁tensor	-3242
▁understanding	-3243
aut	-3244
▁sch	-3245
▁None	-3246
▁Type	-3247
▁Model	-3248
▁setting	-3249
,$	-3250
▁ut	-3251
nabla	-3252
▁deal	-3253
▁Quant	-3254
▁conne	-3255
▁slope	-3256
▁bottom	-3257
▁products	-3258
▁requires	-3259
▁programming	-3260
Con	-3261
▁her	-3262
▁Phys	-3263
isions	-3264
ractions	-3265
AP	-3266
Tr	-3267
que	-3268
▁datas	-3269
ili	-3270
omic	-3271
▁bal	-3272
orphism	-3273
▁proced	-3274
▁writing	-3275
▁directory	-3276
mit	-3277
ogn	-3278
▁imag	-3279
▁asympt	-3280
▁Chapter	-3281
▁images	-3282
add	-3283
ging	-3284
user	-3285
lying	-3286
uture	-3287
▁prim	-3288
▁approximation	-3289
},\	-3290
gress	-3291
▁Code	-3292
▁black	-3293
▁invari	-3294
▁replace	-3295
▁op	-3296
fram	-3297
▁devi	-3298
▁datab	-3299
▁smooth	-3300
▁effects	-3301
.$$	-3302
cale	-3303
▁nuc	-3304
▁Full	-3305
▁improve	-3306
▁es	-3307
light	-3308
iction	-3309
ination	-3310
itation	-3311
▁explanation	-3312
html	-3313
rain	-3314
oding	-3315
▁Level	-3316
........	-3317
▁content	-3318
acro	-3319
umer	-3320
▁>>>	-3321
▁horizontal	-3322
▁represents	-3323
go	-3324
uk	-3325
path	-3326
▁Our	-3327
▁bro	-3328
▁person	-3329
▁classical	-3330
▁bar	-3331
ourier	-3332
▁charg	-3333
▁ideal	-3334
▁anyone	-3335
▁Because	-3336
▁bounded	-3337
▁interested	-3338
();	-3339
ocks	-3340
▁started	-3341
▁quadratic	-3342
ged	-3343
oted	-3344
otic	-3345
▁correctly	-3346
▁Continuous	-3347
▁\;	-3348
▁sens	-3349
▁Power	-3350
▁limits	-3351
▁recomm	-3352
▁Homework	-3353
Al	-3354
IS	-3355
MS	-3356
▁Acc	-3357
▁hope	-3358
▁global	-3359
▁IN	-3360
▁age	-3361
cript	-3362
malink	-3363
▁columns	-3364
permalink	-3365
CT	-3366
inct	-3367
vare	-3368
▁Cre	-3369
▁und	-3370
▁title	-3371
▁outside	-3372
▁simulation	-3373
▁integration	-3374
ina	-3375
▁CO	-3376
▁IS	-3377
iques	-3378
▁Help	-3379
▁Work	-3380
▁Integ	-3381
▁parent	-3382
▁bad	-3383
ached	-3384
▁convex	-3385
▁measured	-3386
▁copy	-3387
▁fail	-3388
▁feed	-3389
▁efficient	-3390
▁dimensions	-3391
CD	-3392
gs	-3393
fully	-3394
uel	-3395
fined	-3396
quent	-3397
▁concent	-3398
▁optimal	-3399
▁rotation	-3400
sor	-3401
▁Key	-3402
▁asked	-3403
▁currently	-3404
▁construction	-3405
▁Sec	-3406
▁tor	-3407
▁curves	-3408
▁continu	-3409
▁increasing	-3410
▁extre	-3411
riction	-3412
▁numerical	-3413
PI	-3414
PU	-3415
)}$	-3416
▁mill	-3417
▁round	-3418
body	-3419
▁pages	-3420
uler	-3421
rical	-3422
▁gain	-3423
varepsilon	-3424
▁complexity	-3425
ucl	-3426
ocal	-3427
ridge	-3428
▁accur	-3429
▁forms	-3430
.;	-3431
inks	-3432
▁feel	-3433
▁wond	-3434
▁trig	-3435
########	-3436
▁opposite	-3437
▁configuration	-3438
ano	-3439
ols	-3440
plex	-3441
▁prec	-3442
▁cover	-3443
▁location	-3444
 (	-3445
▁($	-3446
lliptic	-3447
▁minutes	-3448
▁internal	-3449
atus	-3450
▁Graph	-3451
▁nodes	-3452
▁appropriate	-3453
▁max	-3454
▁Time	-3455
indows	-3456
▁Similar	-3457
dy	-3458
▁record	-3459
▁References	-3460
––	-3461
tes	-3462
▁Get	-3463
arithm	-3464
▁server	-3465
▁against	-3466
▁missing	-3467
▁precise	-3468
cles	-3469
acing	-3470
▁prot	-3471
icular	-3472
▁forces	-3473
▁student	-3474
▁describe	-3475
br	-3476
▁-\	-3477
ailed	-3478
ercise	-3479
▁Assum	-3480
▁Group	-3481
▁symmetric	-3482
▁AN	-3483
▁TH	-3484
▁war	-3485
▁task	-3486
▁characters	-3487
squ	-3488
▁\{	-3489
Gamma	-3490
ogene	-3491
▁grid	-3492
▁General	-3493
▁Def	-3494
▁Lear	-3495
▁faster	-3496
Zbl	-3497
zero	-3498
▁feature	-3499
}^\	-3500
att	-3501
serv	-3502
▁job	-3503
▁update	-3504
▁believe	-3505
▁du	-3506
raft	-3507
▁US	-3508
ront	-3509
▁ampl	-3510
▁knowledge	-3511
oring	-3512
▁major	-3513
▁Fr	-3514
using	-3515
▁measures	-3516
▁resulting	-3517
ibri	-3518
racy	-3519
tered	-3520
▁Share	-3521
ikz	-3522
▁Sta	-3523
aligned	-3524
▁oscill	-3525
▁investig	-3526
▁Dynamical	-3527
osition	-3528
▁adding	-3529
▁maps	-3530
▁longer	-3531
ategories	-3532
ilt	-3533
mes	-3534
irtual	-3535
▁Fourier	-3536
▁polynomials	-3537
code	-3538
}_{\	-3539
▁Ver	-3540
▁har	-3541
▁pie	-3542
istry	-3543
▁custom	-3544
▁except	-3545
▁Calculate	-3546
▁Equations	-3547
▁measurement	-3548
▁click	-3549
▁arguments	-3550
mid	-3551
reci	-3552
▁upd	-3553
▁life	-3554
▁future	-3555
})$	-3556
print	-3557
▁void	-3558
▁modul	-3559
▁generally	-3560
imer	-3561
▁gets	-3562
▁pairs	-3563
▁Follow	-3564
▁family	-3565
▁discrete	-3566
▁transfer	-3567
▁extension	-3568
▁denominator	-3569
Hz	-3570
apt	-3571
amer	-3572
size	-3573
}$$.	-3574
▁prom	-3575
▁demon	-3576
▁affect	-3577
▁RE	-3578
▁variance	-3579
▁ful	-3580
▁rev	-3581
▁past	-3582
▁derived	-3583
xi	-3584
angles	-3585
forall	-3586
":	-3587
sl	-3588
opt	-3589
▁\$	-3590
▁pul	-3591
phant	-3592
rable	-3593
▁State	-3594
▁percentage	-3595
▁transition	-3596
neg	-3597
▁Up	-3598
▁Linear	-3599
▁mentioned	-3600
$)	-3601
how	-3602
▁ord	-3603
▁orth	-3604
▁maybe	-3605
▁polar	-3606
▁Comment	-3607
▁convergence	-3608
fig	-3609
pag	-3610
varphi	-3611
▁tests	-3612
pecially	-3613
arks	-3614
hspace	-3615
▁Title	-3616
▁address	-3617
▁fundamental	-3618
chi	-3619
tri	-3620
ession	-3621
otimes	-3622
▁layer	-3623
▁prior	-3624
▁analog	-3625
▁five	-3626
▁money	-3627
▁observations	-3628
▁Am	-3629
▁video	-3630
▁satisfy	-3631
▁science	-3632
ighb	-3633
emann	-3634
ymbol	-3635
▁band	-3636
▁fine	-3637
ather	-3638
▁wide	-3639
▁increases	-3640
▁nonlinear	-3641
▁calculations	-3642
urs	-3643
norm	-3644
erc	-3645
▁Ri	-3646
udos	-3647
▁Bas	-3648
aking	-3649
▁among	-3650
▁visual	-3651
▁Originally	-3652
▁description	-3653
▁transformation	-3654
▁MR	-3655
▁Try	-3656
▁Amer	-3657
▁situation	-3658
▁exponential	-3659
ley	-3660
uly	-3661
▁Ham	-3662
▁ann	-3663
▁attack	-3664
▁mind	-3665
ibrium	-3666
▁Where	-3667
▁contact	-3668
▁implies	-3669
bedd	-3670
ream	-3671
ternal	-3672
▁degrees	-3673
▁picture	-3674
▁Dist	-3675
▁Techn	-3676
▁store	-3677
▁contin	-3678
▁training	-3679
▁implementation	-3680
avid	-3681
fact	-3682
▁slight	-3683
▁changed	-3684
▁thinking	-3685
▁structures	-3686
▁Ag	-3687
ropy	-3688
▁Rev	-3689
▁bond	-3690
▁extra	-3691
▁prote	-3692
oretical	-3693
▁counter	-3694
roups	-3695
bmatrix	-3696
▁divide	-3697
▁specify	-3698
▁intersection	-3699
AG	-3700
XX	-3701
lib	-3702
agnetic	-3703
▁remove	-3704
orth	-3705
appro	-3706
large	-3707
▁fair	-3708
▁risk	-3709
▁reduce	-3710
▁appears	-3711
▁sampling	-3712
▁:)	-3713
ores	-3714
▁While	-3715
▁inner	-3716
ameters	-3717
▁Determ	-3718
▁English	-3719
▁compared	-3720
▁discussion	-3721
({	-3722
▁won	-3723
▁sound	-3724
▁seconds	-3725
▁sometimes	-3726
sem	-3727
uracy	-3728
▁John	-3729
▁couple	-3730
▁detect	-3731
}&	-3732
qquad	-3733
mp	-3734
▁Fe	-3735
▁id	-3736
▁Const	-3737
▁refer	-3738
▁Probab	-3739
▁computation	-3740
▁represented	-3741
UR	-3742
▁Sm	-3743
▁fill	-3744
lement	-3745
▁cyl	-3746
▁tag	-3747
spect	-3748
▁Vari	-3749
▁mist	-3750
='	-3751
amed	-3752
ibly	-3753
ernel	-3754
▁fall	-3755
▁divis	-3756
▁scalar	-3757
▁thread	-3758
▁dynamics	-3759
▁processes	-3760
/\	-3761
neq	-3762
site	-3763
stein	-3764
words	-3765
▁Engine	-3766
ING	-3767
▁Fl	-3768
▁send	-3769
▁atoms	-3770
▁periodic	-3771
▁procedure	-3772
▁dual	-3773
▁Write	-3774
▁Return	-3775
▁stable	-3776
roduction	-3777
▁→	-3778
aven	-3779
ians	-3780
under	-3781
▁users	-3782
▁tangent	-3783
▁comments	-3784
$$-	-3785
▁appreci	-3786
▁Don	-3787
▁bin	-3788
rient	-3789
▁share	-3790
algebra	-3791
▁Finally	-3792
▁convert	-3793
▁included	-3794
II	-3795
div	-3796
ext	-3797
▁mer	-3798
▁bits	-3799
▁reach	-3800
▁gravity	-3801
▁database	-3802
▁symmetry	-3803
▁otherwise	-3804
▁Hy	-3805
osen	-3806
rang	-3807
▁events	-3808
▁evaluate	-3809
▁relationship	-3810
ued	-3811
year	-3812
▁Min	-3813
limits	-3814
▁formal	-3815
▁module	-3816
OL	-3817
ok	-3818
ube	-3819
article	-3820
uzz	-3821
▁$=	-3822
imate	-3823
▁entry	-3824
▁assumption	-3825
▁measurements	-3826
▁liter	-3827
([	-3828
eli	-3829
▁=>	-3830
▁Staff	-3831
berg	-3832
cher	-3833
uses	-3834
lling	-3835
ymmet	-3836
▁Form	-3837
▁conj	-3838
▁usual	-3839
▁Statistics	-3840
documentclass	-3841
Un	-3842
ani	-3843
▁priv	-3844
ithmetic	-3845
▁compare	-3846
▁divided	-3847
pendicular	-3848
Ar	-3849
ee	-3850
pth	-3851
▁dem	-3852
▁determin	-3853
▁interpret	-3854
vey	-3855
▁Us	-3856
▁react	-3857
ogeneous	-3858
▁symbols	-3859
▁#>	-3860
ache	-3861
what	-3862
▁decom	-3863
)?	-3864
▁std	-3865
ilton	-3866
▁Proof	-3867
▁edges	-3868
▁Public	-3869
▁school	-3870
▁networks	-3871
▁hypothesis	-3872
An	-3873
^-	-3874
oh	-3875
▁pdf	-3876
▁central	-3877
▁gradient	-3878
▁evolution	-3879
▁Sur	-3880
▁earth	-3881
▁illust	-3882
▁rank	-3883
▁scheme	-3884
▁calculus	-3885
▁consistent	-3886
▁correlation	-3887
cy	-3888
For	-3889
bre	-3890
urity	-3891
▁remember	-3892
▁singular	-3893
▁determined	-3894
.”	-3895
ae	-3896
▁pure	-3897
▁Series	-3898
▁wanted	-3899
▁topology	-3900
▁fractions	-3901
▁holds	-3902
▁split	-3903
agement	-3904
▁automat	-3905
▁request	-3906
▁principle	-3907
▁resistance	-3908
gl	-3909
”,	-3910
^{(	-3911
▁Ke	-3912
head	-3913
source	-3914
▁Kudos	-3915
▁tools	-3916
reshold	-3917
TE	-3918
iency	-3919
▁Multi	-3920
▁Output	-3921
▁geometric	-3922
▁exam	-3923
▁relevant	-3924
▁Description	-3925
CC	-3926
key	-3927
▁vs	-3928
▁plt	-3929
equiv	-3930
ister	-3931
ories	-3932
finite	-3933
▁commut	-3934
▁statistics	-3935
tings	-3936
▁marg	-3937
▁pert	-3938
▁equals	-3939
▁sequences	-3940
ingu	-3941
▁var	-3942
▁Cent	-3943
ha	-3944
sf	-3945
llo	-3946
▁}$	-3947
item	-3948
level	-3949
▁solved	-3950
▁extract	-3951
▁functional	-3952
▁frequencies	-3953
▁flo	-3954
▁sal	-3955
▁human	-3956
▁minimal	-3957
▁production	-3958
▁Rec	-3959
▁Next	-3960
Mat	-3961
eros	-3962
▁bus	-3963
graph	-3964
ishing	-3965
▁Windows	-3966
▁produced	-3967
▁selected	-3968
Sigma	-3969
count	-3970
▁Read	-3971
inetic	-3972
jective	-3973
▁growth	-3974
▁distinct	-3975
▁combination	-3976
rs	-3977
▁»	-3978
wiki	-3979
taint	-3980
▁quot	-3981
▁piece	-3982
▁Another	-3983
▁distributions	-3984
▁perpendicular	-3985
RO	-3986
aring	-3987
▁Press	-3988
chastic	-3989
plicated	-3990
▁extreme	-3991
format	-3992
▁Stage	-3993
▁micro	-3994
▁treat	-3995
▁largest	-3996
.:	-3997
\}$	-3998
▁cause	-3999
▁testing	-4000
Le	-4001
oon	-4002
seud	-4003
▁econ	-4004
▁stop	-4005
▁fully	-4006
▁Source	-4007
▁interface	-4008
RU	-4009
ifies	-4010
▁Error	-4011
▁forward	-4012
LS	-4013
Name	-4014
iers	-4015
▁ign	-4016
utorial	-4017
▁deviation	-4018
▁derivatives	-4019
▁El	-4020
ante	-4021
fill	-4022
▁Exp	-4023
▁Input	-4024
▁float	-4025
▁perturb	-4026
▁Research	-4027
▁estimates	-4028
▁((	-4029
▁Bi	-4030
▁Net	-4031
ategy	-4032
▁Point	-4033
▁diver	-4034
▁separate	-4035
================	-4036
▁ox	-4037
▁goal	-4038
itional	-4039
▁advant	-4040
▁sources	-4041
▁acid	-4042
phantom	-4043
▁asking	-4044
▁squares	-4045
▁proposed	-4046
flu	-4047
▁<=	-4048
tice	-4049
atory	-4050
iddle	-4051
▁Gaussian	-4052
▁development	-4053
▁$[	-4054
▁Second	-4055
▁issues	-4056
▁formulas	-4057
▁date	-4058
▁gram	-4059
vector	-4060
▁carbon	-4061
▁Definition	-4062
$?	-4063
iling	-4064
▁child	-4065
▁diagonal	-4066
▁quantity	-4067
▁rectangle	-4068
▁experience	-4069
▁alternative	-4070
▁kg	-4071
▁ion	-4072
▁van	-4073
pmatrix	-4074
▁scient	-4075
▁Examples	-4076
▁mechanism	-4077
cast	-4078
from	-4079
gent	-4080
▁Riemann	-4081
abs	-4082
table	-4083
▁blog	-4084
ogonal	-4085
▁style	-4086
▁consum	-4087
▁although	-4088
▁chemical	-4089
▁demonstr	-4090
▁infinity	-4091
▁characteristic	-4092
lier	-4093
vals	-4094
osing	-4095
▁phen	-4096
▁papers	-4097
▁Standard	-4098
▁integrals	-4099
Str	-4100
pol	-4101
▁$|	-4102
draw	-4103
iler	-4104
binom	-4105
▁Page	-4106
▁plug	-4107
▁repl	-4108
▁Further	-4109
▁download	-4110
▁morphism	-4111
FF	-4112
bs	-4113
));	-4114
▁&&	-4115
▁aff	-4116
▁rob	-4117
▁Review	-4118
▁chosen	-4119
▁includes	-4120
▁slightly	-4121
▁differences	-4122
rc	-4123
anch	-4124
uild	-4125
monic	-4126
▁computed	-4127
}%	-4128
ober	-4129
isher	-4130
▁rows	-4131
▁Every	-4132
▁align	-4133
▁Matrix	-4134
▁saying	-4135
▁perhaps	-4136
▁expressed	-4137
▁statistical	-4138
open	-4139
tikz	-4140
udio	-4141
▁Des	-4142
▁Ext	-4143
annel	-4144
▁Pract	-4145
▁neighb	-4146
▁equilibrium	-4147
ius	-4148
▁Ann	-4149
▁ans	-4150
▁Most	-4151
▁Under	-4152
command	-4153
stitute	-4154
▁travel	-4155
▁lattice	-4156
▁towards	-4157
▁especially	-4158
acy	-4159
ait	-4160
▁AC	-4161
Data	-4162
http	-4163
▁gal	-4164
older	-4165
plate	-4166
▁Take	-4167
▁cycle	-4168
▁Article	-4169
▁station	-4170
▁virtual	-4171
▁Learning	-4172
MP	-4173
▁gr	-4174
▁```	-4175
▁Once	-4176
▁streng	-4177
▁chapter	-4178
▁collect	-4179
[{	-4180
orn	-4181
▁jo	-4182
cret	-4183
sign	-4184
▁Volume	-4185
▁transl	-4186
▁desired	-4187
▁showing	-4188
IP	-4189
This	-4190
trans	-4191
▁null	-4192
approx	-4193
▁Check	-4194
▁areas	-4195
▁haven	-4196
mediate	-4197
▁embedd	-4198
▁critical	-4199
▁spectral	-4200
▁Mathematica	-4201
hel	-4202
▁ens	-4203
nergy	-4204
▁ideas	-4205
▁market	-4206
▁permut	-4207
subseteq	-4208
▁conduct	-4209
▁mapping	-4210
▁abstract	-4211
US	-4212
ung	-4213
dist	-4214
fficiency	-4215
▁existence	-4216
▁techniques	-4217
▁=\	-4218
▁suppose	-4219
▁variety	-4220
▁Challenge	-4221
▁relatively	-4222
▁star	-4223
oolean	-4224
ptions	-4225
▁accuracy	-4226
▁languages	-4227
▁documentation	-4228
unc	-4229
▁  	-4230
,...	-4231
ework	-4232
ivari	-4233
▁delay	-4234
▁posts	-4235
ography	-4236
ovember	-4237
▁orient	-4238
▁angular	-4239
▁commands	-4240
▁computing	-4241
▁Applications	-4242
AD	-4243
IG	-4244
hand	-4245
▁helps	-4246
▁stack	-4247
▁Search	-4248
▁letter	-4249
▁dataset	-4250
▁dependent	-4251
▁presented	-4252
▁background	-4253
orld	-4254
▁Gal	-4255
▁ste	-4256
▁High	-4257
▁Euler	-4258
▁Author	-4259
▁establ	-4260
▁strict	-4261
▁hydrogen	-4262
▁radiation	-4263
▁references	-4264
De	-4265
▁Ok	-4266
▁dt	-4267
▁win	-4268
aylor	-4269
▁True	-4270
▁Solve	-4271
▁interact	-4272
▁calculator	-4273
▁representations	-4274
ager	-4275
▁tal	-4276
▁ever	-4277
▁behind	-4278
▁Related	-4279
▁strings	-4280
▁accurate	-4281
di	-4282
ben	-4283
▁Dep	-4284
write	-4285
▁dele	-4286
▁wire	-4287
istics	-4288
▁stuff	-4289
▁connection	-4290
Sh	-4291
dcds	-4292
plus	-4293
▁meet	-4294
▁activ	-4295
ructure	-4296
▁bounds	-4297
▁circular	-4298
▁mechanics	-4299
Set	-4300
icon	-4301
▁waves	-4302
▁covari	-4303
ifically	-4304
ortunately	-4305
▁complicated	-4306
IR	-4307
)/(	-4308
aly	-4309
▁pow	-4310
ication	-4311
ca	-4312
run	-4313
▁cat	-4314
▁six	-4315
▁Both	-4316
▁prof	-4317
▁quality	-4318
▁building	-4319
▁Published	-4320
▁developed	-4321
▁wavelength	-4322
.[	-4323
oub	-4324
sto	-4325
alth	-4326
▁Lem	-4327
▁sil	-4328
cules	-4329
otopy	-4330
▁overl	-4331
▁solid	-4332
▁Newton	-4333
certaint	-4334
▁strategy	-4335
▁technique	-4336
+(	-4337
dim	-4338
▁AT	-4339
mark	-4340
▁maint	-4341
▁attrib	-4342
▁screen	-4343
********	-4344
▁recommend	-4345
ky	-4346
,}{	-4347
Bbb	-4348
▁PC	-4349
Time	-4350
▁subst	-4351
▁clearly	-4352
itational	-4353
▁November	-4354
▁comparison	-4355
▁approximately	-4356
ker	-4357
rip	-4358
▁km	-4359
▁took	-4360
▁April	-4361
▁formed	-4362
▁stored	-4363
▁stress	-4364
▁topological	-4365
*(	-4366
If	-4367
▁ID	-4368
▁{{	-4369
▁upon	-4370
▁photon	-4371
pid	-4372
rie	-4373
uary	-4374
unch	-4375
input	-4376
▁disk	-4377
▁worth	-4378
current	-4379
▁posted	-4380
▁confused	-4381
▁precision	-4382
$;	-4383
gr	-4384
hal	-4385
}-\	-4386
▁Ev	-4387
this	-4388
▁him	-4389
esian	-4390
▁Table	-4391
▁asset	-4392
▁decay	-4393
▁device	-4394
▁indeed	-4395
▁unknown	-4396
▁beginning	-4397
▁Introduction	-4398
bi	-4399
uro	-4400
lege	-4401
▁TeX	-4402
▁flat	-4403
▁scen	-4404
▁rates	-4405
▁phenomen	-4406
▁sentence	-4407
Pl	-4408
itz	-4409
mann	-4410
}$$,	-4411
▁Soc	-4412
▁Spr	-4413
▁came	-4414
▁save	-4415
▁prefer	-4416
▁thermal	-4417
▁distributed	-4418
CO	-4419
iness	-4420
iments	-4421
▁sphere	-4422
ructions	-4423
hest	-4424
there	-4425
▁heav	-4426
▁built	-4427
▁Google	-4428
▁collection	-4429
▁estimation	-4430
▁expressions	-4431
▁foot	-4432
▁concern	-4433
▁definitions	-4434
Im	-4435
,\,\	-4436
char	-4437
▁exc	-4438
▁fri	-4439
▁blue	-4440
mitted	-4441
▁fluid	-4442
▁conjug	-4443
▁expand	-4444
▁changing	-4445
▁depending	-4446
▁identical	-4447
▁generalized	-4448
,"	-4449
pace	-4450
pons	-4451
▁interse	-4452
▁conversion	-4453
fil	-4454
▁mi	-4455
state	-4456
▁Total	-4457
ryption	-4458
▁levels	-4459
▁syntax	-4460
ceedings	-4461
▁reduced	-4462
▁smallest	-4463
▁materials	-4464
▁threshold	-4465
▁introduced	-4466
Pr	-4467
And	-4468
\;\;	-4469
bolic	-4470
▁plus	-4471
▁reflect	-4472
▁increased	-4473
▁selection	-4474
){	-4475
ty	-4476
 $	-4477
”.	-4478
}}}	-4479
auge	-4480
▁quas	-4481
▁wall	-4482
▁delta	-4483
▁meant	-4484
plicate	-4485
▁Current	-4486
▁Program	-4487
▁authors	-4488
▁univers	-4489
▁elliptic	-4490
?]:	-4491
▁Pe	-4492
▁Fig	-4493
▁Lag	-4494
▁dot	-4495
▁List	-4496
▁[?]:	-4497
▁notes	-4498
▁entries	-4499
▁strength	-4500
▁estimated	-4501
RR	-4502
ny	-4503
▁Pa	-4504
▁Zh	-4505
plete	-4506
▁Even	-4507
cember	-4508
▁macro	-4509
▁polyg	-4510
jecture	-4511
▁Hamilton	-4512
▁existing	-4513
▁subtract	-4514
▁automatically	-4515
font	-4516
matic	-4517
}{,}{	-4518
▁atomic	-4519
▁recogn	-4520
▁cluster	-4521
▁locally	-4522
▁corresponds	-4523
▁DO	-4524
▁np	-4525
▁Gold	-4526
▁Over	-4527
▁confidence	-4528
▁eigenvalues	-4529
mar	-4530
aily	-4531
▁hash	-4532
▁turns	-4533
ossible	-4534
▁Normal	-4535
▁allowed	-4536
pir	-4537
long	-4538
▁$\{	-4539
▁Commun	-4540
▁static	-4541
▁overall	-4542
▁statements	-4543
but	-4544
txt	-4545
stack	-4546
▁Sing	-4547
▁intu	-4548
▁onto	-4549
string	-4550
▁track	-4551
▁adjust	-4552
▁concepts	-4553
▁logarithm	-4554
▁necessarily	-4555
Ps	-4556
▁MAT	-4557
▁Chem	-4558
ateral	-4559
▁cells	-4560
▁today	-4561
include	-4562
▁propag	-4563
▁assumed	-4564
▁dynamic	-4565
▁segment	-4566
▁Bay	-4567
▁Der	-4568
▁fig	-4569
▁vac	-4570
incip	-4571
▁arch	-4572
normal	-4573
▁termin	-4574
▁signals	-4575
▁Problems	-4576
▁describes	-4577
)|	-4578
IM	-4579
We	-4580
▁Har	-4581
▁deb	-4582
▁agree	-4583
▁employ	-4584
▁labels	-4585
▁Scholar	-4586
▁invariant	-4587
cd	-4588
}|	-4589
ensive	-4590
▁trivial	-4591
▁consists	-4592
▁essentially	-4593
oms	-4594
▁ST	-4595
rics	-4596
board	-4597
index	-4598
▁decl	-4599
▁front	-4600
▁Energy	-4601
▁occurs	-4602
▁places	-4603
▁worked	-4604
▁quickly	-4605
▁regions	-4606
▁December	-4607
▁typically	-4608
▁Differential	-4609
omy	-4610
wer	-4611
mult	-4612
ones	-4613
▁cand	-4614
▁sine	-4615
▁Lemma	-4616
▁definite	-4617
▁programs	-4618
hy	-4619
▁OP	-4620
▁Its	-4621
aster	-4622
isson	-4623
▁July	-4624
arante	-4625
▁adapt	-4626
▁supply	-4627
izations	-4628
ultaneous	-4629
▁feedback	-4630
▁discussed	-4631
NA	-4632
ye	-4633
Xiv	-4634
Type	-4635
node	-4636
▁Cor	-4637
▁Est	-4638
▁suit	-4639
▁items	-4640
▁simplify	-4641
▁reduction	-4642
▁Parameters	-4643
Exp	-4644
appa	-4645
edge	-4646
term	-4647
▁Rad	-4648
▁buff	-4649
▁deep	-4650
▁hack	-4651
▁Section	-4652
▁remaining	-4653
▁theoretical	-4654
GL	-4655
ael	-4656
ryst	-4657
umin	-4658
▁Tra	-4659
small	-4660
▁Year	-4661
agraph	-4662
selves	-4663
▁alpha	-4664
▁focus	-4665
elihood	-4666
▁######	-4667
▁python	-4668
▁assuming	-4669
▁compound	-4670
▁molecular	-4671
}{(	-4672
▁Aut	-4673
▁ast	-4674
▁trou	-4675
ception	-4676
▁achieve	-4677
▁Although	-4678
▁external	-4679
▁produces	-4680
▁stability	-4681
▁calculating	-4682
)!	-4683
mbox	-4684
~~~~	-4685
▁mut	-4686
dered	-4687
▁Fact	-4688
▁spat	-4689
isation	-4690
▁giving	-4691
As	-4692
tz	-4693
……	-4694
det	-4695
▁ur	-4696
List	-4697
▁Lie	-4698
▁Spe	-4699
iliar	-4700
▁Forum	-4701
▁Notes	-4702
implies	-4703
ses	-4704
▁Law	-4705
asons	-4706
▁Java	-4707
iverse	-4708
▁letters	-4709
▁diameter	-4710
▁approximate	-4711
▁dimensional	-4712
▁probabilities	-4713
clus	-4714
spec	-4715
tion	-4716
cture	-4717
▁bene	-4718
▁gave	-4719
▁latter	-4720
▁switch	-4721
▁approaches	-4722
▁Information	-4723
};	-4724
▁xy	-4725
▁Maybe	-4726
▁crypt	-4727
ativity	-4728
▁January	-4729
▁identify	-4730
▁performed	-4731
rew	-4732
izer	-4733
▁Div	-4734
▁sage	-4735
▁Enter	-4736
▁costs	-4737
▁email	-4738
▁pseud	-4739
▁denote	-4740
▁placed	-4741
▁earlier	-4742
▁effective	-4743
OH	-4744
Eng	-4745
▁bund	-4746
▁enter	-4747
▁nucle	-4748
▁behavi	-4749
▁topics	-4750
▁Location	-4751
▁division	-4752
▁Determine	-4753
▁incorrect	-4754
▁International	-4755
aks	-4756
▁Med	-4757
▁NOT	-4758
ociety	-4759
▁continue	-4760
▁guarante	-4761
▁Functions	-4762
▁arithmetic	-4763
▁constraints	-4764
Go	-4765
ario	-4766
cases	-4767
▁Like	-4768
▁pull	-4769
▁Field	-4770
▁private	-4771
▁packages	-4772
▁subgroup	-4773
▁community	-4774
▁stochastic	-4775
EM	-4776
Box	-4777
Ind	-4778
ried	-4779
Value	-4780
asure	-4781
▁Value	-4782
▁gover	-4783
▁moves	-4784
▁kernel	-4785
▁notion	-4786
▁Quantum	-4787
▁entropy	-4788
▁helpful	-4789
▁According	-4790
▁converges	-4791
ils	-4792
inte	-4793
rist	-4794
▁pix	-4795
▁syn	-4796
▁Area	-4797
▁Hello	-4798
▁Quote	-4799
▁mixed	-4800
▁months	-4801
▁implicit	-4802
▁Wikipedia	-4803
▁supported	-4804
▁collisions	-4805
▁orthogonal	-4806
▁Sy	-4807
▁^{	-4808
aker	-4809
▁curv	-4810
▁jump	-4811
▁clean	-4812
incipal	-4813
▁compet	-4814
▁Control	-4815
▁recently	-4816
▁tutorial	-4817
aa	-4818
kg	-4819
lab	-4820
▁CH	-4821
▁er	-4822
prod	-4823
▁Will	-4824
▁clar	-4825
▁handle	-4826
▁company	-4827
▁purpose	-4828
▁service	-4829
▁friction	-4830
▁molecules	-4831
la	-4832
▁AP	-4833
})$$	-4834
▁atm	-4835
▁cop	-4836
bound	-4837
ement	-4838
▁Poly	-4839
▁arrow	-4840
▁digit	-4841
▁compress	-4842
▁uncertaint	-4843
'.	-4844
To	-4845
doi	-4846
▁trick	-4847
TML	-4848
mol	-4849
▁Id	-4850
agic	-4851
ixed	-4852
zeta	-4853
kappa	-4854
▁Paper	-4855
idation	-4856
▁Practice	-4857
▁basically	-4858
▁interaction	-4859
DP	-4860
lin	-4861
ards	-4862
ipher	-4863
rated	-4864
▁Appro	-4865
▁notice	-4866
▁Propert	-4867
▁scatter	-4868
▁creating	-4869
▁gravitational	-4870
$ 	-4871
Big	-4872
▁ok	-4873
bits	-4874
outh	-4875
▁Sem	-4876
▁leg	-4877
omain	-4878
▁player	-4879
▁reasons	-4880
▁patterns	-4881
▁satisfies	-4882
▁resolution	-4883
[[	-4884
)}\	-4885
▁vi	-4886
free	-4887
▁Lim	-4888
▁hole	-4889
▁shad	-4890
▁shift	-4891
▁August	-4892
▁aspect	-4893
▁kinetic	-4894
▁Geometry	-4895
▁intervals	-4896
^+	-4897
   	-4898
ayer	-4899
ults	-4900
▁Str	-4901
▁none	-4902
atever	-4903
▁twice	-4904
▁Taylor	-4905
▁inputs	-4906
▁starts	-4907
▁stream	-4908
romagnetic	-4909
ners	-4910
▁lik	-4911
▁David	-4912
uations	-4913
negative	-4914
fortunately	-4915
▁Conference	-4916
Qu	-4917
[]	-4918
▁Em	-4919
▁nan	-4920
float	-4921
▁vary	-4922
artment	-4923
▁modified	-4924
▁optimization	-4925
}$ 	-4926
▁survey	-4927
▁framework	-4928
▁equivalence	-4929
oud	-4930
she	-4931
link	-4932
erator	-4933
points	-4934
▁radio	-4935
▁stand	-4936
▁detail	-4937
▁proved	-4938
ribution	-4939
▁October	-4940
▁removed	-4941
▁applying	-4942
▁supposed	-4943
▁collision	-4944
▁explained	-4945
▁substitution	-4946
hib	-4947
apes	-4948
ille	-4949
▁nor	-4950
▁capt	-4951
▁core	-4952
▁doub	-4953
mathit	-4954
square	-4955
itative	-4956
▁nature	-4957
▁spread	-4958
▁limited	-4959
▁designed	-4960
▁manifolds	-4961
▁technology	-4962
▁Engineering	-4963
ua	-4964
za	-4965
▁Ro	-4966
▁Ant	-4967
▁Hig	-4968
▁rig	-4969
▁sav	-4970
acter	-4971
elian	-4972
▁Hist	-4973
▁Line	-4974
▁leave	-4975
▁chance	-4976
▁balance	-4977
▁algebras	-4978
▁isomorphism	-4979
SP	-4980
umb	-4981
make	-4982
oice	-4983
▁Run	-4984
ullet	-4985
uting	-4986
▁Char	-4987
▁sums	-4988
atform	-4989
▁gauge	-4990
tically	-4991
▁Vector	-4992
▁member	-4993
▁surfaces	-4994
▁numerator	-4995
▁experiments	-4996
▁experimental	-4997
▁simultaneous	-4998
HC	-4999
}/	-5000
▁sn	-5001
ilde	-5002
}^{-	-5003
▁Adv	-5004
Theta	-5005
arest	-5006
▁cool	-5007
▁liqu	-5008
▁instr	-5009
▁links	-5010
▁instant	-5011
placement	-5012
▁versions	-5013
▁countable	-5014
▁operating	-5015
▁proportional	-5016
CL	-5017
ux	-5018
oop	-5019
aged	-5020
ancy	-5021
}}^{	-5022
▁Alex	-5023
▁Look	-5024
▁brow	-5025
▁Optim	-5026
▁Start	-5027
▁myself	-5028
▁updated	-5029
▁cylinder	-5030
▁followed	-5031
▁efficiency	-5032
]\	-5033
gu	-5034
sis	-5035
▁UR	-5036
icks	-5037
acher	-5038
field	-5039
idden	-5040
▁aren	-5041
alities	-5042
▁extend	-5043
homology	-5044
▁published	-5045
▁Probability	-5046
)[	-5047
han	-5048
irm	-5049
▁Av	-5050
ican	-5051
▁Max	-5052
icles	-5053
scale	-5054
▁font	-5055
▁tend	-5056
▁subse	-5057
requenc	-5058
▁Create	-5059
▁unless	-5060
▁typical	-5061
sur	-5062
▁File	-5063
▁Only	-5064
▁setup	-5065
▁quotient	-5066
▁partition	-5067
▁implemented	-5068
OP	-5069
eness	-5070
▁Oper	-5071
▁went	-5072
ichael	-5073
▁board	-5074
▁depth	-5075
▁inert	-5076
▁white	-5077
▁Assume	-5078
▁manifold	-5079
▁prediction	-5080
 =	-5081
ula	-5082
war	-5083
▁Bel	-5084
▁pan	-5085
▁trac	-5086
▁govern	-5087
▁weights	-5088
▁iteration	-5089
On	-5090
oph	-5091
}{{	-5092
▁She	-5093
vered	-5094
▁ends	-5095
▁enable	-5096
▁categories	-5097
▁observation	-5098
SO	-5099
▁CD	-5100
inux	-5101
}}{{	-5102
utive	-5103
▁lost	-5104
▁publ	-5105
elcome	-5106
▁clock	-5107
▁galax	-5108
▁circum	-5109
▁neural	-5110
▁highest	-5111
▁history	-5112
▁involved	-5113
newcommand	-5114
▁differentiable	-5115
\,\	-5116
▁</	-5117
None	-5118
emic	-5119
▁Gra	-5120
▁bug	-5121
▁buy	-5122
▁mid	-5123
xture	-5124
▁alone	-5125
▁Instead	-5126
▁studied	-5127
▁homotopy	-5128
▁properly	-5129
▁Institute	-5130
▁underlying	-5131
">	-5132
ki	-5133
▁bo	-5134
rief	-5135
that	-5136
well	-5137
▁Appl	-5138
▁June	-5139
▁turb	-5140
▁query	-5141
▁expert	-5142
ographic	-5143
mediately	-5144
▁exponent	-5145
▁processing	-5146
BN	-5147
OW	-5148
rays	-5149
▁fav	-5150
▁sup	-5151
▁flag	-5152
▁render	-5153
▁yields	-5154
▁Network	-5155
▁covered	-5156
▁leading	-5157
▁million	-5158
▁species	-5159
▁summary	-5160
▁advantage	-5161
^(	-5162
$).	-5163
▁Tri	-5164
anges	-5165
▁Sign	-5166
▁land	-5167
▁role	-5168
▁trees	-5169
▁candid	-5170
▁impact	-5171
▁ordered	-5172
▁Calculus	-5173
▁maintain	-5174
▁progress	-5175
▁Algorithm	-5176
▁behaviour	-5177
▁mathematic	-5178
▁previously	-5179
▁projection	-5180
▁eff	-5181
chron	-5182
▁Name	-5183
▁rout	-5184
exists	-5185
▁chart	-5186
▁maximal	-5187
▁decision	-5188
▁familiar	-5189
▁hyperbolic	-5190
▁composition	-5191
▁decomposition	-5192
<\	-5193
EL	-5194
abil	-5195
asks	-5196
plit	-5197
eline	-5198
▁Many	-5199
▁Prep	-5200
▁runs	-5201
▁conse	-5202
▁leads	-5203
▁active	-5204
▁Complex	-5205
▁security	-5206
▁curvature	-5207
▁conjecture	-5208
▁generation	-5209
▁concentration	-5210
$:	-5211
deg	-5212
ios	-5213
band	-5214
pass	-5215
alled	-5216
gener	-5217
▁Date	-5218
▁Prove	-5219
▁Sorry	-5220
▁conserv	-5221
▁contrad	-5222
▁respons	-5223
▁involves	-5224
▁immediately	-5225
PL	-5226
jo	-5227
olve	-5228
▁Ass	-5229
▁Iss	-5230
▁Val	-5231
black	-5232
limin	-5233
▁Mach	-5234
▁York	-5235
overed	-5236
▁zeros	-5237
▁belong	-5238
▁highly	-5239
▁studies	-5240
▁multiplic	-5241
▁remainder	-5242
▁variation	-5243
▁considering	-5244
overrightarrow	-5245
▁classification	-5246
,”	-5247
.-	-5248
hm	-5249
▁pm	-5250
etch	-5251
yond	-5252
▁Ast	-5253
▁dest	-5254
▁shif	-5255
▁walk	-5256
groups	-5257
▁paths	-5258
▁ensure	-5259
ymmetric	-5260
▁detailed	-5261
▁distingu	-5262
▁somewhat	-5263
BA	-5264
aj	-5265
}\,	-5266
https	-5267
orage	-5268
tember	-5269
▁achie	-5270
▁domin	-5271
▁named	-5272
▁criter	-5273
▁wouldn	-5274
▁website	-5275
▁matching	-5276
▁optional	-5277
▁returned	-5278
▁triangles	-5279
QL	-5280
▁MSC	-5281
mathop	-5282
▁books	-5283
▁minus	-5284
▁rough	-5285
▁Random	-5286
▁Applied	-5287
▁electro	-5288
▁yourself	-5289
▁constants	-5290
▁precisely	-5291
uge	-5292
▁()	-5293
▁OF	-5294
▁mm	-5295
▁men	-5296
elect	-5297
ulate	-5298
▁bytes	-5299
▁stage	-5300
▁surpr	-5301
▁Springer	-5302
▁transport	-5303
▁convention	-5304
)))	-5305
rian	-5306
▁tan	-5307
latex	-5308
▁Edit	-5309
▁rings	-5310
▁thank	-5311
▁beyond	-5312
▁derive	-5313
▁articles	-5314
▁capacity	-5315
▁machines	-5316
▁intersect	-5317
;\	-5318
ulated	-5319
forward	-5320
version	-5321
▁Sample	-5322
▁tables	-5323
▁Project	-5324
MA	-5325
fs	-5326
iny	-5327
▁}\	-5328
▁Mac	-5329
▁Diff	-5330
▁beam	-5331
▁cycl	-5332
▁shell	-5333
▁stated	-5334
▁devices	-5335
▁talking	-5336
▁interpol	-5337
▁indicates	-5338
▁impossible	-5339
");	-5340
ris	-5341
▁Sun	-5342
▁Eucl	-5343
▁Know	-5344
▁Make	-5345
▁absor	-5346
▁train	-5347
requency	-5348
▁neither	-5349
▁Hamiltonian	-5350
'$	-5351
TC	-5352
mean	-5353
▁lab	-5354
frame	-5355
joint	-5356
▁Word	-5357
▁span	-5358
▁metal	-5359
▁plate	-5360
quently	-5361
▁batter	-5362
▁button	-5363
▁members	-5364
▁trouble	-5365
▁explicitly	-5366
gt	-5367
EEE	-5368
▁SI	-5369
rast	-5370
reduc	-5371
▁Disc	-5372
▁feet	-5373
▁parab	-5374
▁tells	-5375
anguage	-5376
%%%%%%%%	-5377
▁Keywords	-5378
▁whatever	-5379
})^	-5380
ills	-5381
▁$(\	-5382
▁AND	-5383
scrib	-5384
▁drop	-5385
▁effort	-5386
▁activity	-5387
▁diffusion	-5388
Res	-5389
▁Hz	-5390
akes	-5391
cule	-5392
▁inf	-5393
▁soc	-5394
▁tun	-5395
ilbert	-5396
mapsto	-5397
▁bigger	-5398
▁blocks	-5399
▁middle	-5400
▁preser	-5401
ivariate	-5402
▁Returns	-5403
textcolor	-5404
▁presence	-5405
▁Followers	-5406
▁certainly	-5407
▁involving	-5408
▁positions	-5409
▁resources	-5410
▁[#	-5411
iver	-5412
star	-5413
▁art	-5414
▁dam	-5415
▁doll	-5416
▁hint	-5417
▁early	-5418
▁spring	-5419
▁advanced	-5420
ike	-5421
non	-5422
tab	-5423
 [#	-5424
▁Mc	-5425
)$$.	-5426
atell	-5427
▁soon	-5428
▁Could	-5429
▁detector	-5430
▁paragraph	-5431
PE	-5432
().	-5433
---	-5434
aser	-5435
▁Sen	-5436
▁tim	-5437
▁Thom	-5438
▁miss	-5439
▁swit	-5440
imeter	-5441
number	-5442
▁Numer	-5443
▁stuck	-5444
▁atmosp	-5445
▁Poisson	-5446
▁normally	-5447
▁September	-5448
▁assumptions	-5449
ao	-5450
ns	-5451
RUE	-5452
▁OR	-5453
augh	-5454
roid	-5455
month	-5456
▁Mess	-5457
mathsf	-5458
▁Image	-5459
▁School	-5460
bo	-5461
(),	-5462
len	-5463
ypes	-5464
stood	-5465
▁equi	-5466
Script	-5467
▁lists	-5468
▁magnet	-5469
▁passed	-5470
▁protoc	-5471
▁ability	-5472
▁Moreover	-5473
▁amplitude	-5474
▁introduce	-5475
▁reasonable	-5476
Mod	-5477
nov	-5478
scr	-5479
cons	-5480
just	-5481
▁Vis	-5482
▁War	-5483
▁Back	-5484
▁Good	-5485
ductor	-5486
▁Thread	-5487
▁received	-5488
▁settings	-5489
▁stationary	-5490
▁commutative	-5491
\}	-5492
Phi	-5493
▁}}	-5494
note	-5495
uits	-5496
▁Red	-5497
▁Squ	-5498
ested	-5499
xygen	-5500
▁Arch	-5501
▁flux	-5502
▁phys	-5503
▁plain	-5504
process	-5505
▁scores	-5506
rational	-5507
ulations	-5508
▁Department	-5509
.\	-5510
ancel	-5511
▁Ment	-5512
▁cryst	-5513
▁stock	-5514
▁Society	-5515
▁resource	-5516
▁wondering	-5517
PA	-5518
rec	-5519
wide	-5520
▁THE	-5521
▁ult	-5522
idean	-5523
minus	-5524
▁Coll	-5525
▁dedu	-5526
▁Views	-5527
▁influ	-5528
▁joint	-5529
▁reson	-5530
English	-5531
▁capital	-5532
▁charged	-5533
▁literature	-5534
sch	-5535
▁GL	-5536
Text	-5537
aging	-5538
local	-5539
▁Emer	-5540
▁Plot	-5541
▁cube	-5542
ricted	-5543
He	-5544
My	-5545
db	-5546
ls	-5547
opic	-5548
▁Inc	-5549
iving	-5550
wered	-5551
trivial	-5552
▁powers	-5553
▁applies	-5554
▁learned	-5555
▁likelihood	-5556
\|	-5557
ups	-5558
▁&\	-5559
▁nit	-5560
▁Circ	-5561
▁coming	-5562
▁History	-5563
▁decrease	-5564
▁harmonic	-5565
▁objective	-5566
By	-5567
CS	-5568
▁dr	-5569
)}{\	-5570
page	-5571
▁ten	-5572
▁isol	-5573
▁sqrt	-5574
▁March	-5575
▁anten	-5576
▁carry	-5577
▁neutr	-5578
————————	-5579
▁modules	-5580
▁indicate	-5581
▁suitable	-5582
Ph	-5583
grad	-5584
ruary	-5585
▁tags	-5586
▁wind	-5587
String	-5588
ercises	-5589
▁correl	-5590
▁liquid	-5591
▁defines	-5592
▁denotes	-5593
▁themselves	-5594
sy	-5595
▁(*	-5596
▁SE	-5597
Math	-5598
mary	-5599
reat	-5600
rice	-5601
▁hit	-5602
▁face	-5603
closed	-5604
▁Ident	-5605
▁digital	-5606
▁exercise	-5607
▁Proceedings	-5608
▁engineering	-5609
Ver	-5610
▁+\	-5611
arse	-5612
sive	-5613
▁ske	-5614
duate	-5615
▁wish	-5616
iation	-5617
▁aware	-5618
▁Computer	-5619
Col	-5620
]$$	-5621
▁MO	-5622
loor	-5623
▁Lib	-5624
▁axi	-5625
▁tab	-5626
▁cred	-5627
▁host	-5628
▁Methods	-5629
▁equality	-5630
▁principal	-5631
▁quantities	-5632
())	-5633
)\\	-5634
dig	-5635
mma	-5636
▁lo	-5637
▁tax	-5638
▁unc	-5639
▁Have	-5640
textbf	-5641
▁latex	-5642
▁outer	-5643
▁plots	-5644
▁thick	-5645
itivity	-5646
ications	-5647
▁Edition	-5648
▁choices	-5649
▁uncertainty	-5650
No	-5651
esh	-5652
▁__	-5653
▁Ber	-5654
▁Num	-5655
▁pen	-5656
Error	-5657
arter	-5658
brace	-5659
▁sizes	-5660
▁income	-5661
▁listed	-5662
Function	-5663
▁everyone	-5664
▁possibly	-5665
oses	-5666
▁aim	-5667
amera	-5668
empty	-5669
▁Eval	-5670
ifiers	-5671
onical	-5672
▁offset	-5673
▁irreduc	-5674
▁American	-5675
▁analytic	-5676
▁resistor	-5677
DB	-5678
IV	-5679
▁﻿	-5680
▁Dr	-5681
▁saw	-5682
Point	-5683
▁prep	-5684
ancial	-5685
▁green	-5686
▁remains	-5687
IL	-5688
aus	-5689
rown	-5690
▁dro	-5691
▁lack	-5692
▁rele	-5693
odynam	-5694
▁accom	-5695
▁drawn	-5696
▁gamma	-5697
▁drawing	-5698
▁logical	-5699
▁Equation	-5700
▁universe	-5701
ENT	-5702
▁ED	-5703
Spec	-5704
acob	-5705
aste	-5706
▁fac	-5707
▁mol	-5708
ander	-5709
▁Mechan	-5710
▁Notice	-5711
▁Online	-5712
▁spatial	-5713
▁Electron	-5714
▁simplest	-5715
▁generating	-5716
▁infinitely	-5717
▁simulations	-5718
?)	-5719
CE	-5720
NN	-5721
Net	-5722
har	-5723
diff	-5724
plane	-5725
▁cash	-5726
▁info	-5727
includ	-5728
▁solar	-5729
▁prevent	-5730
▁February	-5731
▁extended	-5732
▁repeated	-5733
▁sections	-5734
▁challenge	-5735
▁Technology	-5736
▁displacement	-5737
hev	-5738
▁dy	-5739
mode	-5740
sole	-5741
}}=\	-5742
▁arc	-5743
▁Real	-5744
▁gold	-5745
▁reply	-5746
▁distances	-5747
▁computational	-5748
HS	-5749
▁<<	-5750
onic	-5751
ogram	-5752
olicy	-5753
▁broad	-5754
defined	-5755
pective	-5756
▁planet	-5757
equation	-5758
▁arrange	-5759
▁channel	-5760
▁observe	-5761
▁subsets	-5762
▁assigned	-5763
▁defining	-5764
▁encryption	-5765
                	-5766
";	-5767
,$$	-5768
}}=	-5769
▁dc	-5770
Long	-5771
▁Web	-5772
▁die	-5773
ename	-5774
▁lies	-5775
▁push	-5776
ersion	-5777
▁Found	-5778
▁Direct	-5779
▁mixture	-5780
▁schemes	-5781
▁molecule	-5782
▁transmission	-5783
```	-5784
icol	-5785
oder	-5786
plan	-5787
▁Bar	-5788
jects	-5789
▁Draw	-5790
▁puzz	-5791
textrm	-5792
▁modern	-5793
▁proceed	-5794
▁contained	-5795
▁extremely	-5796
▁technical	-5797
]=	-5798
ret	-5799
▁\<	-5800
blue	-5801
step	-5802
eties	-5803
image	-5804
oplus	-5805
▁Super	-5806
▁empir	-5807
▁usage	-5808
▁Mentor	-5809
▁fairly	-5810
▁mostly	-5811
▁evidence	-5812
▁isomorphic	-5813
▁appreciated	-5814
DD	-5815
DS	-5816
PC	-5817
▁⇒	-5818
ipse	-5819
itus	-5820
Matrix	-5821
alleng	-5822
undred	-5823
ambridge	-5824
▁finally	-5825
▁session	-5826
▁converge	-5827
▁Similarly	-5828
▁capacitor	-5829
▁cohomology	-5830
▁conditional	-5831
▁particularly	-5832
Co	-5833
▁≤	-5834
osh	-5835
▁::	-5836
▁Ang	-5837
▁Pri	-5838
▁ISBN	-5839
▁wants	-5840
▁colors	-5841
▁abelian	-5842
▁explore	-5843
▁mistake	-5844
▁simplic	-5845
▁strateg	-5846
▁National	-5847
▁attached	-5848
▁Something	-5849
▁installed	-5850
▁uniformly	-5851
▁scattering	-5852
La	-5853
Par	-5854
can	-5855
hbar	-5856
real	-5857
▁hot	-5858
▁centre	-5859
wikipedia	-5860
▁Solutions	-5861
▁generator	-5862
▁elementary	-5863
\%	-5864
_,	-5865
{.	-5866
nes	-5867
▁Br	-5868
▁Hall	-5869
▁rock	-5870
Number	-5871
▁dense	-5872
▁manip	-5873
▁acting	-5874
▁located	-5875
▁nearest	-5876
▁storage	-5877
▁Emeritus	-5878
▁constructed	-5879
Or	-5880
Pos	-5881
Val	-5882
cks	-5883
olf	-5884
▁cr	-5885
▁mar	-5886
▁reli	-5887
Google	-5888
▁recur	-5889
▁sorry	-5890
▁Define	-5891
▁affine	-5892
▁College	-5893
questions	-5894
▁highlight	-5895
▁practical	-5896
BC	-5897
UN	-5898
▁..	-5899
▁py	-5900
zing	-5901
▁Dirac	-5902
▁demand	-5903
▁release	-5904
▁randomly	-5905
▁services	-5906
PR	-5907
RC	-5908
▁â	-5909
▁**	-5910
▁Ans	-5911
▁arri	-5912
▁union	-5913
▁cancel	-5914
▁decided	-5915
▁passing	-5916
▁proportion	-5917
▁translation	-5918
▁transformations	-5919
) 	-5920
Sp	-5921
ogen	-5922
ATION	-5923
hline	-5924
▁Wang	-5925
▁bill	-5926
▁laws	-5927
▁sand	-5928
▁scan	-5929
Expand	-5930
raries	-5931
▁shall	-5932
issions	-5933
ologies	-5934
▁lowest	-5935
▁Compute	-5936
▁reverse	-5937
▁conclude	-5938
▁homogeneous	-5939
aq	-5940
▁CM	-5941
inst	-5942
heses	-5943
▁IEEE	-5944
▁beta	-5945
▁peak	-5946
atively	-5947
▁folder	-5948
▁satell	-5949
▁binomial	-5950
▁controll	-5951
▁modeling	-5952
▁theories	-5953
▁reasoning	-5954
▁somewhere	-5955
▁universal	-5956
▁interactions	-5957
▁interpretation	-5958
-(	-5959
unk	-5960
▁Oh	-5961
osit	-5962
}.$$	-5963
▁Ent	-5964
▁Nat	-5965
▁mus	-5966
eries	-5967
quant	-5968
▁moved	-5969
▁stars	-5970
▁Select	-5971
▁looked	-5972
▁simpler	-5973
▁platform	-5974
▁strictly	-5975
▁induction	-5976
▁Statistical	-5977
▁characteristics	-5978
CM	-5979
SA	-5980
eks	-5981
{{\	-5982
bles	-5983
erson	-5984
poses	-5985
▁lens	-5986
▁bring	-5987
▁recurs	-5988
▁outputs	-5989
▁checking	-5990
▁reactions	-5991
▁regarding	-5992
▁statistic	-5993
▁understood	-5994
▁determinant	-5995
▁irreducible	-5996
Me	-5997
ev	-5998
▁EN	-5999
▁aw	-6000
ufact	-6001
▁cong	-6002
▁wait	-6003
▁Based	-6004
▁offer	-6005
herical	-6006
▁social	-6007
dependent	-6008
▁clusters	-6009
▁particip	-6010
▁strongly	-6011
artin	-6012
plify	-6013
herent	-6014
▁Option	-6015
▁buffer	-6016
▁leaves	-6017
ibration	-6018
▁children	-6019
▁combined	-6020
▁estimator	-6021
▁integrate	-6022
pez	-6023
ski	-6024
▁End	-6025
cancel	-6026
▁calls	-6027
▁prices	-6028
▁Answers	-6029
▁Hilbert	-6030
▁charges	-6031
▁creates	-6032
▁answered	-6033
▁asymptotic	-6034
▁complement	-6035
▁Furthermore	-6036
||	-6037
)),	-6038
LAS	-6039
Sub	-6040
chy	-6041
▁CC	-6042
ford	-6043
––––	-6044
ights	-6045
model	-6046
▁Chen	-6047
▁reads	-6048
▁closer	-6049
▁manual	-6050
▁lengths	-6051
▁spectra	-6052
▁template	-6053
▁α	-6054
cat	-6055
▁Na	-6056
rely	-6057
rial	-6058
tach	-6059
▁cle	-6060
first	-6061
▁Mean	-6062
olfram	-6063
▁flows	-6064
▁conven	-6065
▁primes	-6066
▁nuclear	-6067
omorphisms	-6068
▁Cambridge	-6069
▁Management	-6070
eah	-6071
rig	-6072
Cont	-6073
base	-6074
▁Pat	-6075
▁Rob	-6076
idity	-6077
coming	-6078
▁trade	-6079
▁Senior	-6080
setminus	-6081
▁textbook	-6082
▁conclusion	-6083
▁government	-6084
▁significantly	-6085
ka	-6086
▁θ	-6087
ham	-6088
och	-6089
hard	-6090
imet	-6091
show	-6092
}}}{	-6093
▁init	-6094
sample	-6095
▁Would	-6096
▁drive	-6097
▁solver	-6098
▁trigon	-6099
▁Process	-6100
▁antenna	-6101
▁whereas	-6102
▁powerful	-6103
-)	-6104
It	-6105
aff	-6106
mic	-6107
php	-6108
rep	-6109
)}$$	-6110
File	-6111
}}_{	-6112
ender	-6113
floor	-6114
tilde	-6115
▁told	-6116
▁adjac	-6117
▁actions	-6118
▁Sciences	-6119
▁weighted	-6120
▁treatment	-6121
><	-6122
TH	-6123
cho	-6124
unt	-6125
urt	-6126
win	-6127
)$$,	-6128
▁rou	-6129
close	-6130
▁coin	-6131
cation	-6132
▁house	-6133
▁motor	-6134
▁quasi	-6135
▁branch	-6136
▁couldn	-6137
▁medium	-6138
▁reported	-6139
▁electrical	-6140
▁evaluation	-6141
/.	-6142
dat	-6143
▁SD	-6144
ball	-6145
oded	-6146
▁pin	-6147
▁anim	-6148
▁axes	-6149
▁lots	-6150
▁wasn	-6151
▁brief	-6152
▁colle	-6153
▁lemma	-6154
▁stick	-6155
▁compat	-6156
▁inequalities	-6157
ATE	-6158
vol	-6159
▁CPU	-6160
▁Wed	-6161
ayout	-6162
ellar	-6163
paper	-6164
▁Mond	-6165
▁util	-6166
▁Exper	-6167
instein	-6168
▁Combin	-6169
▁circles	-6170
▁derivation	-6171
▁iterations	-6172
▁predictions	-6173
':	-6174
zy	-6175
sup	-6176
▁PR	-6177
iral	-6178
pack	-6179
▁Kar	-6180
aniel	-6181
wedge	-6182
years	-6183
▁fuel	-6184
center	-6185
istent	-6186
urable	-6187
▁Markov	-6188
▁Initial	-6189
▁polygon	-6190
▁eventually	-6191
▁possibility	-6192
▁combinations	-6193
dr	-6194
)}^{	-6195
True	-6196
onts	-6197
▁Att	-6198
Trans	-6199
▁Mass	-6200
▁False	-6201
▁tasks	-6202
▁oxygen	-6203
▁remain	-6204
▁indices	-6205
▁orbital	-6206
▁squared	-6207
abilities	-6208
▁scenario	-6209
▁separated	-6210
▁representing	-6211
ULL	-6212
ois	-6213
png	-6214
vin	-6215
}},	-6216
▁pip	-6217
orter	-6218
▁Spect	-6219
▁cubes	-6220
▁purch	-6221
▁truth	-6222
▁Design	-6223
▁Helper	-6224
▁margin	-6225
▁neutron	-6226
▁business	-6227
▁forecast	-6228
▁terminal	-6229
▁libraries	-6230
▁obviously	-6231
▁projective	-6232
▁multiplying	-6233
################	-6234
cr	-6235
td	-6236
{#	-6237
▁Je	-6238
ALSE	-6239
iced	-6240
ithub	-6241
▁Main	-6242
▁isot	-6243
▁Basic	-6244
▁Three	-6245
mathscr	-6246
▁editor	-6247
▁tested	-6248
standing	-6249
▁failure	-6250
▁shouldn	-6251
▁traject	-6252
▁empirical	-6253
▁suggested	-6254
▁fractional	-6255
▁scientific	-6256
▁investigate	-6257
▁Unfortunately	-6258
UL	-6259
Get	-6260
▁Py	-6261
opes	-6262
stac	-6263
▁Met	-6264
▁Sat	-6265
ellow	-6266
▁Hard	-6267
▁Click	-6268
▁intern	-6269
▁wonder	-6270
ifferent	-6271
ictionary	-6272
▁emission	-6273
▁residual	-6274
▁specifically	-6275
!)	-6276
${	-6277
&=	-6278
.(	-6279
fr	-6280
wr	-6281
fix	-6282
std	-6283
ury	-6284
you	-6285
▁ln	-6286
idel	-6287
olved	-6288
▁trace	-6289
rangian	-6290
▁Christ	-6291
▁namely	-6292
▁proofs	-6293
▁sparse	-6294
▁status	-6295
▁Exercise	-6296
▁theorems	-6297
▁Euclidean	-6298
▁mechanical	-6299
▁permutation	-6300
▁electromagnetic	-6301
Key	-6302
den	-6303
inf	-6304
vis	-6305
▁CS	-6306
▁Ben	-6307
▁Put	-6308
block	-6309
rence	-6310
tfrac	-6311
random	-6312
stream	-6313
▁Micro	-6314
▁States	-6315
▁causes	-6316
▁masses	-6317
▁showed	-6318
▁torque	-6319
▁calling	-6320
▁popular	-6321
▁primary	-6322
▁circuits	-6323
acs	-6324
ola	-6325
ipro	-6326
▁Tom	-6327
auchy	-6328
▁aver	-6329
▁roll	-6330
▁tens	-6331
▁Maxim	-6332
vectors	-6333
▁layout	-6334
▁tempor	-6335
▁outcome	-6336
▁reprodu	-6337
▁Statement	-6338
▁formation	-6339
▁perfectly	-6340
▁eigenvalue	-6341
FC	-6342
hr	-6343
ya	-6344
ops	-6345
agon	-6346
}}}$	-6347
▁Did	-6348
▁Tem	-6349
tools	-6350
▁reve	-6351
▁arXiv	-6352
▁brack	-6353
▁linked	-6354
▁refers	-6355
overflow	-6356
▁matches	-6357
▁hardware	-6358
▁purposes	-6359
▁Otherwise	-6360
▁assignment	-6361
▁consisting	-6362
▁Optimization	-6363
▁simultaneously	-6364
ads	-6365
▁KB	-6366
▁OK	-6367
▁[[	-6368
▁||	-6369
greg	-6370
true	-6371
▁enh	-6372
Total	-6373
anged	-6374
essor	-6375
▁Plan	-6376
▁semi	-6377
lexive	-6378
▁Factor	-6379
▁cipher	-6380
▁cosine	-6381
ordinate	-6382
▁Michael	-6383
▁hundred	-6384
▁teacher	-6385
▁canonical	-6386
▁predicted	-6387
▁covariance	-6388
FA	-6389
OC	-6390
SON	-6391
lob	-6392
▁SV	-6393
▁Sk	-6394
▁---	-6395
▁Sal	-6396
▁Tag	-6397
Index	-6398
ctive	-6399
oidal	-6400
▁HTML	-6401
▁Long	-6402
▁Publ	-6403
▁Scal	-6404
▁pole	-6405
▁Again	-6406
project	-6407
▁anyway	-6408
▁friend	-6409
▁verify	-6410
▁battery	-6411
efficient	-6412
▁commonly	-6413
▁detection	-6414
▁directions	-6415
np	-6416
enn	-6417
▁URL	-6418
Lambda	-6419
active	-6420
ponent	-6421
▁Study	-6422
▁Access	-6423
▁master	-6424
▁stabil	-6425
▁Perhaps	-6426
▁________	-6427
▁supports	-6428
▁strategies	-6429
@@	-6430
Se	-6431
[-	-6432
></	-6433
cut	-6434
rem	-6435
▁Mor	-6436
manif	-6437
▁rise	-6438
▁seed	-6439
▁team	-6440
▁glass	-6441
▁Models	-6442
▁applic	-6443
▁exceed	-6444
▁robust	-6445
▁attract	-6446
▁denoted	-6447
▁accepted	-6448
▁floating	-6449
▁ordinary	-6450
▁attention	-6451
▁inference	-6452
▁irrational	-6453
▁displaystyle	-6454
▁requirements	-6455
ba	-6456
temp	-6457
tree	-6458
after	-6459
force	-6460
icate	-6461
▁safe	-6462
▁timer	-6463
▁Compar	-6464
▁meters	-6465
▁Concept	-6466
▁Correct	-6467
▁Product	-6468
▁figures	-6469
▁somehow	-6470
▁suspect	-6471
▁visible	-6472
▁simplified	-6473
PM	-6474
LAB	-6475
New	-6476
amin	-6477
▁$$=	-6478
actic	-6479
bolds	-6480
essel	-6481
▁room	-6482
▁cards	-6483
▁fails	-6484
▁forum	-6485
default	-6486
picture	-6487
▁elimin	-6488
▁filled	-6489
▁indust	-6490
▁intended	-6491
▁restrict	-6492
boldsymbol	-6493
▁computers	-6494
▁multiplied	-6495
($	-6496
ji	-6497
Per	-6498
dec	-6499
▁Sw	-6500
core	-6501
▁API	-6502
omics	-6503
pling	-6504
title	-6505
apital	-6506
▁motiv	-6507
▁weeks	-6508
related	-6509
▁caused	-6510
▁modify	-6511
▁poster	-6512
▁proton	-6513
▁revers	-6514
▁massive	-6515
▁Actually	-6516
▁asymptot	-6517
▁contents	-6518
ifications	-6519
▁divisible	-6520
FS	-6521
\!	-6522
Var	-6523
arp	-6524
▁SH	-6525
▁ft	-6526
case	-6527
vest	-6528
▁Cos	-6529
▁dip	-6530
odium	-6531
▁Club	-6532
▁Prof	-6533
▁drag	-6534
▁stay	-6535
redict	-6536
▁paint	-6537
▁Expert	-6538
▁Import	-6539
▁camera	-6540
▁congru	-6541
▁differ	-6542
irection	-6543
▁imagine	-6544
▁challeng	-6545
▁concrete	-6546
▁contrast	-6547
▁messages	-6548
▁que	-6549
▁tot	-6550
▁}_{	-6551
▁held	-6552
▁spot	-6553
called	-6554
▁Analy	-6555
▁Deriv	-6556
▁Linux	-6557
▁energ	-6558
▁dealing	-6559
▁moments	-6560
▁utility	-6561
▁rectangular	-6562
▁generalization	-6563
%.	-6564
Ob	-6565
All	-6566
ror	-6567
▁ep	-6568
▁ms	-6569
oids	-6570
reek	-6571
▁&=\	-6572
▁lif	-6573
orted	-6574
▁boot	-6575
▁opin	-6576
▁viol	-6577
▁Issue	-6578
▁Right	-6579
▁games	-6580
▁heard	-6581
▁labor	-6582
ilation	-6583
▁profit	-6584
▁shapes	-6585
▁capture	-6586
▁compile	-6587
▁Properties	-6588
▁conservation	-6589
▁intermediate	-6590
At	-6591
Of	-6592
arc	-6593
elt	-6594
ras	-6595
}}(	-6596
▁BC	-6597
▁DE	-6598
▁NP	-6599
▁tu	-6600
alog	-6601
poly	-6602
uous	-6603
▁hex	-6604
elesc	-6605
start	-6606
▁ions	-6607
encies	-6608
▁forget	-6609
▁closest	-6610
▁optical	-6611
▁Citation	-6612
▁contract	-6613
▁replaced	-6614
▁identified	-6615
En	-6616
Pi	-6617
ih	-6618
iam	-6619
ini	-6620
▁DC	-6621
cong	-6622
mass	-6623
uate	-6624
▁tou	-6625
▁veh	-6626
etime	-6627
parse	-6628
▁huge	-6629
aching	-6630
▁Daily	-6631
▁Jacob	-6632
▁coinc	-6633
▁pulse	-6634
▁scales	-6635
▁acceler	-6636
▁initially	-6637
Bl	-6638
["	-6639
Cal	-6640
Psi	-6641
eck	-6642
ran	-6643
ulf	-6644
▁Hu	-6645
atio	-6646
▁esc	-6647
iring	-6648
itter	-6649
▁Hans	-6650
▁Space	-6651
▁exhib	-6652
▁maths	-6653
▁Cauchy	-6654
▁bundle	-6655
▁inertia	-6656
▁Remember	-6657
▁surround	-6658
▁evaluated	-6659
,,	-6660
))$	-6661
Sch	-6662
uum	-6663
▁Pi	-6664
sche	-6665
▁Dig	-6666
▁Lat	-6667
obile	-6668
▁Book	-6669
option	-6670
▁balls	-6671
▁miles	-6672
▁moles	-6673
▁thous	-6674
▁counts	-6675
▁Special	-6676
▁journal	-6677
▁Entering	-6678
▁linearly	-6679
▁providing	-6680
▁phenomenon	-6681
▁situations	-6682
"]	-6683
SD	-6684
UM	-6685
bys	-6686
gra	-6687
▁Sl	-6688
gant	-6689
roph	-6690
▁Mem	-6691
▁Off	-6692
▁gap	-6693
▁Pure	-6694
▁dark	-6695
▁thin	-6696
▁scope	-6697
connect	-6698
▁assess	-6699
▁sounds	-6700
▁summar	-6701
▁Replies	-6702
▁photons	-6703
▁projects	-6704
▁shortest	-6705
▁separately	-6706
▁Publication	-6707
▁instructions	-6708
IB	-6709
++)	-6710
▁TO	-6711
ctan	-6712
llig	-6713
rosc	-6714
▁Has	-6715
▁Ram	-6716
oting	-6717
urope	-6718
▁$${\	-6719
▁anti	-6720
▁bind	-6721
formal	-6722
icense	-6723
output	-6724
second	-6725
▁ATLAS	-6726
▁Array	-6727
▁Peter	-6728
istance	-6729
▁shared	-6730
▁dividing	-6731
▁financial	-6732
▁Lagrangian	-6733
▁propagation	-6734
▁introduction	-6735
'_	-6736
kin	-6737
zed	-6738
).$$	-6739
phas	-6740
▁Fil	-6741
▁hol	-6742
check	-6743
itors	-6744
split	-6745
▁Call	-6746
▁Fund	-6747
▁cone	-6748
figure	-6749
▁stret	-6750
▁secret	-6751
▁overlap	-6752
▁referred	-6753
▁documents	-6754
▁measuring	-6755
Pa	-6756
sep	-6757
{{{	-6758
 = 	-6759
Note	-6760
args	-6761
foot	-6762
imum	-6763
orous	-6764
▁....	-6765
▁Hint	-6766
apping	-6767
rations	-6768
▁Length	-6769
▁Monday	-6770
complete	-6771
▁Machine	-6772
▁domains	-6773
▁elastic	-6774
▁counting	-6775
▁chemistry	-6776
▁Programming	-6777
PDF	-6778
▁GR	-6779
▁OS	-6780
MATH	-6781
stra	-6782
▁ODE	-6783
orrow	-6784
▁love	-6785
choose	-6786
▁Below	-6787
▁plant	-6788
ametric	-6789
▁Altern	-6790
▁resear	-6791
▁Measure	-6792
▁induced	-6793
▁apparent	-6794
▁suggests	-6795
▁displayed	-6796
▁perspective	-6797
IE	-6798
Ste	-6799
dev	-6800
exe	-6801
rot	-6802
▁MA	-6803
▁NA	-6804
eady	-6805
oltz	-6806
▁bul	-6807
▁lie	-6808
erman	-6809
ishes	-6810
▁Lect	-6811
▁Files	-6812
▁codes	-6813
product	-6814
▁Summary	-6815
▁compiler	-6816
▁directed	-6817
▁register	-6818
▁decreases	-6819
▁varieties	-6820
▁contribution	-6821
NO	-6822
nn	-6823
cor	-6824
inet	-6825
info	-6826
such	-6827
▁Bob	-6828
▁bur	-6829
▁dev	-6830
,...,	-6831
▁Unit	-6832
▁stri	-6833
byshev	-6834
system	-6835
▁heavy	-6836
▁marks	-6837
▁broken	-6838
▁corner	-6839
▁delete	-6840
▁profile	-6841
▁reconst	-6842
▁scaling	-6843
structure	-6844
▁converted	-6845
▁oxidation	-6846
▁straightforward	-6847
*\	-6848
Ed	-6849
▁*/	-6850
▁BT	-6851
▁ON	-6852
wave	-6853
▁Bet	-6854
▁guys	-6855
▁pipe	-6856
▁diode	-6857
▁guide	-6858
▁Should	-6859
▁String	-6860
▁United	-6861
▁arrays	-6862
▁insert	-6863
▁generic	-6864
underline	-6865
▁studying	-6866
▁execution	-6867
▁convergent	-6868
▁electronic	-6869
OO	-6870
olm	-6871
▁FR	-6872
Left	-6873
main	-6874
requ	-6875
erset	-6876
ropic	-6877
▁live	-6878
▁tail	-6879
dinger	-6880
▁annot	-6881
▁cubic	-6882
▁trial	-6883
veloper	-6884
▁Before	-6885
▁MATLAB	-6886
▁Element	-6887
▁Library	-6888
▁neutral	-6889
▁nonzero	-6890
▁Interest	-6891
▁Relevant	-6892
▁duration	-6893
▁dependence	-6894
▁connections	-6895
▁consumption	-6896
GB	-6897
ko	-6898
▁AS	-6899
phab	-6900
rank	-6901
endix	-6902
ought	-6903
store	-6904
tokes	-6905
▁Such	-6906
▁coun	-6907
▁rear	-6908
urally	-6909
uthors	-6910
▁knows	-6911
▁monot	-6912
ository	-6913
▁cycles	-6914
▁minute	-6915
stackrel	-6916
▁advance	-6917
▁warning	-6918
▁substitute	-6919
mi	-6920
▁«	-6921
▁Δ	-6922
:=\	-6923
ana	-6924
arr	-6925
yes	-6926
▁EX	-6927
ibli	-6928
rant	-6929
▁III	-6930
dcdsb	-6931
▁Acad	-6932
▁acts	-6933
cepted	-6934
▁Estim	-6935
▁World	-6936
▁benef	-6937
▁excel	-6938
▁theta	-6939
cellent	-6940
▁During	-6941
▁Global	-6942
▁Indeed	-6943
▁header	-6944
▁Display	-6945
▁Manager	-6946
▁Modular	-6947
▁Solving	-6948
▁candidate	-6949
▁appreciate	-6950
▁describing	-6951
▁equiangular	-6952
['	-6953
isp	-6954
▁Du	-6955
ilos	-6956
▁Ban	-6957
▁Hom	-6958
▁oil	-6959
build	-6960
▁Info	-6961
▁gate	-6962
▁luck	-6963
▁Higgs	-6964
▁kinds	-6965
▁passes	-6966
iqueness	-6967
▁encoding	-6968
▁entirely	-6969
▁homework	-6970
▁instrument	-6971
$(	-6972
gn	-6973
You	-6974
dag	-6975
url	-6976
▁>=	-6977
span	-6978
▁bos	-6979
▁imm	-6980
▁jet	-6981
error	-6982
icial	-6983
pload	-6984
▁TRUE	-6985
▁Tell	-6986
▁bias	-6987
▁fire	-6988
▁lets	-6989
▁China	-6990
▁India	-6991
▁alloc	-6992
▁chlor	-6993
▁favor	-6994
▁assert	-6995
▁ignore	-6996
▁nearly	-6997
▁Numbers	-6998
▁categor	-6999
▁functor	-7000
▁knowing	-7001
ibilities	-7002
▁exchange	-7003
▁Numerical	-7004
▁imaginary	-7005
▁difficulty	-7006
'\	-7007
>,	-7008
OG	-7009
Sim	-7010
acc	-7011
van	-7012
▁IV	-7013
▁TR	-7014
▁{-	-7015
cean	-7016
ctic	-7017
leep	-7018
▁cru	-7019
▁Less	-7020
▁keys	-7021
igible	-7022
ipment	-7023
valued	-7024
▁reser	-7025
▁token	-7026
▁Scient	-7027
▁experi	-7028
▁Explain	-7029
▁constit	-7030
▁country	-7031
▁modulus	-7032
▁noticed	-7033
▁propose	-7034
▁putting	-7035
▁receive	-7036
▁respond	-7037
functions	-7038
▁achieved	-7039
tikzpicture	-7040
AA	-7041
Ge	-7042
Is	-7043
UD	-7044
WE	-7045
ACT	-7046
INT	-7047
bas	-7048
ney	-7049
une	-7050
▁([	-7051
What	-7052
iest	-7053
ying	-7054
chers	-7055
overy	-7056
▁Case	-7057
▁dont	-7058
▁sold	-7059
bullet	-7060
hedral	-7061
▁Build	-7062
▁brain	-7063
▁laser	-7064
▁minor	-7065
▁throw	-7066
▁cardin	-7067
▁hidden	-7068
algebras	-7069
ensities	-7070
secutive	-7071
▁checked	-7072
▁modular	-7073
▁Assuming	-7074
▁adjacent	-7075
▁segments	-7076
▁Mechanics	-7077
▁subgroups	-7078
resentation	-7079
▁separation	-7080
▁orientation	-7081
PP	-7082
oul	-7083
}$-	-7084
▁+=	-7085
▁Gl	-7086
▁Si	-7087
^{-\	-7088
▁bra	-7089
Array	-7090
uffer	-7091
▁Rich	-7092
▁suff	-7093
Length	-7094
calcul	-7095
letter	-7096
spaces	-7097
▁boxes	-7098
▁cache	-7099
▁story	-7100
▁geodes	-7101
▁health	-7102
▁toward	-7103
▁triple	-7104
▁vacuum	-7105
▁amounts	-7106
▁welcome	-7107
intercept	-7108
▁neighbor	-7109
▁opportun	-7110
▁comparing	-7111
▁exception	-7112
▁decreasing	-7113
▁established	-7114
▁functionality	-7115
](	-7116
▁π	-7117
dir	-7118
})\	-7119
▁Sa	-7120
apor	-7121
hern	-7122
ours	-7123
▁ben	-7124
▁sun	-7125
rates	-7126
topic	-7127
▁Flow	-7128
▁flex	-7129
▁heur	-7130
▁soil	-7131
▁Short	-7132
▁Timer	-7133
▁rapid	-7134
▁signs	-7135
▁client	-7136
▁ratios	-7137
▁Perform	-7138
▁archite	-7139
▁logistic	-7140
▁Chemistry	-7141
▁Sometimes	-7142
▁attribute	-7143
▁intensity	-7144
▁namespace	-7145
▁restricted	-7146
▁presentation	-7147
js	-7148
hem	-7149
▁MC	-7150
▁Tod	-7151
▁}^{	-7152
dynam	-7153
▁Prov	-7154
▁bank	-7155
efined	-7156
months	-7157
▁Clear	-7158
▁Maths	-7159
▁Price	-7160
istered	-7161
▁Format	-7162
▁latest	-7163
▁mixing	-7164
▁thesis	-7165
▁Results	-7166
▁aspects	-7167
▁Bayesian	-7168
▁anywhere	-7169
▁minimize	-7170
▁Nonlinear	-7171
▁parametric	-7172
_(	-7173
)+\	-7174
UTC	-7175
___	-7176
ned	-7177
ows	-7178
tra	-7179
pite	-7180
▁Nav	-7181
▁TeV	-7182
▁pol	-7183
valid	-7184
▁lose	-7185
anging	-7186
energy	-7187
erring	-7188
▁Count	-7189
▁assem	-7190
▁cyclic	-7191
vergence	-7192
▁personal	-7193
▁inclusion	-7194
▁combinator	-7195
▁discovered	-7196
▁measurable	-7197
▁formulation	-7198
▁interpreted	-7199
&\	-7200
cf	-7201
Int	-7202
]{\	-7203
^(-	-7204
▁SO	-7205
Fram	-7206
dule	-7207
else	-7208
▁eye	-7209
aught	-7210
shift	-7211
▁Best	-7212
▁Down	-7213
▁NULL	-7214
▁agre	-7215
▁wrap	-7216
istant	-7217
▁Effect	-7218
▁decide	-7219
▁manufact	-7220
▁simulate	-7221
▁generates	-7222
▁convolution	-7223
▁trigonometric	-7224
MO	-7225
SL	-7226
]],	-7227
ato	-7228
▁("	-7229
▁AR	-7230
adic	-7231
brid	-7232
only	-7233
▁hon	-7234
False	-7235
odies	-7236
ville	-7237
▁qual	-7238
ressed	-7239
clusive	-7240
▁Custom	-7241
▁repeat	-7242
▁seeing	-7243
▁unlike	-7244
▁execute	-7245
▁Document	-7246
▁Physical	-7247
▁Rational	-7248
▁integrated	-7249
)_	-7250
[(	-7251
cp	-7252
▁Er	-7253
)^{-	-7254
aped	-7255
find	-7256
▁Sin	-7257
▁Tim	-7258
▁abs	-7259
▁iff	-7260
irich	-7261
▁Rate	-7262
▁Rule	-7263
▁dise	-7264
▁frag	-7265
images	-7266
strong	-7267
weight	-7268
▁resid	-7269
regular	-7270
▁pseudo	-7271
▁turbul	-7272
irichlet	-7273
▁analyze	-7274
▁replies	-7275
▁Approxim	-7276
▁improved	-7277
▁influence	-7278
▁demonstrate	-7279
▁replacement	-7280
$'	-7281
QR	-7282
──	-7283
doc	-7284
▁/*	-7285
\}$$	-7286
ativ	-7287
eces	-7288
rupt	-7289
rust	-7290
soft	-7291
▁$${	-7292
▁sell	-7293
module	-7294
▁pixel	-7295
▁Recent	-7296
▁Thomas	-7297
▁Update	-7298
▁damage	-7299
ilateral	-7300
therefore	-7301
▁Integral	-7302
▁Language	-7303
▁Multiply	-7304
▁outcomes	-7305
▁absolutely	-7306
▁everywhere	-7307
▁communication	-7308
▁contributions	-7309
"?	-7310
%,	-7311
Wh	-7312
),\	-7313
IST	-7314
ked	-7315
▁WE	-7316
▁},	-7317
Inte	-7318
▁kil	-7319
▁rid	-7320
enced	-7321
plain	-7322
▁Grad	-7323
▁Sort	-7324
▁User	-7325
▁byte	-7326
textit	-7327
▁chips	-7328
ilinear	-7329
▁Simple	-7330
▁excess	-7331
▁retrie	-7332
▁rewrite	-7333
▁realized	-7334
▁subspace	-7335
▁contradiction	-7336
bel	-7337
ethe	-7338
▁Dem	-7339
▁GDP	-7340
▁Mot	-7341
▁Tex	-7342
▁alt	-7343
▁Term	-7344
▁cart	-7345
▁tick	-7346
double	-7347
llipse	-7348
othing	-7349
▁Frank	-7350
▁freed	-7351
▁loops	-7352
▁Banach	-7353
▁assets	-7354
▁compre	-7355
▁tension	-7356
▁choosing	-7357
▁greatest	-7358
▁management	-7359
▁thermodynam	-7360
:=	-7361
rö	-7362
yr	-7363
hot	-7364
oly	-7365
ros	-7366
▁dB	-7367
▁-->	-7368
▁Air	-7369
▁FOR	-7370
▁____	-7371
▁poor	-7372
▁Bound	-7373
▁trend	-7374
ierarch	-7375
▁Europe	-7376
▁invert	-7377
▁layers	-7378
▁boolean	-7379
▁careful	-7380
aboration	-7381
▁diagrams	-7382
▁finitely	-7383
▁interior	-7384
▁movement	-7385
▁whenever	-7386
orrelation	-7387
▁carefully	-7388
▁intuitive	-7389
▁consecutive	-7390
▁independently	-7391
TR	-7392
hh	-7393
)$-	-7394
lat	-7395
pus	-7396
▁!=	-7397
▁AD	-7398
▁FA	-7399
▁Mo	-7400
anes	-7401
call	-7402
etra	-7403
root	-7404
▁fan	-7405
▁EDIT	-7406
▁Hope	-7407
▁auto	-7408
▁emer	-7409
▁paid	-7410
▁tiny	-7411
agonal	-7412
stable	-7413
▁belie	-7414
▁happy	-7415
▁quote	-7416
▁spent	-7417
variant	-7418
▁lambda	-7419
▁physic	-7420
▁Boolean	-7421
▁edition	-7422
▁Material	-7423
▁embedded	-7424
▁satisfying	-7425
leg	-7426
uan	-7427
...]	-7428
▁Bal	-7429
▁pus	-7430
lines	-7431
oxide	-7432
separ	-7433
▁Week	-7434
alsize	-7435
define	-7436
edance	-7437
ynolds	-7438
▁accum	-7439
▁batch	-7440
▁doubt	-7441
▁seven	-7442
▁Center	-7443
▁Double	-7444
▁Status	-7445
▁finish	-7446
▁rating	-7447
▁opinion	-7448
▁Accepted	-7449
▁balanced	-7450
▁protocol	-7451
▁collected	-7452
▁conjugate	-7453
▁dynamical	-7454
▁intuition	-7455
▁signature	-7456
▁perturbation	-7457
So	-7458
bm	-7459
▁≥	-7460
cot	-7461
▁{}	-7462
Path	-7463
some	-7464
▁$$|	-7465
▁DOI	-7466
▁GPU	-7467
▁Ray	-7468
▁Hand	-7469
▁educ	-7470
▁tube	-7471
annels	-7472
riting	-7473
signed	-7474
lements	-7475
▁Object	-7476
▁fourth	-7477
▁inches	-7478
▁semant	-7479
▁Finding	-7480
▁discont	-7481
▁committed	-7482
▁expectation	-7483
▁individuals	-7484
▁temperatures	-7485
']	-7486
But	-7487
img	-7488
isc	-7489
rea	-7490
▁PS	-7491
▁SP	-7492
apse	-7493
eled	-7494
pers	-7495
▁##\	-7496
▁Bun	-7497
▁\\[	-7498
icode	-7499
ideos	-7500
nings	-7501
orpor	-7502
power	-7503
vable	-7504
▁Lore	-7505
▁dead	-7506
height	-7507
ppings	-7508
▁night	-7509
▁sigma	-7510
▁aggreg	-7511
▁prompt	-7512
▁steady	-7513
standard	-7514
▁Formula	-7515
▁browser	-7516
normalsize	-7517
▁confusion	-7518
""	-7519
CR	-7520
Jo	-7521
\$	-7522
wp	-7523
');	-7524
rey	-7525
▁Del	-7526
▁LHC	-7527
▁cot	-7528
organ	-7529
▁Sche	-7530
▁sear	-7531
▁Pages	-7532
▁Therm	-7533
▁facts	-7534
▁imply	-7535
▁Depend	-7536
▁Recall	-7537
▁coding	-7538
▁export	-7539
▁manage	-7540
▁Student	-7541
▁released	-7542
▁Construct	-7543
▁increment	-7544
▁correction	-7545
▁determines	-7546
▁dictionary	-7547
▁investment	-7548
▁specification	-7549
<=	-7550
CF	-7551
{}	-7552
rug	-7553
ude	-7554
}.$	-7555
▁kn	-7556
)^{\	-7557
ourn	-7558
unit	-7559
▁Mer	-7560
bered	-7561
config	-7562
example	-7563
▁Finite	-7564
▁alphab	-7565
▁frames	-7566
▁histor	-7567
▁mainly	-7568
▁median	-7569
▁sodium	-7570
▁Default	-7571
▁roughly	-7572
▁Electric	-7573
▁rotating	-7574
▁comprehen	-7575
▁effectively	-7576
IO	-7577
How	-7578
]$.	-7579
kex	-7580
oto	-7581
▁Ly	-7582
▁RF	-7583
▁{/	-7584
orel	-7585
▁rod	-7586
white	-7587
▁$$(\	-7588
▁Paul	-7589
▁acqu	-7590
▁exit	-7591
▁food	-7592
ancing	-7593
▁policy	-7594
▁recall	-7595
▁equally	-7596
▁pointed	-7597
▁serious	-7598
▁coupling	-7599
▁explains	-7600
▁manually	-7601
▁posterior	-7602
▁substance	-7603
▁parenthesis	-7604
................	-7605
zo	-7606
AND	-7607
ura	-7608
vex	-7609
▁Tw	-7610
?...	-7611
cial	-7612
irth	-7613
▁Bre	-7614
▁prem	-7615
▁skew	-7616
adding	-7617
apters	-7618
▁James	-7619
▁Their	-7620
▁Think	-7621
▁finds	-7622
▁holes	-7623
▁sheet	-7624
Element	-7625
correct	-7626
▁nested	-7627
▁rotate	-7628
itations	-7629
▁freedom	-7630
▁protect	-7631
▁Software	-7632
▁recursive	-7633
▁satisfied	-7634
▁spherical	-7635
▁permutations	-7636
▁factorization	-7637
)"	-7638
Be	-7639
ico	-7640
ota	-7641
bmod	-7642
cond	-7643
prec	-7644
▁Edu	-7645
▁adm	-7646
ening	-7647
feren	-7648
ondon	-7649
▁Need	-7650
Vector	-7651
expand	-7652
▁bunch	-7653
▁novel	-7654
inction	-7655
▁Topics	-7656
▁Turing	-7657
▁pieces	-7658
▁divisor	-7659
▁radical	-7660
kexchange	-7661
▁Simplify	-7662
▁mappings	-7663
▁synchron	-7664
▁configure	-7665
▁excellent	-7666
▁expensive	-7667
▁definitely	-7668
▁equilateral	-7669
LA	-7670
NP	-7671
bu	-7672
iy	-7673
"))	-7674
)\,	-7675
ATH	-7676
One	-7677
SSN	-7678
csv	-7679
sts	-7680
}{-	-7681
▁[\	-7682
init	-7683
osis	-7684
▁Day	-7685
▁Liu	-7686
▁mic	-7687
▁nav	-7688
heric	-7689
▁Size	-7690
▁prob	-7691
▁weap	-7692
▁Black	-7693
▁bases	-7694
▁worry	-7695
widehat	-7696
▁former	-7697
▁typing	-7698
underset	-7699
▁combine	-7700
▁dollars	-7701
▁protein	-7702
▁Dynamics	-7703
▁Algebraic	-7704
▁oscillator	-7705
▁mathematicians	-7706
$$)	-7707
({\	-7708
EST	-7709
pat	-7710
▁[-	-7711
pied	-7712
▁ABC	-7713
▁tex	-7714
▁wal	-7715
▁wat	-7716
hfill	-7717
posed	-7718
▁Cond	-7719
enerate	-7720
▁checks	-7721
▁orbits	-7722
category	-7723
▁divides	-7724
▁planets	-7725
▁totally	-7726
▁Contents	-7727
▁neutrino	-7728
▁automatic	-7729
▁embedding	-7730
▁indicated	-7731
▁interpolation	-7732
▁possibilities	-7733
?"	-7734
GM	-7735
_]	-7736
asc	-7737
omb	-7738
▁CA	-7739
rand	-7740
}}$.	-7741
▁Flu	-7742
▁NEE	-7743
.....	-7744
▁meta	-7745
column	-7746
▁agent	-7747
cerning	-7748
▁Target	-7749
▁trapez	-7750
▁Digital	-7751
▁asymmet	-7752
▁encrypt	-7753
▁strange	-7754
▁Character	-7755
▁evaluating	-7756
▁performing	-7757
▁eigenvectors	-7758
foo	-7759
zer	-7760
▁CR	-7761
▁Mr	-7762
▁ce	-7763
▁|\	-7764
hent	-7765
sych	-7766
▁Whe	-7767
Class	-7768
▁Small	-7769
▁Single	-7770
▁Visual	-7771
▁ideals	-7772
▁invent	-7773
▁widely	-7774
plicates	-7775
▁additive	-7776
▁incorpor	-7777
▁exercises	-7778
▁sufficiently	-7779
TT	-7780
UI	-7781
va	-7782
|$	-7783
ART	-7784
▁Ox	-7785
▁PO	-7786
▁ht	-7787
post	-7788
ympt	-7789
▁aud	-7790
Image	-7791
Inter	-7792
ronom	-7793
▁Base	-7794
▁Mole	-7795
▁Requ	-7796
answer	-7797
append	-7798
itudes	-7799
ometer	-7800
▁Zhang	-7801
scribed	-7802
▁induct	-7803
▁offers	-7804
▁remote	-7805
▁recipro	-7806
▁treated	-7807
▁Reynolds	-7808
▁compiled	-7809
▁concerned	-7810
▁continued	-7811
▁repository	-7812
▁respective	-7813
▁requirement	-7814
▁mathematically	-7815
=[	-7816
Ab	-7817
Ad	-7818
`.	-7819
je	-7820
▁σ	-7821
'),	-7822
ien	-7823
ita	-7824
▁)$	-7825
▁IC	-7826
▁na	-7827
ales	-7828
eral	-7829
izza	-7830
▁Den	-7831
▁bed	-7832
▁foo	-7833
▁raw	-7834
uclid	-7835
▁Tree	-7836
▁cook	-7837
▁diss	-7838
undant	-7839
▁FALSE	-7840
▁Gauss	-7841
▁Light	-7842
▁Types	-7843
▁beaut	-7844
▁meter	-7845
▁tends	-7846
▁Martin	-7847
▁Report	-7848
▁narrow	-7849
▁greatly	-7850
▁portion	-7851
▁routine	-7852
▁Einstein	-7853
▁controls	-7854
▁Transform	-7855
▁essential	-7856
▁traditional	-7857
stackexchange	-7858
▁Communications	-7859
>>	-7860
IF	-7861
IX	-7862
MB	-7863
ui	-7864
’,	-7865
▁λ	-7866
▁μ	-7867
▁∈	-7868
vas	-7869
 [×	-7870
▁AL	-7871
psum	-7872
▁mir	-7873
anger	-7874
oping	-7875
orean	-7876
ounce	-7877
omatic	-7878
series	-7879
▁Stack	-7880
▁Common	-7881
▁Inverse	-7882
▁Laplace	-7883
▁Version	-7884
▁preview	-7885
▁unitary	-7886
▁wavelet	-7887
ativistic	-7888
▁breaking	-7889
▁composite	-7890
▁establish	-7891
▁locations	-7892
▁boundaries	-7893
▁submission	-7894
▁surprising	-7895
****************	-7896
:,	-7897
EC	-7898
nb	-7899
)=(	-7900
TEX	-7901
Info	-7902
Plot	-7903
Test	-7904
_{-\	-7905
host	-7906
▁Dat	-7907
▁Ric	-7908
▁ray	-7909
macro	-7910
umann	-7911
▁Mars	-7912
▁firm	-7913
charge	-7914
▁Month	-7915
▁Water	-7916
▁audio	-7917
utative	-7918
▁Square	-7919
▁covers	-7920
▁emphas	-7921
▁manner	-7922
▁radial	-7923
elescope	-7924
oltzmann	-7925
▁Support	-7926
▁Wolfram	-7927
▁lecture	-7928
▁galaxies	-7929
▁marginal	-7930
▁Dirichlet	-7931
▁happening	-7932
▁simulated	-7933
▁trajectory	-7934
▁compression	-7935
▁suggestions	-7936
'=	-7937
mn	-7938
','	-7939
(-\	-7940
\{\	-7941
arm	-7942
lag	-7943
usr	-7944
even	-7945
rage	-7946
ulse	-7947
▁Pol	-7948
▁Copy	-7949
▁cast	-7950
▁damp	-7951
▁forg	-7952
rating	-7953
▁daily	-7954
because	-7955
ificial	-7956
▁annual	-7957
▁dipole	-7958
▁puzzle	-7959
▁assumes	-7960
▁distort	-7961
▁fitting	-7962
▁allowing	-7963
▁Reference	-7964
▁confusing	-7965
▁duplicate	-7966
▁Riemannian	-7967
▁originally	-7968
▁regardless	-7969
▁transaction	-7970
▁Computational	-7971
ada	-7972
bat	-7973
dss	-7974
zen	-7975
}\;	-7976
▁eq	-7977
Page	-7978
▁led	-7979
▁oct	-7980
ether	-7981
rogen	-7982
▁Aust	-7983
▁Cart	-7984
▁Prom	-7985
▁blah	-7986
▁incl	-7987
▁late	-7988
▁Index	-7989
▁Large	-7990
▁infer	-7991
▁syste	-7992
ilosoph	-7993
overset	-7994
▁sector	-7995
▁sensor	-7996
▁turned	-7997
perature	-7998
▁executed	-7999
▁graphics	-8000
▁symbolic	-8001
▁container	-8002
▁splitting	-8003
▁accurately	-8004
▁successful	-8005
BB	-8006
Id	-8007
wd	-8008
Map	-8009
igm	-8010
▁IP	-8011
▁NO	-8012
ilit	-8013
▁LED	-8014
▁env	-8015
ental	-8016
oving	-8017
▁bool	-8018
▁sequ	-8019
ulator	-8020
▁poles	-8021
▁commit	-8022
▁compan	-8023
▁cylind	-8024
▁enumer	-8025
▁galaxy	-8026
▁varies	-8027
▁savings	-8028
▁computes	-8029
▁Structure	-8030
▁intercept	-8031
▁sentences	-8032
▁computable	-8033
*)	-8034
BF	-8035
}:	-8036
],[	-8037
iii	-8038
spe	-8039
▁=$	-8040
▁PH	-8041
▁ri	-8042
Find	-8043
asma	-8044
heet	-8045
inos	-8046
next	-8047
▁PDE	-8048
▁Roy	-8049
▁dra	-8050
▁Bern	-8051
▁fits	-8052
▁vote	-8053
hedron	-8054
icated	-8055
▁Force	-8056
▁Green	-8057
▁Local	-8058
▁Print	-8059
▁debug	-8060
▁encou	-8061
▁modes	-8062
▁smart	-8063
▁Events	-8064
▁Hansen	-8065
▁reveal	-8066
▁easiest	-8067
▁metrics	-8068
different	-8069
▁parabolic	-8070
▁sensitive	-8071
▁atmosphere	-8072
▁convenient	-8073
▁reflection	-8074
▁vertically	-8075
Longrightarrow	-8076
KE	-8077
|^	-8078
ERT	-8079
Off	-8080
Out	-8081
riz	-8082
▁zb	-8083
iang	-8084
pson	-8085
tons	-8086
▁Big	-8087
▁Low	-8088
▁ple	-8089
files	-8090
▁blow	-8091
esides	-8092
izable	-8093
teness	-8094
▁Today	-8095
▁lumin	-8096
▁saved	-8097
▁speak	-8098
▁Authors	-8099
▁Univers	-8100
▁descent	-8101
▁leaving	-8102
▁finished	-8103
▁handling	-8104
▁homology	-8105
▁pointing	-8106
▁generators	-8107
▁sensitivity	-8108
ama	-8109
ami	-8110
},{	-8111
▁);	-8112
▁*)	-8113
heres	-8114
▁Pyth	-8115
▁fold	-8116
▁kept	-8117
▁knot	-8118
public	-8119
▁worse	-8120
▁Points	-8121
▁colour	-8122
▁loaded	-8123
urations	-8124
▁meeting	-8125
▁recover	-8126
▁spacing	-8127
▁removing	-8128
▁thoughts	-8129
▁Experiment	-8130
▁applicable	-8131
▁extensions	-8132
▁restriction	-8133
▁approximations	-8134
▁differentiation	-8135
▁β	-8136
","	-8137
)\;	-8138
]);	-8139
bur	-8140
des	-8141
fol	-8142
fun	-8143
nol	-8144
ony	-8145
▁MS	-8146
▁Ni	-8147
ades	-8148
ords	-8149
rase	-8150
▁Bro	-8151
▁Hal	-8152
agram	-8153
ecess	-8154
false	-8155
imits	-8156
magic	-8157
strap	-8158
▁Okay	-8159
▁Yang	-8160
▁feas	-8161
▁soft	-8162
dagger	-8163
parent	-8164
▁apart	-8165
▁unity	-8166
atility	-8167
▁Nature	-8168
▁friends	-8169
▁organic	-8170
▁playing	-8171
▁runtime	-8172
▁descript	-8173
▁reducing	-8174
▁completion	-8175
▁throughout	-8176
▁determining	-8177
▁superscript	-8178
DA	-8179
MM	-8180
px	-8181
$$ 	-8182
)_{	-8183
osc	-8184
rex	-8185
xiv	-8186
▁).	-8187
▁Cy	-8188
With	-8189
rick	-8190
umes	-8191
xxxx	-8192
▁Ref	-8193
▁cum	-8194
LaTeX	-8195
anned	-8196
oment	-8197
rency	-8198
super	-8199
▁cars	-8200
search	-8201
▁draft	-8202
▁young	-8203
▁Associ	-8204
▁remark	-8205
▁zbMATH	-8206
▁loading	-8207
▁reached	-8208
▁Distance	-8209
▁	-8210
e	-8211
t	-8212
a	-8213
i	-8214
o	-8215
n	-8216
s	-8217
r	-8218
l	-8219
h	-8220
c	-8221
d	-8222
u	-8223
m	-8224
p	-8225
f	-8226
g	-8227
.	-8228
y	-8229
b	-8230
w	-8231
,	-8232
$	-8233
v	-8234
1	-8235
\	-8236
0	-8237
2	-8238
{	-8239
}	-8240
)	-8241
(	-8242
x	-8243
-	-8244
k	-8245
T	-8246
I	-8247
:	-8248
#	-8249
3	-8250
_	-8251
A	-8252
S	-8253
=	-8254
4	-8255
5	-8256
C	-8257
q	-8258
M	-8259
P	-8260
'	-8261
6	-8262
9	-8263
/	-8264
E	-8265
R	-8266
D	-8267
^	-8268
7	-8269
8	-8270
F	-8271
L	-8272
N	-8273
+	-8274
B	-8275
 	-8276
O	-8277
H	-8278
z	-8279
"	-8280
W	-8281
[	-8282
]	-8283
G	-8284
j	-8285
?	-8286
•	-8287
;	-8288
>	-8289
V	-8290
U	-8291
J	-8292
*	-8293
K	-8294
Y	-8295
&	-8296
X	-8297
|	-8298
–	-8299
<	-8300
’	-8301
Q	-8302
!	-8303
%	-8304
Z	-8305
@	-8306
`	-8307
”	-8308
“	-8309
~	-8310
—	-8311
…	-8312
×	-8313
−	-8314
é	-8315
·	-8316
‘	-8317
°	-8318
¶	-8319
，	-8320
​	-8321
的	-8322
→	-8323
θ	-8324
ö	-8325
»	-8326
π	-8327
­	-8328
α	-8329
 	-8330
²	-8331
â	-8332
á	-8333
μ	-8334
。	-8335
√	-8336
≤	-8337
Δ	-8338
λ	-8339
¯	-8340
ε	-8341
⇒	-8342
β	-8343
σ	-8344
∂	-8345
ρ	-8346
φ	-8347
ü	-8348
﻿	-8349
ä	-8350
∞	-8351
─	-8352
⟩	-8353
∈	-8354
一	-8355
学	-8356
±	-8357
≥	-8358
à	-8359
è	-8360
⟨	-8361
«	-8362
í	-8363
是	-8364
€	-8365
⋊	-8366
ó	-8367
 	-8368
Ω	-8369
δ	-8370
代	-8371
：	-8372
数	-8373
¬	-8374
া	-8375
∫	-8376
⋅	-8377
ψ	-8378
不	-8379
在	-8380
≠	-8381
作	-8382
®	-8383
γ	-8384
য	-8385
≈	-8386
有	-8387
τ	-8388
∴	-8389
中	-8390
写	-8391
	-8392
ω	-8393
Φ	-8394
	-8395
‐	-8396
∑	-8397
文	-8398
用	-8399
′	-8400
™	-8401
分	-8402
ν	-8403
个	-8404
	-8405
‎	-8406
্	-8407
о	-8408
、	-8409
 	-8410
₂	-8411
为	-8412
§	-8413
ô	-8414
定	-8415
理	-8416
（	-8417
）	-8418
₁	-8419
了	-8420
©	-8421
º	-8422
出	-8423
´	-8424
♦	-8425
和	-8426
Σ	-8427
下	-8428
大	-8429
χ	-8430
要	-8431
Â	-8432
÷	-8433
в	-8434
 	-8435
以	-8436
时	-8437
来	-8438
и	-8439
 	-8440
于	-8441
发	-8442
点	-8443
ন	-8444
∠	-8445
µ	-8446
˜	-8447
题	-8448
র	-8449
∆	-8450
入	-8451
方	-8452
а	-8453
与	-8454
自	-8455
ł	-8456
如	-8457
工	-8458
🔹	-8459
ç	-8460
с	-8461
可	-8462
源	-8463
计	-8464
ê	-8465
ﬁ	-8466
£	-8467
η	-8468
‹	-8469
∗	-8470
到	-8471
者	-8472
е	-8473
É	-8474
多	-8475
期	-8476
¹	-8477
‚	-8478
∇	-8479
科	-8480
›	-8481
đ	-8482
ξ	-8483
人	-8484
ℤ	-8485
Ö	-8486
≔	-8487
	-8488
∏	-8489
○	-8490
国	-8491
т	-8492
 	-8493
∨	-8494
据	-8495
法	-8496
统	-8497
ø	-8498
关	-8499
收	-8500
日	-8501
考	-8502
业	-8503
️	-8504
³	-8505
ć	-8506
ι	-8507
ϕ	-8508
⊆	-8509
所	-8510
这	-8511
½	-8512
š	-8513
↓	-8514
│	-8515
信	-8516
对	-8517
我	-8518
生	-8519
基	-8520
č	-8521
ব	-8522
∼	-8523
の	-8524
研	-8525
能	-8526
解	-8527
论	-8528
∀	-8529
句	-8530
成	-8531
然	-8532
金	-8533
ℓ	-8534
∧	-8535
●	-8536
◽	-8537
♥	-8538
上	-8539
小	-8540
术	-8541
等	-8542
系	-8543
面	-8544
他	-8545
后	-8546
程	-8547
行	-8548
间	-8549
¨	-8550
н	-8551
܂	-8552
重	-8553
？	-8554
	-8555
¦	-8556
Å	-8557
周	-8558
地	-8559
短	-8560
κ	-8561
к	-8562
স	-8563
⁡	-8564
↑	-8565
究	-8566
	-8567
	-8568
∣	-8569
◆	-8570
号	-8571
图	-8572
年	-8573
或	-8574
算	-8575
表	-8576
输	-8577
．	-8578
ħ	-8579
υ	-8580
л	-8581
├	-8582
▫	-8583
♣	-8584
会	-8585
同	-8586
明	-8587
相	-8588
知	-8589
ő	-8590
়	-8591
ℝ	-8592
们	-8593
其	-8594
₀	-8595
实	-8596
性	-8597
；	-8598
	-8599
р	-8600
←	-8601
及	-8602
字	-8603
过	-8604
	-8605
ñ	-8606
Ă	-8607
ş	-8608
ই	-8609
Ω	-8610
向	-8611
家	-8612
意	-8613
第	-8614
资	-8615
通	-8616
	-8617
å	-8618
Đ	-8619
ı	-8620
̂	-8621
⋯	-8622
⟦	-8623
也	-8624
合	-8625
查	-8626
概	-8627
目	-8628
词	-8629
	-8630
Ȃ	-8631
я	-8632
加	-8633
子	-8634
接	-8635
更	-8636
结	-8637
	-8638
ß	-8639
ï	-8640
ক	-8641
হ	-8642
⟧	-8643
使	-8644
例	-8645
原	-8646
常	-8647
节	-8648
说	-8649
量	-8650
ং	-8651
ো	-8652
⃗	-8653
〈	-8654
└	-8655
化	-8656
当	-8657
本	-8658
果	-8659
环	-8660
现	-8661
问	-8662
院	-8663
ʰ	-8664
А	-8665
খ	-8666
জ	-8667
⁻	-8668
◻	-8669
单	-8670
每	-8671
物	-8672
	-8673
ú	-8674
ƒ	-8675
।	-8676
‖	-8677
≡	-8678
★	-8679
从	-8680
因	-8681
度	-8682
得	-8683
该	-8684
제	-8685
👇	-8686
🔗	-8687
ˆ	-8688
Θ	-8689
ا	-8690
ọ	-8691
₃	-8692
∥	-8693
✳	-8694
主	-8695
付	-8696
件	-8697
全	-8698
她	-8699
改	-8700
树	-8701
示	-8702
近	-8703
¿	-8704
Ü	-8705
Ƃ	-8706
⭐	-8707
之	-8708
就	-8709
并	-8710
开	-8711
机	-8712
析	-8713
求	-8714
	-8715
Γ	-8716
Ђ	-8717
ি	-8718
⩾	-8719
で	-8720
位	-8721
你	-8722
前	-8723
最	-8724
经	-8725
续	-8726
错	-8727
高	-8728
Ｆ	-8729
￼	-8730
	-8731
˙	-8732
м	-8733
у	-8734
ℕ	-8735
い	-8736
价	-8737
但	-8738
持	-8739
提	-8740
模	-8741
率	-8742
𝑑	-8743
æ	-8744
Π	-8745
ϵ	-8746
ر	-8747
ạ	-8748
ế	-8749
₹	-8750
≅	-8751
⎯	-8752
修	-8753
光	-8754
动	-8755
士	-8756
处	-8757
应	-8758
款	-8759
注	-8760
项	-8761
�	-8762
	-8763
	-8764
œ	-8765
ž	-8766
ư	-8767
ь	-8768
∙	-8769
▴	-8770
两	-8771
回	-8772
导	-8773
己	-8774
手	-8775
技	-8776
新	-8777
比	-8778
部	-8779
학	-8780
ō	-8781
ề	-8782
‑	-8783
∕	-8784
〉	-8785
ー	-8786
具	-8787
取	-8788
情	-8789
测	-8790
线	-8791
而	-8792
西	-8793
題	-8794
验	-8795
ā	-8796
Λ	-8797
й	-8798
 	-8799
 	-8800
↔	-8801
∘	-8802
公	-8803
布	-8804
广	-8805
您	-8806
报	-8807
根	-8808
此	-8809
符	-8810
设	-8811
都	-8812
	-8813
	-8814
Š	-8815
ο	-8816
д	-8817
″	-8818
⠀	-8819
⧸	-8820
し	-8821
做	-8822
先	-8823
客	-8824
已	-8825
息	-8826
样	-8827
版	-8828
释	-8829
력	-8830
ﬂ	-8831
	-8832
	-8833
ب	-8834
ن	-8835
‰	-8836
⁢	-8837
ℂ	-8838
↩	-8839
⠨	-8840
「	-8841
义	-8842
保	-8843
则	-8844
力	-8845
助	-8846
名	-8847
式	-8848
心	-8849
料	-8850
服	-8851
格	-8852
正	-8853
电	-8854
种	-8855
试	-8856
기	-8857
	-8858
︎	-8859
	-8860
Á	-8861
î	-8862
ę	-8863
б	-8864
்	-8865
∃	-8866
⊂	-8867
【	-8868
】	-8869
ツ	-8870
列	-8871
制	-8872
包	-8873
只	-8874
右	-8875
型	-8876
域	-8877
教	-8878
看	-8879
网	-8880
费	-8881
还	-8882
道	-8883
除	-8884
非	-8885
과	-8886
한	-8887
	-8888
👍	-8889
	-8890
ń	-8891
ə	-8892
ς	-8893
م	-8894
ল	-8895
ầ	-8896
ố	-8897
ợ	-8898
⇀	-8899
∷	-8900
て	-8901
は	-8902
习	-8903
仅	-8904
便	-8905
境	-8906
外	-8907
序	-8908
很	-8909
满	-8910
码	-8911
空	-8912
立	-8913
篇	-8914
编	-8915
越	-8916
里	-8917
长	-8918
需	-8919
𝑚	-8920
𝑜	-8921
	-8922
	-8923
¢	-8924
ì	-8925
ý	-8926
̃	-8927
ậ	-8928
⁺	-8929
ⁿ	-8930
〈	-8931
〉	-8932
专	-8933
何	-8934
值	-8935
务	-8936
变	-8937
哈	-8938
問	-8939
器	-8940
增	-8941
天	-8942
室	-8943
将	-8944
把	-8945
搜	-8946
星	-8947
次	-8948
留	-8949
章	-8950
简	-8951
给	-8952
被	-8953
言	-8954
误	-8955
进	-8956
选	-8957
구	-8958
정	-8959
	-8960
	-8961
¡	-8962
Ã	-8963
ë	-8964
п	-8965
ی	-8966
ả	-8967
ệ	-8968
∊	-8969
◦	-8970
　	-8971
」	-8972
た	-8973
ン	-8974
ㆍ	-8975
么	-8976
些	-8977
内	-8978
博	-8979
存	-8980
安	-8981
念	-8982
深	-8983
着	-8984
索	-8985
继	-8986
语	-8987
读	-8988
路	-8989
阳	-8990
연	-8991
👎	-8992
	-8993
	-8994
	-8995
¼	-8996
Ş	-8997
ে	-8998
‡	-8999
ₙ	-9000
⊥	-9001
┐	-9002
┘	-9003
供	-9004
假	-9005
函	-9006
区	-9007
头	-9008
建	-9009
户	-9010
无	-9011
易	-9012
水	-9013
省	-9014
端	-9015
英	-9016
证	-9017
译	-9018
调	-9019
阅	-9020
限	-9021
集	-9022
출	-9023
	-9024
	-9025
ã	-9026
ɂ	-9027
ɪ	-9028
з	-9029
ч	-9030
প	-9031
ứ	-9032
†	-9033
⊕	-9034
⠷	-9035
⠾	-9036
ま	-9037
交	-9038
再	-9039
况	-9040
几	-9041
北	-9042
华	-9043
南	-9044
告	-9045
层	-9046
师	-9047
希	-9048
形	-9049
影	-9050
想	-9051
括	-9052
指	-9053
摘	-9054
曲	-9055
書	-9056
构	-9057
案	-9058
清	-9059
特	-9060
白	-9061
矩	-9062
答	-9063
约	-9064
评	-9065
述	-9066
원	-9067
𝑎	-9068
𝑏	-9069
𝚎	-9070
	-9071
	-9072
Î	-9073
Ï	-9074
Ó	-9075
ă	-9076
ė	-9077
ě	-9078
ট	-9079
ত	-9080
ể	-9081
⁴	-9082
ℳ	-9083
ⅇ	-9084
⋮	-9085
▲	-9086
⠠	-9087
⩽	-9088
乎	-9089
事	-9090
二	-9091
令	-9092
似	-9093
容	-9094
射	-9095
州	-9096
播	-9097
权	-9098
煤	-9099
由	-9100
筆	-9101
管	-9102
范	-9103
讯	-9104
讲	-9105
识	-9106
课	-9107
转	-9108
須	-9109
页	-9110
领	-9111
사	-9112
초	-9113
	-9114
	-9115
𝚊	-9116
Ø	-9117
ą	-9118
ż	-9119
Ǘ	-9120
ы	-9121
ت	-9122
ộ	-9123
„	-9124
∩	-9125
⊞	-9126
⠈	-9127
く	-9128
さ	-9129
を	-9130
ア	-9131
ス	-9132
ル	-9133
介	-9134
共	-9135
去	-9136
土	-9137
好	-9138
尔	-9139
态	-9140
总	-9141
掉	-9142
林	-9143
标	-9144
置	-9145
翻	-9146
色	-9147
藏	-9148
观	-9149
记	-9150
请	-9151
较	-9152
酒	-9153
	-9154
	-9155
𝔽	-9156
𝚜	-9157
	-9158
	-9159
¥	-9160
Ç	-9161
ð	-9162
ř	-9163
ŷ	-9164
د	-9165
۱	-9166
এ	-9167
ấ	-9168
↥	-9169
┌	-9170
が	-9171
と	-9172
に	-9173
れ	-9174
ト	-9175
且	-9176
京	-9177
什	-9178
估	-9179
决	-9180
删	-9181
十	-9182
友	-9183
含	-9184
始	-9185
展	-9186
左	-9187
差	-9188
归	-9189
後	-9190
推	-9191
效	-9192
整	-9193
显	-9194
時	-9195
杂	-9196
条	-9197
气	-9198
沈	-9199
确	-9200
红	-9201
组	-9202
肪	-9203
见	-9204
认	-9205
让	-9206
许	-9207
起	-9208
載	-9209
這	-9210
阵	-9211
수	-9212
예	-9213
𝑥	-9214
🙂	-9215
	-9216
À	-9217
ò	-9218
Č	-9219
ī	-9220
İ	-9221
ơ	-9222
ˈ	-9223
˚	-9224
س	-9225
۲	-9226
ा	-9227
ṣ	-9228
‣	-9229
⁄	-9230
Ⅰ	-9231
⎕	-9232
▼	-9233
书	-9234
优	-9235
候	-9236
划	-9237
利	-9238
别	-9239
即	-9240
参	-9241
固	-9242
奇	-9243
尽	-9244
库	-9245
引	-9246
径	-9247
感	-9248
才	-9249
放	-9250
材	-9251
没	-9252
称	-9253
类	-9254
级	-9255
综	-9256
花	-9257
若	-9258
虑	-9259
陈	-9260
随	-9261
难	-9262
리	-9263
문	-9264
Ｅ	-9265
～	-9266
𝑖	-9267
𝑛	-9268
𝑦	-9269
𝚖	-9270
🔷	-9271
😉	-9272
¤	-9273
Þ	-9274
õ	-9275
ğ	-9276
Ł	-9277
ţ	-9278
ŭ	-9279
Ʃ	-9280
ζ	-9281
ύ	-9282
Д	-9283
ж	-9284
ц	-9285
ׂ	-9286
و	-9287
۰	-9288
গ	-9289
ớ	-9290
―	-9291
⁰	-9292
ℍ	-9293
⍨	-9294
⓶	-9295
⟹	-9296
⠆	-9297
⪪	-9298
す	-9299
っ	-9300
イ	-9301
ウ	-9302
ジ	-9303
ド	-9304
ム	-9305
举	-9306
五	-9307
任	-9308
份	-9309
传	-9310
半	-9311
命	-9312
场	-9313
复	-9314
它	-9315
對	-9316
山	-9317
市	-9318
思	-9319
急	-9320
打	-9321
执	-9322
抽	-9323
描	-9324
支	-9325
數	-9326
會	-9327
未	-9328
海	-9329
绩	-9330
觉	-9331
询	-9332
质	-9333
贵	-9334
辑	-9335
遇	-9336
過	-9337
那	-9338
首	-9339
답	-9340
입	-9341
Ｌ	-9342
🌹	-9343
👉	-9344
	-9345
ē	-9346
ſ	-9347
ǵ	-9348
ȳ	-9349
̏	-9350
;	-9351
ϑ	-9352
О	-9353
П	-9354
С	-9355
х	-9356
݂	-9357
উ	-9358
শ	-9359
ắ	-9360
ụ	-9361
№	-9362
⇔	-9363
∉	-9364
∪	-9365
≜	-9366
⊢	-9367
■	-9368
✎	-9369
う	-9370
三	-9371
东	-9372
久	-9373
依	-9374
個	-9375
像	-9376
兩	-9377
势	-9378
受	-9379
司	-9380
员	-9381
址	-9382
少	-9383
平	-9384
必	-9385
投	-9386
授	-9387
排	-9388
操	-9389
李	-9390
束	-9391
構	-9392
横	-9393
江	-9394
波	-9395
照	-9396
独	-9397
王	-9398
男	-9399
界	-9400
盘	-9401
直	-9402
真	-9403
社	-9404
移	-9405
稿	-9406
穿	-9407
笔	-9408
精	-9409
設	-9410
讨	-9411
议	-9412
话	-9413
資	-9414
趋	-9415
边	-9416
适	-9417
造	-9418
遍	-9419
遲	-9420
阐	-9421
阶	-9422
骑	-9423
點	-9424
국	-9425
로	-9426
전	-9427
－	-9428
Ｊ	-9429
Ｍ	-9430
𝚛	-9431
👋	-9432
	-9433
Í	-9434
ù	-9435
Ć	-9436
ś	-9437
ũ	-9438
ˁ	-9439
̈	-9440
̋	-9441
̓	-9442
Ξ	-9443
Χ	-9444
έ	-9445
И	-9446
Т	-9447
ѣ	-9448
׿	-9449
أ	-9450
क	-9451
र	-9452
ম	-9453
ী	-9454
ờ	-9455
ủ	-9456
‌	-9457
∵	-9458
≢	-9459
≦	-9460
⊗	-9461
▯	-9462
✖	-9463
⠸	-9464
》	-9465
か	-9466
こ	-9467
ら	-9468
り	-9469
リ	-9470
・	-9471
丟	-9472
予	-9473
云	-9474
产	-9475
低	-9476
体	-9477
允	-9478
六	-9479
准	-9480
反	-9481
口	-9482
否	-9483
吨	-9484
响	-9485
太	-9486
宜	-9487
密	-9488
座	-9489
张	-9490
德	-9491
怎	-9492
怪	-9493
悤	-9494
承	-9495
护	-9496
拟	-9497
擅	-9498
散	-9499
断	-9500
斯	-9501
景	-9502
曼	-9503
月	-9504
极	-9505
某	-9506
校	-9507
欲	-9508
河	-9509
活	-9510
流	-9511
浮	-9512
為	-9513
無	-9514
父	-9515
片	-9516
献	-9517
硕	-9518
策	-9519
終	-9520
纳	-9521
络	-9522
缺	-9523
老	-9524
至	-9525
融	-9526
规	-9527
视	-9528
記	-9529
超	-9530
践	-9531
软	-9532
达	-9533
返	-9534
连	-9535
退	-9536
透	-9537
邻	-9538
际	-9539
陕	-9540
공	-9541
산	-9542
술	-9543
시	-9544
！	-9545
＜	-9546
𝑉	-9547
𝚍	-9548
💯	-9549
	-9550
	-9551
¸	-9552
Ô	-9553
Ɗ	-9554
Ɵ	-9555
ʌ	-9556
̅	-9557
̊	-9558
Ο	-9559
ւ	-9560
۶	-9561
۷	-9562
ि	-9563
ी	-9564
দ	-9565
ু	-9566
ẘ	-9567
ị	-9568
ổ	-9569
‍	-9570
Ⅱ	-9571
↷	-9572
∅	-9573
∝	-9574
⊖	-9575
❤	-9576
《	-9577
だ	-9578
な	-9579
も	-9580
よ	-9581
コ	-9582
シ	-9583
バ	-9584
フ	-9585
ポ	-9586
串	-9587
互	-9588
余	-9589
來	-9590
元	-9591
免	-9592
八	-9593
凌	-9594
击	-9595
切	-9596
吧	-9597
均	-9598
备	-9599
完	-9600
帮	-9601
录	-9602
循	-9603
志	-9604
快	-9605
戏	-9606
找	-9607
折	-9608
挖	-9609
政	-9610
斜	-9611
於	-9612
替	-9613
朋	-9614
望	-9615
朝	-9616
核	-9617
检	-9618
消	-9619
温	-9620
游	-9621
湖	-9622
漏	-9623
激	-9624
異	-9625
站	-9626
素	-9627
细	-9628
维	-9629
职	-9630
育	-9631
衣	-9632
角	-9633
账	-9634
趣	-9635
足	-9636
邱	-9637
镜	-9638
間	-9639
门	-9640
险	-9641
预	-9642
额	-9643
麼	-9644
가	-9645
감	-9646
계	-9647
대	-9648
람	-9649
메	-9650
성	-9651
유	-9652
의	-9653
이	-9654
화	-9655
ﬀ	-9656
ﬃ	-9657
𝒮	-9658
𝔓	-9659
𝚝	-9660
𝚟	-9661
👁	-9662
😅	-9663
	-9664
	-9665
	-9666
ª	-9667
Ä	-9668
Ù	-9669
Ā	-9670
ĉ	-9671
Ī	-9672
ŋ	-9673
Œ	-9674
Ž	-9675
ƶ	-9676
ɹ	-9677
ʃ	-9678
ʷ	-9679
ˌ	-9680
́	-9681
̆	-9682
́	-9683
΂	-9684
ή	-9685
Б	-9686
Я	-9687
г	-9688
ш	-9689
э	-9690
ю	-9691
ђ	-9692
Ԃ	-9693
ֽ	-9694
ف	-9695
ل	-9696
ه	-9697
پ	-9698
۴	-9699
۵	-9700
ܐ	-9701
߂	-9702
य	-9703
्	-9704
ঙ	-9705
ড	-9706
ভ	-9707
ა	-9708
ბ	-9709
ი	-9710
አ	-9711
ễ	-9712
ỏ	-9713
⁎	-9714
⁵	-9715
⁶	-9716
℉	-9717
ℜ	-9718
ℹ	-9719
⊃	-9720
⊟	-9721
⊤	-9722
⋆	-9723
⍵	-9724
⎧	-9725
⎩	-9726
⎺	-9727
█	-9728
△	-9729
▶	-9730
▿	-9731
✂	-9732
⠂	-9733
⠅	-9734
⠤	-9735
⠴	-9736
け	-9737
じ	-9738
み	-9739
