<pad>	0
<unk>	0
<s>	0
</s>	0
<0x00>	0
<0x01>	0
<0x02>	0
<0x03>	0
<0x04>	0
<0x05>	0
<0x06>	0
<0x07>	0
<0x08>	0
<0x09>	0
<0x0A>	0
<0x0B>	0
<0x0C>	0
<0x0D>	0
<0x0E>	0
<0x0F>	0
<0x10>	0
<0x11>	0
<0x12>	0
<0x13>	0
<0x14>	0
<0x15>	0
<0x16>	0
<0x17>	0
<0x18>	0
<0x19>	0
<0x1A>	0
<0x1B>	0
<0x1C>	0
<0x1D>	0
<0x1E>	0
<0x1F>	0
<0x20>	0
<0x21>	0
<0x22>	0
<0x23>	0
<0x24>	0
<0x25>	0
<0x26>	0
<0x27>	0
<0x28>	0
<0x29>	0
<0x2A>	0
<0x2B>	0
<0x2C>	0
<0x2D>	0
<0x2E>	0
<0x2F>	0
<0x30>	0
<0x31>	0
<0x32>	0
<0x33>	0
<0x34>	0
<0x35>	0
<0x36>	0
<0x37>	0
<0x38>	0
<0x39>	0
<0x3A>	0
<0x3B>	0
<0x3C>	0
<0x3D>	0
<0x3E>	0
<0x3F>	0
<0x40>	0
<0x41>	0
<0x42>	0
<0x43>	0
<0x44>	0
<0x45>	0
<0x46>	0
<0x47>	0
<0x48>	0
<0x49>	0
<0x4A>	0
<0x4B>	0
<0x4C>	0
<0x4D>	0
<0x4E>	0
<0x4F>	0
<0x50>	0
<0x51>	0
<0x52>	0
<0x53>	0
<0x54>	0
<0x55>	0
<0x56>	0
<0x57>	0
<0x58>	0
<0x59>	0
<0x5A>	0
<0x5B>	0
<0x5C>	0
<0x5D>	0
<0x5E>	0
<0x5F>	0
<0x60>	0
<0x61>	0
<0x62>	0
<0x63>	0
<0x64>	0
<0x65>	0
<0x66>	0
<0x67>	0
<0x68>	0
<0x69>	0
<0x6A>	0
<0x6B>	0
<0x6C>	0
<0x6D>	0
<0x6E>	0
<0x6F>	0
<0x70>	0
<0x71>	0
<0x72>	0
<0x73>	0
<0x74>	0
<0x75>	0
<0x76>	0
<0x77>	0
<0x78>	0
<0x79>	0
<0x7A>	0
<0x7B>	0
<0x7C>	0
<0x7D>	0
<0x7E>	0
<0x7F>	0
<0x80>	0
<0x81>	0
<0x82>	0
<0x83>	0
<0x84>	0
<0x85>	0
<0x86>	0
<0x87>	0
<0x88>	0
<0x89>	0
<0x8A>	0
<0x8B>	0
<0x8C>	0
<0x8D>	0
<0x8E>	0
<0x8F>	0
<0x90>	0
<0x91>	0
<0x92>	0
<0x93>	0
<0x94>	0
<0x95>	0
<0x96>	0
<0x97>	0
<0x98>	0
<0x99>	0
<0x9A>	0
<0x9B>	0
<0x9C>	0
<0x9D>	0
<0x9E>	0
<0x9F>	0
<0xA0>	0
<0xA1>	0
<0xA2>	0
<0xA3>	0
<0xA4>	0
<0xA5>	0
<0xA6>	0
<0xA7>	0
<0xA8>	0
<0xA9>	0
<0xAA>	0
<0xAB>	0
<0xAC>	0
<0xAD>	0
<0xAE>	0
<0xAF>	0
<0xB0>	0
<0xB1>	0
<0xB2>	0
<0xB3>	0
<0xB4>	0
<0xB5>	0
<0xB6>	0
<0xB7>	0
<0xB8>	0
<0xB9>	0
<0xBA>	0
<0xBB>	0
<0xBC>	0
<0xBD>	0
<0xBE>	0
<0xBF>	0
<0xC0>	0
<0xC1>	0
<0xC2>	0
<0xC3>	0
<0xC4>	0
<0xC5>	0
<0xC6>	0
<0xC7>	0
<0xC8>	0
<0xC9>	0
<0xCA>	0
<0xCB>	0
<0xCC>	0
<0xCD>	0
<0xCE>	0
<0xCF>	0
<0xD0>	0
<0xD1>	0
<0xD2>	0
<0xD3>	0
<0xD4>	0
<0xD5>	0
<0xD6>	0
<0xD7>	0
<0xD8>	0
<0xD9>	0
<0xDA>	0
<0xDB>	0
<0xDC>	0
<0xDD>	0
<0xDE>	0
<0xDF>	0
<0xE0>	0
<0xE1>	0
<0xE2>	0
<0xE3>	0
<0xE4>	0
<0xE5>	0
<0xE6>	0
<0xE7>	0
<0xE8>	0
<0xE9>	0
<0xEA>	0
<0xEB>	0
<0xEC>	0
<0xED>	0
<0xEE>	0
<0xEF>	0
<0xF0>	0
<0xF1>	0
<0xF2>	0
<0xF3>	0
<0xF4>	0
<0xF5>	0
<0xF6>	0
<0xF7>	0
<0xF8>	0
<0xF9>	0
<0xFA>	0
<0xFB>	0
<0xFC>	0
<0xFD>	0
<0xFE>	0
<0xFF>	0
▁t	-0
▁a	-1
in	-2
he	-3
re	-4
▁the	-5
on	-6
▁s	-7
at	-8
en	-9
er	-10
▁c	-11
▁o	-12
es	-13
▁an	-14
ing	-15
or	-16
▁p	-17
it	-18
is	-19
▁f	-20
an	-21
▁and	-22
▁w	-23
al	-24
▁b	-25
▁to	-26
▁in	-27
▁of	-28
▁m	-29
le	-30
ic	-31
▁d	-32
ou	-33
ed	-34
ar	-35
ion	-36
as	-37
ent	-38
ro	-39
▁e	-40
ct	-41
us	-42
▁T	-43
lo	-44
om	-45
▁h	-46
ve	-47
▁re	-48
▁is	-49
ce	-50
et	-51
▁g	-52
▁th	-53
▁l	-54
im	-55
▁n	-56
il	-57
ol	-58
ut	-59
▁A	-60
ch	-61
▁for	-62
▁I	-63
ate	-64
st	-65
▁The	-66
ation	-67
▁be	-68
id	-69
▁st	-70
▁C	-71
ly	-72
ig	-73
ur	-74
▁pro	-75
iv	-76
am	-77
▁S	-78
if	-79
el	-80
▁on	-81
ot	-82
ir	-83
un	-84
ul	-85
ith	-86
ers	-87
▁that	-88
ag	-89
ess	-90
ad	-91
ay	-92
▁he	-93
▁con	-94
um	-95
▁al	-96
ab	-97
▁y	-98
▁as	-99
ain	-100
▁mo	-101
▁us	-102
ak	-103
low	-104
ive	-105
▁can	-106
▁with	-107
▁it	-108
ver	-109
▁com	-110
ow	-111
▁de	-112
▁are	-113
▁ex	-114
▁W	-115
ence	-116
ure	-117
▁or	-118
pp	-119
qu	-120
ist	-121
▁en	-122
ment	-123
ld	-124
ri	-125
▁G	-126
▁wh	-127
our	-128
ter	-129
ect	-130
th	-131
▁-	-132
▁le	-133
em	-134
▁D	-135
▁P	-136
ant	-137
▁su	-138
▁wor	-139
oun	-140
se	-141
est	-142
ds	-143
her	-144
▁E	-145
ity	-146
▁F	-147
ra	-148
▁im	-149
▁v	-150
ine	-151
ust	-152
▁ch	-153
▁ne	-154
igh	-155
▁sh	-156
ort	-157
▁M	-158
ies	-159
▁r	-160
du	-161
ple	-162
oo	-163
ial	-164
iz	-165
▁inc	-166
▁H	-167
ren	-168
ide	-169
▁te	-170
ould	-171
rom	-172
lowing	-173
▁R	-174
ang	-175
age	-176
ac	-177
▁was	-178
ud	-179
▁fol	-180
able	-181
res	-182
▁B	-183
ions	-184
red	-185
▁sent	-186
▁imp	-187
ical	-188
ight	-189
▁un	-190
▁by	-191
▁from	-192
▁sp	-193
▁following	-194
ite	-195
cc	-196
▁ab	-197
and	-198
▁ha	-199
os	-200
per	-201
▁int	-202
▁ar	-203
ill	-204
gy	-205
▁In	-206
▁se	-207
act	-208
ake	-209
pt	-210
▁pl	-211
▁we	-212
▁It	-213
ff	-214
oc	-215
▁sentence	-216
ke	-217
der	-218
▁lo	-219
▁comp	-220
ach	-221
out	-222
▁you	-223
ces	-224
▁L	-225
▁O	-226
iven	-227
▁dat	-228
pl	-229
▁N	-230
reat	-231
ks	-232
ind	-233
▁at	-234
ell	-235
orm	-236
▁their	-237
ast	-238
ener	-239
▁more	-240
▁"	-241
ew	-242
art	-243
ass	-244
▁ad	-245
up	-246
ice	-247
ous	-248
ning	-249
▁app	-250
ru	-251
so	-252
▁cont	-253
▁have	-254
ase	-255
are	-256
▁Th	-257
▁has	-258
▁res	-259
reate	-260
ther	-261
▁data	-262
all	-263
ations	-264
▁me	-265
ally	-266
ame	-267
ome	-268
ance	-269
ition	-270
▁cl	-271
▁po	-272
ep	-273
fe	-274
▁U	-275
▁also	-276
▁your	-277
ult	-278
ile	-279
▁co	-280
▁tr	-281
form	-282
▁hel	-283
no	-284
▁qu	-285
ans	-286
▁such	-287
▁help	-288
▁used	-289
▁pe	-290
▁acc	-291
▁given	-292
ge	-293
ue	-294
▁(	-295
gh	-296
ime	-297
rib	-298
ore	-299
▁sy	-300
ound	-301
ount	-302
▁bet	-303
▁dif	-304
▁out	-305
ated	-306
ich	-307
▁lear	-308
ie	-309
esc	-310
▁j	-311
ify	-312
ign	-313
ble	-314
feren	-315
▁about	-316
▁prov	-317
rite	-318
enerate	-319
▁li	-320
▁tw	-321
ory	-322
duct	-323
ustom	-324
cess	-325
ace	-326
▁Wh	-327
pe	-328
ased	-329
one	-330
ood	-331
ient	-332
ough	-333
▁new	-334
▁rec	-335
ber	-336
ark	-337
▁which	-338
▁this	-339
▁do	-340
xt	-341
lic	-342
▁up	-343
▁other	-344
erv	-345
ful	-346
▁dis	-347
od	-348
▁should	-349
ear	-350
ong	-351
▁sc	-352
ress	-353
▁into	-354
ph	-355
▁eff	-356
▁incre	-357
▁so	-358
--	-359
▁dec	-360
▁custom	-361
end	-362
lud	-363
stem	-364
we	-365
ergy	-366
▁Generate	-367
▁St	-368
▁em	-369
ree	-370
alth	-371
ific	-372
king	-373
▁ev	-374
▁list	-375
▁differen	-376
ize	-377
av	-378
put	-379
▁per	-380
▁This	-381
▁art	-382
▁two	-383
▁energy	-384
les	-385
▁time	-386
▁includ	-387
ry	-388
▁J	-389
▁Ad	-390
▁its	-391
▁man	-392
▁He	-393
▁make	-394
▁ca	-395
▁tech	-396
escrib	-397
ack	-398
ip	-399
▁ro	-400
▁whe	-401
▁What	-402
▁system	-403
ary	-404
ature	-405
ms	-406
ard	-407
ange	-408
ia	-409
ick	-410
▁ty	-411
ics	-412
its	-413
▁not	-414
▁like	-415
▁AI	-416
lect	-417
▁they	-418
▁redu	-419
▁comm	-420
▁process	-421
▁An	-422
ater	-423
ject	-424
nolo	-425
▁ph	-426
▁spe	-427
og	-428
▁=	-429
▁k	-430
▁fe	-431
▁all	-432
▁num	-433
▁Create	-434
▁pr	-435
▁one	-436
▁go	-437
▁product	-438
▁learning	-439
▁use	-440
aking	-441
▁str	-442
get	-443
▁Ch	-444
▁rel	-445
▁sol	-446
▁will	-447
ates	-448
ween	-449
▁way	-450
ise	-451
▁br	-452
ility	-453
vel	-454
ople	-455
ruct	-456
dition	-457
escribe	-458
▁health	-459
▁between	-460
ious	-461
ating	-462
gor	-463
ents	-464
▁most	-465
als	-466
ire	-467
▁Ex	-468
ef	-469
ram	-470
▁them	-471
ail	-472
ict	-473
led	-474
ative	-475
▁act	-476
▁cons	-477
▁import	-478
wor	-479
ience	-480
▁world	-481
ck	-482
ments	-483
con	-484
▁exp	-485
▁had	-486
▁ind	-487
▁serv	-488
ential	-489
▁using	-490
▁words	-491
te	-492
nology	-493
erson	-494
▁people	-495
ors	-496
▁creat	-497
▁med	-498
plain	-499
▁impro	-500
▁inv	-501
▁who	-502
ution	-503
▁over	-504
entify	-505
▁customer	-506
aly	-507
ices	-508
ings	-509
ities	-510
urn	-511
line	-512
▁col	-513
▁her	-514
▁need	-515
now	-516
▁des	-517
▁exper	-518
po	-519
iron	-520
▁car	-521
▁than	-522
▁Write	-523
lop	-524
▁hum	-525
▁pol	-526
▁inter	-527
▁provide	-528
gg	-529
ish	-530
oth	-531
▁day	-532
▁pot	-533
iness	-534
▁She	-535
▁would	-536
wn	-537
▁work	-538
▁while	-539
▁reduce	-540
▁his	-541
velop	-542
viron	-543
ources	-544
ild	-545
ons	-546
very	-547
▁web	-548
ts	-549
ower	-550
▁Pro	-551
iet	-552
▁but	-553
▁different	-554
ook	-555
▁any	-556
op	-557
ife	-558
mer	-559
▁Describe	-560
gan	-561
▁how	-562
gorith	-563
▁could	-564
ne	-565
ural	-566
▁tas	-567
▁exam	-568
▁stud	-569
▁text	-570
▁create	-571
▁sk	-572
▁sm	-573
vironment	-574
ft	-575
ll	-576
ade	-577
▁gr	-578
▁pos	-579
▁comput	-580
▁bus	-581
▁set	-582
▁technology	-583
▁#	-584
use	-585
▁min	-586
▁include	-587
▁am	-588
▁char	-589
ving	-590
▁pat	-591
▁pre	-592
▁val	-593
▁effect	-594
▁inform	-595
▁Addition	-596
▁algorith	-597
icle	-598
▁mod	-599
rough	-600
▁Additionally	-601
ob	-602
ily	-603
▁sa	-604
▁adv	-605
▁det	-606
▁our	-607
▁part	-608
▁person	-609
ert	-610
lob	-611
ved	-612
ible	-613
ives	-614
▁V	-615
ens	-616
▁off	-617
▁main	-618
erm	-619
▁id	-620
▁ke	-621
▁no	-622
▁Com	-623
▁form	-624
▁well	-625
▁order	-626
ub	-627
▁Un	-628
▁Con	-629
▁soc	-630
▁Explain	-631
▁important	-632
__	-633
eth	-634
ited	-635
ting	-636
ular	-637
▁eng	-638
▁lar	-639
▁tra	-640
▁lead	-641
▁mark	-642
▁story	-643
▁under	-644
▁environment	-645
els	-646
▁my	-647
ases	-648
▁cor	-649
▁typ	-650
▁plan	-651
▁develop	-652
row	-653
▁decis	-654
enef	-655
achine	-656
▁potential	-657
ages	-658
ract	-659
imate	-660
▁been	-661
▁class	-662
oy	-663
▁ob	-664
▁aut	-665
▁pass	-666
▁some	-667
hes	-668
ten	-669
▁if	-670
▁ma	-671
▁bec	-672
ences	-673
▁life	-674
ically	-675
▁comple	-676
enc	-677
lobal	-678
▁count	-679
▁power	-680
ord	-681
▁blo	-682
▁she	-683
▁there	-684
arm	-685
ual	-686
stand	-687
▁Find	-688
redict	-689
▁great	-690
▁provid	-691
▁example	-692
▁business	-693
ric	-694
rit	-695
way	-696
▁dr	-697
▁Name	-698
▁each	-699
▁when	-700
▁proble	-701
▁top	-702
▁They	-703
▁prog	-704
uc	-705
cul	-706
▁Re	-707
▁bu	-708
▁def	-709
▁ins	-710
struct	-711
▁trans	-712
▁water	-713
▁[	-714
▁ret	-715
▁number	-716
anc	-717
▁ve	-718
ness	-719
▁rem	-720
ellig	-721
▁resp	-722
▁webs	-723
▁what	-724
▁through	-725
elf	-726
ized	-727
▁article	-728
ves	-729
▁ed	-730
ries	-731
▁fun	-732
▁rep	-733
▁benef	-734
▁charact	-735
ats	-736
hed	-737
umm	-738
▁Id	-739
tern	-740
▁fam	-741
iving	-742
▁word	-743
▁market	-744
".	-745
ap	-746
bot	-747
arch	-748
▁high	-749
▁requ	-750
▁year	-751
▁better	-752
▁|	-753
▁En	-754
irst	-755
ivid	-756
▁equ	-757
▁fin	-758
▁find	-759
▁know	-760
▁analy	-761
ificial	-762
▁result	-763
▁information	-764
ss	-765
ys	-766
ian	-767
▁la	-768
▁var	-769
▁good	-770
▁human	-771
▁quick	-772
▁access	-773
▁applic	-774
▁design	-775
▁K	-776
▁Y	-777
▁bl	-778
vers	-779
▁sec	-780
ables	-781
ccess	-782
itive	-783
▁disc	-784
▁spec	-785
▁take	-786
▁improve	-787
▁predict	-788
▁increase	-789
▁understand	-790
ism	-791
----	-792
angu	-793
ling	-794
▁ass	-795
▁cur	-796
▁inf	-797
▁both	-798
▁food	-799
hen	-800
ines	-801
▁ide	-802
▁loo	-803
conom	-804
atural	-805
resent	-806
▁input	-807
ures	-808
▁clo	-809
elligence	-810
iqu	-811
▁De	-812
▁reg	-813
▁cost	-814
▁accur	-815
▁tasks	-816
▁three	-817
▁around	-818
▁global	-819
▁object	-820
▁online	-821
▁Identify	-822
iss	-823
ants	-824
raph	-825
▁Rew	-826
▁get	-827
▁five	-828
▁poin	-829
▁large	-830
▁commun	-831
▁making	-832
▁success	-833
▁website	-834
▁$	-835
▁own	-836
alcul	-837
▁long	-838
▁learn	-839
▁experience	-840
ib	-841
aut	-842
read	-843
ware	-844
▁ris	-845
▁effic	-846
▁langu	-847
io	-848
oh	-849
ze	-850
rop	-851
▁opt	-852
▁pur	-853
etwor	-854
ggest	-855
▁type	-856
▁allow	-857
▁level	-858
▁perform	-859
ues	-860
bers	-861
reen	-862
▁How	-863
▁ele	-864
pport	-865
ually	-866
atures	-867
▁where	-868
▁machine	-869
▁service	-870
hip	-871
akes	-872
▁vis	-873
▁compan	-874
▁program	-875
▁resources	-876
ink	-877
loy	-878
▁att	-879
▁may	-880
▁tem	-881
ality	-882
▁were	-883
▁change	-884
▁impact	-885
▁Rewrite	-886
▁benefits	-887
ath	-888
ery	-889
iew	-890
tle	-891
▁Cl	-892
▁We	-893
vert	-894
ather	-895
ivers	-896
uring	-897
▁Given	-898
▁activ	-899
▁chang	-900
▁cr	-901
ploy	-902
▁prot	-903
▁being	-904
▁As	-905
▁On	-906
▁ac	-907
ouse	-908
▁che	-909
▁cle	-910
▁ext	-911
▁pop	-912
▁made	-913
▁mean	-914
ertain	-915
▁based	-916
▁elect	-917
▁organ	-918
▁return	-919
mat	-920
own	-921
▁Al	-922
cept	-923
▁eas	-924
▁even	-925
▁fact	-926
▁item	-927
▁rest	-928
▁first	-929
▁networ	-930
▁content	-931
til	-932
▁cm	-933
▁fi	-934
here	-935
iety	-936
rect	-937
▁ent	-938
▁low	-939
▁sur	-940
▁inte	-941
▁team	-942
▁every	-943
▁quest	-944
▁small	-945
▁temper	-946
▁quickly	-947
▁language	-948
▁algorithm	-949
me	-950
eng	-951
▁Su	-952
▁bel	-953
▁del	-954
▁able	-955
▁area	-956
▁conc	-957
▁beaut	-958
▁natural	-959
▁systems	-960
▁+	-961
day	-962
opp	-963
ital	-964
▁arr	-965
▁end	-966
▁iss	-967
▁sim	-968
▁poss	-969
▁often	-970
ability	-971
ication	-972
▁econom	-973
▁social	-974
▁climate	-975
acy	-976
cho	-977
ner	-978
ense	-979
▁air	-980
▁sal	-981
▁tri	-982
▁educ	-983
▁play	-984
▁sign	-985
ewable	-986
▁light	-987
▁night	-988
▁identify	-989
ohn	-990
nect	-991
ocus	-992
▁fri	-993
▁mon	-994
▁phr	-995
▁ref	-996
▁rev	-997
▁sub	-998
▁sun	-999
▁grow	-1000
▁many	-1001
▁state	-1002
▁character	-1003
▁increased	-1004
yc	-1005
air	-1006
ave	-1007
ced	-1008
▁ag	-1009
ering	-1010
ption	-1011
ummar	-1012
uture	-1013
▁best	-1014
▁user	-1015
▁warm	-1016
▁model	-1017
▁store	-1018
▁strate	-1019
▁individ	-1020
gr	-1021
▁x	-1022
▁Ar	-1023
▁fl	-1024
arth	-1025
fter	-1026
pose	-1027
▁due	-1028
▁caus	-1029
▁then	-1030
▁focus	-1031
▁invol	-1032
com	-1033
ech	-1034
uch	-1035
▁Sp	-1036
fore	-1037
ique	-1038
utes	-1039
▁loc	-1040
▁mov	-1041
▁par	-1042
ional	-1043
▁back	-1044
▁hist	-1045
▁prof	-1046
▁stay	-1047
▁common	-1048
▁computer	-1049
▁education	-1050
erc	-1051
▁op	-1052
rees	-1053
▁key	-1054
▁met	-1055
ients	-1056
▁until	-1057
▁value	-1058
alculate	-1059
▁contain	-1060
▁customers	-1061
▁intelligence	-1062
br	-1063
ends	-1064
reak	-1065
rent	-1066
▁John	-1067
▁anim	-1068
▁book	-1069
▁pain	-1070
▁poem	-1071
▁rele	-1072
▁Class	-1073
▁gener	-1074
olution	-1075
▁family	-1076
▁levels	-1077
▁sources	-1078
▁personal	-1079
ee	-1080
ins	-1081
ium	-1082
ogn	-1083
ost	-1084
▁av	-1085
gies	-1086
▁dig	-1087
▁sum	-1088
ction	-1089
iment	-1090
ought	-1091
▁comb	-1092
▁less	-1093
▁mult	-1094
▁poll	-1095
▁read	-1096
ustain	-1097
▁United	-1098
▁phrase	-1099
▁correct	-1100
▁creating	-1101
),	-1102
):	-1103
The	-1104
ash	-1105
dit	-1106
▁To	-1107
ills	-1108
rest	-1109
▁add	-1110
▁fil	-1111
aging	-1112
▁green	-1113
▁future	-1114
▁problem	-1115
▁Classify	-1116
▁allowing	-1117
▁including	-1118
ty	-1119
ars	-1120
nov	-1121
ony	-1122
ose	-1123
osp	-1124
ency	-1125
ring	-1126
▁Des	-1127
▁dev	-1128
▁hig	-1129
▁log	-1130
▁wal	-1131
meric	-1132
▁does	-1133
▁test	-1134
▁writ	-1135
▁autom	-1136
▁movie	-1137
▁veget	-1138
▁connect	-1139
▁meaning	-1140
▁minutes	-1141
▁without	-1142
de	-1143
jor	-1144
mot	-1145
old	-1146
oney	-1147
vide	-1148
▁Ind	-1149
▁dep	-1150
▁mem	-1151
asing	-1152
ights	-1153
▁Comp	-1154
urther	-1155
▁belie	-1156
▁event	-1157
▁items	-1158
▁study	-1159
▁engine	-1160
▁indust	-1161
▁decision	-1162
▁decisions	-1163
▁typically	-1164
▁artificial	-1165
ied	-1166
oes	-1167
ond	-1168
▁ra	-1169
care	-1170
ists	-1171
ream	-1172
▁List	-1173
▁care	-1174
▁cour	-1175
▁diff	-1176
▁feel	-1177
▁fore	-1178
▁happ	-1179
▁home	-1180
▁meth	-1181
▁sing	-1182
▁step	-1183
▁media	-1184
▁needs	-1185
▁Summar	-1186
▁recogn	-1187
▁performance	-1188
ax	-1189
ock	-1190
ove	-1191
▁Im	-1192
pect	-1193
▁For	-1194
▁ess	-1195
▁ren	-1196
chool	-1197
▁conf	-1198
▁dist	-1199
▁post	-1200
▁show	-1201
▁soft	-1202
▁innov	-1203
▁start	-1204
ization	-1205
▁complex	-1206
▁numbers	-1207
▁accurate	-1208
▁Summarize	-1209
▁efficient	-1210
▁algorithms	-1211
lu	-1212
▁US	-1213
cean	-1214
ired	-1215
vent	-1216
▁bir	-1217
▁ser	-1218
▁why	-1219
atbot	-1220
icult	-1221
▁Make	-1222
▁down	-1223
▁hand	-1224
▁found	-1225
▁pract	-1226
▁short	-1227
▁types	-1228
▁States	-1229
▁Provide	-1230
▁ability	-1231
▁certain	-1232
▁pattern	-1233
▁project	-1234
▁require	-1235
amp	-1236
ney	-1237
▁er	-1238
atch	-1239
cing	-1240
iver	-1241
▁Int	-1242
▁cap	-1243
angle	-1244
utions	-1245
▁reach	-1246
ression	-1247
ructure	-1248
▁determ	-1249
▁manage	-1250
▁services	-1251
▁effective	-1252
oud	-1253
ret	-1254
▁pa	-1255
ands	-1256
ards	-1257
ator	-1258
ered	-1259
ides	-1260
oice	-1261
orts	-1262
ross	-1263
▁few	-1264
▁let	-1265
▁max	-1266
▁sky	-1267
▁som	-1268
izing	-1269
▁inst	-1270
▁prin	-1271
▁ways	-1272
▁emiss	-1273
▁never	-1274
▁Americ	-1275
▁effects	-1276
▁difficult	-1277
▁sentences	-1278
▁statement	-1279
ets	-1280
ral	-1281
▁Pl	-1282
▁Se	-1283
mosp	-1284
▁cup	-1285
▁sit	-1286
ledge	-1287
▁jour	-1288
▁line	-1289
▁love	-1290
▁meas	-1291
▁much	-1292
▁page	-1293
▁tool	-1294
▁money	-1295
▁years	-1296
ational	-1297
ination	-1298
▁atmosp	-1299
▁before	-1300
▁company	-1301
▁friends	-1302
▁healthy	-1303
▁sustain	-1304
▁features	-1305
▁countries	-1306
▁emissions	-1307
▁pollution	-1308
▁difference	-1309
▁“	-1310
joy	-1311
▁sn	-1312
ared	-1313
verb	-1314
▁Add	-1315
▁Fin	-1316
▁job	-1317
aster	-1318
ublic	-1319
▁pepp	-1320
▁phys	-1321
▁task	-1322
▁uses	-1323
illion	-1324
▁Earth	-1325
▁appro	-1326
▁ideas	-1327
▁major	-1328
▁recent	-1329
▁interest	-1330
▁applications	-1331
ex	-1332
ius	-1333
vis	-1334
▁One	-1335
▁enc	-1336
▁Give	-1337
▁blog	-1338
▁cent	-1339
▁last	-1340
▁mess	-1341
gether	-1342
▁Analy	-1343
▁novel	-1344
▁these	-1345
▁intern	-1346
▁skills	-1347
▁concept	-1348
▁protect	-1349
▁related	-1350
▁positive	-1351
▁possible	-1352
▁problems	-1353
▁together	-1354
▁businesses	-1355
ger	-1356
ier	-1357
ody	-1358
sis	-1359
ted	-1360
ush	-1361
▁ut	-1362
ause	-1363
▁mot	-1364
▁tim	-1365
▁desc	-1366
▁head	-1367
▁build	-1368
▁child	-1369
▁influ	-1370
▁multi	-1371
▁advant	-1372
▁contin	-1373
▁contro	-1374
▁search	-1375
redients	-1376
▁Suggest	-1377
▁journey	-1378
▁provides	-1379
▁knowledge	-1380
▁atmosphere	-1381
▁healthcare	-1382
▁successful	-1383
▁development	-1384
▁'	-1385
aur	-1386
ute	-1387
less	-1388
ming	-1389
port	-1390
▁mil	-1391
based	-1392
ffect	-1393
ounds	-1394
▁just	-1395
▁same	-1396
▁teas	-1397
▁trad	-1398
▁wind	-1399
gative	-1400
▁lives	-1401
▁optim	-1402
▁techn	-1403
▁consum	-1404
▁humans	-1405
▁nature	-1406
▁secure	-1407
▁unique	-1408
▁current	-1409
▁history	-1410
▁patterns	-1411
▁Calculate	-1412
▁marketing	-1413
▁solutions	-1414
▁communication	-1415
by	-1416
ows	-1417
ron	-1418
uss	-1419
▁Fr	-1420
▁Tr	-1421
▁bi	-1422
abor	-1423
ined	-1424
leep	-1425
vant	-1426
ways	-1427
▁Out	-1428
▁ens	-1429
▁ful	-1430
▁deep	-1431
▁side	-1432
▁sure	-1433
ething	-1434
opping	-1435
▁break	-1436
▁email	-1437
▁goals	-1438
▁heart	-1439
▁place	-1440
▁Design	-1441
▁plants	-1442
▁scient	-1443
▁spread	-1444
▁digital	-1445
▁creative	-1446
▁elements	-1447
▁something	-1448
▁activities	-1449
▁importance	-1450
▁understanding	-1451
ci	-1452
ale	-1453
ane	-1454
ext	-1455
lex	-1456
ffic	-1457
mend	-1458
self	-1459
▁bas	-1460
▁see	-1461
▁tit	-1462
astic	-1463
ivity	-1464
place	-1465
▁away	-1466
▁expl	-1467
▁flow	-1468
▁game	-1469
▁keep	-1470
▁look	-1471
▁name	-1472
▁open	-1473
▁rate	-1474
▁wide	-1475
▁bring	-1476
▁chall	-1477
ibility	-1478
plement	-1479
pportun	-1480
▁invest	-1481
▁strong	-1482
▁species	-1483
▁improved	-1484
▁software	-1485
▁providing	-1486
▁renewable	-1487
▁individual	-1488
sw	-1489
bon	-1490
den	-1491
oss	-1492
▁hy	-1493
chie	-1494
izes	-1495
poon	-1496
▁Can	-1497
▁Inc	-1498
▁aud	-1499
▁dem	-1500
▁fru	-1501
▁imm	-1502
▁lim	-1503
▁mag	-1504
▁cook	-1505
▁fiel	-1506
▁must	-1507
▁only	-1508
▁past	-1509
▁risk	-1510
ancial	-1511
elling	-1512
ercise	-1513
verage	-1514
▁cause	-1515
▁color	-1516
▁robot	-1517
▁solve	-1518
▁train	-1519
▁action	-1520
▁events	-1521
▁models	-1522
▁output	-1523
▁school	-1524
▁account	-1525
▁changes	-1526
▁present	-1527
▁restaur	-1528
▁student	-1529
▁warming	-1530
▁function	-1531
▁relations	-1532
▁represent	-1533
▁structure	-1534
▁increasing	-1535
▁environmental	-1536
."	-1537
ah	-1538
ote	-1539
oup	-1540
und	-1541
▁Be	-1542
▁bo	-1543
vern	-1544
▁Art	-1545
▁Eng	-1546
▁fre	-1547
▁lit	-1548
▁run	-1549
▁ste	-1550
arlic	-1551
ental	-1552
light	-1553
urity	-1554
▁Edit	-1555
▁camp	-1556
▁ever	-1557
▁exce	-1558
▁rese	-1559
▁sort	-1560
▁There	-1561
▁avail	-1562
▁clear	-1563
▁enjoy	-1564
▁house	-1565
▁issue	-1566
▁range	-1567
▁topic	-1568
ountain	-1569
▁allows	-1570
▁amount	-1571
▁become	-1572
▁descri	-1573
▁Finally	-1574
▁explain	-1575
▁medical	-1576
▁describe	-1577
▁equation	-1578
▁powerful	-1579
▁products	-1580
▁temperature	-1581
).	-1582
az	-1583
▁i	-1584
ips	-1585
ode	-1586
oin	-1587
ven	-1588
▁Ph	-1589
▁di	-1590
▁el	-1591
▁gu	-1592
anan	-1593
ason	-1594
face	-1595
ived	-1596
lish	-1597
ward	-1598
word	-1599
▁cal	-1600
▁deb	-1601
▁est	-1602
▁exc	-1603
▁him	-1604
▁oil	-1605
ainst	-1606
ument	-1607
▁When	-1608
▁dise	-1609
▁gram	-1610
▁oper	-1611
▁plat	-1612
▁upon	-1613
ategor	-1614
ending	-1615
ograph	-1616
ration	-1617
▁areas	-1618
▁helps	-1619
▁speed	-1620
▁stand	-1621
▁trees	-1622
▁waste	-1623
aterial	-1624
▁beauty	-1625
▁compon	-1626
▁country	-1627
▁respons	-1628
▁involves	-1629
▁shopping	-1630
▁triangle	-1631
▁Construct	-1632
▁processing	-1633
pr	-1634
su	-1635
ods	-1636
wit	-1637
▁My	-1638
▁Or	-1639
____	-1640
inal	-1641
ooks	-1642
rast	-1643
ster	-1644
▁Use	-1645
▁War	-1646
▁beg	-1647
▁beh	-1648
▁hom	-1649
▁ing	-1650
▁joy	-1651
▁sea	-1652
▁sym	-1653
attle	-1654
▁feed	-1655
▁gain	-1656
▁hard	-1657
▁news	-1658
istics	-1659
▁achie	-1660
▁point	-1661
▁popul	-1662
▁produ	-1663
▁sound	-1664
▁title	-1665
▁experi	-1666
▁follow	-1667
▁growth	-1668
▁partic	-1669
▁pepper	-1670
▁promot	-1671
▁public	-1672
▁because	-1673
▁convers	-1674
▁leading	-1675
▁network	-1676
▁passage	-1677
▁suggest	-1678
▁addition	-1679
▁material	-1680
▁opportun	-1681
▁platform	-1682
▁teaspoon	-1683
▁restaurant	-1684
▁relationship	-1685
gle	-1686
let	-1687
nam	-1688
oot	-1689
rue	-1690
ths	-1691
avor	-1692
cond	-1693
dern	-1694
irus	-1695
ones	-1696
▁App	-1697
▁Res	-1698
▁bro	-1699
▁err	-1700
▁ter	-1701
▁win	-1702
labor	-1703
▁pres	-1704
▁real	-1705
▁self	-1706
agraph	-1707
▁ocean	-1708
▁users	-1709
cessary	-1710
ilities	-1711
inition	-1712
lection	-1713
▁carbon	-1714
▁employ	-1715
▁garlic	-1716
▁planet	-1717
▁proper	-1718
▁analysis	-1719
▁complete	-1720
▁generate	-1721
▁industry	-1722
▁interact	-1723
▁multiple	-1724
▁physical	-1725
▁security	-1726
▁paragraph	-1727
▁questions	-1728
▁strategies	-1729
ank	-1730
irc	-1731
pro	-1732
raw	-1733
▁So	-1734
ider	-1735
ince	-1736
ivil	-1737
sing	-1738
▁mus	-1739
▁too	-1740
ories	-1741
rends	-1742
▁Once	-1743
▁cult	-1744
▁idea	-1745
▁move	-1746
itable	-1747
ording	-1748
pervis	-1749
uation	-1750
▁after	-1751
▁array	-1752
▁clean	-1753
▁death	-1754
▁explo	-1755
▁space	-1756
▁steps	-1757
▁those	-1758
itional	-1759
▁caused	-1760
▁compet	-1761
▁single	-1762
▁Analyze	-1763
▁Compare	-1764
▁economy	-1765
▁popular	-1766
▁weather	-1767
ification	-1768
▁networks	-1769
▁question	-1770
▁available	-1771
▁financial	-1772
▁components	-1773
▁ingredients	-1774
▁predictions	-1775
avi	-1776
iol	-1777
oci	-1778
oms	-1779
sol	-1780
val	-1781
▁fu	-1782
back	-1783
ever	-1784
iful	-1785
land	-1786
tain	-1787
▁ant	-1788
▁dog	-1789
▁fig	-1790
▁gen	-1791
▁occ	-1792
▁pie	-1793
iency	-1794
ining	-1795
ither	-1796
iting	-1797
mical	-1798
▁circ	-1799
▁code	-1800
▁leng	-1801
ctions	-1802
inking	-1803
▁maxim	-1804
▁sides	-1805
▁sleep	-1806
▁table	-1807
▁today	-1808
▁France	-1809
▁ensure	-1810
▁higher	-1811
▁images	-1812
▁points	-1813
▁control	-1814
▁further	-1815
▁greater	-1816
▁looking	-1817
▁usually	-1818
▁accuracy	-1819
▁practice	-1820
▁research	-1821
▁signific	-1822
▁beautiful	-1823
▁application	-1824
be	-1825
to	-1826
ilo	-1827
ina	-1828
uck	-1829
▁At	-1830
▁gl	-1831
atic	-1832
fect	-1833
reme	-1834
resh	-1835
rodu	-1836
swer	-1837
▁You	-1838
▁buy	-1839
▁cat	-1840
▁mor	-1841
▁now	-1842
▁syn	-1843
aring	-1844
iable	-1845
ising	-1846
other	-1847
thing	-1848
▁capt	-1849
▁logo	-1850
▁save	-1851
▁tree	-1852
▁view	-1853
▁paper	-1854
▁stock	-1855
▁takes	-1856
▁always	-1857
▁associ	-1858
▁bright	-1859
▁either	-1860
▁govern	-1861
▁modern	-1862
▁prices	-1863
▁travel	-1864
▁Convert	-1865
▁animals	-1866
▁billion	-1867
▁describ	-1868
▁methods	-1869
▁quality	-1870
▁science	-1871
▁support	-1872
echnology	-1873
▁approach	-1874
▁exercise	-1875
▁solution	-1876
▁students	-1877
▁advantages	-1878
▁revolution	-1879
▁differences	-1880
▁traditional	-1881
ix	-1882
py	-1883
app	-1884
ike	-1885
ope	-1886
ugh	-1887
▁If	-1888
aves	-1889
ctor	-1890
oods	-1891
ples	-1892
reng	-1893
▁arg	-1894
▁bal	-1895
▁ear	-1896
▁fac	-1897
▁gra	-1898
▁ill	-1899
▁law	-1900
▁lay	-1901
ident	-1902
ished	-1903
veral	-1904
▁Over	-1905
▁cell	-1906
▁dark	-1907
▁insp	-1908
▁meet	-1909
▁moon	-1910
▁next	-1911
▁term	-1912
▁verb	-1913
▁very	-1914
icious	-1915
▁below	-1916
▁chick	-1917
▁group	-1918
▁ident	-1919
▁trust	-1920
--------	-1921
pervised	-1922
▁plastic	-1923
▁profess	-1924
▁various	-1925
▁writing	-1926
▁everyone	-1927
▁feedback	-1928
▁internet	-1929
▁mountain	-1930
▁relevant	-1931
▁computers	-1932
▁implement	-1933
▁necessary	-1934
▁processes	-1935
▁Artificial	-1936
▁characters	-1937
▁sustainable	-1938
",	-1939
aw	-1940
co	-1941
aph	-1942
icy	-1943
ked	-1944
ser	-1945
uro	-1946
aign	-1947
ffee	-1948
itor	-1949
oman	-1950
▁Wor	-1951
▁deg	-1952
▁don	-1953
▁far	-1954
▁lab	-1955
▁mat	-1956
▁sto	-1957
chain	-1958
icate	-1959
inner	-1960
riate	-1961
ribut	-1962
▁Char	-1963
▁dire	-1964
▁hope	-1965
▁root	-1966
▁want	-1967
ycling	-1968
▁After	-1969
▁Incre	-1970
▁going	-1971
▁price	-1972
▁theme	-1973
▁voice	-1974
▁across	-1975
▁summer	-1976
▁things	-1977
ropriate	-1978
▁express	-1979
▁extreme	-1980
▁feeling	-1981
▁results	-1982
▁working	-1983
▁American	-1984
▁children	-1985
▁reducing	-1986
▁construct	-1987
▁materials	-1988
▁transport	-1989
▁associated	-1990
▁efficiency	-1991
▁vegetables	-1992
▁temperatures	-1993
ny	-1994
ele	-1995
iod	-1996
iox	-1997
ird	-1998
ned	-1999
▁Co	-2000
acks	-2001
aged	-2002
cent	-2003
come	-2004
fact	-2005
itud	-2006
▁Mon	-2007
▁Par	-2008
▁bar	-2009
▁bur	-2010
▁squ	-2011
istic	-2012
ource	-2013
▁Step	-2014
▁Wind	-2015
▁body	-2016
▁call	-2017
▁free	-2018
▁full	-2019
▁mind	-2020
▁town	-2021
▁went	-2022
▁wild	-2023
ummary	-2024
▁These	-2025
▁Trans	-2026
▁block	-2027
▁cloud	-2028
▁costs	-2029
▁means	-2030
▁offer	-2031
▁polit	-2032
▁right	-2033
▁tomat	-2034
duction	-2035
▁easily	-2036
▁figure	-2037
▁income	-2038
▁issues	-2039
▁streng	-2040
▁stress	-2041
▁values	-2042
▁Machine	-2043
▁address	-2044
▁average	-2045
▁chatbot	-2046
▁discuss	-2047
▁message	-2048
▁perfect	-2049
▁regular	-2050
▁several	-2051
▁someone	-2052
▁campaign	-2053
▁computing	-2054
▁essential	-2055
▁definition	-2056
▁appropriate	-2057
▁description	-2058
▁significant	-2059
].	-2060
dr	-2061
ik	-2062
ps	-2063
ada	-2064
ape	-2065
ata	-2066
elt	-2067
hor	-2068
ipp	-2069
str	-2070
▁Sc	-2071
▁ey	-2072
bile	-2073
exic	-2074
gest	-2075
head	-2076
ided	-2077
▁Col	-2078
▁Dis	-2079
▁Man	-2080
▁bow	-2081
▁bud	-2082
▁eth	-2083
▁flo	-2084
▁led	-2085
▁leg	-2086
▁nam	-2087
▁non	-2088
▁smo	-2089
▁tar	-2090
▁veh	-2091
▁yog	-2092
aling	-2093
anger	-2094
eline	-2095
oogle	-2096
ossil	-2097
verse	-2098
▁else	-2099
▁emot	-2100
▁flex	-2101
▁path	-2102
▁util	-2103
ommend	-2104
▁Mexic	-2105
▁decre	-2106
▁fuels	-2107
▁motiv	-2108
▁occur	-2109
▁plant	-2110
▁purch	-2111
▁treat	-2112
ography	-2113
▁animal	-2114
▁budget	-2115
▁detect	-2116
▁faster	-2117
▁length	-2118
▁living	-2119
▁mobile	-2120
▁myster	-2121
▁simple	-2122
▁string	-2123
▁taking	-2124
▁element	-2125
▁options	-2126
▁patient	-2127
▁society	-2128
▁variety	-2129
▁activity	-2130
▁challeng	-2131
▁diseases	-2132
▁electric	-2133
▁painting	-2134
▁technolo	-2135
▁increases	-2136
▁recommend	-2137
▁resulting	-2138
▁innovation	-2139
],	-2140
▁{	-2141
apt	-2142
lus	-2143
osy	-2144
pos	-2145
uce	-2146
▁Is	-2147
▁Pe	-2148
▁Sm	-2149
fort	-2150
hest	-2151
iate	-2152
name	-2153
sequ	-2154
▁Set	-2155
▁doc	-2156
▁gas	-2157
▁red	-2158
▁twe	-2159
anana	-2160
aving	-2161
house	-2162
wards	-2163
▁Euro	-2164
▁base	-2165
▁city	-2166
▁come	-2167
▁diet	-2168
▁heat	-2169
▁hour	-2170
▁loss	-2171
▁node	-2172
▁pers	-2173
▁rece	-2174
▁role	-2175
▁slow	-2176
▁tips	-2177
▁true	-2178
▁datas	-2179
▁force	-2180
▁numer	-2181
▁peace	-2182
▁sense	-2183
▁still	-2184
▁think	-2185
ustomer	-2186
▁Google	-2187
▁behavi	-2188
▁excell	-2189
▁factor	-2190
▁fossil	-2191
▁having	-2192
▁likely	-2193
▁review	-2194
▁speech	-2195
▁tables	-2196
▁topics	-2197
▁trends	-2198
izations	-2199
▁English	-2200
▁chicken	-2201
▁courage	-2202
▁automate	-2203
▁contrast	-2204
▁engaging	-2205
▁negative	-2206
▁mysterious	-2207
▁production	-2208
▁experiences	-2209
▁transportation	-2210
ns	-2211
ux	-2212
bol	-2213
gen	-2214
urt	-2215
yle	-2216
▁Bu	-2217
▁Do	-2218
▁II	-2219
▁No	-2220
▁Sh	-2221
abol	-2222
emic	-2223
iced	-2224
iled	-2225
oung	-2226
uals	-2227
weet	-2228
▁And	-2229
▁Aut	-2230
▁But	-2231
▁cry	-2232
▁did	-2233
▁hol	-2234
▁mid	-2235
▁mom	-2236
▁sat	-2237
▁sil	-2238
▁try	-2239
atoes	-2240
inary	-2241
▁Come	-2242
▁blue	-2243
▁copy	-2244
▁dest	-2245
▁diag	-2246
▁easy	-2247
▁fear	-2248
▁give	-2249
▁kind	-2250
▁land	-2251
▁late	-2252
▁prim	-2253
▁rise	-2254
▁size	-2255
▁supp	-2256
iverse	-2257
▁books	-2258
▁disco	-2259
▁essay	-2260
▁exist	-2261
▁sales	-2262
▁since	-2263
▁works	-2264
▁young	-2265
ference	-2266
itation	-2267
▁Output	-2268
▁encour	-2269
▁engage	-2270
▁expect	-2271
▁forest	-2272
▁mental	-2273
▁metaph	-2274
▁period	-2275
▁report	-2276
▁sports	-2277
▁synony	-2278
▁Chatbot	-2279
▁Develop	-2280
▁against	-2281
▁believe	-2282
▁devices	-2283
▁explore	-2284
▁highest	-2285
▁purpose	-2286
▁testing	-2287
▁thought	-2288
▁collabor	-2289
▁consists	-2290
▁economic	-2291
▁maintain	-2292
▁strategy	-2293
▁suitable	-2294
structions	-2295
▁according	-2296
▁determine	-2297
▁sentiment	-2298
▁accurately	-2299
▁greenhouse	-2300
▁management	-2301
▁programming	-2302
▁Intelligence	-2303
▁z	-2304
gar	-2305
ury	-2306
▁Br	-2307
▁Em	-2308
▁Ne	-2309
▁fr	-2310
ades	-2311
agon	-2312
ding	-2313
imal	-2314
ires	-2315
more	-2316
onse	-2317
oose	-2318
outh	-2319
unch	-2320
ycle	-2321
▁Pre	-2322
▁Ren	-2323
▁dam	-2324
▁gro	-2325
▁pay	-2326
▁ple	-2327
anced	-2328
andom	-2329
ently	-2330
oming	-2331
rench	-2332
ulate	-2333
▁cold	-2334
▁fair	-2335
▁fire	-2336
▁rain	-2337
▁road	-2338
▁snow	-2339
▁stor	-2340
ention	-2341
▁Three	-2342
▁accom	-2343
▁civil	-2344
▁datab	-2345
▁dream	-2346
▁remem	-2347
▁terms	-2348
▁tools	-2349
ributed	-2350
▁Canada	-2351
▁Change	-2352
▁author	-2353
▁demand	-2354
▁during	-2355
▁enable	-2356
▁filled	-2357
▁giving	-2358
▁happen	-2359
▁second	-2360
▁source	-2361
▁states	-2362
▁target	-2363
▁visual	-2364
▁Further	-2365
▁concise	-2366
▁conserv	-2367
▁setting	-2368
▁special	-2369
▁Customer	-2370
▁audience	-2371
▁chemical	-2372
▁includes	-2373
▁insights	-2374
▁thinking	-2375
▁transact	-2376
▁excellent	-2377
▁Technology	-2378
▁blockchain	-2379
▁government	-2380
▁engineering	-2381
▁individuals	-2382
do	-2383
orn	-2384
pid	-2385
▁Am	-2386
▁By	-2387
▁Go	-2388
▁ec	-2389
aken	-2390
erve	-2391
inks	-2392
side	-2393
▁All	-2394
▁Def	-2395
▁Let	-2396
▁hab	-2397
▁slo	-2398
▁tal	-2399
ender	-2400
fully	-2401
iance	-2402
itude	-2403
▁Mark	-2404
▁room	-2405
▁seem	-2406
▁viol	-2407
enture	-2408
iction	-2409
▁Every	-2410
▁India	-2411
▁along	-2412
▁field	-2413
▁frequ	-2414
▁known	-2415
▁makes	-2416
▁month	-2417
▁quant	-2418
▁risks	-2419
▁speak	-2420
▁tense	-2421
▁track	-2422
andemic	-2423
▁answer	-2424
▁assist	-2425
▁coffee	-2426
▁dinner	-2427
▁little	-2428
▁neural	-2429
▁square	-2430
▁Compose	-2431
▁concent	-2432
▁consequ	-2433
▁prevent	-2434
▁traffic	-2435
▁written	-2436
▁argument	-2437
▁progress	-2438
▁response	-2439
▁specific	-2440
▁generally	-2441
▁improving	-2442
▁platforms	-2443
▁situation	-2444
▁population	-2445
▁Furthermore	-2446
▁recognition	-2447
▁responsible	-2448
..	-2449
ug	-2450
ags	-2451
arr	-2452
dom	-2453
ead	-2454
mar	-2455
min	-2456
num	-2457
une	-2458
yal	-2459
yth	-2460
▁==	-2461
▁SE	-2462
alse	-2463
ball	-2464
cast	-2465
ches	-2466
idge	-2467
onom	-2468
pare	-2469
rior	-2470
ters	-2471
work	-2472
zing	-2473
▁Dec	-2474
▁Det	-2475
▁Get	-2476
▁Lin	-2477
▁bra	-2478
▁div	-2479
▁emb	-2480
▁mar	-2481
▁saf	-2482
aches	-2483
atory	-2484
ellow	-2485
epend	-2486
hemat	-2487
iques	-2488
lying	-2489
orest	-2490
right	-2491
▁Exam	-2492
▁With	-2493
▁ball	-2494
▁cats	-2495
▁cred	-2496
▁draw	-2497
▁goal	-2498
▁mist	-2499
▁opin	-2500
▁phot	-2501
uments	-2502
▁South	-2503
▁Water	-2504
▁birds	-2505
▁favor	-2506
▁loyal	-2507
▁miles	-2508
▁named	-2509
▁solar	-2510
▁write	-2511
abolism	-2512
atching	-2513
▁Europe	-2514
▁Health	-2515
▁Mexico	-2516
▁active	-2517
▁advert	-2518
▁calcul	-2519
▁called	-2520
▁damage	-2521
▁explor	-2522
▁fruits	-2523
▁highly	-2524
▁method	-2525
▁offers	-2526
▁remain	-2527
▁smooth	-2528
▁symbol	-2529
iversity	-2530
▁contact	-2531
▁decided	-2532
▁desired	-2533
▁ethical	-2534
▁located	-2535
▁maximum	-2536
▁measure	-2537
▁objects	-2538
▁produce	-2539
▁storage	-2540
▁subject	-2541
▁summary	-2542
▁towards	-2543
lications	-2544
▁designed	-2545
▁identity	-2546
▁timeline	-2547
▁tomatoes	-2548
▁yourself	-2549
▁influence	-2550
▁selection	-2551
▁interesting	-2552
▁opportunity	-2553
▁consequences	-2554
cm	-2555
sc	-2556
any	-2557
asc	-2558
cer	-2559
fra	-2560
ggs	-2561
int	-2562
ipe	-2563
irl	-2564
man	-2565
not	-2566
oid	-2567
ont	-2568
▁Tw	-2569
▁kn	-2570
abet	-2571
ames	-2572
atus	-2573
ched	-2574
ests	-2575
iant	-2576
ilar	-2577
imes	-2578
isis	-2579
ites	-2580
just	-2581
onic	-2582
osis	-2583
pite	-2584
term	-2585
time	-2586
view	-2587
▁Med	-2588
▁New	-2589
▁gre	-2590
▁mis	-2591
▁old	-2592
▁ran	-2593
▁tax	-2594
▁tur	-2595
▁war	-2596
▁yet	-2597
ances	-2598
asons	-2599
icine	-2600
ified	-2601
iture	-2602
ivacy	-2603
opped	-2604
orrow	-2605
uable	-2606
▁____	-2607
▁bird	-2608
▁bowl	-2609
▁date	-2610
▁days	-2611
▁diox	-2612
▁done	-2613
▁felt	-2614
▁four	-2615
▁girl	-2616
▁king	-2617
▁left	-2618
▁orig	-2619
▁port	-2620
▁prev	-2621
▁salt	-2622
▁scen	-2623
▁sche	-2624
▁seen	-2625
▁turn	-2626
aching	-2627
anging	-2628
atives	-2629
ection	-2630
elsius	-2631
idered	-2632
lusion	-2633
▁Apple	-2634
▁First	-2635
▁Great	-2636
▁Using	-2637
▁adapt	-2638
▁apple	-2639
▁begin	-2640
▁close	-2641
▁deliv	-2642
▁fruit	-2643
▁image	-2644
▁lines	-2645
▁local	-2646
▁might	-2647
▁satis	-2648
▁sauce	-2649
▁storm	-2650
▁tweet	-2651
▁Comput	-2652
▁Global	-2653
▁Person	-2654
▁advice	-2655
▁affect	-2656
▁center	-2657
▁colors	-2658
▁commit	-2659
▁cooked	-2660
▁errors	-2661
▁expens	-2662
▁famous	-2663
▁integr	-2664
▁letter	-2665
▁needed	-2666
▁policy	-2667
▁recipe	-2668
▁server	-2669
▁threat	-2670
urniture	-2671
▁However	-2672
▁analyze	-2673
▁capital	-2674
▁categor	-2675
▁comfort	-2676
▁degrees	-2677
▁dioxide	-2678
▁morning	-2679
▁overall	-2680
roduction	-2681
▁changing	-2682
▁consider	-2683
▁contains	-2684
▁mathemat	-2685
▁measures	-2686
▁metaphor	-2687
▁programs	-2688
▁companies	-2689
▁considered	-2690
▁expression	-2691
▁particular	-2692
▁techniques	-2693
▁electricity	-2694
▁flexibility	-2695
▁conversation	-2696
▁implications	-2697
▁technologies	-2698
▁relationships	-2699
▁classification	-2700
'.	-2701
ML	-2702
ek	-2703
of	-2704
ox	-2705
ww	-2706
amm	-2707
duc	-2708
ees	-2709
ese	-2710
ges	-2711
irt	-2712
uge	-2713
▁ge	-2714
ails	-2715
aren	-2716
dden	-2717
eder	-2718
hing	-2719
ison	-2720
know	-2721
logy	-2722
tics	-2723
▁Acc	-2724
▁His	-2725
▁Nor	-2726
▁Soc	-2727
▁Str	-2728
▁Yes	-2729
▁cut	-2730
▁rul	-2731
▁saw	-2732
▁won	-2733
aries	-2734
comes	-2735
earch	-2736
endly	-2737
known	-2738
poons	-2739
ython	-2740
▁Aust	-2741
▁Data	-2742
▁From	-2743
▁Lear	-2744
▁Pres	-2745
▁Then	-2746
▁Your	-2747
▁bear	-2748
▁card	-2749
▁door	-2750
▁face	-2751
▁heav	-2752
▁mass	-2753
▁mole	-2754
▁plac	-2755
▁stir	-2756
▁trip	-2757
idence	-2758
ounded	-2759
▁China	-2760
▁Elect	-2761
▁brave	-2762
▁cover	-2763
▁ecosy	-2764
▁estim	-2765
▁liber	-2766
▁lived	-2767
▁minim	-2768
▁stars	-2769
▁sweet	-2770
▁appear	-2771
▁backgr	-2772
▁battle	-2773
▁brings	-2774
▁butter	-2775
▁deploy	-2776
▁easier	-2777
▁fields	-2778
▁forces	-2779
▁formal	-2780
▁larger	-2781
▁moment	-2782
▁random	-2783
▁season	-2784
▁sudden	-2785
▁within	-2786
▁America	-2787
▁Categor	-2788
▁Product	-2789
▁Through	-2790
▁accompl	-2791
▁achieve	-2792
▁factors	-2793
▁feature	-2794
▁grammar	-2795
▁longest	-2796
▁playing	-2797
▁reading	-2798
▁reflect	-2799
▁becoming	-2800
▁database	-2801
▁election	-2802
▁outcomes	-2803
▁pandemic	-2804
▁potatoes	-2805
▁requires	-2806
▁strength	-2807
orestation	-2808
▁analyzing	-2809
▁calculate	-2810
▁ecosystem	-2811
▁interface	-2812
▁political	-2813
▁transform	-2814
▁Categorize	-2815
▁challenges	-2816
▁eventually	-2817
▁innovative	-2818
▁distributed	-2819
▁productivity	-2820
▁requirements	-2821
▁transactions	-2822
▁characteristics	-2823
tt	-2824
ety	-2825
for	-2826
iel	-2827
ien	-2828
ils	-2829
irm	-2830
lar	-2831
tal	-2832
ube	-2833
ung	-2834
urg	-2835
▁Dr	-2836
▁Pr	-2837
▁sw	-2838
omes	-2839
pact	-2840
ptop	-2841
thes	-2842
uate	-2843
▁Ins	-2844
▁Sam	-2845
▁Top	-2846
▁bat	-2847
▁big	-2848
▁eat	-2849
▁fat	-2850
▁hot	-2851
▁opp	-2852
▁pen	-2853
▁pow	-2854
▁pun	-2855
▁rad	-2856
▁say	-2857
▁sus	-2858
▁tre	-2859
ached	-2860
acher	-2861
anish	-2862
ialog	-2863
icles	-2864
iring	-2865
▁Germ	-2866
▁Inst	-2867
▁King	-2868
▁Take	-2869
▁appl	-2870
▁crit	-2871
▁debt	-2872
▁emph	-2873
▁foot	-2874
▁live	-2875
▁mach	-2876
▁pack	-2877
▁soon	-2878
▁walk	-2879
ashion	-2880
istent	-2881
though	-2882
▁Start	-2883
▁basic	-2884
▁black	-2885
▁breat	-2886
▁chrom	-2887
▁divid	-2888
▁fresh	-2889
▁habit	-2890
▁hours	-2891
▁lower	-2892
▁press	-2893
▁rapid	-2894
▁relax	-2895
▁share	-2896
▁virus	-2897
▁woman	-2898
imately	-2899
inating	-2900
▁During	-2901
▁Econom	-2902
▁French	-2903
▁Python	-2904
▁accept	-2905
▁adjust	-2906
▁circle	-2907
▁cities	-2908
▁credit	-2909
▁direct	-2910
▁height	-2911
▁laptop	-2912
▁leader	-2913
▁others	-2914
▁reason	-2915
▁record	-2916
▁though	-2917
▁Windows	-2918
▁another	-2919
▁changed	-2920
▁conduct	-2921
▁continu	-2922
▁created	-2923
▁culture	-2924
▁follows	-2925
▁grammat	-2926
▁growing	-2927
▁helping	-2928
▁instead	-2929
▁limited	-2930
▁magical	-2931
▁monitor	-2932
▁primary	-2933
▁promote	-2934
▁similar	-2935
▁started	-2936
▁surface	-2937
▁Electric	-2938
▁anything	-2939
▁behavior	-2940
▁classify	-2941
▁delivery	-2942
▁existing	-2943
▁original	-2944
▁purchase	-2945
▁recently	-2946
▁President	-2947
▁Renewable	-2948
▁delicious	-2949
▁entertain	-2950
▁vegetable	-2951
▁workplace	-2952
▁experiment	-2953
▁scientific	-2954
▁personalized	-2955
▁collaboration	-2956
In	-2957
NN	-2958
sh	-2959
TML	-2960
log	-2961
por	-2962
umb	-2963
ump	-2964
▁Ca	-2965
▁Fl	-2966
▁Gr	-2967
▁dy	-2968
▁sl	-2969
anks	-2970
apan	-2971
ateg	-2972
date	-2973
ders	-2974
eled	-2975
ging	-2976
itch	-2977
like	-2978
lock	-2979
obot	-2980
osed	-2981
quid	-2982
rief	-2983
room	-2984
ustr	-2985
▁Cat	-2986
▁Cor	-2987
▁Hum	-2988
▁Our	-2989
▁Pol	-2990
▁Sim	-2991
▁Tom	-2992
▁Tra	-2993
▁anc	-2994
▁anx	-2995
▁boy	-2996
▁bre	-2997
▁cit	-2998
▁hyd	-2999
▁ice	-3000
▁mix	-3001
ading	-3002
cules	-3003
ended	-3004
estic	-3005
illed	-3006
iloso	-3007
ision	-3008
stant	-3009
witch	-3010
▁Have	-3011
▁Prot	-3012
▁Text	-3013
▁amaz	-3014
▁cars	-3015
▁clim	-3016
▁crim	-3017
▁fish	-3018
▁font	-3019
▁stop	-3020
▁vide	-3021
▁wave	-3022
▁week	-3023
nesses	-3024
orical	-3025
▁Autom	-3026
▁Gener	-3027
▁Impro	-3028
▁Japan	-3029
▁Linux	-3030
▁Robot	-3031
▁among	-3032
▁chair	-3033
▁conve	-3034
▁crime	-3035
▁equal	-3036
▁error	-3037
▁gases	-3038
▁homes	-3039
▁lever	-3040
▁party	-3041
▁phone	-3042
▁prior	-3043
▁river	-3044
▁times	-3045
▁total	-3046
ditions	-3047
solving	-3048
▁Determ	-3049
▁Impact	-3050
▁Social	-3051
▁adject	-3052
▁baking	-3053
▁causes	-3054
▁choice	-3055
▁device	-3056
▁dialog	-3057
▁effort	-3058
▁emphas	-3059
▁ground	-3060
▁liquid	-3061
▁societ	-3062
▁stored	-3063
▁theory	-3064
▁winter	-3065
▁yogurt	-3066
▁Austral	-3067
▁Spanish	-3068
▁collect	-3069
▁dataset	-3070
▁driving	-3071
▁introdu	-3072
▁opinion	-3073
▁privacy	-3074
▁document	-3075
▁influenc	-3076
▁machines	-3077
▁patients	-3078
▁provided	-3079
▁studying	-3080
▁estimated	-3081
▁functions	-3082
▁molecules	-3083
▁operating	-3084
▁recycling	-3085
▁developing	-3086
▁ecosystems	-3087
▁meditation	-3088
▁tablespoons	-3089
▁increasingly	-3090
▁professional	-3091
▁opportunities	-3092
▁organizations	-3093
AI	-3094
PT	-3095
tc	-3096
bit	-3097
ere	-3098
fit	-3099
iar	-3100
iff	-3101
iku	-3102
rel	-3103
rot	-3104
set	-3105
the	-3106
uth	-3107
▁Hi	-3108
▁Ke	-3109
▁fa	-3110
ager	-3111
ales	-3112
arry	-3113
cher	-3114
ells	-3115
enge	-3116
erob	-3117
etic	-3118
hens	-3119
isms	-3120
ober	-3121
ords	-3122
play	-3123
rant	-3124
rugg	-3125
rupt	-3126
vest	-3127
▁Car	-3128
▁Cur	-3129
▁GPT	-3130
▁Its	-3131
▁Jul	-3132
▁Pot	-3133
▁Red	-3134
▁Rem	-3135
▁Rep	-3136
▁Two	-3137
▁aff	-3138
▁aid	-3139
▁cra	-3140
▁ded	-3141
▁etc	-3142
▁fit	-3143
▁idi	-3144
▁tor	-3145
▁unc	-3146
acter	-3147
antic	-3148
arian	-3149
atsby	-3150
ening	-3151
gging	-3152
ially	-3153
idden	-3154
izens	-3155
olden	-3156
order	-3157
pects	-3158
useum	-3159
where	-3160
▁Cent	-3161
▁Dear	-3162
▁arts	-3163
▁cake	-3164
▁cups	-3165
▁eggs	-3166
▁grav	-3167
▁magn	-3168
▁park	-3169
▁pros	-3170
▁rose	-3171
▁said	-3172
ancing	-3173
ediate	-3174
erobic	-3175
igning	-3176
irtual	-3177
making	-3178
▁Benef	-3179
▁Ocean	-3180
▁asked	-3181
▁began	-3182
▁check	-3183
▁colle	-3184
▁comes	-3185
▁cross	-3186
▁crypt	-3187
▁demon	-3188
▁earth	-3189
▁estab	-3190
▁extra	-3191
▁famil	-3192
▁fewer	-3193
▁fight	-3194
▁forms	-3195
▁goods	-3196
▁grand	-3197
▁happy	-3198
▁layer	-3199
▁least	-3200
▁liter	-3201
▁looks	-3202
▁music	-3203
▁onion	-3204
▁rules	-3205
▁smart	-3206
▁stret	-3207
▁taken	-3208
▁units	-3209
▁white	-3210
agonist	-3211
ressive	-3212
▁Battle	-3213
▁Gatsby	-3214
▁People	-3215
▁altern	-3216
▁banana	-3217
▁binary	-3218
▁danger	-3219
▁doctor	-3220
▁incent	-3221
▁incred	-3222
▁interp	-3223
▁medium	-3224
▁player	-3225
▁princi	-3226
▁rising	-3227
▁safety	-3228
▁sorted	-3229
▁useful	-3230
▁widely	-3231
▁yellow	-3232
ducation	-3233
▁Celsius	-3234
▁Despite	-3235
▁amounts	-3236
▁burning	-3237
▁conflic	-3238
▁context	-3239
▁contrib	-3240
▁focuses	-3241
▁forward	-3242
▁impacts	-3243
▁kingdom	-3244
▁members	-3245
▁passion	-3246
▁passive	-3247
▁reasons	-3248
▁respect	-3249
▁respond	-3250
▁teacher	-3251
▁whereas	-3252
▁Benefits	-3253
▁Learning	-3254
▁Research	-3255
▁citizens	-3256
▁criminal	-3257
▁favorite	-3258
▁independ	-3259
▁medicine	-3260
▁memories	-3261
▁optimize	-3262
▁released	-3263
▁reliable	-3264
▁remember	-3265
▁spending	-3266
▁suddenly	-3267
▁vehicles	-3268
supervised	-3269
▁Australia	-3270
▁Determine	-3271
▁adventure	-3272
▁campaigns	-3273
▁challenge	-3274
▁classroom	-3275
▁connected	-3276
▁describes	-3277
▁emotional	-3278
▁employees	-3279
▁furniture	-3280
▁immediate	-3281
▁recognize	-3282
▁scientist	-3283
▁technique	-3284
▁accomplish	-3285
▁categories	-3286
▁conditions	-3287
▁engagement	-3288
▁competitive	-3289
▁instructions	-3290
▁revolutionized	-3291
He	-3292
go	-3293
ok	-3294
xy	-3295
zy	-3296
}{	-3297
”.	-3298
alf	-3299
aps	-3300
cel	-3301
dle	-3302
eds	-3303
equ	-3304
etr	-3305
ged	-3306
ift	-3307
isk	-3308
med	-3309
oke	-3310
par	-3311
pon	-3312
que	-3313
rim	-3314
ton	-3315
uis	-3316
uly	-3317
vid	-3318
▁Le	-3319
▁Ma	-3320
▁Ve	-3321
▁aw	-3322
▁mi	-3323
avig	-3324
berg	-3325
bled	-3326
frac	-3327
heit	-3328
icit	-3329
inch	-3330
itam	-3331
ival	-3332
ivot	-3333
late	-3334
lies	-3335
omin	-3336
pped	-3337
reci	-3338
rics	-3339
rist	-3340
ties	-3341
ucle	-3342
used	-3343
wise	-3344
▁Att	-3345
▁Che	-3346
▁Dep	-3347
▁Gre	-3348
▁Reg	-3349
▁SEO	-3350
▁age	-3351
▁aim	-3352
▁dol	-3353
▁enh	-3354
▁fix	-3355
▁mit	-3356
▁nut	-3357
▁sav	-3358
▁ten	-3359
▁ult	-3360
▁uns	-3361
▁wid	-3362
ahren	-3363
ailed	-3364
anges	-3365
elebr	-3366
entle	-3367
iling	-3368
inder	-3369
inked	-3370
lling	-3371
othbr	-3372
range	-3373
▁Brit	-3374
▁Conf	-3375
▁Deep	-3376
▁HTML	-3377
▁Mona	-3378
▁Phot	-3379
▁Serv	-3380
▁Sort	-3381
▁Twit	-3382
▁bell	-3383
▁came	-3384
▁clos	-3385
▁cuis	-3386
▁eval	-3387
▁fall	-3388
▁here	-3389
▁lost	-3390
▁miss	-3391
▁rect	-3392
▁repl	-3393
▁rice	-3394
▁rout	-3395
▁safe	-3396
▁slic	-3397
▁tall	-3398
▁tele	-3399
▁vari	-3400
▁weak	-3401
arison	-3402
effect	-3403
ership	-3404
ooking	-3405
▁Build	-3406
▁False	-3407
▁North	-3408
▁Organ	-3409
▁ahead	-3410
▁avoid	-3411
▁bound	-3412
▁brown	-3413
▁coast	-3414
▁early	-3415
▁facts	-3416
▁haiku	-3417
▁incor	-3418
▁navig	-3419
▁print	-3420
▁sites	-3421
▁teams	-3422
▁third	-3423
▁usage	-3424
areness	-3425
ategory	-3426
ropical	-3427
▁Christ	-3428
▁Intern	-3429
▁Invest	-3430
▁Select	-3431
▁belief	-3432
▁bought	-3433
▁cannot	-3434
▁flight	-3435
▁formul	-3436
▁launch	-3437
▁occurs	-3438
▁really	-3439
▁serves	-3440
▁sounds	-3441
▁stores	-3442
▁switch	-3443
▁weight	-3444
atistics	-3445
larative	-3446
▁Overall	-3447
▁Toothbr	-3448
▁Twitter	-3449
▁appreci	-3450
▁balance	-3451
▁cuisine	-3452
▁diverse	-3453
▁extract	-3454
▁fashion	-3455
▁largest	-3456
▁meeting	-3457
▁outside	-3458
▁pointer	-3459
▁quantum	-3460
▁records	-3461
▁reduced	-3462
▁running	-3463
▁synonym	-3464
▁unknown	-3465
▁walking	-3466
ahrenheit	-3467
▁combines	-3468
▁consumer	-3469
▁demonstr	-3470
▁dialogue	-3471
▁greatest	-3472
▁headline	-3473
▁numerous	-3474
▁password	-3475
▁presence	-3476
▁valuable	-3477
▁violence	-3478
▁websites	-3479
▁Increased	-3480
▁advantage	-3481
▁analytics	-3482
▁compounds	-3483
▁factorial	-3484
▁practices	-3485
▁accessible	-3486
▁comparison	-3487
▁friendship	-3488
▁industries	-3489
▁meaningful	-3490
▁metabolism	-3491
▁predictive	-3492
▁protection	-3493
▁throughout	-3494
▁advertising	-3495
▁communicate	-3496
▁consumption	-3497
▁organization	-3498
▁concentration	-3499
▁conversations	-3500
▁deforestation	-3501
//	-3502
bo	-3503
cy	-3504
hy	-3505
na	-3506
rm	-3507
ye	-3508
yl	-3509
▁}	-3510
alt	-3511
gel	-3512
gin	-3513
ilt	-3514
itc	-3515
izz	-3516
loc	-3517
niv	-3518
ops	-3519
ork	-3520
osh	-3521
pow	-3522
pre	-3523
▁Af	-3524
▁Ag	-3525
▁Bl	-3526
▁ju	-3527
▁ta	-3528
▁wr	-3529
ains	-3530
arah	-3531
aste	-3532
book	-3533
cery	-3534
cons	-3535
erse	-3536
eter	-3537
ffer	-3538
inct	-3539
ised	-3540
ises	-3541
life	-3542
list	-3543
oday	-3544
ores	-3545
ript	-3546
▁Cal	-3547
▁Day	-3548
▁Her	-3549
▁Mar	-3550
▁Sum	-3551
▁Who	-3552
▁adm	-3553
▁alm	-3554
▁ask	-3555
▁eye	-3556
▁len	-3557
▁lif	-3558
▁pan	-3559
▁vol	-3560
agram	-3561
being	-3562
ented	-3563
etric	-3564
nosis	-3565
orous	-3566
phant	-3567
ptoms	-3568
ronic	-3569
throp	-3570
xture	-3571
xygen	-3572
▁Cont	-3573
▁June	-3574
▁Noin	-3575
▁Plan	-3576
▁Tell	-3577
▁User	-3578
▁appe	-3579
▁atom	-3580
▁cand	-3581
▁dish	-3582
▁eyes	-3583
▁fast	-3584
▁harm	-3585
▁hash	-3586
▁init	-3587
▁isol	-3588
▁lack	-3589
▁laws	-3590
▁milk	-3591
▁musc	-3592
▁narr	-3593
▁near	-3594
▁noun	-3595
▁once	-3596
▁onto	-3597
▁peak	-3598
▁reef	-3599
▁remo	-3600
▁scal	-3601
▁sect	-3602
▁sens	-3603
▁shar	-3604
▁surr	-3605
▁wood	-3606
Health	-3607
ensity	-3608
namics	-3609
string	-3610
tering	-3611
▁Afric	-3612
▁Angel	-3613
▁Inter	-3614
▁Paris	-3615
▁Serve	-3616
▁Topic	-3617
▁World	-3618
▁birth	-3619
▁bread	-3620
▁brief	-3621
▁cream	-3622
▁fatig	-3623
▁gives	-3624
▁heard	-3625
▁laugh	-3626
▁leads	-3627
▁nucle	-3628
▁polar	-3629
▁regul	-3630
▁resil	-3631
▁shape	-3632
▁style	-3633
▁sugar	-3634
▁thick	-3635
▁treas	-3636
▁vitam	-3637
faction	-3638
powered	-3639
▁Orange	-3640
▁apples	-3641
▁begins	-3642
▁bridge	-3643
▁career	-3644
▁celebr	-3645
▁choose	-3646
▁compre	-3647
▁course	-3648
▁deaths	-3649
▁digest	-3650
▁electr	-3651
▁emails	-3652
▁fought	-3653
▁gather	-3654
▁gentle	-3655
▁handle	-3656
▁hidden	-3657
▁invent	-3658
▁ledger	-3659
▁master	-3660
▁passed	-3661
▁places	-3662
▁remote	-3663
▁select	-3664
▁shared	-3665
▁slowly	-3666
▁snacks	-3667
▁strugg	-3668
ainstorm	-3669
atically	-3670
chooling	-3671
elligent	-3672
ferences	-3673
ployment	-3674
rogative	-3675
▁Germany	-3676
▁Natural	-3677
▁Noinput	-3678
▁Outline	-3679
▁anxiety	-3680
▁benefit	-3681
▁capture	-3682
▁classic	-3683
▁enables	-3684
▁evening	-3685
▁excited	-3686
▁formula	-3687
▁getting	-3688
▁install	-3689
▁labeled	-3690
▁loyalty	-3691
▁mixture	-3692
▁outcome	-3693
▁receive	-3694
▁sharing	-3695
▁vehicle	-3696
▁whether	-3697
abilities	-3698
atography	-3699
effective	-3700
ibilities	-3701
▁Although	-3702
▁Confeder	-3703
▁attitude	-3704
▁conflict	-3705
▁cultures	-3706
▁darkness	-3707
▁discount	-3708
▁engineer	-3709
▁expenses	-3710
▁location	-3711
▁mistakes	-3712
▁planning	-3713
▁projects	-3714
▁smoothie	-3715
▁standard	-3716
▁training	-3717
▁Character	-3718
▁Translate	-3719
▁assistant	-3720
▁attention	-3721
▁carefully	-3722
▁community	-3723
▁dangerous	-3724
▁discusses	-3725
▁evolution	-3726
▁happiness	-3727
▁inspiring	-3728
▁treatment	-3729
▁Toothbrush	-3730
▁describing	-3731
▁historical	-3732
▁combination	-3733
▁comfortable	-3734
▁potentially	-3735
▁protagonist	-3736
▁conservation	-3737
▁satisfaction	-3738
▁unsupervised	-3739
▁determination	-3740
%.	-3741
?"	-3742
ER	-3743
LE	-3744
SS	-3745
af	-3746
ec	-3747
ov	-3748
sy	-3749
Com	-3750
asm	-3751
bra	-3752
ein	-3753
erg	-3754
fer	-3755
ief	-3756
igs	-3757
ior	-3758
kes	-3759
lst	-3760
ols	-3761
pes	-3762
ule	-3763
ume	-3764
▁Hy	-3765
▁Po	-3766
Name	-3767
abel	-3768
aily	-3769
anch	-3770
burg	-3771
chan	-3772
edom	-3773
erem	-3774
fast	-3775
ians	-3776
icip	-3777
icro	-3778
iday	-3779
iger	-3780
isco	-3781
iter	-3782
ocks	-3783
onav	-3784
reet	-3785
rial	-3786
ried	-3787
rote	-3788
umin	-3789
▁Ass	-3790
▁Bar	-3791
▁Cub	-3792
▁Cut	-3793
▁Gun	-3794
▁Ing	-3795
▁Los	-3796
▁Mid	-3797
▁Ret	-3798
▁Sun	-3799
▁Web	-3800
▁die	-3801
▁hor	-3802
▁kid	-3803
▁lat	-3804
▁lot	-3805
▁spr	-3806
▁tag	-3807
▁vib	-3808
alian	-3809
asant	-3810
ators	-3811
berry	-3812
ceans	-3813
force	-3814
itate	-3815
lease	-3816
lower	-3817
minor	-3818
pping	-3819
ready	-3820
reeze	-3821
rents	-3822
times	-3823
ufact	-3824
water	-3825
worth	-3826
▁Amaz	-3827
▁Disc	-3828
▁Heat	-3829
▁High	-3830
▁July	-3831
▁Soft	-3832
▁Some	-3833
▁That	-3834
▁acid	-3835
▁bags	-3836
▁bark	-3837
▁cast	-3838
▁dogs	-3839
▁edge	-3840
▁enab	-3841
▁fail	-3842
▁gard	-3843
▁glob	-3844
▁grad	-3845
▁half	-3846
▁inqu	-3847
▁libr	-3848
▁prec	-3849
▁prom	-3850
▁qual	-3851
▁rely	-3852
▁reve	-3853
▁sequ	-3854
▁shad	-3855
▁shop	-3856
▁soil	-3857
▁spin	-3858
▁spir	-3859
▁subt	-3860
▁tail	-3861
▁unex	-3862
▁vers	-3863
▁yoga	-3864
driven	-3865
iation	-3866
insert	-3867
iously	-3868
ipment	-3869
itions	-3870
lation	-3871
pected	-3872
phabet	-3873
preced	-3874
solute	-3875
ultant	-3876
urance	-3877
vision	-3878
▁Adele	-3879
▁Break	-3880
▁Civil	-3881
▁Creat	-3882
▁Sarah	-3883
▁Smart	-3884
▁Smith	-3885
▁Today	-3886
▁Under	-3887
▁Union	-3888
▁alien	-3889
▁board	-3890
▁cerem	-3891
▁click	-3892
▁daily	-3893
▁drast	-3894
▁expos	-3895
▁files	-3896
▁flour	-3897
▁games	-3898
▁grade	-3899
▁graph	-3900
▁idiom	-3901
▁imper	-3902
▁limit	-3903
▁membr	-3904
▁piece	-3905
▁pivot	-3906
▁query	-3907
▁restr	-3908
▁score	-3909
▁separ	-3910
▁theft	-3911
▁thing	-3912
▁visit	-3913
▁width	-3914
▁wrong	-3915
anation	-3916
artment	-3917
berries	-3918
ivation	-3919
onomous	-3920
ruption	-3921
ulation	-3922
usiness	-3923
valuate	-3924
▁Second	-3925
▁afford	-3926
▁became	-3927
▁belong	-3928
▁cheese	-3929
▁client	-3930
▁crisis	-3931
▁entire	-3932
▁inputs	-3933
▁island	-3934
▁labels	-3935
▁leaves	-3936
▁longer	-3937
▁mechan	-3938
▁median	-3939
▁meters	-3940
▁months	-3941
▁office	-3942
▁opened	-3943
▁orders	-3944
▁oxygen	-3945
▁pieces	-3946
▁remove	-3947
▁scheme	-3948
▁series	-3949
▁slices	-3950
▁stocks	-3951
▁storms	-3952
▁summar	-3953
▁themes	-3954
▁wonder	-3955
fficient	-3956
onavirus	-3957
ountered	-3958
▁Angeles	-3959
▁Italian	-3960
▁Predict	-3961
▁Process	-3962
▁Propose	-3963
▁advance	-3964
▁already	-3965
▁aspects	-3966
▁causing	-3967
▁century	-3968
▁chopped	-3969
▁chronic	-3970
▁conveys	-3971
▁cycling	-3972
▁deliver	-3973
▁disease	-3974
▁display	-3975
▁divided	-3976
▁enabled	-3977
▁enjoyed	-3978
▁environ	-3979
▁finding	-3980
▁firearm	-3981
▁grocery	-3982
▁helpful	-3983
▁holiday	-3984
▁illustr	-3985
▁insight	-3986
▁involve	-3987
▁justice	-3988
▁logical	-3989
▁million	-3990
▁noticed	-3991
▁outline	-3992
▁peppers	-3993
▁philoso	-3994
▁possess	-3995
▁prepare	-3996
▁profile	-3997
▁readers	-3998
▁reality	-3999
▁returns	-4000
▁smaller	-4001
▁solving	-4002
▁trained	-4003
▁virtual	-4004
▁Category	-4005
▁Examples	-4006
▁absolute	-4007
▁believes	-4008
▁bringing	-4009
▁continue	-4010
▁critical	-4011
▁descript	-4012
▁discover	-4013
▁enabling	-4014
▁examples	-4015
▁expected	-4016
▁forecast	-4017
▁habitats	-4018
▁inspired	-4019
▁instance	-4020
▁manufact	-4021
▁movement	-4022
▁peaceful	-4023
▁perspect	-4024
▁robotics	-4025
▁suggests	-4026
▁synonyms	-4027
▁treasure	-4028
▁variable	-4029
▁vitamins	-4030
▁watching	-4031
▁wildlife	-4032
employment	-4033
▁---------	-4034
▁Education	-4035
▁Implement	-4036
▁awareness	-4037
▁beginning	-4038
▁completed	-4039
▁conducted	-4040
▁creatures	-4041
▁diagnosis	-4042
▁experienc	-4043
▁frequency	-4044
▁interpret	-4045
▁languages	-4046
▁organisms	-4047
▁organized	-4048
precedented	-4049
▁Brainstorm	-4050
▁additional	-4051
▁adjectives	-4052
▁consistent	-4053
▁containing	-4054
▁determined	-4055
▁emphasizes	-4056
▁incentives	-4057
▁operations	-4058
▁productive	-4059
▁scientists	-4060
▁unexpected	-4061
▁Confederate	-4062
▁Ingredients	-4063
▁competition	-4064
▁drastically	-4065
▁effectively	-4066
▁encountered	-4067
▁explanation	-4068
▁generations	-4069
▁environments	-4070
▁mathematical	-4071
▁particularly	-4072
▁grammatically	-4073
▁possibilities	-4074
▁representation	-4075
▁recommendations	-4076
""	-4077
))	-4078
LP	-4079
bs	-4080
ha	-4081
hi	-4082
ky	-4083
zz	-4084
://	-4085
Med	-4086
aff	-4087
ann	-4088
apo	-4089
asp	-4090
got	-4091
hel	-4092
ket	-4093
ley	-4094
mun	-4095
off	-4096
pec	-4097
pir	-4098
ror	-4099
rug	-4100
sue	-4101
tys	-4102
ued	-4103
unt	-4104
▁CO	-4105
▁El	-4106
▁Gu	-4107
▁La	-4108
▁es	-4109
Care	-4110
ares	-4111
asse	-4112
bing	-4113
bits	-4114
chit	-4115
ctic	-4116
dule	-4117
edia	-4118
enty	-4119
grad	-4120
hold	-4121
made	-4122
mber	-4123
olly	-4124
ongo	-4125
oost	-4126
orus	-4127
pril	-4128
rets	-4129
rown	-4130
tegr	-4131
ttps	-4132
umns	-4133
uses	-4134
▁"""	-4135
▁Bob	-4136
▁CSS	-4137
▁Sec	-4138
▁Sub	-4139
▁Whe	-4140
▁ado	-4141
▁ann	-4142
▁asc	-4143
▁ath	-4144
▁bad	-4145
▁ban	-4146
▁cin	-4147
▁dom	-4148
▁fle	-4149
▁fly	-4150
▁fro	-4151
▁got	-4152
▁gun	-4153
▁jud	-4154
▁lon	-4155
▁lst	-4156
▁mal	-4157
▁mel	-4158
▁pet	-4159
▁rhy	-4160
▁sty	-4161
▁tom	-4162
▁vac	-4163
▁wat	-4164
cking	-4165
eless	-4166
ester	-4167
found	-4168
gical	-4169
iforn	-4170
inese	-4171
inger	-4172
lined	-4173
loved	-4174
merce	-4175
ondon	-4176
poses	-4177
rency	-4178
rogen	-4179
ucose	-4180
▁Alex	-4181
▁Cash	-4182
▁Cats	-4183
▁Each	-4184
▁Face	-4185
▁Five	-4186
▁Form	-4187
▁Good	-4188
▁Gree	-4189
▁Miss	-4190
▁None	-4191
▁Phil	-4192
▁Tour	-4193
▁Viet	-4194
▁Will	-4195
▁Writ	-4196
▁bats	-4197
▁burn	-4198
▁case	-4199
▁clus	-4200
▁cool	-4201
▁cube	-4202
▁defe	-4203
▁fill	-4204
▁huge	-4205
▁imag	-4206
▁join	-4207
▁jump	-4208
▁knew	-4209
▁math	-4210
▁mood	-4211
▁mund	-4212
▁prem	-4213
▁song	-4214
▁spot	-4215
▁surv	-4216
▁susp	-4217
▁tend	-4218
▁tens	-4219
▁thus	-4220
▁vast	-4221
ananas	-4222
estyle	-4223
giving	-4224
ilored	-4225
lished	-4226
riment	-4227
tation	-4228
unning	-4229
ushing	-4230
▁Covid	-4231
▁Input	-4232
▁Micro	-4233
▁Offer	-4234
▁Other	-4235
▁Pongo	-4236
▁above	-4237
▁audio	-4238
▁brain	-4239
▁built	-4240
▁carry	-4241
▁catch	-4242
▁coral	-4243
▁court	-4244
▁diced	-4245
▁drive	-4246
▁funny	-4247
▁grace	-4248
▁guide	-4249
▁hands	-4250
▁leave	-4251
▁links	-4252
▁loved	-4253
▁loves	-4254
▁manip	-4255
▁moral	-4256
▁moves	-4257
▁paths	-4258
▁phase	-4259
▁prote	-4260
▁punct	-4261
▁react	-4262
▁relig	-4263
▁scale	-4264
▁sharp	-4265
▁snack	-4266
▁spark	-4267
▁stead	-4268
▁surve	-4269
▁video	-4270
▁walks	-4271
▁wants	-4272
▁wrote	-4273
gorithm	-4274
hensive	-4275
ifornia	-4276
riendly	-4277
ruction	-4278
tenance	-4279
tysburg	-4280
▁Africa	-4281
▁Amazon	-4282
▁Answer	-4283
▁Arctic	-4284
▁Banana	-4285
▁Employ	-4286
▁Gather	-4287
▁Indian	-4288
▁Insert	-4289
▁London	-4290
▁Online	-4291
▁Remove	-4292
▁breaks	-4293
▁breeze	-4294
▁coming	-4295
▁degree	-4296
▁detail	-4297
▁divide	-4298
▁dreams	-4299
▁drinks	-4300
▁driver	-4301
▁enough	-4302
▁expert	-4303
▁facial	-4304
▁friend	-4305
▁helped	-4306
▁inside	-4307
▁itself	-4308
▁latest	-4309
▁looked	-4310
▁motion	-4311
▁museum	-4312
▁oceans	-4313
▁plenty	-4314
▁police	-4315
▁powder	-4316
▁pursue	-4317
▁regard	-4318
▁respir	-4319
▁rights	-4320
▁scenar	-4321
▁seemed	-4322
▁served	-4323
▁slogan	-4324
▁spirit	-4325
▁spring	-4326
▁struct	-4327
▁unable	-4328
rimental	-4329
romantic	-4330
standing	-4331
vantages	-4332
▁British	-4333
▁Charles	-4334
▁Chinese	-4335
▁Compute	-4336
▁Prepare	-4337
▁Vietnam	-4338
▁actions	-4339
▁allowed	-4340
▁amazing	-4341
▁ancient	-4342
▁beliefs	-4343
▁beloved	-4344
▁boiling	-4345
▁central	-4346
▁coastal	-4347
▁college	-4348
▁command	-4349
▁confirm	-4350
▁convert	-4351
▁fatigue	-4352
▁finally	-4353
▁forever	-4354
▁freedom	-4355
▁general	-4356
▁glucose	-4357
▁infrast	-4358
▁keyword	-4359
▁liberal	-4360
▁managed	-4361
▁manager	-4362
▁mundane	-4363
▁painter	-4364
▁parents	-4365
▁passing	-4366
▁preserv	-4367
▁rapidly	-4368
▁reached	-4369
▁recycle	-4370
▁shadows	-4371
▁shining	-4372
▁sorting	-4373
▁speaker	-4374
▁strange	-4375
▁stretch	-4376
▁winding	-4377
▁Business	-4378
▁Collabor	-4379
▁European	-4380
▁Evaluate	-4381
▁Everyone	-4382
▁Improved	-4383
▁Increase	-4384
▁ceremony	-4385
▁combined	-4386
▁commonly	-4387
▁datasets	-4388
▁detailed	-4389
▁distance	-4390
▁distinct	-4391
▁explicit	-4392
▁exposure	-4393
▁finished	-4394
▁informed	-4395
▁inviting	-4396
▁maximize	-4397
▁membrane	-4398
▁messages	-4399
▁particip	-4400
▁position	-4401
▁sequence	-4402
▁speaking	-4403
▁spelling	-4404
▁symptoms	-4405
▁tailored	-4406
▁tomorrow	-4407
▁universe	-4408
▁Algorithm	-4409
▁Transform	-4410
▁applicant	-4411
▁condition	-4412
▁container	-4413
▁direction	-4414
▁discounts	-4415
▁documents	-4416
▁encourage	-4417
▁investing	-4418
▁launching	-4419
▁motivated	-4420
▁mountains	-4421
▁rectangle	-4422
▁regularly	-4423
▁technical	-4424
▁variables	-4425
▁Automation	-4426
▁California	-4427
▁Fahrenheit	-4428
▁Gettysburg	-4429
▁commitment	-4430
▁conclusion	-4431
▁connecting	-4432
▁consultant	-4433
▁contribute	-4434
▁properties	-4435
▁protecting	-4436
▁resilience	-4437
▁supervised	-4438
▁alternative	-4439
▁backgrounds	-4440
▁declarative	-4441
▁destruction	-4442
▁efficiently	-4443
▁exploration	-4444
▁independent	-4445
▁intelligent	-4446
▁maintenance	-4447
▁preferences	-4448
▁recognizing	-4449
▁scalability	-4450
▁Introduction	-4451
▁unemployment	-4452
▁manufacturing	-4453
▁significantly	-4454
▁unprecedented	-4455
▁chromatography	-4456
▁infrastructure	-4457
▁representative	-4458
▁sustainability	-4459
AN	-4460
ED	-4461
ae	-4462
ka	-4463
ma	-4464
mo	-4465
oT	-4466
▁>	-4467
aks	-4468
ama	-4469
asy	-4470
bye	-4471
cks	-4472
geh	-4473
isy	-4474
kit	-4475
lot	-4476
mel	-4477
mon	-4478
nic	-4479
ogs	-4480
oub	-4481
pot	-4482
rep	-4483
rie	-4484
rol	-4485
urs	-4486
▁Da	-4487
▁Je	-4488
▁Me	-4489
▁Sw	-4490
▁Up	-4491
▁cy	-4492
▁ly	-4493
▁pu	-4494
aker	-4495
aled	-4496
alty	-4497
char	-4498
erce	-4499
fall	-4500
ield	-4501
illa	-4502
inst	-4503
lean	-4504
msel	-4505
node	-4506
ocab	-4507
odes	-4508
omen	-4509
onds	-4510
onym	-4511
orph	-4512
page	-4513
petr	-4514
pper	-4515
raft	-4516
rely	-4517
rene	-4518
soft	-4519
ulpt	-4520
▁Bel	-4521
▁CNN	-4522
▁Dif	-4523
▁Fru	-4524
▁God	-4525
▁Key	-4526
▁Mus	-4527
▁Net	-4528
▁Oct	-4529
▁Rye	-4530
▁Vin	-4531
▁bit	-4532
▁den	-4533
▁dro	-4534
▁flu	-4535
▁fur	-4536
▁hit	-4537
▁hop	-4538
▁inj	-4539
▁mph	-4540
▁psy	-4541
▁pul	-4542
▁tru	-4543
▁wit	-4544
allow	-4545
apole	-4546
arily	-4547
ashed	-4548
avors	-4549
bered	-4550
cover	-4551
enery	-4552
eries	-4553
going	-4554
iased	-4555
icial	-4556
iding	-4557
illet	-4558
inate	-4559
ioxid	-4560
iries	-4561
ister	-4562
itary	-4563
lands	-4564
nthes	-4565
oices	-4566
ollow	-4567
organ	-4568
orted	-4569
oshop	-4570
risis	-4571
rmody	-4572
rooms	-4573
uated	-4574
umber	-4575
under	-4576
uries	-4577
urric	-4578
verty	-4579
write	-4580
▁City	-4581
▁Conc	-4582
▁Cons	-4583
▁Fred	-4584
▁Hist	-4585
▁Last	-4586
▁Mary	-4587
▁Pick	-4588
▁Pigs	-4589
▁Self	-4590
▁True	-4591
▁Util	-4592
▁answ	-4593
▁arms	-4594
▁biod	-4595
▁cash	-4596
▁cows	-4597
▁doll	-4598
▁earl	-4599
▁fict	-4600
▁gall	-4601
▁host	-4602
▁joke	-4603
▁kept	-4604
▁loud	-4605
▁neut	-4606
▁oven	-4607
▁prob	-4608
▁repe	-4609
▁rich	-4610
▁ride	-4611
▁sand	-4612
▁sets	-4613
▁skin	-4614
▁spam	-4615
▁star	-4616
▁stim	-4617
▁tags	-4618
▁took	-4619
▁vict	-4620
abetes	-4621
ashing	-4622
asters	-4623
cember	-4624
coming	-4625
elcome	-4626
encies	-4627
ensive	-4628
ffects	-4629
iances	-4630
ighter	-4631
ipping	-4632
ishing	-4633
itchen	-4634
lights	-4635
mother	-4636
person	-4637
undant	-4638
▁Begin	-4639
▁Bring	-4640
▁Enjoy	-4641
▁Green	-4642
▁Major	-4643
▁Media	-4644
▁River	-4645
▁Sleep	-4646
▁Thank	-4647
▁Which	-4648
▁brand	-4649
▁chart	-4650
▁decor	-4651
▁dress	-4652
▁exerc	-4653
▁foods	-4654
▁fully	-4655
▁globe	-4656
▁heavy	-4657
▁lands	-4658
▁lonel	-4659
▁photo	-4660
▁pitch	-4661
▁pursu	-4662
▁quote	-4663
▁rates	-4664
▁reefs	-4665
▁refer	-4666
▁route	-4667
▁saves	-4668
▁scene	-4669
▁seeds	-4670
▁serve	-4671
▁skill	-4672
▁slope	-4673
▁spect	-4674
▁super	-4675
▁surpr	-4676
▁taste	-4677
▁teeth	-4678
▁texts	-4679
▁touch	-4680
▁trade	-4681
▁turns	-4682
▁valid	-4683
▁waves	-4684
▁whole	-4685
▁wider	-4686
▁wings	-4687
commend	-4688
ersonal	-4689
ivalent	-4690
ivating	-4691
ketball	-4692
mselves	-4693
raction	-4694
related	-4695
ropower	-4696
uration	-4697
vention	-4698
▁Choose	-4699
▁Humans	-4700
▁Napole	-4701
▁Networ	-4702
▁Please	-4703
▁Potter	-4704
▁Thanks	-4705
▁Trends	-4706
▁adding	-4707
▁anyone	-4708
▁assess	-4709
▁athlet	-4710
▁attend	-4711
▁attrib	-4712
▁breath	-4713
▁cancer	-4714
▁candid	-4715
▁closer	-4716
▁coding	-4717
▁concer	-4718
▁conven	-4719
▁conver	-4720
▁decide	-4721
▁define	-4722
▁depend	-4723
▁devast	-4724
▁exceed	-4725
▁forced	-4726
▁format	-4727
▁groups	-4728
▁loving	-4729
▁marine	-4730
▁memory	-4731
▁nation	-4732
▁proced	-4733
▁rivers	-4734
▁saving	-4735
▁sculpt	-4736
▁silver	-4737
▁stream	-4738
▁suited	-4739
▁torque	-4740
▁vision	-4741
▁walked	-4742
centered	-4743
friendly	-4744
igration	-4745
roducing	-4746
▁Catcher	-4747
▁Climate	-4748
▁Effects	-4749
▁Example	-4750
▁October	-4751
▁Sustain	-4752
▁appears	-4753
▁applied	-4754
▁cooking	-4755
▁creates	-4756
▁delight	-4757
▁discard	-4758
▁drivers	-4759
▁enhance	-4760
▁finance	-4761
▁harmony	-4762
▁herself	-4763
▁learned	-4764
▁massive	-4765
▁monthly	-4766
▁nothing	-4767
▁perpetr	-4768
▁physics	-4769
▁reports	-4770
▁request	-4771
▁reverse	-4772
▁secrets	-4773
▁selling	-4774
▁skillet	-4775
▁staying	-4776
▁stopped	-4777
▁strings	-4778
▁survive	-4779
▁threats	-4780
▁toolkit	-4781
▁turning	-4782
▁vibrant	-4783
▁viewers	-4784
renewable	-4785
▁Economic	-4786
▁Exercise	-4787
▁Facebook	-4788
▁Internet	-4789
▁Mountain	-4790
▁advanced	-4791
▁alphabet	-4792
▁antioxid	-4793
▁anywhere	-4794
▁balanced	-4795
▁birthday	-4796
▁cleaning	-4797
▁clothing	-4798
▁compared	-4799
▁concentr	-4800
▁concepts	-4801
▁constant	-4802
▁designer	-4803
▁families	-4804
▁friendly	-4805
▁happened	-4806
▁hardware	-4807
▁internal	-4808
▁motivate	-4809
▁offering	-4810
▁pleasant	-4811
▁produces	-4812
▁property	-4813
▁purposes	-4814
▁reliance	-4815
▁reminder	-4816
▁reported	-4817
▁scenario	-4818
▁societal	-4819
▁tropical	-4820
▁utilizes	-4821
▁watermel	-4822
ascinating	-4823
▁Formulate	-4824
▁Microsoft	-4825
▁breakfast	-4826
▁decreased	-4827
▁decreases	-4828
▁developed	-4829
▁discovers	-4830
▁engineers	-4831
▁equipment	-4832
▁exploring	-4833
▁fictional	-4834
▁illnesses	-4835
▁inquiries	-4836
▁involving	-4837
▁lifestyle	-4838
▁measuring	-4839
▁objective	-4840
▁philosoph	-4841
▁responses	-4842
▁standards	-4843
▁utilizing	-4844
rmodynamics	-4845
vironmental	-4846
▁----------	-4847
▁Conclusion	-4848
▁Processing	-4849
▁Statistics	-4850
▁automation	-4851
▁autonomous	-4852
▁background	-4853
▁classified	-4854
▁complexity	-4855
▁connection	-4856
▁continuous	-4857
▁creativity	-4858
▁dedication	-4859
▁developers	-4860
▁equivalent	-4861
▁loneliness	-4862
▁navigation	-4863
▁predicting	-4864
▁regression	-4865
▁relaxation	-4866
▁resolution	-4867
▁structures	-4868
▁television	-4869
▁themselves	-4870
▁vegetarian	-4871
▁visibility	-4872
▁connections	-4873
▁coronavirus	-4874
▁detrimental	-4875
▁mathematics	-4876
▁punctuation	-4877
▁regulations	-4878
▁Instructions	-4879
▁appreciation	-4880
▁biodiversity	-4881
▁capabilities	-4882
▁construction	-4883
▁entertaining	-4884
▁expectations	-4885
▁implementing	-4886
▁introduction	-4887
▁optimization	-4888
▁presentation	-4889
▁automatically	-4890
▁comprehensive	-4891
▁entertainment	-4892
▁implementation	-4893
':	-4894
Ad	-4895
CT	-4896
Ch	-4897
DP	-4898
De	-4899
En	-4900
ID	-4901
It	-4902
PI	-4903
Ph	-4904
SA	-4905
Sh	-4906
ev	-4907
la	-4908
lf	-4909
lt	-4910
pa	-4911
)):	-4912
ANs	-4913
VID	-4914
acc	-4915
ado	-4916
ami	-4917
ask	-4918
ato	-4919
aws	-4920
ays	-4921
aze	-4922
cce	-4923
col	-4924
edy	-4925
erb	-4926
ero	-4927
fts	-4928
hol	-4929
ica	-4930
isa	-4931
itt	-4932
jun	-4933
lam	-4934
net	-4935
ocs	-4936
olf	-4937
pan	-4938
sor	-4939
tic	-4940
ulf	-4941
xis	-4942
ycl	-4943
yon	-4944
▁AB	-4945
▁CA	-4946
▁Er	-4947
▁Ge	-4948
▁Li	-4949
▁Sy	-4950
▁da	-4951
▁fo	-4952
▁ol	-4953
▁ur	-4954
adec	-4955
adow	-4956
airs	-4957
appy	-4958
athe	-4959
bine	-4960
ects	-4961
ello	-4962
gent	-4963
gram	-4964
havi	-4965
ibly	-4966
iest	-4967
iles	-4968
ione	-4969
ipes	-4970
izza	-4971
left	-4972
ocon	-4973
olar	-4974
onna	-4975
orge	-4976
osen	-4977
ostr	-4978
ouds	-4979
over	-4980
quer	-4981
raud	-4982
rots	-4983
stal	-4984
ston	-4985
ught	-4986
ulus	-4987
uous	-4988
ured	-4989
vere	-4990
▁API	-4991
▁Aim	-4992
▁Are	-4993
▁Del	-4994
▁Did	-4995
▁Enc	-4996
▁End	-4997
▁Gal	-4998
▁Ide	-4999
▁Inf	-5000
▁Lit	-5001
▁Loc	-5002
▁Max	-5003
▁Met	-5004
▁Per	-5005
▁Vis	-5006
▁ads	-5007
▁ang	-5008
▁arm	-5009
▁bot	-5010
▁cre	-5011
▁esc	-5012
▁fem	-5013
▁fox	-5014
▁hex	-5015
▁men	-5016
▁mes	-5017
▁mir	-5018
▁mur	-5019
▁pal	-5020
▁put	-5021
▁sad	-5022
▁thr	-5023
▁unb	-5024
▁vul	-5025
aming	-5026
anged	-5027
anies	-5028
asion	-5029
asite	-5030
asive	-5031
asses	-5032
athol	-5033
cceed	-5034
estor	-5035
eters	-5036
ethod	-5037
fered	-5038
gehog	-5039
hesis	-5040
icies	-5041
icing	-5042
igate	-5043
ighth	-5044
input	-5045
mates	-5046
namon	-5047
ocker	-5048
ology	-5049
osity	-5050
stery	-5051
storm	-5052
ushed	-5053
▁Bird	-5054
▁Docs	-5055
▁Fire	-5056
▁Gand	-5057
▁Here	-5058
▁Life	-5059
▁Lisa	-5060
▁Look	-5061
▁Lord	-5062
▁Main	-5063
▁Mart	-5064
▁Part	-5065
▁Read	-5066
▁Risk	-5067
▁Stir	-5068
▁Word	-5069
▁alle	-5070
▁apps	-5071
▁bank	-5072
▁boat	-5073
▁bold	-5074
▁dead	-5075
▁drug	-5076
▁enth	-5077
▁evil	-5078
▁exch	-5079
▁feet	-5080
▁film	-5081
▁flew	-5082
▁held	-5083
▁jobs	-5084
▁kids	-5085
▁mamm	-5086
▁meal	-5087
▁ment	-5088
▁nerv	-5089
▁nuts	-5090
▁pace	-5091
▁plot	-5092
▁poor	-5093
▁prep	-5094
▁prey	-5095
▁pron	-5096
▁puzz	-5097
▁rule	-5098
▁stro	-5099
▁tack	-5100
▁teen	-5101
▁tick	-5102
▁tone	-5103
▁vill	-5104
▁wall	-5105
▁wine	-5106
anches	-5107
ansion	-5108
antasy	-5109
atever	-5110
ceries	-5111
equate	-5112
ercase	-5113
ferent	-5114
health	-5115
icides	-5116
imeter	-5117
irable	-5118
ocking	-5119
oconut	-5120
overed	-5121
phones	-5122
quatic	-5123
ricult	-5124
romote	-5125
saving	-5126
warded	-5127
▁Alexa	-5128
▁April	-5129
▁COVID	-5130
▁Cuban	-5131
▁Daisy	-5132
▁Einst	-5133
▁Flash	-5134
▁Giant	-5135
▁Holly	-5136
▁Julia	-5137
▁Langu	-5138
▁Onion	-5139
▁Place	-5140
▁Polit	-5141
▁Pract	-5142
▁Since	-5143
▁Track	-5144
▁While	-5145
▁Woman	-5146
▁adult	-5147
▁agree	-5148
▁alloc	-5149
▁aware	-5150
▁beach	-5151
▁blood	-5152
▁boost	-5153
▁diets	-5154
▁doing	-5155
▁embra	-5156
▁exact	-5157
▁extin	-5158
▁facil	-5159
▁false	-5160
▁floor	-5161
▁frame	-5162
▁fraud	-5163
▁genre	-5164
▁hyper	-5165
▁ideal	-5166
▁initi	-5167
▁later	-5168
▁meals	-5169
▁noise	-5170
▁olive	-5171
▁outdo	-5172
▁parks	-5173
▁partn	-5174
▁pizza	-5175
▁ready	-5176
▁rhyme	-5177
▁shows	-5178
▁sight	-5179
▁signs	-5180
▁simpl	-5181
▁smile	-5182
▁spent	-5183
▁stage	-5184
▁taxes	-5185
▁tells	-5186
▁tests	-5187
▁tired	-5188
▁vegan	-5189
▁views	-5190
▁vocab	-5191
▁wildf	-5192
▁winds	-5193
▁worry	-5194
aerobic	-5195
angered	-5196
fulness	-5197
iolence	-5198
itement	-5199
nthesis	-5200
ometric	-5201
strasse	-5202
uations	-5203
▁Behavi	-5204
▁Cathol	-5205
▁Chorus	-5206
▁Coffee	-5207
▁Commun	-5208
▁Crisis	-5209
▁Eating	-5210
▁Follow	-5211
▁Future	-5212
▁Neural	-5213
▁Number	-5214
▁Return	-5215
▁Robots	-5216
▁Spring	-5217
▁Summer	-5218
▁Taking	-5219
▁Update	-5220
▁Whales	-5221
▁almost	-5222
▁approx	-5223
▁assign	-5224
▁batter	-5225
▁behind	-5226
▁branch	-5227
▁carniv	-5228
▁chairs	-5229
▁charge	-5230
▁chosen	-5231
▁clouds	-5232
▁corner	-5233
▁corres	-5234
▁defeat	-5235
▁depict	-5236
▁depths	-5237
▁eating	-5238
▁ending	-5239
▁flavor	-5240
▁forget	-5241
▁gender	-5242
▁golden	-5243
▁infect	-5244
▁insert	-5245
▁knight	-5246
▁layers	-5247
▁legend	-5248
▁linear	-5249
▁linked	-5250
▁lowest	-5251
▁lyrics	-5252
▁manner	-5253
▁marked	-5254
▁minced	-5255
▁multip	-5256
▁muscle	-5257
▁nearby	-5258
▁orange	-5259
▁parrot	-5260
▁please	-5261
▁profit	-5262
▁radius	-5263
▁relief	-5264
▁retrie	-5265
▁robots	-5266
▁satisf	-5267
▁showed	-5268
▁solved	-5269
▁strive	-5270
▁sunset	-5271
▁supply	-5272
▁tomato	-5273
▁traits	-5274
▁trying	-5275
▁vulner	-5276
▁wanted	-5277
▁worked	-5278
adecimal	-5279
ordinary	-5280
ostratus	-5281
reaching	-5282
volution	-5283
▁Account	-5284
▁Arrange	-5285
▁General	-5286
▁Missile	-5287
▁Reverse	-5288
▁Summary	-5289
▁Writing	-5290
▁adapted	-5291
▁arrived	-5292
▁attacks	-5293
▁attract	-5294
▁biggest	-5295
▁blender	-5296
▁brought	-5297
▁closest	-5298
▁clothes	-5299
▁curious	-5300
▁denomin	-5301
▁details	-5302
▁failure	-5303
▁fairies	-5304
▁flavors	-5305
▁focused	-5306
▁goodbye	-5307
▁infring	-5308
▁keeping	-5309
▁letters	-5310
▁library	-5311
▁minimum	-5312
▁mission	-5313
▁musical	-5314
▁nuclear	-5315
▁offered	-5316
▁payment	-5317
▁penalty	-5318
▁phrases	-5319
▁players	-5320
▁poverty	-5321
▁proverb	-5322
▁ranging	-5323
▁reviews	-5324
▁savings	-5325
▁serious	-5326
▁showing	-5327
▁signals	-5328
▁singing	-5329
▁spinach	-5330
▁spreads	-5331
▁stepped	-5332
▁succeed	-5333
▁talking	-5334
▁texture	-5335
▁thereof	-5336
▁typical	-5337
▁venture	-5338
▁visited	-5339
ictionary	-5340
ustration	-5341
▁Chemical	-5342
▁Creating	-5343
▁Einstein	-5344
▁Employee	-5345
▁Language	-5346
▁Overview	-5347
▁Parasite	-5348
▁Services	-5349
▁Software	-5350
▁accepted	-5351
▁achieved	-5352
▁adequate	-5353
▁agricult	-5354
▁branches	-5355
▁building	-5356
▁cinnamon	-5357
▁communic	-5358
▁creature	-5359
▁decrease	-5360
▁diabetes	-5361
▁disorder	-5362
▁domestic	-5363
▁elephant	-5364
▁emotions	-5365
▁employee	-5366
▁evidence	-5367
▁feelings	-5368
▁flexible	-5369
▁followed	-5370
▁football	-5371
▁geograph	-5372
▁innovate	-5373
▁involved	-5374
▁isolated	-5375
▁newfound	-5376
▁notation	-5377
▁politics	-5378
▁previous	-5379
▁princess	-5380
▁promotes	-5381
▁properly	-5382
▁reaching	-5383
▁received	-5384
▁reflects	-5385
▁requests	-5386
▁required	-5387
▁romantic	-5388
▁rotation	-5389
▁securely	-5390
▁sunlight	-5391
▁teamwork	-5392
▁thoughts	-5393
▁unsorted	-5394
▁username	-5395
artificial	-5396
osynthesis	-5397
▁According	-5398
▁Companies	-5399
▁Photoshop	-5400
▁Recommend	-5401
▁abilities	-5402
▁ascending	-5403
▁automated	-5404
▁behaviors	-5405
▁breathing	-5406
▁combining	-5407
▁copyright	-5408
▁correctly	-5409
▁currently	-5410
▁economics	-5411
▁expensive	-5412
▁gathering	-5413
▁incorrect	-5414
▁integrate	-5415
▁inventory	-5416
▁narrative	-5417
▁otherwise	-5418
▁particles	-5419
▁perimeter	-5420
▁presented	-5421
▁primarily	-5422
▁principle	-5423
▁realistic	-5424
▁societies	-5425
▁stability	-5426
▁wellbeing	-5427
▁wonderful	-5428
▁Definition	-5429
▁absolutely	-5430
▁appliances	-5431
▁approaches	-5432
▁basketball	-5433
▁clustering	-5434
▁compelling	-5435
▁depression	-5436
▁disruption	-5437
▁electrical	-5438
▁endangered	-5439
▁excitement	-5440
▁hydropower	-5441
▁imperative	-5442
▁impressive	-5443
▁incredible	-5444
▁incredibly	-5445
▁industrial	-5446
▁philosophy	-5447
▁prediction	-5448
▁principles	-5449
▁programmed	-5450
▁remembered	-5451
▁silverware	-5452
▁treatments	-5453
▁ultimately	-5454
▁Introducing	-5455
▁Sustainable	-5456
▁captivating	-5457
▁challenging	-5458
▁constructed	-5459
▁controlling	-5460
▁descriptive	-5461
▁destination	-5462
▁devastating	-5463
▁educational	-5464
▁established	-5465
▁experienced	-5466
▁fascinating	-5467
▁governments	-5468
▁hexadecimal	-5469
▁identifying	-5470
▁immediately	-5471
▁interactive	-5472
▁populations	-5473
▁watermelons	-5474
▁Thanksgiving	-5475
▁advancements	-5476
▁antioxidants	-5477
▁Collaboration	-5478
▁characterized	-5479
▁extraordinary	-5480
▁homeschooling	-5481
▁international	-5482
▁revolutionary	-5483
')	-5484
()	-5485
,-	-5486
.,	-5487
AM	-5488
Be	-5489
CP	-5490
Do	-5491
EO	-5492
GB	-5493
OM	-5494
Ob	-5495
Sc	-5496
WS	-5497
])	-5498
ai	-5499
au	-5500
gn	-5501
js	-5502
sp	-5503
zi	-5504
’.	-5505
▁!	-5506
▁%	-5507
▁u	-5508
.),	-5509
ASA	-5510
Bat	-5511
Fry	-5512
IoT	-5513
NLP	-5514
Obj	-5515
ROM	-5516
abb	-5517
ago	-5518
agu	-5519
arc	-5520
ava	-5521
coh	-5522
cup	-5523
des	-5524
dim	-5525
eat	-5526
emb	-5527
ems	-5528
ene	-5529
era	-5530
fly	-5531
fol	-5532
ham	-5533
ims	-5534
ini	-5535
isp	-5536
lit	-5537
lla	-5538
loo	-5539
mit	-5540
nap	-5541
nel	-5542
oli	-5543
omb	-5544
oul	-5545
pie	-5546
rix	-5547
roy	-5548
sts	-5549
uit	-5550
unn	-5551
usi	-5552
www	-5553
▁->	-5554
▁Av	-5555
▁BC	-5556
▁Du	-5557
▁Fe	-5558
▁Ob	-5559
▁Oh	-5560
▁ap	-5561
▁hi	-5562
▁od	-5563
▁wa	-5564
LECT	-5565
Next	-5566
ague	-5567
aiss	-5568
anes	-5569
anut	-5570
berc	-5571
bert	-5572
cape	-5573
dict	-5574
down	-5575
ears	-5576
ened	-5577
eper	-5578
heat	-5579
iche	-5580
icks	-5581
imid	-5582
iner	-5583
ints	-5584
itan	-5585
lesh	-5586
lete	-5587
lets	-5588
load	-5589
lude	-5590
mans	-5591
mark	-5592
mist	-5593
ocur	-5594
oldf	-5595
olve	-5596
orry	-5597
pher	-5598
qObj	-5599
rate	-5600
rime	-5601
ront	-5602
ropy	-5603
serv	-5604
stac	-5605
step	-5606
ulum	-5607
unks	-5608
vice	-5609
west	-5610
year	-5611
▁Ant	-5612
▁Bir	-5613
▁Bra	-5614
▁Bro	-5615
▁CEO	-5616
▁Cum	-5617
▁Eas	-5618
▁Est	-5619
▁Ext	-5620
▁Fal	-5621
▁Gra	-5622
▁III	-5623
▁Jup	-5624
▁Law	-5625
▁Lim	-5626
▁Mov	-5627
▁Pan	-5628
▁Pay	-5629
▁RAM	-5630
▁Rec	-5631
▁San	-5632
▁Spe	-5633
▁TCP	-5634
▁Try	-5635
▁Ult	-5636
▁Var	-5637
▁amb	-5638
▁apo	-5639
▁ast	-5640
▁bub	-5641
▁cop	-5642
▁der	-5643
▁dry	-5644
▁emp	-5645
▁fif	-5646
▁har	-5647
▁hob	-5648
▁iPh	-5649
▁jun	-5650
▁maj	-5651
▁ore	-5652
▁pap	-5653
▁pic	-5654
▁pod	-5655
▁por	-5656
▁pup	-5657
▁rat	-5658
▁rid	-5659
▁sam	-5660
▁six	-5661
▁soy	-5662
▁ted	-5663
▁tro	-5664
▁unf	-5665
▁van	-5666
▁ver	-5667
▁via	-5668
▁vot	-5669
▁www	-5670
acing	-5671
agers	-5672
agiar	-5673
anded	-5674
ander	-5675
arant	-5676
arity	-5677
atell	-5678
books	-5679
break	-5680
ccoli	-5681
cohol	-5682
encil	-5683
entil	-5684
folio	-5685
fraid	-5686
ields	-5687
ilant	-5688
ingly	-5689
ipped	-5690
ivate	-5691
ivism	-5692
obert	-5693
oking	-5694
olved	-5695
orter	-5696
ospit	-5697
phone	-5698
plete	-5699
ratic	-5700
reens	-5701
scale	-5702
tings	-5703
uming	-5704
ushes	-5705
veled	-5706
vered	-5707
words	-5708
▁Bake	-5709
▁Belg	-5710
▁Blue	-5711
▁Both	-5712
▁Cook	-5713
▁Dogs	-5714
▁FROM	-5715
▁Init	-5716
▁Iron	-5717
▁Java	-5718
▁Like	-5719
▁Many	-5720
▁More	-5721
▁NASA	-5722
▁Park	-5723
▁Pers	-5724
▁Pour	-5725
▁Rear	-5726
▁Rome	-5727
▁Ruth	-5728
▁Supp	-5729
▁Test	-5730
▁Verb	-5731
▁YouT	-5732
▁ages	-5733
▁anal	-5734
▁beat	-5735
▁bond	-5736
▁born	-5737
▁bott	-5738
▁caps	-5739
▁club	-5740
▁cogn	-5741
▁decl	-5742
▁didn	-5743
▁dram	-5744
▁exec	-5745
▁feat	-5746
▁file	-5747
▁frag	-5748
▁fram	-5749
▁fulf	-5750
▁goes	-5751
▁hunt	-5752
▁infl	-5753
▁joys	-5754
▁laun	-5755
▁link	-5756
▁loan	-5757
▁lots	-5758
▁luck	-5759
▁mush	-5760
▁nest	-5761
▁nood	-5762
▁ones	-5763
▁pets	-5764
▁pick	-5765
▁pink	-5766
▁poet	-5767
▁pred	-5768
▁prol	-5769
▁reli	-5770
▁resc	-5771
▁rock	-5772
▁sail	-5773
▁soph	-5774
▁stri	-5775
▁suff	-5776
▁terr	-5777
▁trig	-5778
▁wise	-5779
aining	-5780
archer	-5781
assion	-5782
astics	-5783
asting	-5784
cholog	-5785
ederal	-5786
iences	-5787
iented	-5788
ifying	-5789
itudes	-5790
league	-5791
mented	-5792
ogging	-5793
omenon	-5794
omorph	-5795
ourage	-5796
ressed	-5797
roduce	-5798
ronics	-5799
ugging	-5800
▁Allow	-5801
▁Based	-5802
▁Chair	-5803
▁Clean	-5804
▁Cloud	-5805
▁Death	-5806
▁Enter	-5807
▁Franc	-5808
▁Goldf	-5809
▁Harry	-5810
▁Label	-5811
▁Liber	-5812
▁Lower	-5813
▁March	-5814
▁Mount	-5815
▁Plant	-5816
▁Rings	-5817
▁Solar	-5818
▁Sonic	-5819
▁Spend	-5820
▁State	-5821
▁Table	-5822
▁Their	-5823
▁Think	-5824
▁Visit	-5825
▁Where	-5826
▁Words	-5827
▁again	-5828
▁alert	-5829
▁alike	-5830
▁alive	-5831
▁alone	-5832
▁arrow	-5833
▁ballo	-5834
▁balls	-5835
▁blend	-5836
▁bonds	-5837
▁cards	-5838
▁cases	-5839
▁chain	-5840
▁chest	-5841
▁cycle	-5842
▁dance	-5843
▁divis	-5844
▁draws	-5845
▁drove	-5846
▁eight	-5847
▁emerg	-5848
▁espec	-5849
▁fairy	-5850
▁fiber	-5851
▁final	-5852
▁finds	-5853
▁grows	-5854
▁hello	-5855
▁holds	-5856
▁honey	-5857
▁https	-5858
▁hypot	-5859
▁indic	-5860
▁inval	-5861
▁judge	-5862
▁likes	-5863
▁magic	-5864
▁match	-5865
▁miner	-5866
▁names	-5867
▁nodes	-5868
▁parts	-5869
▁plans	-5870
▁recru	-5871
▁reuse	-5872
▁round	-5873
▁salad	-5874
▁seeks	-5875
▁setup	-5876
▁sheet	-5877
▁shoot	-5878
▁sizes	-5879
▁somet	-5880
▁sorry	-5881
▁sport	-5882
▁staff	-5883
▁stake	-5884
▁stuck	-5885
▁sunny	-5886
▁thous	-5887
▁torso	-5888
▁truth	-5889
▁vivid	-5890
▁whisk	-5891
Medical	-5892
anthrop	-5893
arkable	-5894
chitect	-5895
entence	-5896
healthy	-5897
holders	-5898
manship	-5899
natural	-5900
noinput	-5901
numbers	-5902
organic	-5903
ossible	-5904
ounding	-5905
reprene	-5906
▁Albert	-5907
▁Allies	-5908
▁Altern	-5909
▁Center	-5910
▁Define	-5911
▁Docker	-5912
▁Engine	-5913
▁Fruits	-5914
▁Gandhi	-5915
▁Gender	-5916
▁Greece	-5917
▁Holden	-5918
▁Indust	-5919
▁Lastly	-5920
▁Little	-5921
▁Making	-5922
▁Market	-5923
▁Mental	-5924
▁Method	-5925
▁Recent	-5926
▁SELECT	-5927
▁Street	-5928
▁adverb	-5929
▁amazed	-5930
▁attack	-5931
▁authen	-5932
▁backed	-5933
▁barked	-5934
▁blooms	-5935
▁castle	-5936
▁chance	-5937
▁chunks	-5938
▁circum	-5939
▁compos	-5940
▁correl	-5941
▁couldn	-5942
▁crafts	-5943
▁debate	-5944
▁decent	-5945
▁delays	-5946
▁diagno	-5947
▁dishes	-5948
▁divers	-5949
▁dragon	-5950
▁female	-5951
▁finish	-5952
▁garden	-5953
▁ginger	-5954
▁gravit	-5955
▁iPhone	-5956
▁inches	-5957
▁jungle	-5958
▁lighth	-5959
▁losses	-5960
▁manual	-5961
▁matter	-5962
▁mesmer	-5963
▁middle	-5964
▁modify	-5965
▁mostly	-5966
▁mother	-5967
▁murder	-5968
▁native	-5969
▁observ	-5970
▁obstac	-5971
▁option	-5972
▁perman	-5973
▁played	-5974
▁powers	-5975
▁propos	-5976
▁protoc	-5977
▁reform	-5978
▁region	-5979
▁satell	-5980
▁saying	-5981
▁screen	-5982
▁script	-5983
▁seeing	-5984
▁shares	-5985
▁simmer	-5986
▁stands	-5987
▁status	-5988
▁styles	-5989
▁tender	-5990
▁timely	-5991
▁troops	-5992
▁videos	-5993
▁worker	-5994
agiarism	-5995
aissance	-5996
changing	-5997
oriented	-5998
stantive	-5999
▁Another	-6000
▁Bananas	-6001
▁Central	-6002
▁Cumulus	-6003
▁Discuss	-6004
▁Falcons	-6005
▁Install	-6006
▁Jupiter	-6007
▁Mexican	-6008
▁Monitor	-6009
▁Organic	-6010
▁Preheat	-6011
▁Regular	-6012
▁Replace	-6013
▁Stratus	-6014
▁Utilize	-6015
▁Whether	-6016
▁alcohol	-6017
▁anticip	-6018
▁antonym	-6019
▁aquatic	-6020
▁artwork	-6021
▁camping	-6022
▁capable	-6023
▁choices	-6024
▁chromos	-6025
▁clarity	-6026
▁classes	-6027
▁closing	-6028
▁compare	-6029
▁compost	-6030
▁corrupt	-6031
▁covered	-6032
▁crystal	-6033
▁diagram	-6034
▁disrupt	-6035
▁drawing	-6036
▁earthqu	-6037
▁engaged	-6038
▁enthusi	-6039
▁feather	-6040
▁fiction	-6041
▁flowers	-6042
▁foreign	-6043
▁forming	-6044
▁freeing	-6045
▁genetic	-6046
▁gravity	-6047
▁guarant	-6048
▁habitat	-6049
▁immense	-6050
▁inspire	-6051
▁intense	-6052
▁intimid	-6053
▁kitchen	-6054
▁largely	-6055
▁lasting	-6056
▁lengths	-6057
▁lessons	-6058
▁markets	-6059
▁melting	-6060
▁mistake	-6061
▁nervous	-6062
▁noodles	-6063
▁ongoing	-6064
▁parties	-6065
▁planets	-6066
▁podcast	-6067
▁priorit	-6068
▁protein	-6069
▁reaches	-6070
▁reduces	-6071
▁regions	-6072
▁release	-6073
▁robotic	-6074
▁rolling	-6075
▁schools	-6076
▁section	-6077
▁secured	-6078
▁silence	-6079
▁stories	-6080
▁strateg	-6081
▁tedious	-6082
▁trading	-6083
▁uncover	-6084
▁version	-6085
henomenon	-6086
isticated	-6087
junctions	-6088
omorphism	-6089
struction	-6090
ventional	-6091
▁Computer	-6092
▁Decision	-6093
▁Japanese	-6094
▁Napoleon	-6095
▁National	-6096
▁Negative	-6097
▁Practice	-6098
▁SmartBat	-6099
▁Waterloo	-6100
▁________	-6101
▁accounts	-6102
▁ancestor	-6103
▁athletes	-6104
▁brighter	-6105
▁composed	-6106
▁concerns	-6107
▁contests	-6108
▁drinking	-6109
▁entities	-6110
▁exciting	-6111
▁familiar	-6112
▁frequent	-6113
▁incorpor	-6114
▁infringe	-6115
▁laughter	-6116
▁leverage	-6117
▁manually	-6118
▁military	-6119
▁minimize	-6120
▁national	-6121
▁payments	-6122
▁plastics	-6123
▁policies	-6124
▁populous	-6125
▁portable	-6126
▁presents	-6127
▁pressure	-6128
▁quantity	-6129
▁referred	-6130
▁removing	-6131
▁restrict	-6132
▁schedule	-6133
▁shipping	-6134
▁supplies	-6135
▁surprise	-6136
▁tracking	-6137
▁ultimate	-6138
▁variance	-6139
▁whatever	-6140
chological	-6141
ifications	-6142
motivation	-6143
▁Colleague	-6144
▁Different	-6145
▁Financial	-6146
▁Francisco	-6147
▁Goldfinch	-6148
▁Mountains	-6149
▁Rearrange	-6150
▁Sincerely	-6151
▁Therefore	-6152
▁achieving	-6153
▁advertise	-6154
▁appealing	-6155
▁architect	-6156
▁assigning	-6157
▁butterfly	-6158
▁companion	-6159
▁confident	-6160
▁consumers	-6161
▁continues	-6162
▁contribut	-6163
▁cryptocur	-6164
▁depending	-6165
▁detection	-6166
▁disasters	-6167
▁discarded	-6168
▁establish	-6169
▁expertise	-6170
▁geometric	-6171
▁groceries	-6172
▁homicides	-6173
▁insurance	-6174
▁invention	-6175
▁investors	-6176
▁landscape	-6177
▁messaging	-6178
▁mushrooms	-6179
▁portfolio	-6180
▁qualities	-6181
▁sensitive	-6182
▁spectator	-6183
▁sustained	-6184
▁thousands	-6185
▁Depression	-6186
▁Flashlight	-6187
▁Supervised	-6188
▁Throughout	-6189
▁affordable	-6190
▁assistants	-6191
▁automating	-6192
▁beneficial	-6193
▁boundaries	-6194
▁celebrated	-6195
▁collective	-6196
▁conference	-6197
▁confidence	-6198
▁encourages	-6199
▁entreprene	-6200
▁especially	-6201
▁explicitly	-6202
▁facilitate	-6203
▁influencer	-6204
▁invaluable	-6205
▁investment	-6206
▁leveraging	-6207
▁lighthouse	-6208
▁manageable	-6209
▁manipulate	-6210
▁optimizing	-6211
▁passionate	-6212
▁performing	-6213
▁prevention	-6214
▁profession	-6215
▁reflection	-6216
▁regardless	-6217
▁remarkable	-6218
▁researcher	-6219
▁struggling	-6220
▁surrounded	-6221
▁calculating	-6222
▁convenience	-6223
▁demonstrate	-6224
▁electronics	-6225
▁encouraging	-6226
▁grammatical	-6227
▁grandmother	-6228
▁immigration	-6229
▁implemented	-6230
▁influencers	-6231
▁initiatives	-6232
▁investments	-6233
▁maintaining	-6234
▁perpetrator	-6235
▁respiratory	-6236
▁achievements	-6237
▁calculations	-6238
▁difficulties	-6239
▁perspectives	-6240
▁stakeholders	-6241
▁successfully	-6242
▁transforming	-6243
▁Environmental	-6244
▁Interrogative	-6245
▁civilizations	-6246
▁computational	-6247
▁gravitational	-6248
▁interrogative	-6249
▁psychological	-6250
▁revolutionize	-6251
▁sophisticated	-6252
▁technological	-6253
▁accomplishment	-6254
▁accomplishments	-6255
!"	-6256
$.	-6257
%,	-6258
('	-6259
,"	-6260
="	-6261
An	-6262
BS	-6263
DC	-6264
ES	-6265
II	-6266
TP	-6267
bu	-6268
fl	-6269
gs	-6270
mp	-6271
nd	-6272
oe	-6273
qr	-6274
▁/	-6275
NNs	-6276
Pro	-6277
alk	-6278
awa	-6279
bow	-6280
bre	-6281
can	-6282
cow	-6283
ded	-6284
dis	-6285
ela	-6286
fry	-6287
gae	-6288
hab	-6289
het	-6290
hma	-6291
hot	-6292
iam	-6293
ino	-6294
ipt	-6295
irr	-6296
jud	-6297
ken	-6298
klf	-6299
ksh	-6300
len	-6301
ler	-6302
lls	-6303
lod	-6304
mal	-6305
nut	-6306
obe	-6307
oda	-6308
ogy	-6309
oon	-6310
ply	-6311
pse	-6312
rew	-6313
ria	-6314
tra	-6315
udy	-6316
ull	-6317
umn	-6318
unk	-6319
zen	-6320
zer	-6321
zil	-6322
▁!=	-6323
▁AC	-6324
▁Ab	-6325
▁IV	-6326
▁Op	-6327
▁RF	-6328
▁Sl	-6329
▁Ty	-6330
▁__	-6331
▁ic	-6332
▁km	-6333
▁om	-6334
▁py	-6335
▁ri	-6336
....	-6337
Comp	-6338
Love	-6339
Your	-6340
__':	-6341
aced	-6342
aces	-6343
adel	-6344
ador	-6345
aked	-6346
anqu	-6347
aser	-6348
aver	-6349
bies	-6350
cers	-6351
cipl	-6352
coln	-6353
cont	-6354
data	-6355
esar	-6356
etch	-6357
eway	-6358
ewed	-6359
gers	-6360
goti	-6361
gypt	-6362
hern	-6363
hood	-6364
iers	-6365
ingu	-6366
istr	-6367
kind	-6368
lear	-6369
lied	-6370
main	-6371
mers	-6372
nedy	-6373
noon	-6374
obel	-6375
oint	-6376
onzi	-6377
oric	-6378
part	-6379
peas	-6380
phia	-6381
plex	-6382
plit	-6383
plor	-6384
prov	-6385
rase	-6386
rika	-6387
rowd	-6388
than	-6389
tion	-6390
turn	-6391
ucch	-6392
ulbs	-6393
urch	-6394
user	-6395
viet	-6396
wood	-6397
ying	-6398
zone	-6399
▁'__	-6400
▁ABC	-6401
▁Age	-6402
▁Air	-6403
▁Ask	-6404
▁Ber	-6405
▁Buy	-6406
▁Cet	-6407
▁Den	-6408
▁Don	-6409
▁Ele	-6410
▁Eve	-6411
▁Fox	-6412
▁Fun	-6413
▁Hey	-6414
▁Hou	-6415
▁Hyd	-6416
▁Ill	-6417
▁Ken	-6418
▁LED	-6419
▁Mat	-6420
▁May	-6421
▁Mob	-6422
▁Mos	-6423
▁Non	-6424
▁Not	-6425
▁Occ	-6426
▁Pac	-6427
▁Pos	-6428
▁Ros	-6429
▁UDP	-6430
▁USA	-6431
▁ago	-6432
▁ate	-6433
▁bic	-6434
▁ble	-6435
▁box	-6436
▁cro	-6437
▁dil	-6438
▁dot	-6439
▁dou	-6440
▁dur	-6441
▁gap	-6442
▁gri	-6443
▁hat	-6444
▁hed	-6445
▁hes	-6446
▁hon	-6447
▁kit	-6448
▁lik	-6449
▁mut	-6450
▁odd	-6451
▁oun	-6452
▁raw	-6453
▁rob	-6454
▁scr	-6455
▁seg	-6456
▁swe	-6457
▁tap	-6458
▁urg	-6459
▁wet	-6460
▁wiz	-6461
-----	-6462
agues	-6463
akers	-6464
andon	-6465
arest	-6466
arrow	-6467
arted	-6468
aways	-6469
backs	-6470
board	-6471
celer	-6472
cknow	-6473
ctors	-6474
dated	-6475
dates	-6476
disco	-6477
eeing	-6478
enger	-6479
enges	-6480
erick	-6481
etary	-6482
getic	-6483
ggers	-6484
haust	-6485
icago	-6486
inite	-6487
inter	-6488
ippet	-6489
itors	-6490
label	-6491
level	-6492
namic	-6493
never	-6494
night	-6495
ocado	-6496
ocaly	-6497
odies	-6498
oding	-6499
onent	-6500
onged	-6501
opian	-6502
orism	-6503
osion	-6504
oster	-6505
ouses	-6506
plasm	-6507
ponds	-6508
price	-6509
ramid	-6510
rific	-6511
romag	-6512
royed	-6513
sized	-6514
ucker	-6515
ulary	-6516
urons	-6517
vable	-6518
versy	-6519
world	-6520
▁Decl	-6521
▁Dive	-6522
▁Eggs	-6523
▁Fill	-6524
▁Food	-6525
▁Gard	-6526
▁Hung	-6527
▁Jack	-6528
▁Jane	-6529
▁Just	-6530
▁Keep	-6531
▁Mars	-6532
▁Oper	-6533
▁Pain	-6534
▁Plus	-6535
▁Rock	-6536
▁Send	-6537
▁Stay	-6538
▁Sure	-6539
▁Swit	-6540
▁Tent	-6541
▁Turn	-6542
▁Vacc	-6543
▁York	-6544
▁arom	-6545
▁bias	-6546
▁bike	-6547
▁bits	-6548
▁busy	-6549
▁coal	-6550
▁core	-6551
▁cozy	-6552
▁cuts	-6553
▁dele	-6554
▁desk	-6555
▁desp	-6556
▁diss	-6557
▁eCom	-6558
▁ease	-6559
▁edit	-6560
▁elim	-6561
▁emer	-6562
▁ends	-6563
▁ener	-6564
▁firm	-6565
▁flat	-6566
▁fold	-6567
▁fuel	-6568
▁fund	-6569
▁gets	-6570
▁glow	-6571
▁gods	-6572
▁gone	-6573
▁guid	-6574
▁hair	-6575
▁hier	-6576
▁hint	-6577
▁hund	-6578
▁hurt	-6579
▁hydr	-6580
▁iter	-6581
▁legs	-6582
▁lies	-6583
▁lush	-6584
▁mini	-6585
▁neck	-6586
▁nine	-6587
▁oats	-6588
▁poly	-6589
▁race	-6590
▁rent	-6591
▁reus	-6592
▁ripe	-6593
▁sale	-6594
▁sell	-6595
▁send	-6596
▁tale	-6597
▁unne	-6598
▁unpl	-6599
▁urge	-6600
▁vary	-6601
▁vert	-6602
▁vine	-6603
▁vote	-6604
▁wait	-6605
▁wash	-6606
▁weap	-6607
▁wins	-6608
▁wish	-6609
▁wolf	-6610
▁wond	-6611
▁zero	-6612
▁zomb	-6613
Doctor	-6614
Script	-6615
ablish	-6616
acious	-6617
agrams	-6618
ailand	-6619
arcity	-6620
arming	-6621
assium	-6622
atient	-6623
cupine	-6624
endant	-6625
ensils	-6626
father	-6627
fficer	-6628
ground	-6629
illing	-6630
judice	-6631
kshake	-6632
lessly	-6633
locked	-6634
logize	-6635
lusive	-6636
nowned	-6637
olving	-6638
oosing	-6639
orable	-6640
orious	-6641
orough	-6642
othing	-6643
parent	-6644
profit	-6645
ternal	-6646
uality	-6647
uasive	-6648
umbing	-6649
umbled	-6650
utable	-6651
▁Adobe	-6652
▁Agile	-6653
▁Amend	-6654
▁Avoid	-6655
▁Block	-6656
▁Bobby	-6657
▁Chall	-6658
▁Coral	-6659
▁Count	-6660
▁Curie	-6661
▁Egypt	-6662
▁Exper	-6663
▁Guide	-6664
▁Hello	-6665
▁Homes	-6666
▁Human	-6667
▁Ideas	-6668
▁Movie	-6669
▁Night	-6670
▁Nobel	-6671
▁Phone	-6672
▁Ponzi	-6673
▁Power	-6674
▁Rates	-6675
▁Reach	-6676
▁Roman	-6677
▁Spain	-6678
▁Straw	-6679
▁Tower	-6680
▁Trade	-6681
▁Twain	-6682
▁Veget	-6683
▁Verse	-6684
▁Vinci	-6685
▁Virus	-6686
▁Would	-6687
▁absor	-6688
▁accid	-6689
▁added	-6690
▁admin	-6691
▁adopt	-6692
▁ambit	-6693
▁arise	-6694
▁barbe	-6695
▁bears	-6696
▁blank	-6697
▁blind	-6698
▁broad	-6699
▁brush	-6700
▁buses	-6701
▁buyer	-6702
▁calls	-6703
▁capac	-6704
▁cells	-6705
▁climb	-6706
▁clock	-6707
▁coord	-6708
▁craft	-6709
▁crowd	-6710
▁crust	-6711
▁cumin	-6712
▁curry	-6713
▁dates	-6714
▁disad	-6715
▁doors	-6716
▁dried	-6717
▁dying	-6718
▁embed	-6719
▁evalu	-6720
▁faced	-6721
▁gathe	-6722
▁giant	-6723
▁grant	-6724
▁grass	-6725
▁greet	-6726
▁guard	-6727
▁hasht	-6728
▁hopes	-6729
▁horiz	-6730
▁index	-6731
▁instr	-6732
▁juicy	-6733
▁labor	-6734
▁meant	-6735
▁meets	-6736
▁melod	-6737
▁moved	-6738
▁neutr	-6739
▁omniv	-6740
▁overs	-6741
▁paint	-6742
▁peels	-6743
▁peers	-6744
▁penny	-6745
▁posts	-6746
▁proof	-6747
▁quite	-6748
▁relat	-6749
▁rises	-6750
▁roads	-6751
▁rough	-6752
▁sandw	-6753
▁saved	-6754
▁seize	-6755
▁sells	-6756
▁snuck	-6757
▁solid	-6758
▁split	-6759
▁spray	-6760
▁steak	-6761
▁subst	-6762
▁teach	-6763
▁tiger	-6764
▁toler	-6765
▁tried	-6766
▁twink	-6767
▁uncon	-6768
▁whale	-6769
▁woods	-6770
▁zucch	-6771
Company	-6772
ameters	-6773
centage	-6774
cipline	-6775
driving	-6776
fiction	-6777
gestion	-6778
igating	-6779
inkedIn	-6780
iration	-6781
irement	-6782
ishment	-6783
istance	-6784
jective	-6785
lasting	-6786
lightly	-6787
odegrad	-6788
perform	-6789
quality	-6790
ralized	-6791
zerland	-6792
▁Assign	-6793
▁Caesar	-6794
▁Delete	-6795
▁Duplex	-6796
▁Easily	-6797
▁Energy	-6798
▁Flight	-6799
▁Galile	-6800
▁George	-6801
▁Govern	-6802
▁Grease	-6803
▁Integr	-6804
▁Julius	-6805
▁Moscow	-6806
▁Museum	-6807
▁Norway	-6808
▁Panama	-6809
▁Proper	-6810
▁Repeat	-6811
▁Respir	-6812
▁Reword	-6813
▁Rising	-6814
▁Robert	-6815
▁Soviet	-6816
▁Supply	-6817
▁Things	-6818
▁admire	-6819
▁adults	-6820
▁advent	-6821
▁afraid	-6822
▁almond	-6823
▁angles	-6824
▁announ	-6825
▁arrive	-6826
▁artist	-6827
▁blanks	-6828
▁brands	-6829
▁breach	-6830
▁burned	-6831
▁carrot	-6832
▁caught	-6833
▁cloves	-6834
▁combat	-6835
▁contem	-6836
▁courts	-6837
▁dining	-6838
▁disapp	-6839
▁drough	-6840
▁earned	-6841
▁escape	-6842
▁expand	-6843
▁facing	-6844
▁fierce	-6845
▁filter	-6846
▁floods	-6847
▁flying	-6848
▁forgot	-6849
▁frustr	-6850
▁genres	-6851
▁grades	-6852
▁habits	-6853
▁header	-6854
▁hospit	-6855
▁hurric	-6856
▁iconic	-6857
▁immers	-6858
▁injury	-6859
▁legacy	-6860
▁lights	-6861
▁limits	-6862
▁listen	-6863
▁mainly	-6864
▁markup	-6865
▁mentor	-6866
▁movies	-6867
▁nights	-6868
▁parent	-6869
▁peanut	-6870
▁pencil	-6871
▁photos	-6872
▁picnic	-6873
▁prefer	-6874
▁pushed	-6875
▁qubits	-6876
▁rather	-6877
▁refers	-6878
▁refine	-6879
▁refund	-6880
▁regret	-6881
▁relies	-6882
▁resume	-6883
▁sample	-6884
▁sector	-6885
▁severe	-6886
▁shines	-6887
▁shower	-6888
▁sights	-6889
▁silent	-6890
▁simile	-6891
▁singer	-6892
▁sister	-6893
▁static	-6894
▁steady	-6895
▁stitch	-6896
▁teaser	-6897
▁thesis	-6898
▁tranqu	-6899
▁twists	-6900
▁unlike	-6901
▁update	-6902
▁vector	-6903
▁ventil	-6904
▁volume	-6905
▁wizard	-6906
▁wooden	-6907
▁writer	-6908
▁yields	-6909
December	-6910
activity	-6911
adelphia	-6912
catching	-6913
commerce	-6914
esterday	-6915
reshadow	-6916
ribution	-6917
▁Address	-6918
▁Article	-6919
▁Belgium	-6920
▁Carrots	-6921
▁Chicago	-6922
▁Columns	-6923
▁Combine	-6924
▁Compile	-6925
▁Control	-6926
▁England	-6927
▁Everest	-6928
▁Healthy	-6929
▁History	-6930
▁Houston	-6931
▁Kennedy	-6932
▁Lincoln	-6933
▁Midwest	-6934
▁Nations	-6935
▁Network	-6936
▁Officer	-6937
▁Pacific	-6938
▁Philoso	-6939
▁Promote	-6940
▁Protest	-6941
▁Reading	-6942
▁Service	-6943
▁Working	-6944
▁YouTube	-6945
▁aerobic	-6946
▁affects	-6947
▁airport	-6948
▁analogy	-6949
▁answers	-6950
▁banking	-6951
▁battery	-6952
▁becomes	-6953
▁bicycle	-6954
▁calming	-6955
▁captain	-6956
▁carries	-6957
▁celsius	-6958
▁circuit	-6959
▁closely	-6960
▁coconut	-6961
▁columns	-6962
▁consist	-6963
▁consume	-6964
▁cutting	-6965
▁decades	-6966
▁decimal	-6967
▁defined	-6968
▁density	-6969
▁despite	-6970
▁discrim	-6971
▁drastic	-6972
▁dynamic	-6973
▁earlier	-6974
▁emotion	-6975
▁entropy	-6976
▁erosion	-6977
▁exhaust	-6978
▁fantasy	-6979
▁fitness	-6980
▁freqObj	-6981
▁funding	-6982
▁gallery	-6983
▁gardens	-6984
▁greatly	-6985
▁heavily	-6986
▁himself	-6987
▁implies	-6988
▁imports	-6989
▁leaving	-6990
▁malware	-6991
▁mankind	-6992
▁marking	-6993
▁minimal	-6994
▁monster	-6995
▁muscles	-6996
▁nearest	-6997
▁neurons	-6998
▁nucleus	-6999
▁organic	-7000
▁outdoor	-7001
▁painted	-7002
▁paprika	-7003
▁posture	-7004
▁precise	-7005
▁pronoun	-7006
▁pursuit	-7007
▁pyramid	-7008
▁queries	-7009
▁ranking	-7010
▁realize	-7011
▁recipes	-7012
▁renewed	-7013
▁replace	-7014
▁routine	-7015
▁sadness	-7016
▁screens	-7017
▁seasons	-7018
▁segment	-7019
▁servers	-7020
▁serving	-7021
▁shorter	-7022
▁snippet	-7023
▁station	-7024
▁stripes	-7025
▁studies	-7026
▁tagline	-7027
▁teenage	-7028
▁tension	-7029
▁thunder	-7030
▁tickets	-7031
▁utilize	-7032
▁village	-7033
▁vinegar	-7034
▁watched	-7035
▁welcome	-7036
▁willing	-7037
▁windows	-7038
▁winning	-7039
▁workout	-7040
consuming	-7041
discovery	-7042
efficient	-7043
ependence	-7044
istrative	-7045
otivation	-7046
placement	-7047
provoking	-7048
uckerberg	-7049
|--------	-7050
▁Bringing	-7051
▁Complete	-7052
▁Eurozone	-7053
▁LinkedIn	-7054
▁Positive	-7055
▁Robotrix	-7056
▁Sleeping	-7057
▁Tomatoes	-7058
▁Violence	-7059
▁although	-7060
▁anagrams	-7061
▁appeared	-7062
▁baseball	-7063
▁birdsong	-7064
▁breaking	-7065
▁captures	-7066
▁climates	-7067
▁contract	-7068
▁creation	-7069
▁currency	-7070
▁delicate	-7071
▁enjoying	-7072
▁equality	-7073
▁everyday	-7074
▁external	-7075
▁feathers	-7076
▁finances	-7077
▁focusing	-7078
▁fraction	-7079
▁gathered	-7080
▁greenery	-7081
▁guidance	-7082
▁hierarch	-7083
▁holistic	-7084
▁homeless	-7085
▁hydrated	-7086
▁impacted	-7087
▁indicate	-7088
▁informal	-7089
▁kindness	-7090
▁laughing	-7091
▁launched	-7092
▁lighting	-7093
▁limerick	-7094
▁literacy	-7095
▁managing	-7096
▁measured	-7097
▁minerals	-7098
▁opinions	-7099
▁opponent	-7100
▁outbreak	-7101
▁overview	-7102
▁particle	-7103
▁periodic	-7104
▁plumbing	-7105
▁pressing	-7106
▁printing	-7107
▁profiles	-7108
▁protests	-7109
▁recorded	-7110
▁releases	-7111
▁renowned	-7112
▁repeated	-7113
▁returned	-7114
▁rewarded	-7115
▁salaries	-7116
▁sciences	-7117
▁separate	-7118
▁slightly	-7119
▁standing	-7120
▁starting	-7121
▁stranger	-7122
▁subtract	-7123
▁supposed	-7124
▁teaching	-7125
▁transfer	-7126
▁traveled	-7127
▁traverse	-7128
▁upcoming	-7129
▁utensils	-7130
▁vacation	-7131
▁vertical	-7132
▁visiting	-7133
▁visually	-7134
▁zucchini	-7135
Technology	-7136
aspberries	-7137
discipline	-7138
structured	-7139
worthiness	-7140
▁Amendment	-7141
▁Analytics	-7142
▁Attendant	-7143
▁Catholics	-7144
▁Economics	-7145
▁Encourage	-7146
▁Furniture	-7147
▁Inflation	-7148
▁Instagram	-7149
▁Investing	-7150
▁Potential	-7151
▁adjective	-7152
▁advancing	-7153
▁anaerobic	-7154
▁apologize	-7155
▁authority	-7156
▁buildings	-7157
▁candidate	-7158
▁chickpeas	-7159
▁classical	-7160
▁cognitive	-7161
▁combating	-7162
▁countless	-7163
▁crossword	-7164
▁databases	-7165
▁described	-7166
▁designing	-7167
▁destroyed	-7168
▁deviation	-7169
▁digestion	-7170
▁discovery	-7171
▁drawbacks	-7172
▁eCommerce	-7173
▁enjoyable	-7174
▁expressed	-7175
▁extensive	-7176
▁featuring	-7177
▁formation	-7178
▁graduated	-7179
▁graphical	-7180
▁immutable	-7181
▁inorganic	-7182
▁intensity	-7183
▁introduce	-7184
▁lightning	-7185
▁locations	-7186
▁malicious	-7187
▁masterpie	-7188
▁memorable	-7189
▁moonlight	-7190
▁numerical	-7191
▁obstacles	-7192
▁potassium	-7193
▁preparing	-7194
▁processed	-7195
▁processor	-7196
▁professor	-7197
▁prolonged	-7198
▁reduction	-7199
▁redundant	-7200
▁religions	-7201
▁replacing	-7202
▁respected	-7203
▁snowstorm	-7204
▁sometimes	-7205
▁stimulate	-7206
▁strategic	-7207
▁strengths	-7208
▁therefore	-7209
▁uncertain	-7210
▁workforce	-7211
odegradable	-7212
▁Advantages	-7213
▁Blockchain	-7214
▁Challenges	-7215
▁Healthcare	-7216
▁JavaScript	-7217
▁Protection	-7218
▁Revolution	-7219
▁Ultimately	-7220
▁accounting	-7221
▁adjustable	-7222
▁appreciate	-7223
▁attributes	-7224
▁carnivores	-7225
▁colleagues	-7226
▁collection	-7227
▁companions	-7228
▁completely	-7229
▁composting	-7230
▁congestion	-7231
▁conserving	-7232
▁constantly	-7233
▁department	-7234
▁deployment	-7235
▁dictionary	-7236
▁difficulty	-7237
▁electromag	-7238
▁employment	-7239
▁everywhere	-7240
▁exercising	-7241
▁extracting	-7242
▁foundation	-7243
▁frustrated	-7244
▁highlights	-7245
▁hypothesis	-7246
▁impossible	-7247
▁installing	-7248
▁interested	-7249
▁leadership	-7250
▁literature	-7251
▁maintained	-7252
▁monitoring	-7253
▁motivation	-7254
▁objectives	-7255
▁percentage	-7256
▁persistent	-7257
▁persuasive	-7258
▁phenomenon	-7259
▁preserving	-7260
▁projectile	-7261
▁recognized	-7262
▁relativity	-7263
▁situations	-7264
▁statements	-7265
▁statistics	-7266
▁structured	-7267
▁subjective	-7268
▁summertime	-7269
▁suspicious	-7270
▁vocabulary	-7271
▁vulnerable	-7272
▁weaknesses	-7273
▁Algorithmic	-7274
▁Alternative	-7275
▁Behaviorism	-7276
▁Methodology	-7277
▁Renaissance	-7278
▁Switzerland	-7279
▁chromosomes	-7280
▁collaborate	-7281
▁contentment	-7282
▁continental	-7283
▁controversy	-7284
▁corresponds	-7285
▁differently	-7286
▁distinctive	-7287
▁extinctions	-7288
▁forecasting	-7289
▁functioning	-7290
▁illustrates	-7291
▁influential	-7292
▁informative	-7293
▁instruments	-7294
▁interaction	-7295
▁introducing	-7296
▁outstanding	-7297
▁partnership	-7298
▁perspective	-7299
▁reliability	-7300
▁restraining	-7301
▁transaction	-7302
▁unnecessary	-7303
▁Philadelphia	-7304
▁agricultural	-7305
▁availability	-7306
▁conditioning	-7307
▁conjunctions	-7308
▁contributing	-7309
▁conventional	-7310
▁cryptography	-7311
▁entrepreneur	-7312
▁illustration	-7313
▁improvements	-7314
▁significance	-7315
▁Deforestation	-7316
▁Homeschooling	-7317
▁acidification	-7318
▁approximately	-7319
▁circumference	-7320
▁contributions	-7321
▁craftsmanship	-7322
▁decentralized	-7323
▁professionals	-7324
▁Photosynthesis	-7325
▁accountability	-7326
▁administrative	-7327
▁constructivism	-7328
▁qualifications	-7329
▁thermodynamics	-7330
"?	-7331
)(	-7332
.”	-7333
AB	-7334
AW	-7335
BA	-7336
Co	-7337
Gu	-7338
HO	-7339
IP	-7340
RD	-7341
SO	-7342
Sp	-7343
Tr	-7344
bb	-7345
gu	-7346
ho	-7347
mb	-7348
nh	-7349
px	-7350
rs	-7351
vi	-7352
wh	-7353
zu	-7354
},	-7355
”,	-7356
▁:	-7357
...	-7358
BST	-7359
Bon	-7360
EDI	-7361
ERS	-7362
ESC	-7363
Est	-7364
GBT	-7365
How	-7366
Mon	-7367
Pre	-7368
Sum	-7369
aby	-7370
ald	-7371
ali	-7372
ams	-7373
apy	-7374
ara	-7375
avy	-7376
ban	-7377
biv	-7378
boh	-7379
che	-7380
cme	-7381
dep	-7382
dig	-7383
eem	-7384
eon	-7385
eta	-7386
fru	-7387
gon	-7388
hum	-7389
ida	-7390
imb	-7391
iny	-7392
iro	-7393
kay	-7394
key	-7395
kyo	-7396
lie	-7397
lyn	-7398
mas	-7399
max	-7400
mes	-7401
nem	-7402
nia	-7403
och	-7404
oft	-7405
oga	-7406
omy	-7407
oni	-7408
org	-7409
pur	-7410
ran	-7411
rap	-7412
reg	-7413
rer	-7414
ris	-7415
riz	-7416
roe	-7417
spe	-7418
tes	-7419
top	-7420
uan	-7421
uct	-7422
uff	-7423
ugg	-7424
ums	-7425
urb	-7426
van	-7427
wel	-7428
wer	-7429
ydr	-7430
zos	-7431
}$.	-7432
▁+=	-7433
▁BY	-7434
▁DN	-7435
▁Di	-7436
▁Fa	-7437
▁ID	-7438
▁Jr	-7439
▁Lo	-7440
▁ML	-7441
▁NY	-7442
▁Of	-7443
▁Pa	-7444
▁Ro	-7445
▁Sk	-7446
▁TV	-7447
▁Ta	-7448
▁Te	-7449
▁Ye	-7450
▁ep	-7451
▁ir	-7452
▁je	-7453
▁ki	-7454
ABLE	-7455
Bonj	-7456
Cost	-7457
John	-7458
RDER	-7459
Well	-7460
ably	-7461
acon	-7462
acos	-7463
agic	-7464
agle	-7465
airy	-7466
alle	-7467
anta	-7468
ardo	-7469
atis	-7470
atme	-7471
auty	-7472
aved	-7473
avid	-7474
ayen	-7475
beat	-7476
bird	-7477
bium	-7478
brid	-7479
cels	-7480
cism	-7481
cium	-7482
cked	-7483
conf	-7484
crow	-7485
draw	-7486
duce	-7487
eine	-7488
elry	-7489
emoc	-7490
empt	-7491
enue	-7492
erbr	-7493
esus	-7494
etah	-7495
ette	-7496
even	-7497
fire	-7498
flow	-7499
free	-7500
gano	-7501
gans	-7502
gate	-7503
gett	-7504
heet	-7505
hend	-7506
hors	-7507
iffs	-7508
ifts	-7509
iler	-7510
ille	-7511
inds	-7512
inue	-7513
itas	-7514
itle	-7515
ivia	-7516
keep	-7517
lick	-7518
lled	-7519
love	-7520
lymp	-7521
neum	-7522
nife	-7523
nuts	-7524
oded	-7525
olic	-7526
omed	-7527
onew	-7528
onia	-7529
otic	-7530
outs	-7531
owed	-7532
oyal	-7533
pass	-7534
phic	-7535
pple	-7536
ptic	-7537
ptim	-7538
rand	-7539
requ	-7540
reta	-7541
rete	-7542
ribe	-7543
rich	-7544
root	-7545
size	-7546
text	-7547
they	-7548
tles	-7549
uant	-7550
uary	-7551
ubes	-7552
uity	-7553
ulld	-7554
umps	-7555
well	-7556
whel	-7557
wide	-7558
wing	-7559
▁AWS	-7560
▁Alt	-7561
▁Anc	-7562
▁Atl	-7563
▁Aug	-7564
▁Bat	-7565
▁Bet	-7566
▁Big	-7567
▁Cam	-7568
▁Cap	-7569
▁Dev	-7570
▁Ear	-7571
▁Eat	-7572
▁Exc	-7573
▁Fer	-7574
▁Hed	-7575
▁Ice	-7576
▁Imm	-7577
▁Ire	-7578
▁Iss	-7579
▁Jew	-7580
▁Joy	-7581
▁Lou	-7582
▁Low	-7583
▁Mad	-7584
▁Mem	-7585
▁Mia	-7586
▁Mix	-7587
▁NBA	-7588
▁NLP	-7589
▁Now	-7590
▁Oak	-7591
▁Pal	-7592
▁Pen	-7593
▁Pop	-7594
▁Put	-7595
▁Rad	-7596
▁Rot	-7597
▁Row	-7598
▁Sal	-7599
▁Sat	-7600
▁Sud	-7601
▁Tig	-7602
▁Tri	-7603
▁Tur	-7604
▁Unf	-7605
▁Val	-7606
▁Why	-7607
▁alt	-7608
▁aug	-7609
▁awe	-7610
▁bag	-7611
▁cla	-7612
▁cru	-7613
▁dim	-7614
▁eco	-7615
▁fab	-7616
▁ham	-7617
▁haz	-7618
▁inn	-7619
▁lcm	-7620
▁lem	-7621
▁lou	-7622
▁lux	-7623
▁mig	-7624
▁nob	-7625
▁ord	-7626
▁rum	-7627
▁sac	-7628
▁sed	-7629
▁sla	-7630
▁sne	-7631
▁tam	-7632
▁tea	-7633
▁toy	-7634
▁unw	-7635
▁upp	-7636
▁ups	-7637
▁wis	-7638
▁wra	-7639
Shack	-7640
Watch	-7641
abbit	-7642
acies	-7643
adequ	-7644
agine	-7645
andas	-7646
andra	-7647
apart	-7648
apses	-7649
array	-7650
arter	-7651
astro	-7652
ately	-7653
ausea	-7654
bines	-7655
blems	-7656
block	-7657
count	-7658
craft	-7659
denly	-7660
dered	-7661
dings	-7662
elery	-7663
ember	-7664
emble	-7665
enior	-7666
enses	-7667
erful	-7668
ework	-7669
fresh	-7670
gebra	-7671
gener	-7672
goire	-7673
happy	-7674
heric	-7675
holds	-7676
https	-7677
icism	-7678
icist	-7679
idesp	-7680
idity	-7681
igret	-7682
inals	-7683
inars	-7684
irrus	-7685
ishes	-7686
isure	-7687
itize	-7688
itute	-7689
ivals	-7690
ively	-7691
ivile	-7692
jsklf	-7693
matic	-7694
means	-7695
nings	-7696
odore	-7697
oklyn	-7698
olate	-7699
olute	-7700
omaly	-7701
onomy	-7702
ooden	-7703
orial	-7704
orida	-7705
ormal	-7706
osing	-7707
ostat	-7708
overs	-7709
pable	-7710
paren	-7711
phase	-7712
piron	-7713
plify	-7714
puter	-7715
quire	-7716
rence	-7717
riger	-7718
ropol	-7719
shine	-7720
story	-7721
tered	-7722
ughed	-7723
undry	-7724
unnen	-7725
utter	-7726
vance	-7727
xiety	-7728
yclop	-7729
▁ANNs	-7730
▁Abra	-7731
▁Area	-7732
▁Asia	-7733
▁Axis	-7734
▁Bill	-7735
▁Bitc	-7736
▁Book	-7737
▁Care	-7738
▁Cind	-7739
▁Cost	-7740
▁Cour	-7741
▁Cuba	-7742
▁Dell	-7743
▁Dise	-7744
▁Fact	-7745
▁Fore	-7746
▁Gogh	-7747
▁Hood	-7748
▁Host	-7749
▁JEDI	-7750
▁Jeff	-7751
▁Kang	-7752
▁Kill	-7753
▁Know	-7754
▁LANs	-7755
▁LGBT	-7756
▁Laut	-7757
▁Leon	-7758
▁Merc	-7759
▁Much	-7760
▁Mult	-7761
▁Musk	-7762
▁Nimb	-7763
▁Play	-7764
▁Poor	-7765
▁Resp	-7766
▁Rich	-7767
▁Roth	-7768
▁Salt	-7769
▁Shop	-7770
▁Snap	-7771
▁Tech	-7772
▁Tele	-7773
▁Time	-7774
▁Upon	-7775
▁Wild	-7776
▁Work	-7777
▁Yoga	-7778
▁abst	-7779
▁acad	-7780
▁aims	-7781
▁anti	-7782
▁aren	-7783
▁asks	-7784
▁auto	-7785
▁axis	-7786
▁baby	-7787
▁bake	-7788
▁bath	-7789
▁bean	-7790
▁beta	-7791
▁bill	-7792
▁biot	-7793
▁brut	-7794
▁buds	-7795
▁bugs	-7796
▁bust	-7797
▁calm	-7798
▁casc	-7799
▁chat	-7800
▁cher	-7801
▁chol	-7802
▁coat	-7803
▁crop	-7804
▁cure	-7805
▁cycl	-7806
▁dent	-7807
▁dess	-7808
▁diam	-7809
▁disp	-7810
▁doub	-7811
▁fats	-7812
▁feta	-7813
▁fixt	-7814
▁gave	-7815
▁gaze	-7816
▁gear	-7817
▁gray	-7818
▁hear	-7819
▁hero	-7820
▁hill	-7821
▁hipp	-7822
▁homo	-7823
▁inch	-7824
▁intr	-7825
▁intu	-7826
▁iron	-7827
▁keen	-7828
▁keys	-7829
▁lake	-7830
▁leaf	-7831
▁lose	-7832
▁mall	-7833
▁meat	-7834
▁melt	-7835
▁menu	-7836
▁mnem	-7837
▁note	-7838
▁peel	-7839
▁perm	-7840
▁phil	-7841
▁pict	-7842
▁proc	-7843
▁rare	-7844
▁runs	-7845
▁rust	-7846
▁scam	-7847
▁scat	-7848
▁shim	-7849
▁shoe	-7850
▁sold	-7851
▁solo	-7852
▁soul	-7853
▁sour	-7854
▁span	-7855
▁succ	-7856
▁swim	-7857
▁syll	-7858
▁tact	-7859
▁talk	-7860
▁tang	-7861
▁tank	-7862
▁thaw	-7863
▁thin	-7864
▁told	-7865
▁touc	-7866
▁toys	-7867
▁tren	-7868
▁unit	-7869
▁vacu	-7870
▁vase	-7871
▁wasn	-7872
▁woke	-7873
▁worm	-7874
Advice	-7875
abolic	-7876
amwork	-7877
aneous	-7878
anther	-7879
atmeal	-7880
ayenne	-7881
bohydr	-7882
dimens	-7883
earing	-7884
ecting	-7885
erella	-7886
formed	-7887
hecked	-7888
hedral	-7889
holder	-7890
ianity	-7891
icated	-7892
icking	-7893
imedia	-7894
inator	-7895
integr	-7896
iology	-7897
itched	-7898
itment	-7899
ivated	-7900
limate	-7901
motion	-7902
nected	-7903
omfort	-7904
onesia	-7905
onomic	-7906
orilla	-7907
oshoot	-7908
outing	-7909
porate	-7910
public	-7911
queria	-7912
return	-7913
ricate	-7914
screen	-7915
spring	-7916
tailed	-7917
terday	-7918
uantum	-7919
ughter	-7920
ulates	-7921
unberg	-7922
worthy	-7923
▁+----	-7924
▁Adams	-7925
▁Being	-7926
▁Bezos	-7927
▁Birds	-7928
▁Black	-7929
▁Bulld	-7930
▁Cases	-7931
▁Caulf	-7932
▁David	-7933
▁Delhi	-7934
▁Democ	-7935
▁Email	-7936
▁Ethan	-7937
▁Gates	-7938
▁Gonna	-7939
▁Grand	-7940
▁Greek	-7941
▁Intel	-7942
▁Italy	-7943
▁Jesus	-7944
▁Jones	-7945
▁Learn	-7946
▁Marie	-7947
▁Never	-7948
▁ORDER	-7949
▁Occup	-7950
▁Olymp	-7951
▁Peace	-7952
▁Plate	-7953
▁Prior	-7954
▁Regul	-7955
▁Reuse	-7956
▁Romeo	-7957
▁Santa	-7958
▁Shape	-7959
▁Split	-7960
▁Sport	-7961
▁Steps	-7962
▁Stock	-7963
▁Stone	-7964
▁Study	-7965
▁Sugar	-7966
▁Sweet	-7967
▁Third	-7968
▁Those	-7969
▁Toast	-7970
▁Tokyo	-7971
▁Tools	-7972
▁Train	-7973
▁Trees	-7974
▁Vegan	-7975
▁Whole	-7976
▁advoc	-7977
▁amaze	-7978
▁argue	-7979
▁award	-7980
▁barri	-7981
▁bless	-7982
▁candy	-7983
▁cater	-7984
▁chime	-7985
▁chips	-7986
▁chord	-7987
▁claws	-7988
▁clove	-7989
▁clust	-7990
▁colon	-7991
▁cores	-7992
▁cough	-7993
▁crack	-7994
▁crisp	-7995
▁crown	-7996
▁debts	-7997
▁debug	-7998
▁deple	-7999
▁deriv	-8000
▁downs	-8001
▁eager	-8002
▁eagle	-8003
▁eaten	-8004
▁edges	-8005
▁encry	-8006
▁ended	-8007
▁excer	-8008
▁fades	-8009
▁faire	-8010
▁falls	-8011
▁fauce	-8012
▁fears	-8013
▁feeds	-8014
▁feels	-8015
▁fixed	-8016
▁flesh	-8017
▁flows	-8018
▁funds	-8019
▁grasp	-8020
▁grief	-8021
▁grown	-8022
▁harms	-8023
▁hills	-8024
▁hints	-8025
▁humor	-8026
▁inequ	-8027
▁inner	-8028
▁isBST	-8029
▁juice	-8030
▁keeps	-8031
▁legal	-8032
▁lipid	-8033
▁lunch	-8034
▁maker	-8035
▁medic	-8036
▁metal	-8037
▁minds	-8038
▁moder	-8039
▁moist	-8040
▁owned	-8041
▁pharm	-8042
▁pione	-8043
▁plays	-8044
▁pneum	-8045
▁polls	-8046
▁prehe	-8047
▁prime	-8048
▁proud	-8049
▁prove	-8050
▁quiet	-8051
▁radio	-8052
▁rainy	-8053
▁ratio	-8054
▁reads	-8055
▁recon	-8056
▁reign	-8057
▁rival	-8058
▁rocks	-8059
▁roots	-8060
▁safer	-8061
▁seven	-8062
▁shave	-8063
▁shift	-8064
▁shine	-8065
▁shone	-8066
▁shown	-8067
▁shred	-8068
▁slant	-8069
▁slice	-8070
▁smoke	-8071
▁snake	-8072
▁spend	-8073
▁stack	-8074
▁steel	-8075
▁stems	-8076
▁stick	-8077
▁stove	-8078
▁therm	-8079
▁tones	-8080
▁traum	-8081
▁troub	-8082
▁truck	-8083
▁truly	-8084
▁twist	-8085
▁unfor	-8086
▁valve	-8087
▁watch	-8088
▁whose	-8089
▁witty	-8090
Bonjour	-8091
Healthy	-8092
alinger	-8093
andoned	-8094
ategies	-8095
celsius	-8096
ellular	-8097
gentina	-8098
ificent	-8099
igorous	-8100
igrette	-8101
ishable	-8102
ismatic	-8103
itarian	-8104
itating	-8105
iveness	-8106
ividual	-8107
machine	-8108
onewall	-8109
oration	-8110
otation	-8111
ousines	-8112
predict	-8113
purpose	-8114
rambled	-8115
riculum	-8116
ription	-8117
rounded	-8118
telling	-8119
umbling	-8120
ylinder	-8121
▁Adverb	-8122
▁Always	-8123
▁Animal	-8124
▁Brazil	-8125
▁Carbon	-8126
▁Chance	-8127
▁Cirrus	-8128
▁Emails	-8129
▁Erving	-8130
▁Explor	-8131
▁Garlic	-8132
▁Having	-8133
▁Inform	-8134
▁Martin	-8135
▁Memory	-8136
▁Middle	-8137
▁Mobile	-8138
▁Philip	-8139
▁Poland	-8140
▁Provid	-8141
▁Public	-8142
▁Result	-8143
▁Riding	-8144
▁Rivers	-8145
▁Scient	-8146
▁Search	-8147
▁Should	-8148
▁Simile	-8149
▁Simmer	-8150
▁Stream	-8151
▁Stress	-8152
▁Tomato	-8153
▁Travel	-8154
▁Turing	-8155
▁Winter	-8156
▁Wooden	-8157
▁______	-8158
▁acknow	-8159
▁aiding	-8160
▁aiming	-8161
▁asking	-8162
▁asthma	-8163
▁atomic	-8164
▁barist	-8165
▁basalt	-8166
▁beaten	-8167
▁biases	-8168
▁bigger	-8169
▁bodies	-8170
▁borrow	-8171
▁bottom	-8172
▁broken	-8173
▁bubble	-8174
▁burden	-8175
▁bursts	-8176
▁button	-8177
▁buyers	-8178
▁buying	-8179
▁cardio	-8180
▁catchy	-8181
▁chores	-8182
▁clause	-8183
▁closed	-8184
▁comedy	-8185
▁config	-8186
▁convey	-8187
▁copies	-8188
▁crimes	-8189
▁curved	-8190
▁cyberc	-8191
▁deeper	-8192
▁depart	-8193
▁digits	-8194
▁dissol	-8195
▁diving	-8196
▁ebooks	-8197
▁embark	-8198
▁evenly	-8199
▁except	-8200
▁excess	-8201
▁exclam	-8202
▁farmer	-8203
▁fellow	-8204
▁filing	-8205
▁flower	-8206
▁formed	-8207
▁foster	-8208
▁frozen	-8209
▁herbiv	-8210
▁hiking	-8211
▁hoping	-8212
▁horror	-8213
▁idioms	-8214
▁immune	-8215
▁joyous	-8216
▁killed	-8217
▁lasted	-8218
▁layout	-8219
▁learns	-8220
▁louder	-8221
▁mammal	-8222
▁marvel	-8223
▁maxSum	-8224
▁metric	-8225
▁mining	-8226
▁myself	-8227
▁nausea	-8228
▁negoti	-8229
▁nested	-8230
▁nobody	-8231
▁onions	-8232
▁orbits	-8233
▁organs	-8234
▁outfit	-8235
▁packed	-8236
▁petals	-8237
▁phones	-8238
▁placed	-8239
▁pollut	-8240
▁potato	-8241
▁pounds	-8242
▁preval	-8243
▁pulled	-8244
▁puzzle	-8245
▁racism	-8246
▁ranges	-8247
▁refuge	-8248
▁reject	-8249
▁retail	-8250
▁retain	-8251
▁scared	-8252
▁secret	-8253
▁signal	-8254
▁simply	-8255
▁sketch	-8256
▁smiled	-8257
▁snakes	-8258
▁solace	-8259
▁sorrow	-8260
▁speaks	-8261
▁speeds	-8262
▁spices	-8263
▁stable	-8264
▁stayed	-8265
▁stormy	-8266
▁stroke	-8267
▁subset	-8268
▁subtle	-8269
▁survey	-8270
▁talent	-8271
▁tasked	-8272
▁temple	-8273
▁tested	-8274
▁thrown	-8275
▁transl	-8276
▁trench	-8277
▁valued	-8278
▁victim	-8279
▁visits	-8280
▁voting	-8281
▁wallet	-8282
▁warmth	-8283
▁waters	-8284
▁wealth	-8285
▁widesp	-8286
▁winner	-8287
▁zombie	-8288
Medicine	-8289
Wellness	-8290
ammation	-8291
appiness	-8292
avorable	-8293
computer	-8294
crowding	-8295
ditional	-8296
gettable	-8297
inations	-8298
ractable	-8299
ressions	-8300
sentence	-8301
tication	-8302
uminated	-8303
ustomers	-8304
▁Ability	-8305
▁Abraham	-8306
▁Alright	-8307
▁Ancient	-8308
▁Bitcoin	-8309
▁Britain	-8310
▁Charlie	-8311
▁Cogging	-8312
▁Cooking	-8313
▁Correct	-8314
▁Disease	-8315
▁Display	-8316
▁Extract	-8317
▁Florida	-8318
▁Hungary	-8319
▁Imagine	-8320
▁Improve	-8321
▁Include	-8322
▁Initial	-8323
▁Ireland	-8324
▁Kingdom	-8325
▁Martian	-8326
▁Matches	-8327
▁Maxwell	-8328
▁Mercury	-8329
▁Mocking	-8330
▁Mystery	-8331
▁Oranges	-8332
▁Rowling	-8333
▁Running	-8334
▁Seattle	-8335
▁Section	-8336
▁Someone	-8337
▁Swallow	-8338
▁Vaccine	-8339
▁Vincent	-8340
▁Virtual	-8341
▁Washing	-8342
▁Welcome	-8343
▁William	-8344
▁acceler	-8345
▁altered	-8346
▁anthrop	-8347
▁anxious	-8348
▁artists	-8349
▁attempt	-8350
▁authors	-8351
▁avocado	-8352
▁bananas	-8353
▁battles	-8354
▁blowing	-8355
▁careful	-8356
▁caution	-8357
▁cayenne	-8358
▁cheetah	-8359
▁clearly	-8360
▁climbed	-8361
▁cloaked	-8362
▁cogging	-8363
▁combine	-8364
▁compete	-8365
▁conquer	-8366
▁cookies	-8367
▁crashed	-8368
▁dealing	-8369
▁dentist	-8370
▁depicts	-8371
▁designs	-8372
▁distant	-8373
▁divides	-8374
▁durable	-8375
▁efforts	-8376
▁elected	-8377
▁enforce	-8378
▁entered	-8379
▁evolved	-8380
▁execute	-8381
▁exports	-8382
▁exposed	-8383
▁federal	-8384
▁figures	-8385
▁filling	-8386
▁filters	-8387
▁forests	-8388
▁gaining	-8389
▁glasses	-8390
▁happily	-8391
▁hashtag	-8392
▁hobbies	-8393
▁horizon	-8394
▁however	-8395
▁hundred	-8396
▁indices	-8397
▁insects	-8398
▁invades	-8399
▁islands	-8400
▁jumping	-8401
▁laughed	-8402
▁laundry	-8403
▁likable	-8404
▁mammals	-8405
▁mention	-8406
▁migrate	-8407
▁missing	-8408
▁mitosis	-8409
▁moments	-8410
▁mystery	-8411
▁neutral	-8412
▁operate	-8413
▁optimal	-8414
▁oregano	-8415
▁partner	-8416
▁persona	-8417
▁playful	-8418
▁pounded	-8419
▁pricing	-8420
▁promise	-8421
▁proport	-8422
▁protons	-8423
▁pushing	-8424
▁puzzles	-8425
▁raining	-8426
▁regards	-8427
▁remains	-8428
▁removed	-8429
▁replica	-8430
▁revenue	-8431
▁rewrite	-8432
▁roughly	-8433
▁scratch	-8434
▁sectors	-8435
▁shallow	-8436
▁signing	-8437
▁simpler	-8438
▁solvent	-8439
▁sparrow	-8440
▁squared	-8441
▁strengt	-8442
▁surpass	-8443
▁suscept	-8444
▁talents	-8445
▁tallest	-8446
▁terrain	-8447
▁thicker	-8448
▁trusted	-8449
▁underst	-8450
▁univers	-8451
▁utility	-8452
▁utopian	-8453
▁wanting	-8454
▁webpage	-8455
▁weights	-8456
▁workers	-8457
Education	-8458
erbrunnen	-8459
generated	-8460
gradation	-8461
plication	-8462
rigerator	-8463
ropolitan	-8464
uminating	-8465
yclopedia	-8466
▁Analysis	-8467
▁Atlantic	-8468
▁Brooklyn	-8469
▁Building	-8470
▁Chatbots	-8471
▁December	-8472
▁Discreet	-8473
▁Duration	-8474
▁Elephant	-8475
▁Function	-8476
▁Gregoire	-8477
▁Hedgehog	-8478
▁Hydrogen	-8479
▁Inspiron	-8480
▁Leonardo	-8481
▁Location	-8482
▁Opportun	-8483
▁Organize	-8484
▁Pandemic	-8485
▁Planning	-8486
▁Politics	-8487
▁Robotics	-8488
▁Salinger	-8489
▁Shopping	-8490
▁Simplify	-8491
▁Suddenly	-8492
▁Sunlight	-8493
▁Taqueria	-8494
▁Thailand	-8495
▁Theodore	-8496
▁Tropical	-8497
▁abstract	-8498
▁abundant	-8499
▁actually	-8500
▁adoption	-8501
▁advances	-8502
▁ambition	-8503
▁annually	-8504
▁arriving	-8505
▁assigned	-8506
▁avoiding	-8507
▁balloons	-8508
▁barbeque	-8509
▁beginner	-8510
▁believed	-8511
▁bloggers	-8512
▁blogging	-8513
▁boundary	-8514
▁campfire	-8515
▁capacity	-8516
▁catering	-8517
▁chatbots	-8518
▁cheerful	-8519
▁choosing	-8520
▁climbing	-8521
▁coaching	-8522
▁colorful	-8523
▁commands	-8524
▁commerce	-8525
▁committe	-8526
▁compound	-8527
▁compress	-8528
▁confront	-8529
▁confused	-8530
▁consumed	-8531
▁contents	-8532
▁covering	-8533
▁cultural	-8534
▁diagnose	-8535
▁disaster	-8536
▁division	-8537
▁divisive	-8538
▁downturn	-8539
▁dramatic	-8540
▁droughts	-8541
▁dynamics	-8542
▁earliest	-8543
▁ensemble	-8544
▁ensuring	-8545
▁equipped	-8546
▁explains	-8547
▁fixtures	-8548
▁flooding	-8549
▁fragrant	-8550
▁fullname	-8551
▁graceful	-8552
▁gripping	-8553
▁handling	-8554
▁handmade	-8555
▁hedgehog	-8556
▁historic	-8557
▁humanity	-8558
▁humorous	-8559
▁hydrogen	-8560
▁included	-8561
▁infected	-8562
▁injuries	-8563
▁integers	-8564
▁keywords	-8565
▁majestic	-8566
▁majority	-8567
▁meanings	-8568
▁misunder	-8569
▁mitigate	-8570
▁mnemonic	-8571
▁monetary	-8572
▁monitors	-8573
▁multiply	-8574
▁occasion	-8575
▁occurred	-8576
▁optimism	-8577
▁organism	-8578
▁outdated	-8579
▁overcome	-8580
▁overhead	-8581
▁overwhel	-8582
▁palpable	-8583
▁phishing	-8584
▁pleasing	-8585
▁promised	-8586
▁proposed	-8587
▁proteins	-8588
▁rankings	-8589
▁reaction	-8590
▁realizes	-8591
▁receives	-8592
▁sandwich	-8593
▁sculptor	-8594
▁sections	-8595
▁settings	-8596
▁singular	-8597
▁sleeping	-8598
▁soothing	-8599
▁speeding	-8600
▁spinning	-8601
▁starters	-8602
▁steadily	-8603
▁stealing	-8604
▁stirring	-8605
▁stranded	-8606
▁stumbled	-8607
▁stunning	-8608
▁sunshine	-8609
▁supervis	-8610
▁synapses	-8611
▁tackling	-8612
▁teachers	-8613
▁thorough	-8614
▁tranquil	-8615
▁transmit	-8616
▁trillion	-8617
▁turbines	-8618
▁turmeric	-8619
▁unbiased	-8620
▁ventured	-8621
▁weekends	-8622
▁wherever	-8623
▁withdraw	-8624
anthropist	-8625
inaigrette	-8626
▁Afterward	-8627
▁Cathedral	-8628
▁Caulfield	-8629
▁Communism	-8630
▁Countries	-8631
▁Establish	-8632
▁Gathering	-8633
▁Hollywood	-8634
▁Indonesia	-8635
▁Political	-8636
▁Represent	-8637
▁Stonewall	-8638
▁Unhealthy	-8639
▁Yesterday	-8640
▁abandoned	-8641
▁accidents	-8642
▁affecting	-8643
▁affection	-8644
▁afternoon	-8645
▁amazement	-8646
▁ambitious	-8647
▁answering	-8648
▁arguments	-8649
▁attitudes	-8650
▁believing	-8651
▁biography	-8652
▁borrowing	-8653
▁breakdown	-8654
▁brutality	-8655
▁celebrate	-8656
▁certainly	-8657
▁competing	-8658
▁component	-8659
▁confirmed	-8660
▁continued	-8661
▁dedicated	-8662
▁deploying	-8663
▁desirable	-8664
▁digestive	-8665
▁diversify	-8666
▁diversity	-8667
▁electrons	-8668
▁eliminate	-8669
▁emergency	-8670
▁employers	-8671
▁energetic	-8672
▁equitable	-8673
▁exercises	-8674
▁exhausted	-8675
▁expansion	-8676
▁factories	-8677
▁forgotten	-8678
▁fulfilled	-8679
▁furiously	-8680
▁generated	-8681
▁giveaways	-8682
▁guarantee	-8683
▁healthier	-8684
▁highlight	-8685
▁immersive	-8686
▁impressed	-8687
▁indicates	-8688
▁initially	-8689
▁integrity	-8690
▁interests	-8691
▁interview	-8692
▁intuitive	-8693
▁iterative	-8694
▁leftovers	-8695
▁legendary	-8696
▁leveraged	-8697
▁liberties	-8698
▁libraries	-8699
▁listening	-8700
▁logistics	-8701
▁longitude	-8702
▁lowercase	-8703
▁magnitude	-8704
▁masterful	-8705
▁mechanics	-8706
▁milkshake	-8707
▁movements	-8708
▁nightfall	-8709
▁numerator	-8710
▁overnight	-8711
▁pepperoni	-8712
▁performed	-8713
▁permanent	-8714
▁personnel	-8715
▁pneumonia	-8716
▁porcupine	-8717
▁president	-8718
▁promoting	-8719
▁protocols	-8720
▁purchases	-8721
▁reference	-8722
▁regarding	-8723
▁religious	-8724
▁reproduce	-8725
▁retrieval	-8726
▁satellite	-8727
▁satisfied	-8728
▁seemingly	-8729
▁selecting	-8730
▁stretches	-8731
▁struggles	-8732
▁suffering	-8733
▁syllables	-8734
▁targeting	-8735
▁temperate	-8736
▁thrilling	-8737
▁tolerance	-8738
▁twinkling	-8739
▁unchecked	-8740
▁uppercase	-8741
▁utilities	-8742
▁violation	-8743
▁yesterday	-8744
dimensional	-8745
environment	-8746
predictable	-8747
reshadowing	-8748
▁Cinderella	-8749
▁Democratic	-8750
▁Department	-8751
▁Increasing	-8752
▁Individual	-8753
▁Limousines	-8754
▁Meditation	-8755
▁Occupation	-8756
▁Prioritize	-8757
▁Protestant	-8758
▁SportShack	-8759
▁Strategies	-8760
▁University	-8761
▁Vegetables	-8762
▁Washington	-8763
▁acceptance	-8764
▁achievable	-8765
▁attractive	-8766
▁calculated	-8767
▁candidates	-8768
▁compassion	-8769
▁completion	-8770
▁comprehend	-8771
▁containers	-8772
▁continents	-8773
▁corrupting	-8774
▁curriculum	-8775
▁cybercrime	-8776
▁delightful	-8777
▁dependence	-8778
▁derivative	-8779
▁discomfort	-8780
▁discovered	-8781
▁discussing	-8782
▁driverless	-8783
▁earthquake	-8784
▁embeddings	-8785
▁enthusiasm	-8786
▁evaluation	-8787
▁expiration	-8788
▁expressing	-8789
▁frequently	-8790
▁generating	-8791
▁generation	-8792
▁geographic	-8793
▁homophones	-8794
▁households	-8795
▁identified	-8796
▁insulation	-8797
▁introduced	-8798
▁mechanical	-8799
▁mechanisms	-8800
▁mitigating	-8801
▁multimedia	-8802
▁paragraphs	-8803
▁parameters	-8804
▁photoshoot	-8805
▁plagiarism	-8806
▁popularity	-8807
▁positively	-8808
▁predictors	-8809
▁procedures	-8810
▁purchasing	-8811
▁retirement	-8812
▁screenshot	-8813
▁suggesting	-8814
▁suggestion	-8815
▁tablespoon	-8816
▁thermostat	-8817
▁unplugging	-8818
▁widespread	-8819
▁wildflower	-8820
▁Altostratus	-8821
▁Declarative	-8822
▁Engineering	-8823
▁Governments	-8824
▁Mockingbird	-8825
▁Philosopher	-8826
▁Respiratory	-8827
▁Unfavorable	-8828
▁accordingly	-8829
▁algorithmic	-8830
▁atmospheric	-8831
▁centralized	-8832
▁commonplace	-8833
▁communities	-8834
▁decorations	-8835
▁denominator	-8836
▁departments	-8837
▁exceptional	-8838
▁existential	-8839
▁expressions	-8840
▁illuminated	-8841
▁imagination	-8842
▁integration	-8843
▁investigate	-8844
▁limitations	-8845
▁magnificent	-8846
▁mesmerizing	-8847
▁motherboard	-8848
▁multiplying	-8849
▁probability	-8850
▁professions	-8851
▁promotional	-8852
▁raspberries	-8853
▁recruitment	-8854
▁represented	-8855
▁researchers	-8856
▁respiration	-8857
▁restaurants	-8858
▁substantive	-8859
▁summarizing	-8860
▁surrounding	-8861
▁transformed	-8862
▁translation	-8863
▁transparent	-8864
▁uncertainty	-8865
▁Christianity	-8866
▁Independence	-8867
▁Metropolitan	-8868
▁Nimbostratus	-8869
▁Strawberries	-8870
▁accomplished	-8871
▁advantageous	-8872
▁alternatives	-8873
▁architecture	-8874
▁compositions	-8875
▁correlations	-8876
▁demonstrates	-8877
▁descriptions	-8878
▁developments	-8879
▁displacement	-8880
▁experiencing	-8881
▁geographical	-8882
▁hierarchical	-8883
▁illustrating	-8884
▁inflammation	-8885
▁infringement	-8886
▁installation	-8887
▁interactions	-8888
▁intimidating	-8889
▁overcrowding	-8890
▁participants	-8891
▁preservation	-8892
▁refrigerator	-8893
▁representing	-8894
▁restrictions	-8895
▁similarities	-8896
▁storytelling	-8897
▁unstructured	-8898
-----|--------	-8899
ersonalization	-8900
▁Communication	-8901
▁International	-8902
▁Lauterbrunnen	-8903
▁Understanding	-8904
▁biodegradable	-8905
▁biotechnology	-8906
▁differentiate	-8907
▁disadvantages	-8908
▁electromagnet	-8909
▁interpersonal	-8910
▁protectionism	-8911
▁radioactivity	-8912
▁unconditional	-8913
▁unforgettable	-8914
▁visualization	-8915
▁Thermodynamics	-8916
▁authentication	-8917
▁communications	-8918
▁concentrations	-8919
▁cryptocurrency	-8920
▁discrimination	-8921
▁explainability	-8922
▁philanthropist	-8923
▁responsibility	-8924
▁Recommendations	-8925
▁personalization	-8926
)/	-8927
++	-8928
=[	-8929
AR	-8930
As	-8931
BM	-8932
DD	-8933
Dr	-8934
FL	-8935
Fi	-8936
GH	-8937
Go	-8938
HR	-8939
IT	-8940
Is	-8941
La	-8942
ME	-8943
My	-8944
No	-8945
OP	-8946
PM	-8947
Ps	-8948
RL	-8949
St	-8950
TC	-8951
Th	-8952
Up	-8953
VM	-8954
VP	-8955
Wh	-8956
]]	-8957
bl	-8958
cu	-8959
hm	-8960
ht	-8961
ml	-8962
pm	-8963
sk	-8964
sm	-8965
tr	-8966
uh	-8967
uk	-8968
uo	-8969
wi	-8970
wl	-8971
}"	-8972
▁.	-8973
')]	-8974
())	-8975
ARI	-8976
All	-8977
CDC	-8978
CNN	-8979
Con	-8980
Don	-8981
ERE	-8982
Ens	-8983
Fla	-8984
GAW	-8985
GHz	-8986
IPP	-8987
IsC	-8988
Res	-8989
SOS	-8990
SPs	-8991
She	-8992
aco	-8993
ana	-8994
bbf	-8995
big	-8996
blo	-8997
bro	-8998
cal	-8999
cet	-9000
chn	-9001
cue	-9002
dar	-9003
det	-9004
doe	-9005
eek	-9006
emi	-9007
ena	-9008
ett	-9009
evs	-9010
fox	-9011
fre	-9012
gal	-9013
gas	-9014
gun	-9015
hea	-9016
hib	-9017
hur	-9018
hyr	-9019
ias	-9020
ibl	-9021
ika	-9022
ilk	-9023
inf	-9024
isl	-9025
kra	-9026
lim	-9027
mag	-9028
mia	-9029
mod	-9030
nik	-9031
oic	-9032
oil	-9033
olk	-9034
oll	-9035
olt	-9036
oly	-9037
ona	-9038
oop	-9039
opy	-9040
pad	-9041
pez	-9042
pty	-9043
qrt	-9044
rid	-9045
rog	-9046
rub	-9047
rum	-9048
sac	-9049
ses	-9050
stb	-9051
sun	-9052
swe	-9053
tax	-9054
thy	-9055
tti	-9056
tun	-9057
uay	-9058
uba	-9059
ups	-9060
upt	-9061
vas	-9062
voc	-9063
win	-9064
yla	-9065
yme	-9066
yod	-9067
yte	-9068
yur	-9069
zed	-9070
▁($	-9071
▁//	-9072
▁AM	-9073
▁Ac	-9074
▁BP	-9075
▁Bo	-9076
▁CI	-9077
▁Cy	-9078
▁Fo	-9079
▁Mi	-9080
▁Mo	-9081
▁Mr	-9082
▁Ms	-9083
▁OK	-9084
▁Ra	-9085
▁Sn	-9086
▁UN	-9087
▁VI	-9088
▁WH	-9089
▁Wi	-9090
▁[[	-9091
▁[]	-9092
▁ii	-9093
▁kg	-9094
▁mx	-9095
▁nu	-9096
▁ox	-9097
▁{}	-9098
Acme	-9099
Char	-9100
Core	-9101
HTML	-9102
Prim	-9103
Prot	-9104
Tips	-9105
User	-9106
VARI	-9107
Will	-9108
Witt	-9109
acea	-9110
ache	-9111
acul	-9112
aghe	-9113
agua	-9114
ahat	-9115
ahnh	-9116
aire	-9117
alia	-9118
alog	-9119
anag	-9120
ancy	-9121
antt	-9122
aper	-9123
arks	-9124
artt	-9125
asts	-9126
asty	-9127
athy	-9128
atom	-9129
atue	-9130
atur	-9131
aulo	-9132
aval	-9133
azer	-9134
bara	-9135
bate	-9136
boat	-9137
body	-9138
bole	-9139
born	-9140
bour	-9141
buds	-9142
ccer	-9143
chat	-9144
chro	-9145
cies	-9146
cogn	-9147
coin	-9148
cuss	-9149
dish	-9150
eing	-9151
elho	-9152
elia	-9153
elle	-9154
emet	-9155
emon	-9156
enic	-9157
enos	-9158
enus	-9159
erat	-9160
eria	-9161
erts	-9162
ewit	-9163
ewor	-9164
felt	-9165
fits	-9166
foot	-9167
fuly	-9168
gant	-9169
gien	-9170
gins	-9171
good	-9172
gree	-9173
hand	-9174
hart	-9175
hess	-9176
hire	-9177
html	-9178
hyth	-9179
iano	-9180
icep	-9181
idst	-9182
ieve	-9183
ikip	-9184
ilbl	-9185
ilem	-9186
ilom	-9187
ilty	-9188
ilyn	-9189
inea	-9190
inoa	-9191
inoc	-9192
inos	-9193
inse	-9194
inte	-9195
iplo	-9196
irky	-9197
isen	-9198
isha	-9199
john	-9200
kers	-9201
kilo	-9202
lery	-9203
lomb	-9204
look	-9205
lore	-9206
mati	-9207
mium	-9208
ners	-9209
next	-9210
nsyl	-9211
oevs	-9212
ofta	-9213
oget	-9214
oken	-9215
okus	-9216
onka	-9217
oole	-9218
open	-9219
opot	-9220
oreg	-9221
osce	-9222
otal	-9223
ouch	-9224
oufl	-9225
ounc	-9226
pack	-9227
pond	-9228
post	-9229
ptom	-9230
rane	-9231
raps	-9232
real	-9233
rike	-9234
rink	-9235
rise	-9236
rium	-9237
rize	-9238
rome	-9239
rous	-9240
rows	-9241
sect	-9242
seen	-9243
sera	-9244
ship	-9245
sion	-9246
site	-9247
stig	-9248
suit	-9249
tebr	-9250
tein	-9251
ueen	-9252
uhan	-9253
uick	-9254
uing	-9255
ules	-9256
ulet	-9257
ulls	-9258
ulse	-9259
umes	-9260
unci	-9261
unge	-9262
ungs	-9263
unte	-9264
uros	-9265
urse	-9266
utch	-9267
vada	-9268
vasc	-9269
veda	-9270
velo	-9271
viol	-9272
vity	-9273
vous	-9274
wner	-9275
writ	-9276
yiel	-9277
▁ATP	-9278
▁Ads	-9279
▁Ali	-9280
▁Any	-9281
▁Ben	-9282
▁Bon	-9283
▁Buk	-9284
▁CFL	-9285
▁Clo	-9286
▁Cob	-9287
▁Cow	-9288
▁DNA	-9289
▁Dam	-9290
▁Div	-9291
▁Doe	-9292
▁Dol	-9293
▁Dor	-9294
▁Emm	-9295
▁Enh	-9296
▁Ent	-9297
▁Exp	-9298
▁Fac	-9299
▁Fil	-9300
▁Fix	-9301
▁Fro	-9302
▁Gen	-9303
▁Gro	-9304
▁Hat	-9305
▁Hel	-9306
▁Hob	-9307
▁Hom	-9308
▁Hot	-9309
▁IBM	-9310
▁IoT	-9311
▁Jam	-9312
▁Jay	-9313
▁Jim	-9314
▁Las	-9315
▁Lat	-9316
▁Lee	-9317
▁Lut	-9318
▁Lux	-9319
▁MVP	-9320
▁Mac	-9321
▁Maj	-9322
▁Min	-9323
▁Mis	-9324
▁Mit	-9325
▁Moh	-9326
▁Nit	-9327
▁Ott	-9328
▁Pat	-9329
▁Pig	-9330
▁Por	-9331
▁Pun	-9332
▁Pur	-9333
▁Ref	-9334
▁Rio	-9335
▁Run	-9336
▁SVM	-9337
▁Sad	-9338
▁Sen	-9339
▁Sil	-9340
▁Slo	-9341
▁Son	-9342
▁Ste	-9343
▁Sup	-9344
▁Sur	-9345
▁Sym	-9346
▁TOP	-9347
▁Tax	-9348
▁Tem	-9349
▁USB	-9350
▁USD	-9351
▁UTC	-9352
▁Upr	-9353
▁Vib	-9354
▁Vio	-9355
▁Wow	-9356
▁agg	-9357
▁ail	-9358
▁bon	-9359
▁bul	-9360
▁cam	-9361
▁cou	-9362
▁cow	-9363
▁dra	-9364
▁dut	-9365
▁dys	-9366
▁erg	-9367
▁fer	-9368
▁fis	-9369
▁gad	-9370
▁gle	-9371
▁hoo	-9372
▁ign	-9373
▁isn	-9374
▁jog	-9375
▁jov	-9376
▁ker	-9377
▁lic	-9378
▁liv	-9379
▁mad	-9380
▁map	-9381
▁mop	-9382
▁mun	-9383
▁nar	-9384
▁net	-9385
▁nor	-9386
▁oat	-9387
▁obv	-9388
▁pad	-9389
▁pig	-9390
▁pon	-9391
▁pra	-9392
▁pub	-9393
▁ras	-9394
▁ray	-9395
▁rib	-9396
▁ric	-9397
▁row	-9398
▁rub	-9399
▁ses	-9400
▁sex	-9401
▁sle	-9402
▁sta	-9403
▁ton	-9404
▁tut	-9405
▁umb	-9406
▁una	-9407
▁wel	-9408
Apple	-9409
April	-9410
Based	-9411
Brand	-9412
Clean	-9413
Crime	-9414
Frequ	-9415
Harry	-9416
Hello	-9417
Reven	-9418
Sonic	-9419
Table	-9420
Treat	-9421
Trump	-9422
abbed	-9423
abits	-9424
absor	-9425
accur	-9426
acean	-9427
aceut	-9428
acill	-9429
acock	-9430
adian	-9431
adium	-9432
afety	-9433
affod	-9434
aguay	-9435
allas	-9436
alled	-9437
allel	-9438
ament	-9439
amily	-9440
ammad	-9441
ansom	-9442
apest	-9443
arent	-9444
arkin	-9445
artha	-9446
askol	-9447
aters	-9448
brace	-9449
brevi	-9450
bulbs	-9451
canic	-9452
ceive	-9453
chars	-9454
chure	-9455
cious	-9456
cycle	-9457
depth	-9458
duous	-9459
eared	-9460
eches	-9461
effic	-9462
ellar	-9463
elles	-9464
elson	-9465
emade	-9466
embly	-9467
enezu	-9468
ephyr	-9469
erior	-9470
erted	-9471
erves	-9472
etown	-9473
faces	-9474
field	-9475
fills	-9476
flies	-9477
front	-9478
giene	-9479
great	-9480
green	-9481
guise	-9482
habit	-9483
hears	-9484
heavy	-9485
hello	-9486
hells	-9487
hered	-9488
human	-9489
hurst	-9490
hythm	-9491
icals	-9492
ician	-9493
icide	-9494
icter	-9495
ierra	-9496
ieval	-9497
iffel	-9498
ilets	-9499
impse	-9500
inach	-9501
inely	-9502
inion	-9503
inois	-9504
ipher	-9505
isons	-9506
isted	-9507
istle	-9508
itage	-9509
izzes	-9510
keley	-9511
laken	-9512
lored	-9513
ludes	-9514
marks	-9515
mooth	-9516
neath	-9517
nikov	-9518
noout	-9519
notch	-9520
ocean	-9521
ogram	-9522
omnia	-9523
onium	-9524
onyms	-9525
oodle	-9526
opper	-9527
opter	-9528
oring	-9529
osite	-9530
oston	-9531
otene	-9532
owave	-9533
paced	-9534
paper	-9535
party	-9536
peach	-9537
peaks	-9538
perme	-9539
phins	-9540
poned	-9541
power	-9542
ptune	-9543
pture	-9544
putes	-9545
ranus	-9546
reach	-9547
rella	-9548
ribal	-9549
rizes	-9550
stack	-9551
start	-9552
stick	-9553
stoic	-9554
tical	-9555
ulfed	-9556
ungry	-9557
urous	-9558
urpos	-9559
urred	-9560
usage	-9561
utiny	-9562
utral	-9563
vador	-9564
vania	-9565
viate	-9566
works	-9567
ycled	-9568
yodor	-9569
yonce	-9570
▁....	-9571
▁ACME	-9572
▁ASOS	-9573
▁Anne	-9574
▁Ayur	-9575
▁Back	-9576
▁Bank	-9577
▁Base	-9578
▁Bern	-9579
▁Buch	-9580
▁CNNs	-9581
▁Camp	-9582
▁Caus	-9583
▁Cite	-9584
▁Cold	-9585
▁DESC	-9586
▁Dali	-9587
▁Date	-9588
▁Desc	-9589
▁Dest	-9590
▁Diet	-9591
▁Diff	-9592
▁Dire	-9593
▁Dist	-9594
▁Dost	-9595
▁Duck	-9596
▁East	-9597
▁Educ	-9598
▁Elon	-9599
▁Endo	-9600
▁Even	-9601
▁Fish	-9602
▁Flow	-9603
▁Fort	-9604
▁Fost	-9605
▁Four	-9606
▁Grad	-9607
▁Grow	-9608
▁Herm	-9609
▁Idea	-9610
▁Iter	-9611
▁Join	-9612
▁KIPP	-9613
▁Kale	-9614
▁Kats	-9615
▁Kens	-9616
▁Kitt	-9617
▁Lack	-9618
▁Land	-9619
▁Leap	-9620
▁Line	-9621
▁Loan	-9622
▁Long	-9623
▁Loss	-9624
▁Loud	-9625
▁Lyon	-9626
▁Male	-9627
▁Mamm	-9628
▁Mand	-9629
▁Maps	-9630
▁Mind	-9631
▁Move	-9632
▁Near	-9633
▁Next	-9634
▁Nice	-9635
▁Nick	-9636
▁Nile	-9637
▁Nina	-9638
▁Nort	-9639
▁Noun	-9640
▁Okay	-9641
▁Only	-9642
▁Oral	-9643
▁Page	-9644
▁Pank	-9645
▁Pear	-9646
▁Phys	-9647
▁Pine	-9648
▁Poem	-9649
▁Port	-9650
▁Pros	-9651
▁Rent	-9652
▁Road	-9653
▁Roll	-9654
▁Rose	-9655
▁Rule	-9656
▁Save	-9657
▁Sche	-9658
▁Scot	-9659
▁Seek	-9660
▁Sept	-9661
▁Song	-9662
▁Spec	-9663
▁Spot	-9664
▁Synd	-9665
▁Talk	-9666
▁Task	-9667
▁Thai	-9668
▁Thus	-9669
▁Tips	-9670
▁Tolk	-9671
▁Toul	-9672
▁Town	-9673
▁Tree	-9674
▁Vari	-9675
▁Very	-9676
▁Vote	-9677
▁Wall	-9678
▁Warm	-9679
▁Wars	-9680
▁Wave	-9681
▁Well	-9682
▁Wide	-9683
▁Wolf	-9684
▁Yeah	-9685
▁abol	-9686
▁acts	-9687
▁adhe	-9688
▁aest	-9689
▁aged	-9690
▁aver	-9691
▁band	-9692
▁bare	-9693
▁bars	-9694
▁bask	-9695
▁beef	-9696
▁boil	-9697
▁boys	-9698
▁brew	-9699
▁bron	-9700
▁buck	-9701
▁bunn	-9702
▁buzz	-9703
▁cabb	-9704
▁cafe	-9705
▁caff	-9706
▁cans	-9707
▁carp	-9708
▁cart	-9709
▁caut	-9710
▁ched	-9711
▁coin	-9712
▁cond	-9713
▁cori	-9714
▁coup	-9715
▁cues	-9716
▁curi	-9717
▁curl	-9718
▁cyto	-9719
▁deck	-9720
▁demo	-9721
▁dorm	-9722
▁drop	-9723
▁drum	-9724
▁duck	-9725
▁dust	-9726
▁eats	-9727
▁echo	-9728
▁ecst	-9729
▁elev	-9730
▁elif	-9731
▁enig	-9732
▁epic	-9733
▁evap	-9734
▁fake	-9735
▁fame	-9736
▁fans	-9737
▁farm	-9738
▁fate	-9739
▁fees	-9740
▁fest	-9741
▁fing	-9742
▁flur	-9743
▁fool	-9744
▁forb	-9745
▁fres	-9746
▁furn	-9747
▁gaps	-9748
▁gate	-9749
▁gift	-9750
▁gran	-9751
▁grew	-9752
▁hadn	-9753
▁hold	-9754
▁hous	-9755
▁hues	-9756
▁jung	-9757
▁lazy	-9758
▁leap	-9759
▁lect	-9760
▁lent	-9761
▁leop	-9762
▁lime	-9763
▁loaf	-9764
▁lock	-9765
▁loom	-9766
▁loop	-9767
▁maps	-9768
▁midi	-9769
▁mild	-9770
▁mill	-9771
▁mode	-9772
▁nice	-9773
▁none	-9774
▁norm	-9775
▁nose	-9776
▁nurt	-9777
▁okra	-9778
▁pine	-9779
▁pour	-9780
▁prop	-9781
▁pump	-9782
▁pure	-9783
▁quad	-9784
▁rept	-9785
▁reun	-9786
▁roll	-9787
▁ruth	-9788
▁scan	-9789
▁scav	-9790
▁semi	-9791
▁sibl	-9792
▁sink	-9793
▁snee	-9794
▁soda	-9795
▁stat	-9796
▁stem	-9797
▁stra	-9798
▁suis	-9799
▁swap	-9800
▁sway	-9801
▁tear	-9802
▁tell	-9803
▁tire	-9804
▁toll	-9805
▁tour	-9806
▁trap	-9807
▁tsun	-9808
▁unch	-9809
▁vest	-9810
▁visc	-9811
▁wake	-9812
▁wast	-9813
▁wear	-9814
▁wife	-9815
------	-9816
Americ	-9817
Butter	-9818
Donald	-9819
Driven	-9820
Energy	-9821
Ensure	-9822
Esteem	-9823
Flaunt	-9824
Monday	-9825
Senior	-9826
actyla	-9827
acular	-9828
ahatma	-9829
ahnhof	-9830
ainbow	-9831
ammers	-9832
amuses	-9833
angoes	-9834
animal	-9835
annels	-9836
anuary	-9837
aparte	-9838
append	-9839
ardous	-9840
arking	-9841
arrhea	-9842
arting	-9843
artiod	-9844
ateful	-9845
ategic	-9846
atings	-9847
biased	-9848
boards	-9849
bottle	-9850
celona	-9851
cement	-9852
change	-9853
charge	-9854
chitis	-9855
commun	-9856
cuador	-9857
dinger	-9858
econom	-9859
ective	-9860
elines	-9861
ellent	-9862
emused	-9863
encils	-9864
entive	-9865
enuity	-9866
erable	-9867
ersity	-9868
factor	-9869
fruits	-9870
header	-9871
hengen	-9872
ifiers	-9873
igator	-9874
inance	-9875
inates	-9876
income	-9877
ington	-9878
ipient	-9879
ippery	-9880
isions	-9881
ission	-9882
istant	-9883
isters	-9884
itanic	-9885
izable	-9886
keeper	-9887
ledges	-9888
lobyte	-9889
locity	-9890
lombia	-9891
loying	-9892
mering	-9893
minent	-9894
mistry	-9895
modate	-9896
modern	-9897
nicity	-9898
number	-9899
ocence	-9900
ochond	-9901
oevsky	-9902
ogenic	-9903
okusai	-9904
onance	-9905
ooters	-9906
oppers	-9907
orange	-9908
orials	-9909
orists	-9910
ortion	-9911
panied	-9912
points	-9913
poises	-9914
pother	-9915
quakes	-9916
rables	-9917
ranean	-9918
rapist	-9919
rating	-9920
reduce	-9921
rients	-9922
rolled	-9923
ronomy	-9924
rugged	-9925
ruguay	-9926
seille	-9927
smosis	-9928
source	-9929
stants	-9930
stbite	-9931
suited	-9932
swered	-9933
uctive	-9934
ughing	-9935
ulated	-9936
unique	-9937
unting	-9938
urated	-9939
ursday	-9940
ushika	-9941
uspect	-9942
ussian	-9943
vering	-9944
versed	-9945
weight	-9946
▁Achie	-9947
▁Actor	-9948
▁Alche	-9949
▁Algae	-9950
▁Alice	-9951
▁Along	-9952
▁Ambig	-9953
▁Below	-9954
▁Books	-9955
▁Canal	-9956
▁Cemet	-9957
▁Check	-9958
▁Chron	-9959
▁Click	-9960
▁Could	-9961
▁Court	-9962
▁Craft	-9963
▁Cross	-9964
▁Curry	-9965
▁Doing	-9966
▁Donna	-9967
▁Donne	-9968
▁Dream	-9969
▁Dutch	-9970
▁Error	-9971
▁Excel	-9972
▁Expon	-9973
▁Extra	-9974
▁Faith	-9975
▁Fresh	-9976
▁Fruit	-9977
▁Games	-9978
▁Gantt	-9979
▁Glist	-9980
▁Going	-9981
▁Group	-9982
▁Happy	-9983
▁Incor	-9984
▁Influ	-9985
▁Innov	-9986
▁Islam	-9987
▁Isles	-9988
▁Items	-9989
▁James	-9990
▁Kanag	-9991
▁Knife	-9992
▁Labor	-9993
▁Larry	-9994
▁Legal	-9995
▁Lemon	-9996
▁Locke	-9997
▁Louis	-9998
▁Miami	-9999
▁Molly	-10000
▁Multi	-10001
▁Obama	-10002
▁Optim	-10003
▁Order	-10004
▁Overn	-10005
▁Owner	-10006
▁Paulo	-10007
▁Peter	-10008
▁Pride	-10009
▁Print	-10010
▁Prize	-10011
▁Purch	-10012
▁Resil	-10013
▁Retic	-10014
▁Ridge	-10015
▁Rinse	-10016
▁Roses	-10017
▁Royal	-10018
▁Sales	-10019
▁Schro	-10020
▁Scout	-10021
▁Share	-10022
▁Stars	-10023
▁Stick	-10024
▁Style	-10025
▁Sunny	-10026
▁Tartt	-10027
▁Total	-10028
▁Types	-10029
▁USERS	-10030
▁Vegas	-10031
▁Venus	-10032
▁Voice	-10033
▁WHERE	-10034
▁Wikip	-10035
▁Wonka	-10036
▁Wuhan	-10037
▁Years	-10038
▁_____	-10039
▁abund	-10040
▁advis	-10041
▁align	-10042
▁alley	-10043
▁alter	-10044
▁angle	-10045
▁angry	-10046
▁annot	-10047
▁apply	-10048
▁arena	-10049
▁aroma	-10050
▁aside	-10051
▁asset	-10052
▁bacon	-10053
▁baker	-10054
▁banks	-10055
▁basil	-10056
▁basis	-10057
▁beans	-10058
▁bills	-10059
▁biome	-10060
▁bliss	-10061
▁bloom	-10062
▁bones	-10063
▁brill	-10064
▁broom	-10065
▁broth	-10066
▁bulbs	-10067
▁bytes	-10068
▁cable	-10069
▁capit	-10070
▁chess	-10071
▁chill	-10072
▁cinem	-10073
▁cliff	-10074
▁codes	-10075
▁compl	-10076
▁cooks	-10077
▁crest	-10078
▁cubes	-10079
▁cyber	-10080
▁dared	-10081
▁deals	-10082
▁depth	-10083
▁dilem	-10084
▁dilig	-10085
▁dimin	-10086
▁dinos	-10087
▁diplo	-10088
▁diver	-10089
▁doesn	-10090
▁domin	-10091
▁doubt	-10092
▁drain	-10093
▁dread	-10094
▁drift	-10095
▁drink	-10096
▁drugs	-10097
▁empir	-10098
▁empty	-10099
▁energ	-10100
▁enter	-10101
▁erupt	-10102
▁escal	-10103
▁ethic	-10104
▁euros	-10105
▁excel	-10106
▁expon	-10107
▁faces	-10108
▁fails	-10109
▁faith	-10110
▁fault	-10111
▁fence	-10112
▁fever	-10113
▁fifty	-10114
▁filed	-10115
▁fluct	-10116
▁gears	-10117
▁genet	-10118
▁genus	-10119
▁gifts	-10120
▁glass	-10121
▁glist	-10122
▁glory	-10123
▁glows	-10124
▁gorge	-10125
▁grams	-10126
▁grape	-10127
▁grill	-10128
▁guess	-10129
▁guilt	-10130
▁haven	-10131
▁honor	-10132
▁imple	-10133
▁infra	-10134
▁inund	-10135
▁irreg	-10136
▁jeans	-10137
▁journ	-10138
▁jumps	-10139
▁kilom	-10140
▁knack	-10141
▁leaks	-10142
▁lemur	-10143
▁lingu	-10144
▁lions	-10145
▁lists	-10146
▁logic	-10147
▁lumin	-10148
▁lungs	-10149
▁march	-10150
▁marks	-10151
▁maybe	-10152
▁midst	-10153
▁mixed	-10154
▁mouth	-10155
▁nails	-10156
▁natur	-10157
▁newly	-10158
▁niche	-10159
▁noble	-10160
▁nodeB	-10161
▁notes	-10162
▁occup	-10163
▁orbit	-10164
▁ounce	-10165
▁outer	-10166
▁owner	-10167
▁pairs	-10168
▁paste	-10169
▁petro	-10170
▁piano	-10171
▁pinch	-10172
▁plain	-10173
▁plate	-10174
▁ports	-10175
▁psych	-10176
▁races	-10177
▁raise	-10178
▁relay	-10179
▁repay	-10180
▁reper	-10181
▁repet	-10182
▁reput	-10183
▁salty	-10184
▁scall	-10185
▁seems	-10186
▁shall	-10187
▁sheer	-10188
▁shelf	-10189
▁shoes	-10190
▁shore	-10191
▁skies	-10192
▁slots	-10193
▁sniff	-10194
▁soaps	-10195
▁songs	-10196
▁sorts	-10197
▁spicy	-10198
▁steam	-10199
▁steep	-10200
▁stood	-10201
▁straw	-10202
▁suite	-10203
▁suits	-10204
▁swapp	-10205
▁swift	-10206
▁sword	-10207
▁tacos	-10208
▁tangy	-10209
▁tasty	-10210
▁threw	-10211
▁thyme	-10212
▁toast	-10213
▁tooth	-10214
▁tourn	-10215
▁towel	-10216
▁trend	-10217
▁tries	-10218
▁unint	-10219
▁urban	-10220
▁verbs	-10221
▁volum	-10222
▁waved	-10223
▁weigh	-10224
▁wheat	-10225
▁wheel	-10226
▁women	-10227
▁worms	-10228
▁worsh	-10229
▁yours	-10230
▁youth	-10231
▁zones	-10232
Climate	-10233
Patient	-10234
Primary	-10235
Provide	-10236
Revenue	-10237
Sharing	-10238
Updates	-10239
actions	-10240
aculous	-10241
aghetti	-10242
akening	-10243
aminate	-10244
angular	-10245
aphrase	-10246
apocaly	-10247
atively	-10248
bercrim	-10249
bitrate	-10250
centric	-10251
chology	-10252
crafted	-10253
develop	-10254
diments	-10255
eratops	-10256
ergents	-10257
esterol	-10258
factory	-10259
fitting	-10260
gantuan	-10261
gebraic	-10262
greater	-10263
hearted	-10264
henberg	-10265
iciency	-10266
icipate	-10267
igation	-10268
ilantro	-10269
inerary	-10270
initely	-10271
ishings	-10272
istence	-10273
istries	-10274
itorium	-10275
jectory	-10276
johndoe	-10277
leshoot	-10278
masters	-10279
mentary	-10280
mingham	-10281
moothie	-10282
ocolate	-10283
ogether	-10284
onguous	-10285
orphins	-10286
osceles	-10287
osition	-10288
ouflage	-10289
outhern	-10290
parency	-10291
pectors	-10292
pitched	-10293
plasmic	-10294
plation	-10295
ponding	-10296
present	-10297
private	-10298
privile	-10299
reading	-10300
rencies	-10301
renders	-10302
resents	-10303
reverse	-10304
ricious	-10305
rogator	-10306
success	-10307
support	-10308
sustain	-10309
taining	-10310
ubilant	-10311
ublican	-10312
usement	-10313
veloper	-10314
venture	-10315
violent	-10316
written	-10317
▁......	-10318
▁Affect	-10319
▁Agency	-10320
▁Alisha	-10321
▁Amelia	-10322
▁Antrim	-10323
▁Appear	-10324
▁Apples	-10325
▁Assess	-10326
▁Athens	-10327
▁August	-10328
▁Barack	-10329
▁Batter	-10330
▁Beauty	-10331
▁Begins	-10332
▁Biased	-10333
▁Boston	-10334
▁Branch	-10335
▁Bridge	-10336
▁Bright	-10337
▁Butter	-10338
▁Canyon	-10339
▁Causes	-10340
▁Cities	-10341
▁Cobalt	-10342
▁Coelho	-10343
▁Copper	-10344
▁Dallas	-10345
▁DeWitt	-10346
▁Declar	-10347
▁Denver	-10348
▁Device	-10349
▁Devise	-10350
▁Dinner	-10351
▁Divide	-10352
▁Doctor	-10353
▁Dorian	-10354
▁Eiffel	-10355
▁Facial	-10356
▁Ferris	-10357
▁Forest	-10358
▁Fyodor	-10359
▁Garden	-10360
▁German	-10361
▁Grapes	-10362
▁Height	-10363
▁Heisen	-10364
▁Heroes	-10365
▁Hurric	-10366
▁Issues	-10367
▁Juliet	-10368
▁Larkin	-10369
▁Luther	-10370
▁Luxemb	-10371
▁Markup	-10372
▁Mashed	-10373
▁Monroe	-10374
▁Myster	-10375
▁Nature	-10376
▁Nelson	-10377
▁Nether	-10378
▁Nevada	-10379
▁Noodle	-10380
▁Normal	-10381
▁Orders	-10382
▁Ottawa	-10383
▁Palace	-10384
▁Parfit	-10385
▁Pepper	-10386
▁Phrase	-10387
▁Pigeon	-10388
▁Polish	-10389
▁Prices	-10390
▁Radius	-10391
▁Random	-10392
▁Raskol	-10393
▁Reddit	-10394
▁Saturn	-10395
▁Secure	-10396
▁Severe	-10397
▁Sierra	-10398
▁Soccer	-10399
▁Softly	-10400
▁Spread	-10401
▁Starry	-10402
▁Statue	-10403
▁Streng	-10404
▁Struct	-10405
▁Switch	-10406
▁Temper	-10407
▁Thames	-10408
▁Theory	-10409
▁Tigers	-10410
▁Uranus	-10411
▁Weight	-10412
▁Yellow	-10413
▁absorb	-10414
▁affirm	-10415
▁allied	-10416
▁assass	-10417
▁autumn	-10418
▁beaver	-10419
▁beings	-10420
▁biomes	-10421
▁blazer	-10422
▁border	-10423
▁camera	-10424
▁canned	-10425
▁canvas	-10426
▁celery	-10427
▁chains	-10428
▁chorus	-10429
▁claims	-10430
▁compat	-10431
▁confid	-10432
▁copied	-10433
▁corals	-10434
▁costly	-10435
▁couple	-10436
▁covers	-10437
▁crying	-10438
▁cutoff	-10439
▁daring	-10440
▁darker	-10441
▁deeply	-10442
▁desert	-10443
▁desire	-10444
▁detest	-10445
▁differ	-10446
▁dispos	-10447
▁dollop	-10448
▁double	-10449
▁drains	-10450
▁driven	-10451
▁drives	-10452
▁duties	-10453
▁editor	-10454
▁enters	-10455
▁entity	-10456
▁exists	-10457
▁extend	-10458
▁eyewit	-10459
▁fading	-10460
▁fairer	-10461
▁father	-10462
▁fifths	-10463
▁finger	-10464
▁fiscal	-10465
▁fixing	-10466
▁floats	-10467
▁footer	-10468
▁former	-10469
▁frames	-10470
▁freeze	-10471
▁fridge	-10472
▁gained	-10473
▁gaming	-10474
▁gasses	-10475
▁genius	-10476
▁grains	-10477
▁guided	-10478
▁hammer	-10479
▁heater	-10480
▁hiring	-10481
▁hooves	-10482
▁houses	-10483
▁hugely	-10484
▁hungry	-10485
▁iWatch	-10486
▁injust	-10487
▁intake	-10488
▁intent	-10489
▁inters	-10490
▁inward	-10491
▁jogged	-10492
▁joyful	-10493
▁juices	-10494
▁jumped	-10495
▁kernel	-10496
▁legisl	-10497
▁lender	-10498
▁lesson	-10499
▁litter	-10500
▁loudly	-10501
▁majors	-10502
▁melody	-10503
▁melted	-10504
▁member	-10505
▁meowed	-10506
▁mighty	-10507
▁miners	-10508
▁mirror	-10509
▁misuse	-10510
▁moving	-10511
▁mutual	-10512
▁notion	-10513
▁opting	-10514
▁ounces	-10515
▁outlet	-10516
▁owners	-10517
▁pandas	-10518
▁passes	-10519
▁penetr	-10520
▁pestic	-10521
▁plates	-10522
▁plural	-10523
▁poetic	-10524
▁poetry	-10525
▁polite	-10526
▁precip	-10527
▁premie	-10528
▁priced	-10529
▁prince	-10530
▁prints	-10531
▁proven	-10532
▁purple	-10533
▁quiche	-10534
▁quirky	-10535
▁rabbit	-10536
▁raises	-10537
▁ranger	-10538
▁recall	-10539
▁recurs	-10540
▁reduct	-10541
▁relate	-10542
▁remind	-10543
▁repair	-10544
▁rescue	-10545
▁riddle	-10546
▁roared	-10547
▁robust	-10548
▁rolled	-10549
▁runoff	-10550
▁sacram	-10551
▁safest	-10552
▁salary	-10553
▁salmon	-10554
▁scraps	-10555
▁sealed	-10556
▁serene	-10557
▁serial	-10558
▁sesame	-10559
▁settle	-10560
▁shades	-10561
▁shield	-10562
▁showin	-10563
▁sliced	-10564
▁smells	-10565
▁solute	-10566
▁spaces	-10567
▁spoken	-10568
▁sprink	-10569
▁squats	-10570
▁stages	-10571
▁sticks	-10572
▁stroll	-10573
▁subtly	-10574
▁succul	-10575
▁sweats	-10576
▁syntax	-10577
▁tackle	-10578
▁tailor	-10579
▁talked	-10580
▁taught	-10581
▁tenure	-10582
▁thread	-10583
▁titled	-10584
▁titles	-10585
▁toward	-10586
▁trades	-10587
▁traged	-10588
▁tragic	-10589
▁trance	-10590
▁trauma	-10591
▁tribal	-10592
▁tricks	-10593
▁trivia	-10594
▁unfair	-10595
▁unfold	-10596
▁upkeep	-10597
▁upload	-10598
▁urgent	-10599
▁vacuum	-10600
▁varied	-10601
▁vastly	-10602
▁verbal	-10603
▁viable	-10604
▁voices	-10605
▁warned	-10606
▁weapon	-10607
▁window	-10608
▁wisdom	-10609
▁wished	-10610
American	-10611
Customer	-10612
HealthyL	-10613
IsCaring	-10614
VARIABLE	-10615
accurate	-10616
adequate	-10617
affodils	-10618
annually	-10619
assisted	-10620
breaking	-10621
cetacean	-10622
cussions	-10623
enezuela	-10624
entative	-10625
everance	-10626
evolving	-10627
foreseen	-10628
founding	-10629
ilblains	-10630
interest	-10631
isations	-10632
itasking	-10633
itations	-10634
kilogram	-10635
lication	-10636
nooutput	-10637
ocalypse	-10638
ographic	-10639
omitable	-10640
otherapy	-10641
othermal	-10642
oundings	-10643
poraries	-10644
position	-10645
rificing	-10646
romising	-10647
sounding	-10648
stigious	-10649
stitions	-10650
tainment	-10651
urposing	-10652
vascular	-10653
venience	-10654
violence	-10655
yielding	-10656
▁Aerobic	-10657
▁African	-10658
▁Airport	-10659
▁Anthrop	-10660
▁Anxiety	-10661
▁Average	-10662
▁Bahnhof	-10663
▁Barbara	-10664
▁Believe	-10665
▁Between	-10666
▁Beyonce	-10667
▁Bukater	-10668
▁Bulldog	-10669
▁Capital	-10670
▁Centers	-10671
▁Cetacea	-10672
▁Coconut	-10673
▁Collect	-10674
▁Compass	-10675
▁Compost	-10676
▁Connect	-10677
▁Curious	-10678
▁Current	-10679
▁Declare	-10680
▁Denmark	-10681
▁Details	-10682
▁Driving	-10683
▁Earhart	-10684
▁Economy	-10685
▁Editing	-10686
▁Educate	-10687
▁Endless	-10688
▁Fantasy	-10689
▁Fashion	-10690
▁Feature	-10691
▁Federal	-10692
▁Fiction	-10693
▁Firearm	-10694
▁Firstly	-10695
▁Galilei	-10696
▁Galileo	-10697
▁Granger	-10698
▁Hokusai	-10699
▁Impacts	-10700
▁Instead	-10701
▁Iterate	-10702
▁Janeiro	-10703
▁Jewelry	-10704
▁Kitchen	-10705
▁Kittens	-10706
▁Knowing	-10707
▁Liberal	-10708
▁Liberty	-10709
▁Mahatma	-10710
▁Mandela	-10711
▁Marilyn	-10712
▁Medical	-10713
▁Mediter	-10714
▁Neptune	-10715
▁Oatmeal	-10716
▁Olympic	-10717
▁Opinion	-10718
▁Partner	-10719
▁Pennsyl	-10720
▁Perfect	-10721
▁Plaster	-10722
▁Plastic	-10723
▁Poached	-10724
▁Present	-10725
▁Privacy	-10726
▁Program	-10727
▁Protein	-10728
▁Reality	-10729
▁Release	-10730
▁Renting	-10731
▁Reserve	-10732
▁Respons	-10733
▁Returns	-10734
▁Rockets	-10735
▁Science	-10736
▁Several	-10737
▁Society	-10738
▁Specify	-10739
▁Spinach	-10740
▁Staying	-10741
▁Success	-10742
▁Support	-10743
▁Supreme	-10744
▁Titanic	-10745
▁Tolkien	-10746
▁Vibrant	-10747
▁Viruses	-10748
▁abbrevi	-10749
▁accused	-10750
▁acquire	-10751
▁admired	-10752
▁adverbs	-10753
▁adverse	-10754
▁aesthet	-10755
▁agility	-10756
▁anomaly	-10757
▁appoint	-10758
▁arduous	-10759
▁autoenc	-10760
▁autoreg	-10761
▁awarded	-10762
▁balloon	-10763
▁barista	-10764
▁basmati	-10765
▁blanket	-10766
▁blessed	-10767
▁breaths	-10768
▁brother	-10769
▁brushes	-10770
▁bunnies	-10771
▁cabbage	-10772
▁calcium	-10773
▁calling	-10774
▁cancers	-10775
▁carried	-10776
▁carrots	-10777
▁catalog	-10778
▁charges	-10779
▁charity	-10780
▁cheaper	-10781
▁checked	-10782
▁cheddar	-10783
▁circles	-10784
▁cluster	-10785
▁coaches	-10786
▁coldest	-10787
▁colored	-10788
▁combust	-10789
▁commits	-10790
▁compute	-10791
▁concern	-10792
▁conspir	-10793
▁counted	-10794
▁coupons	-10795
▁crafted	-10796
▁creator	-10797
▁cropped	-10798
▁crushed	-10799
▁cunning	-10800
▁dancing	-10801
▁decides	-10802
▁decline	-10803
▁defects	-10804
▁deficit	-10805
▁defines	-10806
▁depends	-10807
▁descent	-10808
▁desires	-10809
▁despair	-10810
▁dessert	-10811
▁dischar	-10812
▁discrep	-10813
▁doctors	-10814
▁dollars	-10815
▁dormant	-10816
▁doubled	-10817
▁dreamed	-10818
▁earning	-10819
▁editing	-10820
▁edition	-10821
▁embrace	-10822
▁encoded	-10823
▁encrypt	-10824
▁endless	-10825
▁engines	-10826
▁ensures	-10827
▁equally	-10828
▁excerpt	-10829
▁experts	-10830
▁exploit	-10831
▁fabrics	-10832
▁fallacy	-10833
▁faucets	-10834
▁fleeing	-10835
▁floated	-10836
▁flowing	-10837
▁founded	-10838
▁fulfill	-10839
▁generic	-10840
▁glimpse	-10841
▁gorilla	-10842
▁grabbed	-10843
▁greased	-10844
▁grilled	-10845
▁grounds	-10846
▁halfway	-10847
▁handgun	-10848
▁heavens	-10849
▁heights	-10850
▁hosting	-10851
▁hygiene	-10852
▁imagery	-10853
▁imagine	-10854
▁impairs	-10855
▁inhabit	-10856
▁inmates	-10857
▁inquire	-10858
▁instant	-10859
▁inverse	-10860
▁jogging	-10861
▁joining	-10862
▁judging	-10863
▁jungles	-10864
▁landing	-10865
▁leaders	-10866
▁learner	-10867
▁leisure	-10868
▁lentils	-10869
▁letting	-10870
▁lightly	-10871
▁liquids	-10872
▁listing	-10873
▁literal	-10874
▁loading	-10875
▁magnets	-10876
▁mansion	-10877
▁methane	-10878
▁metrics	-10879
▁mindful	-10880
▁municip	-10881
▁museums	-10882
▁mustard	-10883
▁nations	-10884
▁nesting	-10885
▁nowhere	-10886
▁obvious	-10887
▁oneself	-10888
▁opening	-10889
▁optimum	-10890
▁oranges	-10891
▁ordered	-10892
▁outputs	-10893
▁overpro	-10894
▁package	-10895
▁painful	-10896
▁palette	-10897
▁parking	-10898
▁peacock	-10899
▁peasant	-10900
▁picture	-10901
▁pivotal	-10902
▁pointed	-10903
▁polygon	-10904
▁portion	-10905
▁posting	-10906
▁praised	-10907
▁premium	-10908
▁prevail	-10909
▁printed	-10910
▁prisons	-10911
▁private	-10912
▁procure	-10913
▁prosper	-10914
▁pursued	-10915
▁quizzes	-10916
▁rainbow	-10917
▁rapport	-10918
▁ratings	-10919
▁reacted	-10920
▁reddish	-10921
▁refresh	-10922
▁rehears	-10923
▁reliant	-10924
▁relying	-10925
▁removal	-10926
▁rescued	-10927
▁restful	-10928
▁restore	-10929
▁retreat	-10930
▁reusing	-10931
▁reveals	-10932
▁rhyming	-10933
▁robbers	-10934
▁rustles	-10935
▁satisfy	-10936
▁sausage	-10937
▁scamper	-10938
▁scenery	-10939
▁schemes	-10940
▁seating	-10941
▁seekers	-10942
▁seeking	-10943
▁sensors	-10944
▁sharper	-10945
▁shipped	-10946
▁shortly	-10947
▁signify	-10948
▁sitting	-10949
▁slavery	-10950
▁smarter	-10951
▁smoking	-10952
▁snowman	-10953
▁spotted	-10954
▁sprouts	-10955
▁stadium	-10956
▁starter	-10957
▁storing	-10958
▁styling	-10959
▁subsequ	-10960
▁suicide	-10961
▁surveys	-10962
▁suspect	-10963
▁symbols	-10964
▁symptom	-10965
▁tactics	-10966
▁tariffs	-10967
▁telling	-10968
▁toilets	-10969
▁tonight	-10970
▁touches	-10971
▁tracked	-10972
▁trailer	-10973
▁travels	-10974
▁trigger	-10975
▁tsunami	-10976
▁turbine	-10977
▁unsatis	-10978
▁updates	-10979
▁urgency	-10980
▁ushered	-10981
▁vanilla	-10982
▁varying	-10983
▁vectors	-10984
▁victory	-10985
▁villain	-10986
▁visible	-10987
▁volunte	-10988
▁walnuts	-10989
▁washing	-10990
▁wavelet	-10991
▁weakens	-10992
▁weapons	-10993
▁weekend	-10994
▁witness	-10995
▁wonders	-10996
▁workday	-10997
▁worries	-10998
▁yelling	-10999
Character	-11000
Customers	-11001
Frequency	-11002
Treatment	-11003
absorbing	-11004
ansomware	-11005
ascending	-11006
astrophic	-11007
connected	-11008
icellular	-11009
ivotTable	-11010
ledgement	-11011
logically	-11012
mentation	-11013
nological	-11014
ochondria	-11015
onometric	-11016
organized	-11017
owavelets	-11018
peachment	-11019
permeable	-11020
portation	-11021
pothermia	-11022
sectional	-11023
standings	-11024
ularities	-11025
unciation	-11026
▁Analysts	-11027
▁Applying	-11028
▁Attached	-11029
▁Ayurveda	-11030
▁Berkeley	-11031
▁Birdwing	-11032
▁Broccoli	-11033
▁Buchanan	-11034
▁Canadian	-11035
▁Causeway	-11036
▁Cemetery	-11037
▁Cleaning	-11038
▁Clothing	-11039
▁Discover	-11040
▁Emmeline	-11041
▁Engineer	-11042
▁Estimate	-11043
▁Everyday	-11044
▁Germinal	-11045
▁Gradient	-11046
▁Hermione	-11047
▁Illinois	-11048
▁Improves	-11049
▁Industry	-11050
▁Kanagawa	-11051
▁Leverage	-11052
▁Majestic	-11053
▁Mohammad	-11054
▁Networks	-11055
▁Nitrogen	-11056
▁Northern	-11057
▁Overhead	-11058
▁Painting	-11059
▁Peaceful	-11060
▁Personal	-11061
▁Problems	-11062
▁Purchase	-11063
▁Recharge	-11064
▁Salvador	-11065
▁Scarcity	-11066
▁Schedule	-11067
▁Schengen	-11068
▁Scotland	-11069
▁Secondly	-11070
▁Securing	-11071
▁Security	-11072
▁Sentence	-11073
▁Snapchat	-11074
▁Spending	-11075
▁Starting	-11076
▁Startled	-11077
▁Stranger	-11078
▁Symptoms	-11079
▁Syndrome	-11080
▁Teamwork	-11081
▁Telegram	-11082
▁Thursday	-11083
▁Tomorrow	-11084
▁Toulouse	-11085
▁Triangle	-11086
▁Uprising	-11087
▁Variable	-11088
▁Whenever	-11089
▁academic	-11090
▁accessed	-11091
▁accident	-11092
▁actively	-11093
▁affected	-11094
▁ailments	-11095
▁allocate	-11096
▁analyzed	-11097
▁answered	-11098
▁apparent	-11099
▁applying	-11100
▁arranged	-11101
▁artworks	-11102
▁assembly	-11103
▁autonomy	-11104
▁aviation	-11105
▁blocking	-11106
▁blooming	-11107
▁brightly	-11108
▁broccoli	-11109
▁brochure	-11110
▁bustling	-11111
▁caffeine	-11112
▁calories	-11113
▁carefuly	-11114
▁carotene	-11115
▁category	-11116
▁causeway	-11117
▁cellular	-11118
▁chairman	-11119
▁channels	-11120
▁cherries	-11121
▁cilantro	-11122
▁circular	-11123
▁clicking	-11124
▁climbers	-11125
▁clusters	-11126
▁colonial	-11127
▁compares	-11128
▁controls	-11129
▁converts	-11130
▁coughing	-11131
▁crackers	-11132
▁criteria	-11133
▁crossing	-11134
▁crushing	-11135
▁cylinder	-11136
▁daughter	-11137
▁deadline	-11138
▁decisive	-11139
▁declines	-11140
▁decorate	-11141
▁defeated	-11142
▁delegate	-11143
▁deployed	-11144
▁deserves	-11145
▁deterior	-11146
▁develops	-11147
▁diagnost	-11148
▁diamonds	-11149
▁diarrhea	-11150
▁dilation	-11151
▁dinosaur	-11152
▁directly	-11153
▁disguise	-11154
▁displays	-11155
▁dividing	-11156
▁dolphins	-11157
▁dominant	-11158
▁ecstatic	-11159
▁embraced	-11160
▁emerging	-11161
▁engulfed	-11162
▁enhanced	-11163
▁entering	-11164
▁estimate	-11165
▁evaluate	-11166
▁evenings	-11167
▁exchange	-11168
▁explored	-11169
▁failings	-11170
▁fairness	-11171
▁fiercely	-11172
▁findings	-11173
▁floating	-11174
▁flurries	-11175
▁gleaming	-11176
▁globally	-11177
▁glorious	-11178
▁gorgeous	-11179
▁granular	-11180
▁graphics	-11181
▁grateful	-11182
▁greeting	-11183
▁grounded	-11184
▁headings	-11185
▁hesitate	-11186
▁hippopot	-11187
▁hometown	-11188
▁homework	-11189
▁humidity	-11190
▁hyperbol	-11191
▁imperial	-11192
▁improves	-11193
▁incentiv	-11194
▁inclined	-11195
▁infinite	-11196
▁inflated	-11197
▁inserted	-11198
▁insomnia	-11199
▁integral	-11200
▁interior	-11201
▁invasion	-11202
▁invasive	-11203
▁joyfully	-11204
▁kilobyte	-11205
▁landmark	-11206
▁learners	-11207
▁lectures	-11208
▁licenses	-11209
▁limiting	-11210
▁locating	-11211
▁logistic	-11212
▁managers	-11213
▁medieval	-11214
▁millions	-11215
▁moderate	-11216
▁moisture	-11217
▁momentum	-11218
▁narrator	-11219
▁neutrons	-11220
▁observed	-11221
▁official	-11222
▁omnivore	-11223
▁opposite	-11224
▁ordering	-11225
▁organize	-11226
▁outdoors	-11227
▁outgoing	-11228
▁outlined	-11229
▁outreach	-11230
▁parallel	-11231
▁partners	-11232
▁passions	-11233
▁podcasts	-11234
▁polonium	-11235
▁portions	-11236
▁powering	-11237
▁precious	-11238
▁predicts	-11239
▁prepared	-11240
▁prevents	-11241
▁priority	-11242
▁probable	-11243
▁produced	-11244
▁profound	-11245
▁pronouns	-11246
▁proposal	-11247
▁protocol	-11248
▁rainfall	-11249
▁recycled	-11250
▁refugees	-11251
▁relation	-11252
▁reptiles	-11253
▁resolute	-11254
▁resolved	-11255
▁resource	-11256
▁retrieve	-11257
▁reusable	-11258
▁revealed	-11259
▁reversed	-11260
▁rigorous	-11261
▁rumbling	-11262
▁ruthless	-11263
▁sailboat	-11264
▁saucepan	-11265
▁scarcity	-11266
▁sediment	-11267
▁shoppers	-11268
▁shouting	-11269
▁shredded	-11270
▁shrugged	-11271
▁siblings	-11272
▁signaled	-11273
▁silently	-11274
▁simplify	-11275
▁slippery	-11276
▁smallest	-11277
▁softened	-11278
▁solitary	-11279
▁sparking	-11280
▁sparkles	-11281
▁speeches	-11282
▁sporting	-11283
▁straight	-11284
▁stricter	-11285
▁striving	-11286
▁stronger	-11287
▁struggle	-11288
▁subarray	-11289
▁subjects	-11290
▁subtitle	-11291
▁supplied	-11292
▁supports	-11293
▁surfaces	-11294
▁suspense	-11295
▁swimming	-11296
▁targeted	-11297
▁tensions	-11298
▁thanking	-11299
▁traveler	-11300
▁tweaking	-11301
▁umbrella	-11302
▁underway	-11303
▁unlikely	-11304
▁unlocked	-11305
▁utilized	-11306
▁visitors	-11307
▁volcanic	-11308
▁warnings	-11309
▁weakness	-11310
▁webinars	-11311
▁whenever	-11312
▁wondrous	-11313
▁worrying	-11314
Healthcare	-11315
Motivation	-11316
acillation	-11317
bohydrates	-11318
collection	-11319
conference	-11320
confidence	-11321
fahrenheit	-11322
gargantuan	-11323
performing	-11324
phabetical	-11325
privileged	-11326
realDonald	-11327
sufficient	-11328
volutional	-11329
▁Alchemist	-11330
▁Alexandra	-11331
▁Ambiguous	-11332
▁Anaerobic	-11333
▁Argentina	-11334
▁Attitudes	-11335
▁Automated	-11336
▁Barcelona	-11337
▁Behaviors	-11338
▁Blueberry	-11339
▁Bonaparte	-11340
▁Cetartiod	-11341
▁Christmas	-11342
▁Classical	-11343
▁Cybercrim	-11344
▁Deploying	-11345
▁Difficult	-11346
▁Diversity	-11347
▁Exploring	-11348
▁Fostering	-11349
▁Generally	-11350
▁Godfather	-11351
▁Happiness	-11352
▁Increment	-11353
▁Insertion	-11354
▁Institute	-11355
▁Marseille	-11356
▁Operating	-11357
▁Overnight	-11358
▁Pankhurst	-11359
▁Prejudice	-11360
▁Providing	-11361
▁Reticulum	-11362
▁Scientist	-11363
▁Secondary	-11364
▁September	-11365
▁Simulated	-11366
▁Spaghetti	-11367
▁Strategic	-11368
▁Utilizing	-11369
▁Variables	-11370
▁Wikipedia	-11371
▁abundance	-11372
▁activated	-11373
▁addressed	-11374
▁adherence	-11375
▁adjusting	-11376
▁admirable	-11377
▁adversity	-11378
▁alertness	-11379
▁algebraic	-11380
▁alleviate	-11381
▁allocated	-11382
▁allowance	-11383
▁anabolism	-11384
▁analysing	-11385
▁apartment	-11386
▁arranging	-11387
▁associate	-11388
▁assurance	-11389
▁astronomy	-11390
▁attentive	-11391
▁augmented	-11392
▁authentic	-11393
▁bleaching	-11394
▁brilliant	-11395
▁cascading	-11396
▁centuries	-11397
▁chemicals	-11398
▁childhood	-11399
▁civilians	-11400
▁clockwise	-11401
▁committed	-11402
▁committee	-11403
▁communion	-11404
▁communism	-11405
▁comparing	-11406
▁conflicts	-11407
▁conserved	-11408
▁constants	-11409
▁contained	-11410
▁continent	-11411
▁contracts	-11412
▁coriander	-11413
▁corporate	-11414
▁corrupted	-11415
▁curiosity	-11416
▁customize	-11417
▁cytoplasm	-11418
▁debugging	-11419
▁depicting	-11420
▁descended	-11421
▁developer	-11422
▁discussed	-11423
▁displayed	-11424
▁dissolved	-11425
▁divisible	-11426
▁economies	-11427
▁educating	-11428
▁educators	-11429
▁eggshells	-11430
▁embracing	-11431
▁emphasize	-11432
▁empirical	-11433
▁endurance	-11434
▁energized	-11435
▁enigmatic	-11436
▁equations	-11437
▁ergonomic	-11438
▁estimates	-11439
▁ethnicity	-11440
▁evaluated	-11441
▁evaluates	-11442
▁examining	-11443
▁excessive	-11444
▁exchanges	-11445
▁excitedly	-11446
▁expanding	-11447
▁expecting	-11448
▁explosion	-11449
▁expresses	-11450
▁extremely	-11451
▁fallacies	-11452
▁financing	-11453
▁flowering	-11454
▁forbidden	-11455
▁forgiving	-11456
▁galleries	-11457
▁geography	-11458
▁gradually	-11459
▁happening	-11460
▁hazardous	-11461
▁heartfelt	-11462
▁histogram	-11463
▁hospitals	-11464
▁hurricane	-11465
▁hydration	-11466
▁hyperbole	-11467
▁inability	-11468
▁inclusive	-11469
▁increment	-11470
▁infection	-11471
▁ingenuity	-11472
▁innocence	-11473
▁intricate	-11474
▁isolation	-11475
▁isosceles	-11476
▁itinerary	-11477
▁journeyed	-11478
▁judgement	-11479
▁landfills	-11480
▁landmarks	-11481
▁lifecycle	-11482
▁liquidity	-11483
▁medicinal	-11484
▁messenger	-11485
▁metaphase	-11486
▁metaphors	-11487
▁midpoints	-11488
▁miniature	-11489
▁miscommun	-11490
▁miserable	-11491
▁monuments	-11492
▁narration	-11493
▁naturally	-11494
▁nutrients	-11495
▁offspring	-11496
▁operation	-11497
▁optimized	-11498
▁ownership	-11499
▁paperwork	-11500
▁parabolic	-11501
▁perfectly	-11502
▁performer	-11503
▁physicist	-11504
▁porpoises	-11505
▁positions	-11506
▁postponed	-11507
▁practical	-11508
▁predators	-11509
▁predicted	-11510
▁preferred	-11511
▁prejudice	-11512
▁premature	-11513
▁pressures	-11514
▁prevalent	-11515
▁procedure	-11516
▁producers	-11517
▁producing	-11518
▁prominent	-11519
▁prospects	-11520
▁providers	-11521
▁provision	-11522
▁published	-11523
▁purchased	-11524
▁quadratic	-11525
▁quotation	-11526
▁radiation	-11527
▁reasoning	-11528
▁recipient	-11529
▁recovered	-11530
▁refinance	-11531
▁regulates	-11532
▁rejection	-11533
▁relatives	-11534
▁releasing	-11535
▁relevance	-11536
▁remaining	-11537
▁repeating	-11538
▁repellent	-11539
▁replicate	-11540
▁resilient	-11541
▁resistant	-11542
▁responded	-11543
▁revealing	-11544
▁saturated	-11545
▁scallions	-11546
▁scavenger	-11547
▁scrambled	-11548
▁screening	-11549
▁separated	-11550
▁seriously	-11551
▁shootings	-11552
▁shoulders	-11553
▁signature	-11554
▁sociology	-11555
▁specified	-11556
▁successes	-11557
▁suggested	-11558
▁suspended	-11559
▁symbolize	-11560
▁teachings	-11561
▁teammates	-11562
▁teaspoons	-11563
▁teenagers	-11564
▁tenacious	-11565
▁theorists	-11566
▁therapist	-11567
▁threatens	-11568
▁timelines	-11569
▁tiredness	-11570
▁tradition	-11571
▁trustless	-11572
▁tutorials	-11573
▁unhealthy	-11574
▁usability	-11575
▁verifying	-11576
▁visualize	-11577
▁worldview	-11578
▁worldwide	-11579
Butterflies	-11580
PrimaryCare	-11581
apocalyptic	-11582
inguishable	-11583
performance	-11584
sacrificing	-11585
▁Automating	-11586
▁Autonomous	-11587
▁Birmingham	-11588
▁Camouflage	-11589
▁Christians	-11590
▁Corruption	-11591
▁Directions	-11592
▁Dostoevsky	-11593
▁Experience	-11594
▁Experiment	-11595
▁Generative	-11596
▁Glistening	-11597
▁Heisenberg	-11598
▁Historical	-11599
▁Industrial	-11600
▁Influences	-11601
▁Initialize	-11602
▁Inspectors	-11603
▁Interlaken	-11604
▁Katsushika	-11605
▁Kensington	-11606
▁Metabolism	-11607
▁Motivation	-11608
▁Napoleonic	-11609
▁Plagiarism	-11610
▁Prevention	-11611
▁Punishment	-11612
▁Resilience	-11613
▁Rothenberg	-11614
▁Wordsworth	-11615
▁accountant	-11616
▁activation	-11617
▁adventures	-11618
▁alienation	-11619
▁allocation	-11620
▁altogether	-11621
▁anticipate	-11622
▁apocalypse	-11623
▁applicable	-11624
▁assessment	-11625
▁attempting	-11626
▁attributed	-11627
▁auditorium	-11628
▁bookkeeper	-11629
▁bronchitis	-11630
▁calculator	-11631
▁cautiously	-11632
▁classicist	-11633
▁classmates	-11634
▁completing	-11635
▁compounded	-11636
▁condiments	-11637
▁continuity	-11638
▁convenient	-11639
▁convention	-11640
▁convergent	-11641
▁converting	-11642
▁critically	-11643
▁delivering	-11644
▁designated	-11645
▁detergents	-11646
▁determines	-11647
▁discussion	-11648
▁displaying	-11649
▁dissonance	-11650
▁distancing	-11651
▁encouraged	-11652
▁endorphins	-11653
▁evaluating	-11654
▁everything	-11655
▁excellence	-11656
▁explaining	-11657
▁extinction	-11658
▁eyewitness	-11659
▁fearlessly	-11660
▁fellowship	-11661
▁foreground	-11662
▁formatting	-11663
▁freshwater	-11664
▁generosity	-11665
▁geothermal	-11666
▁hesitating	-11667
▁hurricanes	-11668
▁implements	-11669
▁impression	-11670
▁inaccurate	-11671
▁inequality	-11672
▁influenced	-11673
▁influences	-11674
▁infraorder	-11675
▁interviews	-11676
▁introduces	-11677
▁lightbulbs	-11678
▁mesmerized	-11679
▁ministries	-11680
▁miraculous	-11681
▁motivating	-11682
▁narratives	-11683
▁navigating	-11684
▁negatively	-11685
▁networking	-11686
▁neutrality	-11687
▁oppressive	-11688
▁organelles	-11689
▁organizing	-11690
▁overcoming	-11691
▁overseeing	-11692
▁peacefully	-11693
▁permission	-11694
▁pharmaceut	-11695
▁pioneering	-11696
▁pollinator	-11697
▁pollutants	-11698
▁preheating	-11699
▁preventive	-11700
▁previously	-11701
▁procedural	-11702
▁profitable	-11703
▁progresses	-11704
▁promotions	-11705
▁punishment	-11706
▁reasonable	-11707
▁recognizes	-11708
▁reductions	-11709
▁repetitive	-11710
▁represents	-11711
▁resistance	-11712
▁respective	-11713
▁responding	-11714
▁restocking	-11715
▁satellites	-11716
▁separation	-11717
▁signatures	-11718
▁strawberry	-11719
▁streamline	-11720
▁strengthen	-11721
▁stretching	-11722
▁stylesheet	-11723
▁substances	-11724
▁sufficient	-11725
▁summarizes	-11726
▁supervisor	-11727
▁supportive	-11728
▁surrenders	-11729
▁thoughtful	-11730
▁trajectory	-11731
▁transforms	-11732
▁transition	-11733
▁uncovering	-11734
▁underlined	-11735
▁underlying	-11736
▁understood	-11737
▁underwater	-11738
▁unintended	-11739
▁university	-11740
▁variations	-11741
▁ventilator	-11742
▁victorious	-11743
▁volumetric	-11744
HealthSenior	-11745
▁Coronavirus	-11746
▁Declaration	-11747
▁Destination	-11748
▁Earthquakes	-11749
▁Endoplasmic	-11750
▁Exponential	-11751
▁Information	-11752
▁Instruction	-11753
▁Integrative	-11754
▁Intelligent	-11755
▁Mindfulness	-11756
▁Netherlands	-11757
▁Opportunity	-11758
▁Participate	-11759
▁Persistence	-11760
▁Raskolnikov	-11761
▁Schrodinger	-11762
▁Substantive	-11763
▁Temperature	-11764
▁accessories	-11765
▁accommodate	-11766
▁accompanied	-11767
▁adventurous	-11768
▁agriculture	-11769
▁annotations	-11770
▁assessments	-11771
▁attribution	-11772
▁businessman	-11773
▁calculation	-11774
▁categorical	-11775
▁cholesterol	-11776
▁classifiers	-11777
▁composition	-11778
▁considerate	-11779
▁contentious	-11780
▁contraction	-11781
▁contributed	-11782
▁coordinates	-11783
▁correlation	-11784
▁countryside	-11785
▁degradation	-11786
▁depressions	-11787
▁disappeared	-11788
▁discoveries	-11789
▁discovering	-11790
▁disruptions	-11791
▁earthquakes	-11792
▁enforcement	-11793
▁evaporation	-11794
▁exclamation	-11795
▁exponential	-11796
▁frustration	-11797
▁furnishings	-11798
▁genetically	-11799
▁grandfather	-11800
▁hospitality	-11801
▁improvement	-11802
▁instruction	-11803
▁integrative	-11804
▁marketplace	-11805
▁masterpiece	-11806
▁mindfulness	-11807
▁operational	-11808
▁overfitting	-11809
▁permanently	-11810
▁philosopher	-11811
▁prestigious	-11812
▁proficiency	-11813
▁progression	-11814
▁recommended	-11815
▁rectangular	-11816
▁recursively	-11817
▁requirement	-11818
▁researching	-11819
▁retractable	-11820
▁salesperson	-11821
▁screenshots	-11822
▁shareholder	-11823
▁smartphones	-11824
▁streamlined	-11825
▁susceptible	-11826
▁transmitted	-11827
▁transported	-11828
▁trustworthy	-11829
▁utilitarian	-11830
▁ventilation	-11831
▁vinaigrette	-11832
▁willingness	-11833
▁worshipping	-11834
Environmental	-11835
▁Autowavelets	-11836
▁Encyclopedia	-11837
▁Illuminating	-11838
▁Implementing	-11839
▁Pennsylvania	-11840
▁Productivity	-11841
▁Rechargeable	-11842
▁Unsupervised	-11843
▁affectionate	-11844
▁alphabetical	-11845
▁announcement	-11846
▁anticipation	-11847
▁appointments	-11848
▁autonomously	-11849
▁catastrophic	-11850
▁civilization	-11851
▁communicates	-11852
▁compromising	-11853
▁concentrated	-11854
▁confidential	-11855
▁confirmation	-11856
▁constructive	-11857
▁demonstrated	-11858
▁differential	-11859
▁distribution	-11860
▁enthusiastic	-11861
▁evolutionary	-11862
▁explorations	-11863
▁factorialize	-11864
▁fluctuations	-11865
▁independence	-11866
▁interference	-11867
▁interrogator	-11868
▁manipulation	-11869
▁masterpieces	-11870
▁modification	-11871
▁multitasking	-11872
▁occasionally	-11873
▁overwhelming	-11874
▁peacefulness	-11875
▁perseverance	-11876
▁prioritizing	-11877
▁proofreading	-11878
▁reputational	-11879
▁spirituality	-11880
▁surroundings	-11881
▁transparency	-11882
▁universities	-11883
▁Differentiate	-11884
▁Mediterranean	-11885
▁Organizations	-11886
▁Protestantism	-11887
▁Technological	-11888
▁abbreviations	-11889
▁accessibility	-11890
▁advertisement	-11891
▁aesthetically	-11892
▁affordability	-11893
▁anthropogenic	-11894
▁carbohydrates	-11895
▁civilisations	-11896
▁collaborative	-11897
▁configuration	-11898
▁conservatives	-11899
▁consideration	-11900
▁contemplation	-11901
▁corresponding	-11902
▁denominations	-11903
▁deteriorating	-11904
▁factorization	-11905
▁foreshadowing	-11906
▁incorporating	-11907
▁independently	-11908
▁outperforming	-11909
▁participating	-11910
▁precipitation	-11911
▁presentations	-11912
▁pronunciation	-11913
▁psychotherapy	-11914
▁repercussions	-11915
▁summarization	-11916
▁supercomputer	-11917
▁superstitions	-11918
▁trigonometric	-11919
▁unpredictable	-11920
SharingIsCaring	-11921
realDonaldTrump	-11922
▁Bahnhofstrasse	-11923
▁Cybercriminals	-11924
▁Representative	-11925
▁alphabetically	-11926
▁autoregressive	-11927
▁cardiovascular	-11928
▁cinematography	-11929
▁considerations	-11930
▁contemporaries	-11931
▁conversational	-11932
▁hippopotamuses	-11933
▁identification	-11934
▁individualized	-11935
▁interconnected	-11936
▁irregularities	-11937
▁multiplication	-11938
▁organizational	-11939
▁overproduction	-11940
▁photosynthesis	-11941
▁recommendation	-11942
▁responsiveness	-11943
▁transformation	-11944
----------------	-11945
anthropomorphism	-11946
▁Cetartiodactyla	-11947
▁acknowledgement	-11948
▁environmentally	-11949
")	-11950
":	-11951
";	-11952
'(	-11953
',	-11954
';	-11955
("	-11956
((	-11957
([	-11958
)+	-11959
+$	-11960
->	-11961
.)	-11962
.:	-11963
.’	-11964
/?	-11965
=)	-11966
==	-11967
>.	-11968
?)	-11969
AE	-11970
AT	-11971
Ar	-11972
Aw	-11973
Bu	-11974
By	-11975
CB	-11976
CI	-11977
Ca	-11978
Cm	-11979
Cn	-11980
Cu	-11981
DH	-11982
DJ	-11983
DL	-11984
Di	-11985
EA	-11986
ET	-11987
Er	-11988
Ex	-11989
Fl	-11990
Fs	-11991
GA	-11992
GU	-11993
HB	-11994
Hi	-11995
Ho	-11996
Hy	-11997
IM	-11998
IR	-11999
IV	-12000
Id	-12001
Ky	-12002
Le	-12003
NS	-12004
OH	-12005
OL	-12006
Or	-12007
PC	-12008
PD	-12009
PN	-12010
Pl	-12011
Pr	-12012
RB	-12013
RP	-12014
RS	-12015
SD	-12016
TW	-12017
Te	-12018
To	-12019
UB	-12020
Ve	-12021
We	-12022
](	-12023
]:	-12024
_.	-12025
bz	-12026
ca	-12027
da	-12028
dw	-12029
dx	-12030
eu	-12031
ey	-12032
ez	-12033
fj	-12034
fr	-12035
ga	-12036
gi	-12037
gl	-12038
hc	-12039
hr	-12040
hw	-12041
ij	-12042
ji	-12043
ju	-12044
ng	-12045
nz	-12046
oj	-12047
rd	-12048
sa	-12049
sn	-12050
tg	-12051
tw	-12052
uy	-12053
va	-12054
vh	-12055
vy	-12056
xB	-12057
xf	-12058
ym	-12059
yp	-12060
yu	-12061
zh	-12062
}$	-12063
}.	-12064
}=	-12065
}]	-12066
’,	-12067
’?	-12068
▁q	-12069
!')	-12070
"))	-12071
().	-12072
():	-12073
)':	-12074
)).	-12075
));	-12076
)/(	-12077
+".	-12078
++;	-12079
---	-12080
?".	-12081
ATE	-12082
ATP	-12083
AWS	-12084
Acc	-12085
Anc	-12086
Bay	-12087
BeM	-12088
Beh	-12089
Bob	-12090
Bol	-12091
Bra	-12092
CSS	-12093
CTV	-12094
Cal	-12095
Clo	-12096
DHD	-12097
DJT	-12098
DLT	-12099
Dec	-12100
Dog	-12101
Dye	-12102
ECB	-12103
EST	-12104
Eat	-12105
Eco	-12106
Ele	-12107
Eth	-12108
Eup	-12109
Fac	-12110
Fil	-12111
Fox	-12112
GDP	-12113
GUI	-12114
Gep	-12115
Get	-12116
Gra	-12117
Gun	-12118
Guy	-12119
HBS	-12120
His	-12121
III	-12122
IIT	-12123
Ide	-12124
Imp	-12125
Inc	-12126
Ins	-12127
JIT	-12128
JWS	-12129
KAE	-12130
Kyd	-12131
LED	-12132
LGA	-12133
LII	-12134
Leg	-12135
Les	-12136
Let	-12137
MHO	-12138
Mat	-12139
Min	-12140
New	-12141
Off	-12142
Orn	-12143
Our	-12144
Pal	-12145
Par	-12146
Per	-12147
Pol	-12148
Rec	-12149
Ren	-12150
Rep	-12151
SEA	-12152
Sav	-12153
Sty	-12154
Sun	-12155
Sur	-12156
TDD	-12157
TFs	-12158
TTP	-12159
Tac	-12160
Tar	-12161
Ten	-12162
Tex	-12163
Tok	-12164
Tpy	-12165
Tre	-12166
USD	-12167
Vol	-12168
WHO	-12169
Wiz	-12170
Wor	-12171
Yes	-12172
]+$	-12173
__.	-12174
add	-12175
ads	-12176
afa	-12177
afe	-12178
aft	-12179
afy	-12180
ahe	-12181
aid	-12182
aii	-12183
aki	-12184
alu	-12185
amb	-12186
aos	-12187
arn	-12188
att	-12189
aty	-12190
aud	-12191
axy	-12192
azF	-12193
azy	-12194
azz	-12195
bad	-12196
bal	-12197
bat	-12198
bee	-12199
bel	-12200
bic	-12201
blu	-12202
box	-12203
bru	-12204
bul	-12205
bur	-12206
bwe	-12207
car	-12208
cat	-12209
cca	-12210
cci	-12211
cey	-12212
chi	-12213
chy	-12214
cip	-12215
cor	-12216
cus	-12217
dam	-12218
del	-12219
dem	-12220
div	-12221
dly	-12222
doc	-12223
dup	-12224
dye	-12225
ecd	-12226
eed	-12227
een	-12228
eet	-12229
eks	-12230
eli	-12231
ema	-12232
enk	-12233
enn	-12234
epr	-12235
eps	-12236
erk	-12237
etk	-12238
ewh	-12239
ews	-12240
eza	-12241
fUB	-12242
feA	-12243
ffy	-12244
fic	-12245
fix	-12246
fjz	-12247
flo	-12248
fty	-12249
gaz	-12250
gdu	-12251
gex	-12252
ght	-12253
gia	-12254
gid	-12255
gre	-12256
gur	-12257
had	-12258
hai	-12259
heT	-12260
hee	-12261
hig	-12262
hom	-12263
hoo	-12264
how	-12265
iac	-12266
ids	-12267
igo	-12268
ima	-12269
imp	-12270
iop	-12271
ios	-12272
iph	-12273
ipl	-12274
ipr	-12275
ipw	-12276
iri	-12277
irp	-12278
ito	-12279
iul	-12280
iwi	-12281
jam	-12282
jas	-12283
jds	-12284
jms	-12285
jug	-12286
kin	-12287
lab	-12288
lag	-12289
lay	-12290
lcm	-12291
lin	-12292
lli	-12293
loe	-12294
meg	-12295
mid	-12296
mil	-12297
mos	-12298
mph	-12299
mps	-12300
msc	-12301
nce	-12302
nes	-12303
nom	-12304
nym	-12305
obi	-12306
ogw	-12307
oho	-12308
ola	-12309
oma	-12310
oor	-12311
oos	-12312
opo	-12313
ots	-12314
oxy	-12315
ped	-12316
pex	-12317
pik	-12318
png	-12319
pop	-12320
ppy	-12321
psy	-12322
pus	-12323
qrb	-12324
qua	-12325
quo	-12326
quy	-12327
rad	-12328
rag	-12329
raq	-12330
rea	-12331
rip	-12332
rob	-12333
rox	-12334
rte	-12335
rud	-12336
sal	-12337
sat	-12338
sav	-12339
scr	-12340
sec	-12341
sed	-12342
see	-12343
sel	-12344
she	-12345
sim	-12346
sso	-12347
sub	-12348
sum	-12349
tin	-12350
tox	-12351
ttw	-12352
tty	-12353
tub	-12354
uby	-12355
ugs	-12356
uji	-12357
uke	-12358
uli	-12359
uls	-12360
una	-12361
upc	-12362
urk	-12363
urm	-12364
usk	-12365
uyg	-12366
vak	-12367
var	-12368
vet	-12369
via	-12370
vin	-12371
vre	-12372
war	-12373
wat	-12374
web	-12375
weg	-12376
won	-12377
xes	-12378
xic	-12379
yes	-12380
yre	-12381
zee	-12382
zor	-12383
zsc	-12384
zul	-12385
zzy	-12386
▁![	-12387
▁"$	-12388
▁".	-12389
▁-=	-12390
▁Az	-12391
▁BB	-12392
▁Bi	-12393
▁Ce	-12394
▁DB	-12395
▁EU	-12396
▁Ed	-12397
▁Et	-12398
▁Ev	-12399
▁Ga	-12400
▁Gm	-12401
▁Ha	-12402
▁Ho	-12403
▁IR	-12404
▁Il	-12405
▁Kr	-12406
▁Ly	-12407
▁Mu	-12408
▁NV	-12409
▁Na	-12410
▁PG	-12411
▁PM	-12412
▁UA	-12413
▁Ur	-12414
▁[{	-12415
▁ce	-12416
▁dg	-12417
▁du	-12418
▁eu	-12419
▁fx	-12420
▁ga	-12421
▁ig	-12422
▁ja	-12423
▁lu	-12424
▁pi	-12425
▁pm	-12426
▁sq	-12427
▁ug	-12428
▁um	-12429
▁ux	-12430
▁vr	-12431
▁yt	-12432
'(':	-12433
..."	-12434
ANET	-12435
ANNs	-12436
Buoy	-12437
Camp	-12438
Casc	-12439
Case	-12440
Cont	-12441
Desc	-12442
Diag	-12443
ESCO	-12444
EcoF	-12445
Edit	-12446
Fryd	-12447
Good	-12448
Gord	-12449
Head	-12450
Home	-12451
IMIT	-12452
ISPs	-12453
Imag	-12454
Iron	-12455
Jane	-12456
Jill	-12457
Jour	-12458
LANs	-12459
Lear	-12460
MERS	-12461
Main	-12462
Mark	-12463
Moth	-12464
Peru	-12465
Phys	-12466
Plan	-12467
Post	-12468
SARS	-12469
Save	-12470
Serv	-12471
Show	-12472
Sign	-12473
Stay	-12474
Text	-12475
They	-12476
Time	-12477
TpyT	-12478
True	-12479
Vide	-12480
WANs	-12481
What	-12482
Whiz	-12483
Wind	-12484
With	-12485
]++;	-12486
abil	-12487
ablo	-12488
abri	-12489
abur	-12490
abyl	-12491
adas	-12492
aded	-12493
adog	-12494
agas	-12495
agne	-12496
agno	-12497
aime	-12498
aint	-12499
aits	-12500
akin	-12501
alta	-12502
amil	-12503
amos	-12504
ampe	-12505
andt	-12506
andy	-12507
anel	-12508
anga	-12509
anim	-12510
anka	-12511
anny	-12512
anol	-12513
anst	-12514
answ	-12515
anwh	-12516
aped	-12517
apes	-12518
apis	-12519
aply	-12520
apsh	-12521
arer	-12522
aroo	-12523
arre	-12524
arsh	-12525
arts	-12526
asis	-12527
aslu	-12528
asso	-12529
atha	-12530
aupt	-12531
ayas	-12532
ayes	-12533
azed	-12534
azuo	-12535
bani	-12536
bark	-12537
bath	-12538
bean	-12539
bell	-12540
blem	-12541
bloc	-12542
blog	-12543
bone	-12544
bons	-12545
bzes	-12546
cade	-12547
caff	-12548
call	-12549
cash	-12550
ceal	-12551
cest	-12552
chen	-12553
chil	-12554
chov	-12555
cial	-12556
cile	-12557
cine	-12558
cipe	-12559
cker	-12560
cket	-12561
code	-12562
coes	-12563
cold	-12564
conc	-12565
copy	-12566
corn	-12567
cour	-12568
ctal	-12569
daun	-12570
deem	-12571
deep	-12572
defe	-12573
doms	-12574
done	-12575
dram	-12576
dued	-12577
east	-12578
ebra	-12579
eden	-12580
edic	-12581
edon	-12582
eely	-12583
elon	-12584
elty	-12585
emia	-12586
emot	-12587
enas	-12588
ench	-12589
enth	-12590
entl	-12591
epal	-12592
epis	-12593
eram	-12594
eric	-12595
erie	-12596
erit	-12597
erms	-12598
erry	-12599
estr	-12600
etiz	-12601
etry	-12602
evil	-12603
ewis	-12604
exam	-12605
fare	-12606
fere	-12607
fers	-12608
fied	-12609
file	-12610
find	-12611
flat	-12612
fred	-12613
fung	-12614
fuss	-12615
gKyd	-12616
gage	-12617
gery	-12618
gets	-12619
gged	-12620
gger	-12621
gist	-12622
give	-12623
gize	-12624
gort	-12625
gust	-12626
hann	-12627
hard	-12628
harm	-12629
haul	-12630
hean	-12631
heid	-12632
hift	-12633
high	-12634
hips	-12635
hmus	-12636
hook	-12637
hops	-12638
hore	-12639
huge	-12640
hwag	-12641
iaan	-12642
iage	-12643
iana	-12644
iani	-12645
iber	-12646
icar	-12647
icer	-12648
icho	-12649
icky	-12650
icus	-12651
idae	-12652
iden	-12653
iech	-12654
ielo	-12655
iero	-12656
ieur	-12657
ifle	-12658
igan	-12659
ighs	-12660
igns	-12661
iguo	-12662
ikes	-12663
ilib	-12664
ilit	-12665
illy	-12666
imat	-12667
imed	-12668
imet	-12669
imic	-12670
imsa	-12671
imum	-12672
inar	-12673
inat	-12674
inav	-12675
indo	-12676
inis	-12677
inqu	-12678
insp	-12679
inus	-12680
iods	-12681
iona	-12682
ipit	-12683
iply	-12684
ipst	-12685
iral	-12686
irte	-12687
isan	-12688
isla	-12689
isma	-12690
ispy	-12691
itar	-12692
item	-12693
itos	-12694
itty	-12695
itus	-12696
ivob	-12697
izab	-12698
izer	-12699
jung	-12700
kesh	-12701
keys	-12702
kful	-12703
kill	-12704
kyro	-12705
lage	-12706
laid	-12707
leap	-12708
leng	-12709
lers	-12710
leum	-12711
leys	-12712
lime	-12713
lims	-12714
llip	-12715
llor	-12716
loof	-12717
loqu	-12718
lord	-12719
lorn	-12720
lown	-12721
loys	-12722
ltry	-12723
macy	-12724
magn	-12725
mala	-12726
mare	-12727
math	-12728
medi	-12729
merg	-12730
metr	-12731
misp	-12732
mitt	-12733
moil	-12734
moon	-12735
moso	-12736
nals	-12737
news	-12738
neys	-12739
nial	-12740
nish	-12741
nore	-12742
nots	-12743
obed	-12744
oche	-12745
odel	-12746
oder	-12747
offs	-12748
ojis	-12749
okes	-12750
olin	-12751
olyn	-12752
omas	-12753
omat	-12754
ombs	-12755
omep	-12756
onso	-12757
oops	-12758
ooth	-12759
oozy	-12760
opal	-12761
opic	-12762
oral	-12763
orce	-12764
orch	-12765
orea	-12766
oriz	-12767
orns	-12768
oses	-12769
osit	-12770
osph	-12771
ossi	-12772
oted	-12773
otro	-12774
otyp	-12775
ourg	-12776
ouri	-12777
oust	-12778
oval	-12779
ovel	-12780
owns	-12781
pace	-12782
past	-12783
peer	-12784
pees	-12785
pent	-12786
phan	-12787
phib	-12788
phin	-12789
phot	-12790
pick	-12791
pire	-12792
plar	-12793
pler	-12794
prem	-12795
prim	-12796
pros	-12797
pute	-12798
quet	-12799
quis	-12800
rall	-12801
razy	-12802
rece	-12803
reck	-12804
reds	-12805
reek	-12806
repe	-12807
rian	-12808
rick	-12809
rimp	-12810
ritt	-12811
roat	-12812
rors	-12813
rose	-12814
rosh	-12815
rove	-12816
rtle	-12817
rust	-12818
saic	-12819
save	-12820
scap	-12821
seat	-12822
seud	-12823
shop	-12824
shut	-12825
skin	-12826
snow	-12827
sole	-12828
sort	-12829
sour	-12830
spec	-12831
sqrt	-12832
ssay	-12833
sted	-12834
stit	-12835
stri	-12836
stro	-12837
sung	-12838
sure	-12839
take	-12840
talk	-12841
tech	-12842
tega	-12843
thly	-12844
tian	-12845
tico	-12846
tled	-12847
toed	-12848
told	-12849
tons	-12850
town	-12851
trip	-12852
tuce	-12853
tune	-12854
tuse	-12855
twel	-12856
uart	-12857
uced	-12858
ucky	-12859
udzu	-12860
uepr	-12861
uest	-12862
ugal	-12863
uite	-12864
ulch	-12865
ulif	-12866
ulth	-12867
umbo	-12868
umed	-12869
ummy	-12870
umph	-12871
umpt	-12872
umsy	-12873
unes	-12874
uran	-12875
uras	-12876
uree	-12877
urna	-12878
ursk	-12879
usan	-12880
usen	-12881
ushi	-12882
uten	-12883
utet	-12884
utus	-12885
vaLa	-12886
vals	-12887
velt	-12888
vene	-12889
vind	-12890
wage	-12891
walk	-12892
wave	-12893
week	-12894
wers	-12895
wess	-12896
what	-12897
wile	-12898
will	-12899
wine	-12900
with	-12901
worn	-12902
xBDC	-12903
xtap	-12904
xylo	-12905
yash	-12906
ylum	-12907
yond	-12908
your	-12909
yout	-12910
yria	-12911
yson	-12912
zech	-12913
zens	-12914
zhou	-12915
▁(")	-12916
▁(')	-12917
▁(=)	-12918
▁(?)	-12919
▁-->	-12920
▁ARP	-12921
▁Adv	-12922
▁Agg	-12923
▁Ara	-12924
▁Ast	-12925
▁Ath	-12926
▁Aud	-12927
▁BCD	-12928
▁BRB	-12929
▁BTW	-12930
▁Bac	-12931
▁Bad	-12932
▁Bal	-12933
▁Ban	-12934
▁Bas	-12935
▁Bed	-12936
▁Bes	-12937
▁Boo	-12938
▁Boy	-12939
▁Bud	-12940
▁Bug	-12941
▁Bur	-12942
▁CDC	-12943
▁Cer	-12944
▁Cho	-12945
▁DNS	-12946
▁Dar	-12947
▁Dat	-12948
▁Der	-12949
▁Dew	-12950
▁Dig	-12951
▁Dow	-12952
▁Due	-12953
▁Eco	-12954
▁Egg	-12955
▁Ell	-12956
▁Equ	-12957
▁Eth	-12958
▁Eye	-12959
▁Fab	-12960
▁Fem	-12961
▁Fle	-12962
▁Flu	-12963
▁Fri	-12964
▁GAW	-12965
▁GDP	-12966
▁Gem	-12967
▁Geo	-12968
▁Gew	-12969
▁HIV	-12970
▁Har	-12971
▁Haw	-12972
▁Hig	-12973
▁Him	-12974
▁Hip	-12975
▁Hol	-12976
▁Hoo	-12977
▁Hop	-12978
▁IRL	-12979
▁ISO	-12980
▁Ian	-12981
▁Inn	-12982
▁Ist	-12983
▁Jer	-12984
▁Joe	-12985
▁Joh	-12986
▁Jou	-12987
▁Jun	-12988
▁Jur	-12989
▁LOL	-12990
▁Lay	-12991
▁Les	-12992
▁Liv	-12993
▁Log	-12994
▁Lus	-12995
▁Mak	-12996
▁Mic	-12997
▁Mrs	-12998
▁Mys	-12999
▁Nar	-13000
▁Nju	-13001
▁Obs	-13002
▁Off	-13003
▁Opt	-13004
▁Owl	-13005
▁Oxf	-13006
▁Oyu	-13007
▁Pic	-13008
▁Psy	-13009
▁Ran	-13010
▁Raw	-13011
▁Rel	-13012
▁Rom	-13013
▁SET	-13014
▁Sea	-13015
▁Sic	-13016
▁Sol	-13017
▁Spl	-13018
▁Sri	-13019
▁TDD	-13020
▁TNS	-13021
▁Tag	-13022
▁Tik	-13023
▁Tim	-13024
▁Tit	-13025
▁Too	-13026
▁Tow	-13027
▁Typ	-13028
▁UPD	-13029
▁URL	-13030
▁Unc	-13031
▁Uns	-13032
▁VPN	-13033
▁Van	-13034
▁Veh	-13035
▁Vir	-13036
▁WHO	-13037
▁Wal	-13038
▁Wat	-13039
▁Way	-13040
▁Wet	-13041
▁Wid	-13042
▁Wis	-13043
▁aer	-13044
▁avi	-13045
▁bak	-13046
▁bed	-13047
▁bin	-13048
▁bio	-13049
▁biz	-13050
▁buz	-13051
▁cab	-13052
▁cas	-13053
▁cet	-13054
▁cha	-13055
▁cic	-13056
▁clu	-13057
▁coo	-13058
▁cos	-13059
▁cot	-13060
▁cud	-13061
▁dre	-13062
▁ebb	-13063
▁egg	-13064
▁era	-13065
▁euk	-13066
▁exh	-13067
▁faj	-13068
▁fal	-13069
▁fan	-13070
▁fed	-13071
▁gal	-13072
▁gar	-13073
▁gay	-13074
▁gel	-13075
▁gif	-13076
▁glo	-13077
▁god	-13078
▁goe	-13079
▁gut	-13080
▁gvh	-13081
▁hey	-13082
▁hue	-13083
▁iii	-13084
▁ipr	-13085
▁irr	-13086
▁isR	-13087
▁ish	-13088
▁ive	-13089
▁jar	-13090
▁jew	-13091
▁jul	-13092
▁kos	-13093
▁lac	-13094
▁lad	-13095
▁lan	-13096
▁lav	-13097
▁lid	-13098
▁lip	-13099
▁lub	-13100
▁lul	-13101
▁lun	-13102
▁lzy	-13103
▁neg	-13104
▁nur	-13105
▁oak	-13106
▁obl	-13107
▁owl	-13108
▁pag	-13109
▁ped	-13110
▁pee	-13111
▁pin	-13112
▁pit	-13113
▁pou	-13114
▁qck	-13115
▁quo	-13116
▁rap	-13117
▁rot	-13118
▁rou	-13119
▁rut	-13120
▁san	-13121
▁sin	-13122
▁ske	-13123
▁sly	-13124
▁sod	-13125
▁son	-13126
▁tab	-13127
▁tan	-13128
▁tie	-13129
▁tin	-13130
▁tip	-13131
▁toU	-13132
▁tum	-13133
▁ung	-13134
▁unh	-13135
▁vel	-13136
▁vig	-13137
▁vom	-13138
▁vow	-13139
▁voy	-13140
▁wes	-13141
▁wil	-13142
▁wol	-13143
▁wre	-13144
▁yes	-13145
▁ytt	-13146
▁zip	-13147
▁{};	-13148
----|	-13149
Agree	-13150
BeMot	-13151
Being	-13152
Chile	-13153
China	-13154
Chron	-13155
Close	-13156
Coold	-13157
Cross	-13158
Curse	-13159
Enter	-13160
Euphr	-13161
Facil	-13162
First	-13163
Goals	-13164
Grape	-13165
Great	-13166
Greta	-13167
Guard	-13168
HBSym	-13169
HBinf	-13170
Halia	-13171
Happy	-13172
Hyper	-13173
Ideas	-13174
Innov	-13175
Input	-13176
Jones	-13177
Jumps	-13178
Laugh	-13179
Leary	-13180
Maine	-13181
March	-13182
Minim	-13183
Money	-13184
Never	-13185
Optim	-13186
Peter	-13187
Polit	-13188
Sally	-13189
Style	-13190
Surin	-13191
Texas	-13192
Tools	-13193
Touch	-13194
Treas	-13195
Trust	-13196
Veget	-13197
Video	-13198
Voice	-13199
World	-13200
Yours	-13201
abled	-13202
aceae	-13203
acist	-13204
acked	-13205
ackle	-13206
adens	-13207
agiri	-13208
agons	-13209
agoon	-13210
aheur	-13211
aided	-13212
ained	-13213
akage	-13214
alach	-13215
algae	-13216
aline	-13217
alous	-13218
amble	-13219
amboo	-13220
amein	-13221
ampus	-13222
ancer	-13223
ancio	-13224
ancip	-13225
andha	-13226
andid	-13227
aneco	-13228
aning	-13229
annel	-13230
annes	-13231
antal	-13232
anted	-13233
antry	-13234
aphor	-13235
apolo	-13236
apple	-13237
aptop	-13238
arahj	-13239
arcer	-13240
archy	-13241
ardon	-13242
arshm	-13243
ascot	-13244
assic	-13245
asted	-13246
astor	-13247
athon	-13248
atids	-13249
atile	-13250
atomy	-13251
auded	-13252
avers	-13253
awson	-13254
aying	-13255
becca	-13256
begin	-13257
benef	-13258
bling	-13259
blood	-13260
boost	-13261
brown	-13262
bside	-13263
build	-13264
burry	-13265
bwebs	-13266
cakes	-13267
casts	-13268
ccoon	-13269
ceeds	-13270
celli	-13271
cerpt	-13272
chaos	-13273
child	-13274
ching	-13275
chnid	-13276
cible	-13277
cipal	-13278
ckons	-13279
comed	-13280
conds	-13281
conic	-13282
consc	-13283
cribe	-13284
ctive	-13285
dairy	-13286
derer	-13287
digit	-13288
doors	-13289
downs	-13290
drama	-13291
dream	-13292
drink	-13293
duced	-13294
duchi	-13295
ducts	-13296
eavor	-13297
echto	-13298
ected	-13299
ector	-13300
eding	-13301
eetus	-13302
einbr	-13303
eland	-13304
eling	-13305
elled	-13306
eller	-13307
emine	-13308
empor	-13309
ename	-13310
endar	-13311
enetr	-13312
eping	-13313
equal	-13314
erion	-13315
ertia	-13316
erved	-13317
esign	-13318
esity	-13319
esium	-13320
esome	-13321
essel	-13322
estry	-13323
eterm	-13324
etime	-13325
eting	-13326
etize	-13327
etops	-13328
etted	-13329
every	-13330
ewhat	-13331
exist	-13332
extra	-13333
falls	-13334
fearn	-13335
ffein	-13336
ffett	-13337
flake	-13338
flows	-13339
frame	-13340
fruit	-13341
fungi	-13342
geria	-13343
giddo	-13344
ginia	-13345
goals	-13346
goyal	-13347
greta	-13348
groom	-13349
group	-13350
hadow	-13351
heads	-13352
heets	-13353
helor	-13354
hibit	-13355
hmael	-13356
hotse	-13357
iches	-13358
icked	-13359
ickly	-13360
iders	-13361
idges	-13362
ierge	-13363
ietam	-13364
ieved	-13365
ifier	-13366
ifies	-13367
iform	-13368
igsaw	-13369
igued	-13370
ijing	-13371
ildup	-13372
ilson	-13373
imals	-13374
imgur	-13375
impan	-13376
inade	-13377
indle	-13378
inery	-13379
inics	-13380
inine	-13381
inoco	-13382
insic	-13383
inted	-13384
inton	-13385
inund	-13386
iolis	-13387
iopia	-13388
ipple	-13389
iquid	-13390
irals	-13391
isbee	-13392
isely	-13393
ishly	-13394
ishna	-13395
isive	-13396
isper	-13397
issue	-13398
itter	-13399
ivery	-13400
ivial	-13401
jects	-13402
junga	-13403
klore	-13404
lates	-13405
learn	-13406
letal	-13407
letes	-13408
lexes	-13409
lexia	-13410
liest	-13411
liner	-13412
liter	-13413
lotte	-13414
lowly	-13415
lters	-13416
luded	-13417
luenc	-13418
maker	-13419
mered	-13420
merge	-13421
names	-13422
nault	-13423
netic	-13424
nical	-13425
nodeA	-13426
nzhen	-13427
ocode	-13428
oders	-13429
odied	-13430
oftop	-13431
ogies	-13432
oints	-13433
olesc	-13434
olina	-13435
oline	-13436
olini	-13437
omass	-13438
onely	-13439
onges	-13440
onies	-13441
ontal	-13442
ooked	-13443
ooped	-13444
oosts	-13445
opher	-13446
opias	-13447
opoly	-13448
orage	-13449
orkel	-13450
orned	-13451
othes	-13452
otive	-13453
oured	-13454
ourns	-13455
ousin	-13456
ously	-13457
ovels	-13458
overy	-13459
owing	-13460
pathy	-13461
pezar	-13462
phony	-13463
piece	-13464
plane	-13465
plets	-13466
pling	-13467
polar	-13468
print	-13469
prise	-13470
prist	-13471
pulse	-13472
qrfjz	-13473
quers	-13474
rades	-13475
raise	-13476
raphy	-13477
raway	-13478
reamy	-13479
redit	-13480
reets	-13481
repid	-13482
retty	-13483
rewdr	-13484
ribeS	-13485
ribes	-13486
rible	-13487
ribon	-13488
rices	-13489
ridae	-13490
riers	-13491
rised	-13492
river	-13493
rizio	-13494
roads	-13495
ronte	-13496
ronts	-13497
rored	-13498
round	-13499
ruism	-13500
ruses	-13501
savvy	-13502
screw	-13503
scure	-13504
serve	-13505
setup	-13506
shamp	-13507
shirt	-13508
sleep	-13509
snack	-13510
soblu	-13511
space	-13512
speed	-13513
split	-13514
stein	-13515
steps	-13516
stopp	-13517
store	-13518
super	-13519
taste	-13520
techn	-13521
tense	-13522
teous	-13523
terns	-13524
thani	-13525
thens	-13526
these	-13527
title	-13528
toast	-13529
today	-13530
topic	-13531
track	-13532
traum	-13533
tress	-13534
trust	-13535
tsman	-13536
tuned	-13537
typed	-13538
uania	-13539
uates	-13540
ubers	-13541
ucent	-13542
ucked	-13543
ucket	-13544
udges	-13545
udies	-13546
uffin	-13547
ugged	-13548
ugger	-13549
uggle	-13550
uinoa	-13551
ulars	-13552
ulean	-13553
ulged	-13554
ulium	-13555
umage	-13556
umbly	-13557
ummus	-13558
undle	-13559
ungee	-13560
upper	-13561
urant	-13562
ureau	-13563
ureux	-13564
urisy	-13565
urses	-13566
using	-13567
usion	-13568
ustic	-13569
ustle	-13570
usual	-13571
uting	-13572
utive	-13573
vakia	-13574
venia	-13575
venth	-13576
venue	-13577
virus	-13578
watch	-13579
waves	-13580
weeds	-13581
weigh	-13582
whine	-13583
wines	-13584
wrote	-13585
ysema	-13586
zorro	-13587
zymes	-13588
▁')':	-13589
▁----	-13590
▁ADHD	-13591
▁APIs	-13592
▁Acme	-13593
▁Ahab	-13594
▁Aloe	-13595
▁Aqua	-13596
▁Arts	-13597
▁Asus	-13598
▁Attr	-13599
▁Ball	-13600
▁Bapt	-13601
▁Barn	-13602
▁Bear	-13603
▁Beat	-13604
▁Belt	-13605
▁Best	-13606
▁Body	-13607
▁Bond	-13608
▁Bong	-13609
▁Bull	-13610
▁Burg	-13611
▁Bust	-13612
▁CCTV	-13613
▁CEOs	-13614
▁Cake	-13615
▁Capt	-13616
▁Case	-13617
▁Cass	-13618
▁Chen	-13619
▁Cher	-13620
▁Chop	-13621
▁Code	-13622
▁Cogn	-13623
▁Cool	-13624
▁Core	-13625
▁Cret	-13626
▁Crow	-13627
▁Cuts	-13628
▁Cycl	-13629
▁Dark	-13630
▁Dart	-13631
▁Dash	-13632
▁Debu	-13633
▁Dend	-13634
▁Dess	-13635
▁Dick	-13636
▁Dish	-13637
▁Doge	-13638
▁Door	-13639
▁Down	-13640
▁Draw	-13641
▁Duke	-13642
▁Dust	-13643
▁ETFs	-13644
▁Easy	-13645
▁Elim	-13646
▁Evan	-13647
▁Ever	-13648
▁Eyre	-13649
▁Fail	-13650
▁Fall	-13651
▁Fast	-13652
▁Fear	-13653
▁Feed	-13654
▁Film	-13655
▁Fins	-13656
▁Flag	-13657
▁Flex	-13658
▁Flut	-13659
▁Foot	-13660
▁Fork	-13661
▁Fors	-13662
▁Free	-13663
▁Fuji	-13664
▁Fury	-13665
▁Gabb	-13666
▁Game	-13667
▁Gave	-13668
▁Geom	-13669
▁Giul	-13670
▁Grat	-13671
▁Gulf	-13672
▁Gust	-13673
▁HIIT	-13674
▁HTTP	-13675
▁Hail	-13676
▁Hair	-13677
▁Hard	-13678
▁Hate	-13679
▁Head	-13680
▁Hill	-13681
▁Hock	-13682
▁Hogw	-13683
▁Hold	-13684
▁Homo	-13685
▁Hond	-13686
▁Hour	-13687
▁Huge	-13688
▁Hugh	-13689
▁Huyg	-13690
▁Hyde	-13691
▁IMHO	-13692
▁ISPs	-13693
▁Ides	-13694
▁Iraq	-13695
▁Isol	-13696
▁Issa	-13697
▁Jama	-13698
▁Jasm	-13699
▁Jenk	-13700
▁Jews	-13701
▁Joon	-13702
▁Jour	-13703
▁Kare	-13704
▁Kart	-13705
▁Kind	-13706
▁Kiwi	-13707
▁Kook	-13708
▁LEDs	-13709
▁Lamp	-13710
▁Lawn	-13711
▁Lazy	-13712
▁Less	-13713
▁Link	-13714
▁Lion	-13715
▁Lite	-13716
▁Lith	-13717
▁Live	-13718
▁Loop	-13719
▁Love	-13720
▁Luck	-13721
▁Luke	-13722
▁Mach	-13723
▁Made	-13724
▁Mask	-13725
▁Math	-13726
▁Meat	-13727
▁Ment	-13728
▁Mess	-13729
▁Meth	-13730
▁Mich	-13731
▁Milk	-13732
▁Mitt	-13733
▁Moby	-13734
▁Mons	-13735
▁Moon	-13736
▁Mort	-13737
▁Moss	-13738
▁Most	-13739
▁Moth	-13740
▁MsSc	-13741
▁Murb	-13742
▁Navy	-13743
▁Need	-13744
▁Neem	-13745
▁News	-13746
▁Niet	-13747
▁Nike	-13748
▁Node	-13749
▁Norm	-13750
▁Note	-13751
▁Nove	-13752
▁OLED	-13753
▁Oats	-13754
▁Ohio	-13755
▁Open	-13756
▁Pack	-13757
▁Palm	-13758
▁Panc	-13759
▁Pass	-13760
▁Past	-13761
▁Path	-13762
▁Paul	-13763
▁Peel	-13764
▁Perc	-13765
▁Peru	-13766
▁Pier	-13767
▁Pink	-13768
▁Pope	-13769
▁Poss	-13770
▁Post	-13771
▁Pout	-13772
▁Pred	-13773
▁Prim	-13774
▁Pull	-13775
▁REST	-13776
▁Rare	-13777
▁Rasp	-13778
▁Rate	-13779
▁Real	-13780
▁Redu	-13781
▁Reef	-13782
▁Repl	-13783
▁Rest	-13784
▁Rica	-13785
▁Role	-13786
▁Rows	-13787
▁Ruby	-13788
▁Rudy	-13789
▁Sapp	-13790
▁Saut	-13791
▁Scul	-13792
▁Sent	-13793
▁Shim	-13794
▁Slaw	-13795
▁Snow	-13796
▁Soak	-13797
▁Soda	-13798
▁Soil	-13799
▁Soup	-13800
▁Such	-13801
▁Suit	-13802
▁Swap	-13803
▁Syst	-13804
▁Taco	-13805
▁Tall	-13806
▁Tank	-13807
▁Tate	-13808
▁Teen	-13809
▁Tenn	-13810
▁Term	-13811
▁Told	-13812
▁Tony	-13813
▁Tool	-13814
▁Torn	-13815
▁Toss	-13816
▁Tric	-13817
▁Tues	-13818
▁Unle	-13819
▁Unsk	-13820
▁Vain	-13821
▁Vera	-13822
▁Vers	-13823
▁Vice	-13824
▁Volt	-13825
▁Vuit	-13826
▁WANs	-13827
▁Weak	-13828
▁Wear	-13829
▁Were	-13830
▁West	-13831
▁Whig	-13832
▁Whit	-13833
▁WiFi	-13834
▁Wilk	-13835
▁Wins	-13836
▁Wrte	-13837
▁Year	-13838
▁ache	-13839
▁acne	-13840
▁acqu	-13841
▁afic	-13842
▁aids	-13843
▁alex	-13844
▁amen	-13845
▁amid	-13846
▁anew	-13847
▁anne	-13848
▁apex	-13849
▁atop	-13850
▁axes	-13851
▁azul	-13852
▁bail	-13853
▁bald	-13854
▁bans	-13855
▁bapt	-13856
▁barn	-13857
▁belt	-13858
▁benc	-13859
▁bend	-13860
▁bene	-13861
▁bite	-13862
▁blew	-13863
▁boho	-13864
▁bolt	-13865
▁bomb	-13866
▁bout	-13867
▁brim	-13868
▁brow	-13869
▁brwn	-13870
▁bulk	-13871
▁bush	-13872
▁cage	-13873
▁chef	-13874
▁clue	-13875
▁cohe	-13876
▁corn	-13877
▁crab	-13878
▁cran	-13879
▁cres	-13880
▁crun	-13881
▁curv	-13882
▁cush	-13883
▁cute	-13884
▁dang	-13885
▁dapp	-13886
▁dash	-13887
▁dazz	-13888
▁deal	-13889
▁dedu	-13890
▁deer	-13891
▁dice	-13892
▁died	-13893
▁dies	-13894
▁dizz	-13895
▁dont	-13896
▁dose	-13897
▁dots	-13898
▁dove	-13899
▁drag	-13900
▁dumb	-13901
▁dusk	-13902
▁dwar	-13903
▁dyst	-13904
▁eBay	-13905
▁ears	-13906
▁elig	-13907
▁emit	-13908
▁eras	-13909
▁estr	-13910
▁fant	-13911
▁fell	-13912
▁fert	-13913
▁filt	-13914
▁fine	-13915
▁finn	-13916
▁fits	-13917
▁flaw	-13918
▁foam	-13919
▁fond	-13920
▁fork	-13921
▁frog	-13922
▁gang	-13923
▁glad	-13924
▁goin	-13925
▁gold	-13926
▁grab	-13927
▁grey	-13928
▁grid	-13929
▁grim	-13930
▁grip	-13931
▁guns	-13932
▁hack	-13933
▁hall	-13934
▁hang	-13935
▁hasn	-13936
▁hats	-13937
▁heal	-13938
▁henh	-13939
▁hike	-13940
▁hips	-13941
▁hood	-13942
▁hook	-13943
▁horm	-13944
▁hose	-13945
▁hosp	-13946
▁info	-13947
▁ions	-13948
▁irre	-13949
▁isAn	-13950
▁jagu	-13951
▁jars	-13952
▁jmps	-13953
▁jury	-13954
▁kill	-13955
▁kits	-13956
▁kiwi	-13957
▁lamp	-13958
▁lawn	-13959
▁lean	-13960
▁lion	-13961
▁logs	-13962
▁lore	-13963
▁lurk	-13964
▁luxe	-13965
▁mash	-13966
▁mask	-13967
▁mesh	-13968
▁mice	-13969
▁mine	-13970
▁mops	-13971
▁mort	-13972
▁mung	-13973
▁muss	-13974
▁neat	-13975
▁nick	-13976
▁nutr	-13977
▁obey	-13978
▁odds	-13979
▁okay	-13980
▁omit	-13981
▁orth	-13982
▁outl	-13983
▁oxid	-13984
▁pact	-13985
▁paid	-13986
▁pale	-13987
▁pals	-13988
▁pays	-13989
▁pear	-13990
▁peas	-13991
▁peer	-13992
▁pent	-13993
▁perv	-13994
▁pest	-13995
▁pigs	-13996
▁pile	-13997
▁pill	-13998
▁plea	-13999
▁pock	-14000
▁pods	-14001
▁pond	-14002
▁poun	-14003
▁pric	-14004
▁prud	-14005
▁pull	-14006
▁push	-14007
▁quit	-14008
▁quiz	-14009
▁raid	-14010
▁rail	-14011
▁ramp	-14012
▁rein	-14013
▁reop	-14014
▁rhet	-14015
▁rind	-14016
▁ring	-14017
▁robe	-14018
▁rode	-14019
▁roof	-14020
▁rope	-14021
▁rows	-14022
▁rush	-14023
▁sahc	-14024
▁sarc	-14025
▁saws	-14026
▁says	-14027
▁seag	-14028
▁seal	-14029
▁sear	-14030
▁seve	-14031
▁shed	-14032
▁shif	-14033
▁sick	-14034
▁sigh	-14035
▁silk	-14036
▁soap	-14037
▁soar	-14038
▁sore	-14039
▁soup	-14040
▁sous	-14041
▁spry	-14042
▁spun	-14043
▁sqrt	-14044
▁stew	-14045
▁stif	-14046
▁stow	-14047
▁styl	-14048
▁subf	-14049
▁suit	-14050
▁swam	-14051
▁swel	-14052
▁swit	-14053
▁taco	-14054
▁tard	-14055
▁tart	-14056
▁teal	-14057
▁telo	-14058
▁thie	-14059
▁thou	-14060
▁tied	-14061
▁toes	-14062
▁tons	-14063
▁topp	-14064
▁tops	-14065
▁toss	-14066
▁trim	-14067
▁tube	-14068
▁ugly	-14069
▁unbe	-14070
▁unre	-14071
▁upgr	-14072
▁uphe	-14073
▁vend	-14074
▁vibr	-14075
▁vice	-14076
▁vint	-14077
▁virt	-14078
▁wadd	-14079
▁warn	-14080
▁weed	-14081
▁west	-14082
▁wile	-14083
▁wing	-14084
▁wore	-14085
▁wren	-14086
▁zone	-14087
=='(':	-14088
Adhere	-14089
Banana	-14090
Behind	-14091
Brazil	-14092
Change	-14093
Common	-14094
Create	-14095
Degree	-14096
Dyeing	-14097
Editor	-14098
Eragon	-14099
Ethics	-14100
Explor	-14101
Faster	-14102
Filter	-14103
Flavor	-14104
Follow	-14105
French	-14106
Gepopo	-14107
Global	-14108
Guilty	-14109
Guyana	-14110
Habits	-14111
InYour	-14112
Insert	-14113
Integr	-14114
Invest	-14115
Martha	-14116
Monkey	-14117
NClean	-14118
Ornith	-14119
Posted	-14120
Profit	-14121
Robert	-14122
Safety	-14123
Spider	-14124
Sprite	-14125
Strike	-14126
Sunset	-14127
Tacoma	-14128
Taking	-14129
Target	-14130
Vision	-14131
abstem	-14132
aburra	-14133
abylon	-14134
aceans	-14135
aceous	-14136
achete	-14137
action	-14138
active	-14139
agious	-14140
agnose	-14141
ahimsa	-14142
akened	-14143
allows	-14144
alytic	-14145
aments	-14146
ancies	-14147
andard	-14148
anders	-14149
andium	-14150
andonn	-14151
andrae	-14152
angelo	-14153
angers	-14154
anghai	-14155
angles	-14156
anklin	-14157
anners	-14158
apable	-14159
aphase	-14160
apples	-14161
apting	-14162
ardson	-14163
arents	-14164
ariana	-14165
arians	-14166
asonic	-14167
atable	-14168
athize	-14169
athons	-14170
atomic	-14171
aurant	-14172
author	-14173
autumn	-14174
avalry	-14175
azines	-14176
backed	-14177
beauty	-14178
belief	-14179
blocks	-14180
bolism	-14181
brandt	-14182
breaks	-14183
broken	-14184
bruary	-14185
carbon	-14186
casing	-14187
caused	-14188
ceived	-14189
cerned	-14190
cessed	-14191
cesses	-14192
choice	-14193
coated	-14194
common	-14195
config	-14196
consin	-14197
constr	-14198
crisis	-14199
culiar	-14200
curric	-14201
cutter	-14202
demand	-14203
derful	-14204
design	-14205
digest	-14206
dinner	-14207
ducive	-14208
eating	-14209
ecdote	-14210
ectrum	-14211
edness	-14212
effici	-14213
embled	-14214
encing	-14215
ension	-14216
entage	-14217
enties	-14218
entity	-14219
eritis	-14220
ersies	-14221
ersion	-14222
ertips	-14223
escale	-14224
escent	-14225
estamp	-14226
esteem	-14227
estock	-14228
etchup	-14229
ethium	-14230
etings	-14231
evolve	-14232
ewater	-14233
eworks	-14234
fUBazF	-14235
family	-14236
flower	-14237
forced	-14238
forest	-14239
fortun	-14240
gazing	-14241
gehogs	-14242
geries	-14243
gevity	-14244
global	-14245
google	-14246
greenc	-14247
greens	-14248
guided	-14249
haired	-14250
handed	-14251
hannon	-14252
helons	-14253
hentic	-14254
hereum	-14255
hesize	-14256
higuro	-14257
houses	-14258
iWatch	-14259
iantly	-14260
ibbean	-14261
icians	-14262
ickets	-14263
icrosc	-14264
ienned	-14265
iffith	-14266
igeria	-14267
ighten	-14268
ignant	-14269
ildren	-14270
iliate	-14271
illery	-14272
iloquy	-14273
iments	-14274
impact	-14275
inated	-14276
ineral	-14277
inform	-14278
inkles	-14279
inting	-14280
inuous	-14281
ionado	-14282
ioning	-14283
ipated	-14284
iphany	-14285
ircled	-14286
irping	-14287
ispers	-14288
itamin	-14289
itives	-14290
ivered	-14291
ivirus	-14292
izzard	-14293
jdsklf	-14294
killer	-14295
laimed	-14296
ldowns	-14297
learly	-14298
lected	-14299
lement	-14300
length	-14301
licker	-14302
limous	-14303
linear	-14304
linked	-14305
lishes	-14306
little	-14307
loathe	-14308
lowers	-14309
luding	-14310
makers	-14311
manage	-14312
market	-14313
mbling	-14314
method	-14315
mining	-14316
minute	-14317
monary	-14318
moving	-14319
nicium	-14320
nomial	-14321
nosing	-14322
ochina	-14323
ocious	-14324
oction	-14325
odying	-14326
oilage	-14327
ointed	-14328
ompose	-14329
ondent	-14330
onents	-14331
optera	-14332
ordata	-14333
orders	-14334
orized	-14335
orkers	-14336
ormous	-14337
orship	-14338
ospace	-14339
oughty	-14340
ouille	-14341
ouncil	-14342
ousers	-14343
packed	-14344
people	-14345
perate	-14346
pering	-14347
perior	-14348
pezoid	-14349
phical	-14350
phosph	-14351
placed	-14352
plates	-14353
posium	-14354
prices	-14355
quoise	-14356
racted	-14357
ramble	-14358
random	-14359
raping	-14360
reamed	-14361
recent	-14362
rement	-14363
rences	-14364
renity	-14365
rently	-14366
reotyp	-14367
rescue	-14368
resipt	-14369
ribute	-14370
riched	-14371
rieval	-14372
riever	-14373
rights	-14374
rinkle	-14375
riting	-14376
roduct	-14377
ronaut	-14378
ropium	-14379
rorist	-14380
roxide	-14381
ruding	-14382
rupted	-14383
salttw	-14384
school	-14385
sealed	-14386
second	-14387
server	-14388
shaped	-14389
simple	-14390
solver	-14391
sports	-14392
ssover	-14393
stands	-14394
stonia	-14395
storms	-14396
stream	-14397
strike	-14398
tained	-14399
taking	-14400
tgasse	-14401
thesis	-14402
tricep	-14403
tunate	-14404
turned	-14405
twelve	-14406
twined	-14407
ucleic	-14408
uctant	-14409
uffing	-14410
uicker	-14411
uickly	-14412
ulator	-14413
ulgent	-14414
ulging	-14415
ulsive	-14416
ulting	-14417
untily	-14418
urrect	-14419
vocate	-14420
werise	-14421
willed	-14422
yclers	-14423
zephyr	-14424
▁Above	-14425
▁Accum	-14426
▁Aconc	-14427
▁Acute	-14428
▁Agent	-14429
▁Agree	-14430
▁Allah	-14431
▁Alter	-14432
▁Anger	-14433
▁Annap	-14434
▁Ansel	-14435
▁Apart	-14436
▁Apply	-14437
▁Asian	-14438
▁Azure	-14439
▁Baked	-14440
▁Bases	-14441
▁Bayes	-14442
▁Beave	-14443
▁Biden	-14444
▁Binoc	-14445
▁Birdw	-14446
▁Blend	-14447
▁Board	-14448
▁Bound	-14449
▁Brahe	-14450
▁Brand	-14451
▁Brave	-14452
▁Bread	-14453
▁Brown	-14454
▁Cairo	-14455
▁Cause	-14456
▁Cease	-14457
▁Chart	-14458
▁Chief	-14459
▁Chile	-14460
▁Color	-14461
▁Compl	-14462
▁Coole	-14463
▁Coper	-14464
▁Costa	-14465
▁Costs	-14466
▁Cover	-14467
▁Crazy	-14468
▁Crimp	-14469
▁Czech	-14470
▁Dairy	-14471
▁Dhaul	-14472
▁Diast	-14473
▁Disad	-14474
▁Divid	-14475
▁Dolce	-14476
▁Domin	-14477
▁Doors	-14478
▁Draft	-14479
▁Drink	-14480
▁Drive	-14481
▁Drove	-14482
▁Ebook	-14483
▁Elven	-14484
▁Emerg	-14485
▁Escap	-14486
▁Essay	-14487
▁Ether	-14488
▁Event	-14489
▁Exerc	-14490
▁Facts	-14491
▁Faery	-14492
▁Fairy	-14493
▁Fever	-14494
▁Finch	-14495
▁Fiona	-14496
▁Flour	-14497
▁Flute	-14498
▁Focus	-14499
▁Foley	-14500
▁Force	-14501
▁Foreo	-14502
▁Frequ	-14503
▁Gabri	-14504
▁Gaius	-14505
▁Giver	-14506
▁Gmail	-14507
▁Goals	-14508
▁Grape	-14509
▁Greta	-14510
▁Guang	-14511
▁Guate	-14512
▁Gucci	-14513
▁Haiku	-14514
▁Haupt	-14515
▁Heart	-14516
▁Helps	-14517
▁Highs	-14518
▁Hoard	-14519
▁Homep	-14520
▁Homin	-14521
▁Horiz	-14522
▁Hotel	-14523
▁House	-14524
▁Hyper	-14525
▁Hypot	-14526
▁Imbal	-14527
▁Immac	-14528
▁Imper	-14529
▁Indus	-14530
▁Infer	-14531
▁Inner	-14532
▁Jeans	-14533
▁Kazuo	-14534
▁Kofta	-14535
▁Korea	-14536
▁Kudzu	-14537
▁Kursk	-14538
▁LIMIT	-14539
▁Lands	-14540
▁Lanka	-14541
▁Lapis	-14542
▁Laser	-14543
▁Leafy	-14544
▁Lewis	-14545
▁Liech	-14546
▁Light	-14547
▁Lipst	-14548
▁Lived	-14549
▁Lives	-14550
▁Loans	-14551
▁Local	-14552
▁Looks	-14553
▁Lunch	-14554
▁Maast	-14555
▁Magic	-14556
▁Maine	-14557
▁Malta	-14558
▁Maple	-14559
▁Mario	-14560
▁Match	-14561
▁Maybe	-14562
▁Mayor	-14563
▁Meals	-14564
▁Melon	-14565
▁Merry	-14566
▁Mince	-14567
▁Minds	-14568
▁Minor	-14569
▁Model	-14570
▁Moust	-14571
▁Music	-14572
▁Musik	-14573
▁Nagas	-14574
▁Naive	-14575
▁Nanga	-14576
▁Nepal	-14577
▁Nicar	-14578
▁Nopal	-14579
▁Overd	-14580
▁Pablo	-14581
▁Paint	-14582
▁Paper	-14583
▁Paran	-14584
▁Party	-14585
▁Peach	-14586
▁Pearl	-14587
▁Pione	-14588
▁Plank	-14589
▁PlayS	-14590
▁Plums	-14591
▁Point	-14592
▁Ports	-14593
▁Prezi	-14594
▁Price	-14595
▁Prime	-14596
▁Pulse	-14597
▁Puree	-14598
▁Raise	-14599
▁Rajas	-14600
▁Range	-14601
▁React	-14602
▁Refer	-14603
▁Regal	-14604
▁Right	-14605
▁Rocky	-14606
▁Roose	-14607
▁Rossi	-14608
▁Round	-14609
▁Salad	-14610
▁Scand	-14611
▁Scrub	-14612
▁Scuba	-14613
▁Seuss	-14614
▁Shift	-14615
▁Shone	-14616
▁Short	-14617
▁Signs	-14618
▁Situs	-14619
▁Skill	-14620
▁Skunk	-14621
▁Skyro	-14622
▁Slack	-14623
▁Slave	-14624
▁Slide	-14625
▁Snack	-14626
▁Sorce	-14627
▁Sorts	-14628
▁Sound	-14629
▁Space	-14630
▁Spark	-14631
▁Speak	-14632
▁Spell	-14633
▁Spicy	-14634
▁Stage	-14635
▁Stark	-14636
▁Steel	-14637
▁Steve	-14638
▁Store	-14639
▁Storm	-14640
▁Story	-14641
▁Stret	-14642
▁Susan	-14643
▁Sushi	-14644
▁Swans	-14645
▁Swing	-14646
▁Sword	-14647
▁TABLE	-14648
▁Tacos	-14649
▁Taste	-14650
▁Taxes	-14651
▁Tense	-14652
▁Terms	-14653
▁Theme	-14654
▁Tiger	-14655
▁Torch	-14656
▁Trait	-14657
▁Troub	-14658
▁Trump	-14659
▁Tusen	-14660
▁Tweet	-14661
▁Tycho	-14662
▁Ultra	-14663
▁Until	-14664
▁Value	-14665
▁Vamos	-14666
▁Vivob	-14667
▁Vocab	-14668
▁Wears	-14669
▁Wheel	-14670
▁Wider	-14671
▁Witty	-14672
▁Woods	-14673
▁Worth	-14674
▁Yeats	-14675
▁Yulet	-14676
▁____.	-14677
▁aback	-14678
▁abhor	-14679
▁abode	-14680
▁abuse	-14681
▁accum	-14682
▁accus	-14683
▁aches	-14684
▁acted	-14685
▁actor	-14686
▁adren	-14687
▁agent	-14688
▁aging	-14689
▁ahold	-14690
▁aimed	-14691
▁albic	-14692
▁algae	-14693
▁alleg	-14694
▁allez	-14695
▁aloof	-14696
▁aloud	-14697
▁amput	-14698
▁anger	-14699
▁apart	-14700
▁arose	-14701
▁aston	-14702
▁atoms	-14703
▁backs	-14704
▁bases	-14705
▁basin	-14706
▁basks	-14707
▁beaks	-14708
▁beats	-14709
▁begun	-14710
▁belly	-14711
▁bench	-14712
▁bests	-14713
▁bever	-14714
▁bible	-14715
▁bicep	-14716
▁bikes	-14717
▁blade	-14718
▁blame	-14719
▁bleak	-14720
▁bling	-14721
▁blogs	-14722
▁blown	-14723
▁bluff	-14724
▁blurb	-14725
▁blurt	-14726
▁boats	-14727
▁bombs	-14728
▁bonus	-14729
▁boole	-14730
▁bowls	-14731
▁breed	-14732
▁broke	-14733
▁burnt	-14734
▁bypro	-14735
▁camps	-14736
▁cares	-14737
▁carve	-14738
▁casts	-14739
▁ceram	-14740
▁champ	-14741
▁charm	-14742
▁chase	-14743
▁chats	-14744
▁chief	-14745
▁cider	-14746
▁cielo	-14747
▁cites	-14748
▁claim	-14749
▁clerk	-14750
▁clich	-14751
▁cloak	-14752
▁cloth	-14753
▁clubs	-14754
▁clues	-14755
▁coach	-14756
[...]
