<pad>	0
<unk>	0
<s>	0
</s>	0
<0x00>	0
<0x01>	0
<0x02>	0
<0x03>	0
<0x04>	0
<0x05>	0
<0x06>	0
<0x07>	0
<0x08>	0
<0x09>	0
<0x0A>	0
<0x0B>	0
<0x0C>	0
<0x0D>	0
<0x0E>	0
<0x0F>	0
<0x10>	0
<0x11>	0
<0x12>	0
<0x13>	0
<0x14>	0
<0x15>	0
<0x16>	0
<0x17>	0
<0x18>	0
<0x19>	0
<0x1A>	0
<0x1B>	0
<0x1C>	0
<0x1D>	0
<0x1E>	0
<0x1F>	0
<0x20>	0
<0x21>	0
<0x22>	0
<0x23>	0
<0x24>	0
<0x25>	0
<0x26>	0
<0x27>	0
<0x28>	0
<0x29>	0
<0x2A>	0
<0x2B>	0
<0x2C>	0
<0x2D>	0
<0x2E>	0
<0x2F>	0
<0x30>	0
<0x31>	0
<0x32>	0
<0x33>	0
<0x34>	0
<0x35>	0
<0x36>	0
<0x37>	0
<0x38>	0
<0x39>	0
<0x3A>	0
<0x3B>	0
<0x3C>	0
<0x3D>	0
<0x3E>	0
<0x3F>	0
<0x40>	0
<0x41>	0
<0x42>	0
<0x43>	0
<0x44>	0
<0x45>	0
<0x46>	0
<0x47>	0
<0x48>	0
<0x49>	0
<0x4A>	0
<0x4B>	0
<0x4C>	0
<0x4D>	0
<0x4E>	0
<0x4F>	0
<0x50>	0
<0x51>	0
<0x52>	0
<0x53>	0
<0x54>	0
<0x55>	0
<0x56>	0
<0x57>	0
<0x58>	0
<0x59>	0
<0x5A>	0
<0x5B>	0
<0x5C>	0
<0x5D>	0
<0x5E>	0
<0x5F>	0
<0x60>	0
<0x61>	0
<0x62>	0
<0x63>	0
<0x64>	0
<0x65>	0
<0x66>	0
<0x67>	0
<0x68>	0
<0x69>	0
<0x6A>	0
<0x6B>	0
<0x6C>	0
<0x6D>	0
<0x6E>	0
<0x6F>	0
<0x70>	0
<0x71>	0
<0x72>	0
<0x73>	0
<0x74>	0
<0x75>	0
<0x76>	0
<0x77>	0
<0x78>	0
<0x79>	0
<0x7A>	0
<0x7B>	0
<0x7C>	0
<0x7D>	0
<0x7E>	0
<0x7F>	0
<0x80>	0
<0x81>	0
<0x82>	0
<0x83>	0
<0x84>	0
<0x85>	0
<0x86>	0
<0x87>	0
<0x88>	0
<0x89>	0
<0x8A>	0
<0x8B>	0
<0x8C>	0
<0x8D>	0
<0x8E>	0
<0x8F>	0
<0x90>	0
<0x91>	0
<0x92>	0
<0x93>	0
<0x94>	0
<0x95>	0
<0x96>	0
<0x97>	0
<0x98>	0
<0x99>	0
<0x9A>	0
<0x9B>	0
<0x9C>	0
<0x9D>	0
<0x9E>	0
<0x9F>	0
<0xA0>	0
<0xA1>	0
<0xA2>	0
<0xA3>	0
<0xA4>	0
<0xA5>	0
<0xA6>	0
<0xA7>	0
<0xA8>	0
<0xA9>	0
<0xAA>	0
<0xAB>	0
<0xAC>	0
<0xAD>	0
<0xAE>	0
<0xAF>	0
<0xB0>	0
<0xB1>	0
<0xB2>	0
<0xB3>	0
<0xB4>	0
<0xB5>	0
<0xB6>	0
<0xB7>	0
<0xB8>	0
<0xB9>	0
<0xBA>	0
<0xBB>	0
<0xBC>	0
<0xBD>	0
<0xBE>	0
<0xBF>	0
<0xC0>	0
<0xC1>	0
<0xC2>	0
<0xC3>	0
<0xC4>	0
<0xC5>	0
<0xC6>	0
<0xC7>	0
<0xC8>	0
<0xC9>	0
<0xCA>	0
<0xCB>	0
<0xCC>	0
<0xCD>	0
<0xCE>	0
<0xCF>	0
<0xD0>	0
<0xD1>	0
<0xD2>	0
<0xD3>	0
<0xD4>	0
<0xD5>	0
<0xD6>	0
<0xD7>	0
<0xD8>	0
<0xD9>	0
<0xDA>	0
<0xDB>	0
<0xDC>	0
<0xDD>	0
<0xDE>	0
<0xDF>	0
<0xE0>	0
<0xE1>	0
<0xE2>	0
<0xE3>	0
<0xE4>	0
<0xE5>	0
<0xE6>	0
<0xE7>	0
<0xE8>	0
<0xE9>	0
<0xEA>	0
<0xEB>	0
<0xEC>	0
<0xED>	0
<0xEE>	0
<0xEF>	0
<0xF0>	0
<0xF1>	0
<0xF2>	0
<0xF3>	0
<0xF4>	0
<0xF5>	0
<0xF6>	0
<0xF7>	0
<0xF8>	0
<0xF9>	0
<0xFA>	0
<0xFB>	0
<0xFC>	0
<0xFD>	0
<0xFE>	0
<0xFF>	0
可以	-0
一个	-1
▁-	-2
数据	-3
提供	-4
使用	-5
通过	-6
我们	-7
需要	-8
能够	-9
in	-10
▁=	-11
学习	-12
帮助	-13
进行	-14
可能	-15
er	-16
问题	-17
th	-18
是一	-19
计算	-20
信息	-21
智能	-22
on	-23
以下	-24
技术	-25
▁a	-26
re	-27
这个	-28
不同	-29
时间	-30
他们	-31
提高	-32
中的	-33
系统	-34
影响	-35
人工	-36
减少	-37
客户	-38
``	-39
根据	-40
输入	-41
重要	-42
它们	-43
用户	-44
方法	-45
包括	-46
人工智能	-47
机器	-48
or	-49
是一个	-50
le	-51
应用	-52
您的	-53
▁在	-54
这些	-55
--	-56
st	-57
服务	-58
通常	-59
an	-60
分析	-61
自己	-62
如果	-63
生活	-64
一些	-65
世界	-66
at	-67
例如	-68
选择	-69
工作	-70
什么	-71
健康	-72
设计	-73
产品	-74
▁c	-75
非常	-76
▁"	-77
目标	-78
▁(	-79
模型	-80
方式	-81
好的	-82
是一种	-83
en	-84
处理	-85
▁|	-86
al	-87
环境	-88
确定	-89
▁s	-90
能力	-91
人类	-92
过程	-93
算法	-94
解决	-95
▁+	-96
更多	-97
描述	-98
其他	-99
ar	-100
▁th	-101
之间	-102
网站	-103
个人	-104
程序	-105
ou	-106
安全	-107
许多	-108
主要	-109
人们	-110
创建	-111
生成	-112
de	-113
需求	-114
用于	-115
句子	-116
▁输入	-117
活动	-118
能源	-119
▁这	-120
动物	-121
社会	-122
语言	-123
内容	-124
网络	-125
▁i	-126
▁p	-127
▁t	-128
文章	-129
▁T	-130
▁m	-131
有效	-132
两个	-133
建议	-134
大的	-135
大量	-136
计算机	-137
因此	-138
公司	-139
此外	-140
实现	-141
美国	-142
利用	-143
发展	-144
研究	-145
变化	-146
所有	-147
保持	-148
导致	-149
关于	-150
管理	-151
经济	-152
确保	-153
ce	-154
预测	-155
自己的	-156
▁总	-157
如何	-158
社交	-159
```	-160
一种	-161
文本	-162
运动	-163
▁```	-164
▁A	-165
具有	-166
这种	-167
▁the	-168
应该	-169
it	-170
因为	-171
开始	-172
给定	-173
元素	-174
快速	-175
自然	-176
无法	-177
获得	-178
企业	-179
不同的	-180
机器人	-181
情况	-182
故事	-183
▁b	-184
促进	-185
更好	-186
由于	-187
保护	-188
助于	-189
数字	-190
▁re	-191
建立	-192
的人	-193
可能会	-194
有助于	-195
产生	-196
增加	-197
领域	-198
se	-199
完成	-200
ing	-201
ur	-202
▁f	-203
分类	-204
同时	-205
对于	-206
新的	-207
注意	-208
结构	-209
列表	-210
资源	-211
支持	-212
媒体	-213
更好地	-214
ro	-215
全球	-216
可以通过	-217
he	-218
▁#	-219
污染	-220
的影响	-221
吸引	-222
带来	-223
解释	-224
软件	-225
找到	-226
相关	-227
医疗	-228
机器学习	-229
价格	-230
▁C	-231
交通	-232
以及	-233
希望	-234
▁w	-235
决策	-236
没有	-237
----	-238
任务	-239
拥有	-240
质量	-241
um	-242
▁y	-243
作为	-244
为了	-245
开发	-246
持续	-247
计划	-248
▁in	-249
om	-250
国家	-251
之间的	-252
功能	-253
各种	-254
团队	-255
科学	-256
学生	-257
了解	-258
其中	-259
成功	-260
电子	-261
不断	-262
教育	-263
可以帮助	-264
生产	-265
▁n	-266
从而	-267
关系	-268
投资	-269
表示	-270
食物	-271
li	-272
▁写	-273
理解	-274
▁I	-275
社交媒体	-276
并且	-277
更加	-278
步骤	-279
简单	-280
结果	-281
表达	-282
所以	-283
识别	-284
ri	-285
未来	-286
厘米	-287
市场	-288
目的	-289
▁S	-290
主题	-291
组织	-292
ion	-293
▁生成	-294
列出	-295
排放	-296
气候	-297
到了	-298
太阳	-299
用来	-300
设备	-301
您可以	-302
更多的	-303
部分	-304
风险	-305
▁to	-306
am	-307
as	-308
它的	-309
应用程序	-310
▁将	-311
函数	-312
增长	-313
方面	-314
森林	-315
类型	-316
这样	-317
人的	-318
准备	-319
增强	-320
重要的	-321
▁[	-322
存储	-323
控制	-324
准确	-325
地球	-326
效率	-327
▁总之	-328
el	-329
生物	-330
疾病	-331
输出	-332
yth	-333
is	-334
改变	-335
造成	-336
体验	-337
工具	-338
然后	-339
的数据	-340
以便	-341
发现	-342
存在	-343
首先	-344
下面	-345
不仅	-346
政府	-347
每个	-348
游戏	-349
提供了	-350
ic	-351
▁x	-352
具体	-353
城市	-354
复杂	-355
定义	-356
自动	-357
避免	-358
关键	-359
成本	-360
空气	-361
是什么	-362
ython	-363
▁F	-364
比较	-365
考虑	-366
加入	-367
历史	-368
测试	-369
），	-370
一起	-371
优化	-372
是否	-373
认为	-374
▁an	-375
他们的	-376
已经	-377
方案	-378
颜色	-379
):	-380
参与	-381
发生	-382
操作	-383
标志	-384
这一	-385
▁列出	-386
创造	-387
执行	-388
我们可以	-389
但是	-390
或者	-391
电影	-392
的一	-393
邮件	-394
交流	-395
员工	-396
挑战	-397
特征	-398
为您	-399
你的	-400
机会	-401
锻炼	-402
▁描述	-403
代码	-404
位置	-405
单词	-406
性的	-407
旅行	-408
植物	-409
策略	-410
行为	-411
训练	-412
身体	-413
的方法	-414
上的	-415
制定	-416
▁如果	-417
ed	-418
▁B	-419
三个	-420
人员	-421
再生	-422
定的	-423
家庭	-424
随着	-425
了一	-426
因素	-427
来说	-428
速度	-429
面积	-430
过程中	-431
气候变化	-432
措施	-433
都是	-434
在线	-435
常见	-436
是指	-437
水果	-438
购买	-439
那么	-440
AI	-441
ch	-442
ot	-443
▁我	-444
包含	-445
基于	-446
搜索	-447
材料	-448
阅读	-449
▁根据	-450
我们的	-451
▁d	-452
句话	-453
汽车	-454
营销	-455
可再生	-456
的信息	-457
改善	-458
积极	-459
采取	-460
例子	-461
制作	-462
ter	-463
__	-464
oo	-465
ul	-466
之一	-467
创新	-468
回收	-469
评估	-470
购物	-471
创建一个	-472
▁为	-473
最后	-474
降低	-475
鼓励	-476
ran	-477
es	-478
▁的	-479
做出	-480
合作	-481
喜欢	-482
孩子	-483
文化	-484
最终	-485
urn	-486
▁解释	-487
▁'	-488
丰富	-489
收集	-490
正在	-491
ent	-492
可持续	-493
ag	-494
ow	-495
▁P	-496
▁用	-497
分享	-498
压力	-499
咖啡	-500
地区	-501
多种	-502
成为	-503
表现	-504
▁de	-505
▁ret	-506
可再生能源	-507
ay	-508
▁*	-509
受到	-510
构建	-511
的是	-512
者的	-513
色的	-514
他的	-515
两种	-516
代表	-517
就是	-518
清晰	-519
▁return	-520
of	-521
助手	-522
性和	-523
音乐	-524
决定	-525
字符	-526
实际	-527
找出	-528
气体	-529
清单	-530
▁这个	-531
也可以	-532
il	-533
任何	-534
传统	-535
出现	-536
区别	-537
很多	-538
神经	-539
起来	-540
大量的	-541
ex	-542
专业	-543
沟通	-544
满足	-545
▁提高	-546
五个	-547
医生	-548
温度	-549
组成	-550
销售	-551
▁for	-552
▁D	-553
一次	-554
原因	-555
广泛	-556
技能	-557
然而	-558
用的	-559
获取	-560
访问	-561
调整	-562
一天	-563
公式	-564
关注	-565
定期	-566
整个	-567
标题	-568
正确	-569
物质	-570
知识	-571
）：	-572
中心	-573
区块	-574
形式	-575
提升	-576
流行	-577
物品	-578
的平	-579
股票	-580
角色	-581
us	-582
▁和	-583
价值	-584
共同	-585
塑料	-586
探索	-587
推广	-588
氧化	-589
节点	-590
）。	-591
int	-592
数据的	-593
ue	-594
ve	-595
努力	-596
容易	-597
展示	-598
潜在	-599
绿色	-600
苹果	-601
都有	-602
高的	-603
▁写一	-604
的工作	-605
的时间	-606
▁是	-607
味着	-608
天气	-609
好处	-610
得到	-611
检查	-612
概念	-613
模式	-614
记录	-615
量的	-616
意味着	-617
▁h	-618
严重	-619
基础	-620
形的	-621
排序	-622
ct	-623
gh	-624
三角	-625
互动	-626
作用	-627
分钟	-628
图像	-629
属于	-630
并不	-631
联网	-632
的重要	-633
▁and	-634
可以使用	-635
▁L	-636
困难	-637
形成	-638
感到	-639
文件	-640
朋友	-641
直接	-642
简洁	-643
观点	-644
转换	-645
适当	-646
餐厅	-647
”。	-648
▁对	-649
变量	-650
告诉	-651
推荐	-652
▁if	-653
它们的	-654
的问题	-655
客户服务	-656
交易	-657
品牌	-658
才能	-659
方程	-660
比如	-661
生态	-662
电脑	-663
自行	-664
▁使用	-665
▁提供	-666
能够帮助	-667
解决问题	-668
--------	-669
▁G	-670
▁《	-671
公共	-672
她的	-673
当地	-674
心理	-675
政策	-676
深度	-677
温室	-678
睡眠	-679
细胞	-680
负责	-681
连接	-682
项目	-683
领导	-684
▁of	-685
巨大的	-686
常见的	-687
简单的	-688
给定的	-689
化学	-690
快乐	-691
更新	-692
消费	-693
的最	-694
监督	-695
科技	-696
竞争	-697
ind	-698
”，	-699
回答	-700
垃圾	-701
大利	-702
情感	-703
想法	-704
运行	-705
有效的	-706
的生活	-707
系统的	-708
自行车	-709
良好的	-710
rint	-711
不要	-712
对象	-713
小时	-714
抱歉	-715
旨在	-716
标签	-717
经过	-718
采用	-719
量子	-720
饮食	-721
ult	-722
▁首先	-723
温室气体	-724
ad	-725
▁`	-726
图片	-727
尝试	-728
我的	-729
放松	-730
条件	-731
法律	-732
聊天	-733
▁输出	-734
了一个	-735
我无法	-736
解决方案	-737
▁/	-738
▁M	-739
▁当	-740
▓▓	-741
事件	-742
几个	-743
反应	-744
将其	-745
小说	-746
添加	-747
物体	-748
现在	-749
知道	-750
继续	-751
虚拟	-752
讨论	-753
过去	-754
错误	-755
val	-756
▁is	-757
医疗保	-758
可以在	-759
和其他	-760
电子邮件	-761
神经网络	-762
▁生成一个	-763
▁N	-764
地方	-765
数学	-766
比赛	-767
治疗	-768
法国	-769
移动	-770
艺术	-771
防止	-772
num	-773
▁计算	-774
情况下	-775
▁“	-776
上升	-777
书籍	-778
化的	-779
基本	-780
并在	-781
广告	-782
数量	-783
相对	-784
稳定	-785
联系	-786
视频	-787
这里	-788
食品	-789
ver	-790
▁此外	-791
▁确定	-792
有一个	-793
▁print	-794
em	-795
pp	-796
中国	-797
主义	-798
充满	-799
商品	-800
大小	-801
如下	-802
年轻	-803
形象	-804
技巧	-805
按照	-806
改进	-807
满意	-808
特点	-809
环保	-810
第二	-811
详细	-812
）、	-813
▁you	-814
et	-815
ut	-816
供应	-817
字母	-818
工程	-819
度和	-820
提出	-821
水平	-822
焦虑	-823
状态	-824
经验	-825
网页	-826
著名	-827
行业	-828
ort	-829
技术的	-830
文章的	-831
ck	-832
▁W	-833
作品	-834
力的	-835
呼吸	-836
平台	-837
序列	-838
思维	-839
感受	-840
有所	-841
来自	-842
查询	-843
物种	-844
经历	-845
范围	-846
要求	-847
规则	-848
语音	-849
责任	-850
适合	-851
适的	-852
oun	-853
▁st	-854
的过程	-855
可以根据	-856
深度学习	-857
自然语言	-858
▁创建一个	-859
python	-860
eb	-861
lo	-862
ss	-863
▁g	-864
一步	-865
不会	-866
保证	-867
创意	-868
情绪	-869
政治	-870
效果	-871
标准	-872
流程	-873
浪费	-874
温暖	-875
特定	-876
称为	-877
能量	-878
适应	-879
▁ma	-880
的故事	-881
科学家	-882
ation	-883
vi	-884
位于	-885
力量	-886
可靠	-887
收入	-888
有关	-889
涉及	-890
现实	-891
维护	-892
而且	-893
规划	-894
课程	-895
限制	-896
ext	-897
ord	-898
▁以下	-899
▁找出	-900
▁设计	-901
字符串	-902
您需要	-903
有效地	-904
▁def	-905
监督学习	-906
",	-907
一位	-908
力和	-909
及时	-910
变得	-911
实验	-912
应对	-913
显示	-914
每天	-915
演讲	-916
独特	-917
生命	-918
病毒	-919
空间	-920
返回	-921
释放	-922
面临	-923
ers	-924
相关的	-925
自动化	-926
sult	-927
为您提供	-928
ly	-929
▁E	-930
▁R	-931
不能	-932
原理	-933
商业	-934
商店	-935
威胁	-936
数组	-937
文字	-938
最近	-939
段落	-940
海洋	-941
申请	-942
美丽	-943
营养	-944
高度	-945
▁数据	-946
区块链	-947
的主要	-948
的句子	-949
适当的	-950
医疗保健	-951
))	-952
ra	-953
他人	-954
分布	-955
合理	-956
多个	-957
多样	-958
患者	-959
方便	-960
独立	-961
程度	-962
设置	-963
高效	-964
len	-965
帮助您	-966
是一些	-967
还可以	-968
业务	-969
勇敢	-970
学校	-971
客服	-972
性能	-973
接受	-974
日常	-975
来源	-976
给出	-977
美味	-978
自我	-979
蔬菜	-980
表明	-981
都会	-982
面包	-983
▁一个	-984
▁美国	-985
世界上	-986
您的网站	-987
qu	-988
一般	-989
人口	-990
令人	-991
使得	-992
博客	-993
周围	-994
安排	-995
成员	-996
所需	-997
文档	-998
理论	-999
番茄	-1000
观众	-1001
身心	-1002
遍历	-1003
长期	-1004
验证	-1005
▁下面	-1006
丰富的	-1007
公司的	-1008
▁num	-1009
op	-1010
▁<	-1011
▁e	-1012
▁×	-1013
▁她	-1014
之前	-1015
兴趣	-1016
创作	-1017
变暖	-1018
总是	-1019
手机	-1020
报告	-1021
教学	-1022
欧洲	-1023
统计	-1024
金融	-1025
驾驶	-1026
ght	-1027
决策树	-1028
的一个	-1029
的例子	-1030
list	-1031
▁写一个	-1032
以下句子	-1033
空气污染	-1034
聊天机器人	-1035
..	-1036
一直	-1037
也是	-1038
习惯	-1039
享受	-1040
介绍	-1041
以上	-1042
优点	-1043
冲突	-1044
加拿	-1045
取得	-1046
名称	-1047
哪些	-1048
引擎	-1049
想要	-1050
排列	-1051
模拟	-1052
燃料	-1053
相同	-1054
线性	-1055
背景	-1056
色彩	-1057
设定	-1058
轻松	-1059
风格	-1060
互联网	-1061
如果您	-1062
公共交通	-1063
▁人工智能	-1064
自然语言处理	-1065
▁H	-1066
下来	-1067
不是	-1068
也会	-1069
依赖	-1070
加密	-1071
墨西	-1072
字体	-1073
寻找	-1074
意识	-1075
有趣	-1076
生长	-1077
货币	-1078
费用	-1079
都能	-1080
面对	-1081
预算	-1082
▁最后	-1083
墨西哥	-1084
带来了	-1085
更好的	-1086
的方式	-1087
表达式	-1088
让我们	-1089
作为一个	-1090
我们需要	-1091
▁您	-1092
个性	-1093
优势	-1094
优秀	-1095
平方	-1096
应当	-1097
提取	-1098
有一	-1099
枪支	-1100
梦想	-1101
欢迎	-1102
混合	-1103
清洁	-1104
结束	-1105
职业	-1106
自由	-1107
道德	-1108
随机	-1109
顺序	-1110
ace	-1111
one	-1112
▁ch	-1113
成功的	-1114
转换为	-1115
▁很	-1116
▁（	-1117
主人	-1118
内心	-1119
分别	-1120
印度	-1121
季节	-1122
实时	-1123
当前	-1124
时尚	-1125
明确	-1126
生存	-1127
破坏	-1128
约为	-1129
药物	-1130
贸易	-1131
运用	-1132
重复	-1133
银行	-1134
长度	-1135
：“	-1136
ate	-1137
▁通过	-1138
二氧化	-1139
数据库	-1140
的内容	-1141
的需求	-1142
篇关于	-1143
全球变暖	-1144
这意味着	-1145
▁你	-1146
。”	-1147
会议	-1148
使其	-1149
分子	-1150
化石	-1151
协作	-1152
反馈	-1153
工业	-1154
总统	-1155
成长	-1156
现代	-1157
示例	-1158
精神	-1159
结合	-1160
缓解	-1161
美元	-1162
行动	-1163
资金	-1164
逐渐	-1165
页面	-1166
的概念	-1167
的风险	-1168
类型的	-1169
能够在	-1170
ence	-1171
ge	-1172
id	-1173
▁l	-1174
▁{	-1175
一份	-1176
不过	-1177
估计	-1178
内部	-1179
冥想	-1180
发布	-1181
场景	-1182
差异	-1183
形状	-1184
必须	-1185
总结	-1186
新鲜	-1187
激励	-1188
看到	-1189
编辑	-1190
诊断	-1191
说明	-1192
进制	-1193
链接	-1194
食谱	-1195
香蕉	-1196
ith	-1197
▁制定	-1198
为什么	-1199
在这个	-1200
有许多	-1201
每个人	-1202
的地方	-1203
第一个	-1204
二氧化碳	-1205
温室气体排放	-1206
一条	-1207
中最	-1208
义词	-1209
仍然	-1210
减轻	-1211
在于	-1212
娱乐	-1213
对话	-1214
形容	-1215
循环	-1216
心脏	-1217
意义	-1218
文明	-1219
本书	-1220
直到	-1221
短语	-1222
类别	-1223
编程	-1224
虽然	-1225
记忆	-1226
讲述	-1227
评论	-1228
贷款	-1229
age	-1230
ode	-1231
ple	-1232
▁减少	-1233
可以为	-1234
孩子们	-1235
投资者	-1236
服务器	-1237
的使用	-1238
化石燃料	-1239
人工智能技术	-1240
',	-1241
ML	-1242
me	-1243
un	-1244
▁从	-1245
▁请	-1246
一家	-1247
不可	-1248
修改	-1249
到达	-1250
参加	-1251
平等	-1252
强调	-1253
战争	-1254
是在	-1255
查找	-1256
界面	-1257
目前	-1258
肌肉	-1259
语法	-1260
陈述	-1261
gle	-1262
orm	-1263
▁为了	-1264
▁所以	-1265
▁步骤	-1266
▁比较	-1267
产品的	-1268
以确保	-1269
使用的	-1270
和社会	-1271
是一位	-1272
进一步	-1273
▁pro	-1274
oogle	-1275
机器学习算法	-1276
':	-1277
ab	-1278
一下	-1279
休息	-1280
假设	-1281
其次	-1282
判断	-1283
动力	-1284
图形	-1285
尽管	-1286
平均	-1287
必要	-1288
感觉	-1289
最大	-1290
核心	-1291
流量	-1292
灵活	-1293
爱的	-1294
犯罪	-1295
第一	-1296
第三	-1297
而是	-1298
职位	-1299
词汇	-1300
那里	-1301
重新	-1302
ame	-1303
▁ar	-1304
▁he	-1305
▁因此	-1306
▁好的	-1307
▁选择	-1308
合适的	-1309
您提供	-1310
更容易	-1311
网站的	-1312
搜索引擎	-1313
if	-1314
▁一	-1315
事实	-1316
事情	-1317
农业	-1318
口味	-1319
回归	-1320
大蒜	-1321
密码	-1322
平衡	-1323
年的	-1324
并为	-1325
彼此	-1326
新闻	-1327
方向	-1328
旅游	-1329
物理	-1330
症状	-1331
相互	-1332
经典	-1333
英国	-1334
蛋糕	-1335
视觉	-1336
达到	-1337
还是	-1338
鸡肉	-1339
鸡蛋	-1340
arr	-1341
▁创建	-1342
▁建议	-1343
▁由于	-1344
人类的	-1345
常用的	-1346
意大利	-1347
有一些	-1348
能力和	-1349
生态系统	-1350
▁result	-1351
ke	-1352
——	-1353
▁J	-1354
▁把	-1355
▁有	-1356
▁综	-1357
中间	-1358
人体	-1359
军队	-1360
办公	-1361
参数	-1362
和谐	-1363
声音	-1364
应的	-1365
忠诚	-1366
更快	-1367
浏览	-1368
渠道	-1369
编写	-1370
网上	-1371
美洲	-1372
群体	-1373
贡献	-1374
趋势	-1375
追求	-1376
遵守	-1377
那些	-1378
部署	-1379
面的	-1380
TML	-1381
三角形	-1382
不确定	-1383
优秀的	-1384
你可以	-1385
因为它	-1386
来实现	-1387
独特的	-1388
用户的	-1389
的平均	-1390
等领域	-1391
形的面积	-1392
ol	-1393
ub	-1394
▁他	-1395
三种	-1396
下降	-1397
位数	-1398
合物	-1399
国际	-1400
培训	-1401
大脑	-1402
姓名	-1403
宣传	-1404
就像	-1405
尽量	-1406
引起	-1407
房屋	-1408
损失	-1409
掌握	-1410
搅拌	-1411
时候	-1412
时期	-1413
栖息	-1414
甚至	-1415
真实	-1416
砍伐	-1417
社区	-1418
细节	-1419
胡椒	-1420
自信	-1421
超过	-1422
运输	-1423
道路	-1424
阶段	-1425
ram	-1426
▁al	-1427
▁可以	-1428
▁找到	-1429
复杂的	-1430
所有的	-1431
正确的	-1432
的目标	-1433
能够快速	-1434
SS	-1435
mp	-1436
▁V	-1437
交互	-1438
优惠	-1439
传播	-1440
内存	-1441
分配	-1442
动词	-1443
喜好	-1444
基因	-1445
子和	-1446
安装	-1447
家人	-1448
就业	-1449
巨大	-1450
常常	-1451
攻击	-1452
整数	-1453
服装	-1454
权利	-1455
死亡	-1456
每一	-1457
比特	-1458
洋葱	-1459
消耗	-1460
疫情	-1461
素食	-1462
经常	-1463
订单	-1464
这是	-1465
进入	-1466
进步	-1467
逻辑	-1468
隐私	-1469
ust	-1470
▁建立	-1471
▁总结	-1472
▁综上	-1473
中位数	-1474
加拿大	-1475
化合物	-1476
太阳能	-1477
强大的	-1478
指的是	-1479
改变了	-1480
有什么	-1481
模型的	-1482
的发展	-1483
alse	-1484
▁很抱歉	-1485
以下几个	-1486
可能导致	-1487
可能会导致	-1488
人工智能助手	-1489
ID	-1490
In	-1491
si	-1492
。"	-1493
值得	-1494
公众	-1495
出行	-1496
分为	-1497
匹配	-1498
发电	-1499
周长	-1500
建筑	-1501
往往	-1502
意思	-1503
打开	-1504
探讨	-1505
接触	-1506
有的	-1507
河流	-1508
符号	-1509
类的	-1510
蛋白	-1511
跟踪	-1512
边长	-1513
野生	-1514
The	-1515
ows	-1516
ren	-1517
▁一种	-1518
▁例如	-1519
▁其次	-1520
▁是的	-1521
可能是	-1522
在一起	-1523
复杂度	-1524
并提供	-1525
时间的	-1526
栖息地	-1527
的结果	-1528
的食物	-1529
问题的	-1530
____	-1531
form	-1532
▁arr	-1533
▁max	-1534
▁ran	-1535
创造一个	-1536
团队成员	-1537
心理健康	-1538
的重要性	-1539
经济增长	-1540
av	-1541
os	-1542
一样	-1543
充足	-1544
即可	-1545
只能	-1546
各地	-1547
多的	-1548
大气	-1549
尊重	-1550
所述	-1551
推动	-1552
提交	-1553
支付	-1554
数值	-1555
方的	-1556
明了	-1557
杰克	-1558
死刑	-1559
气温	-1560
物的	-1561
状况	-1562
现象	-1563
真正	-1564
硬件	-1565
神秘	-1566
话题	-1567
远程	-1568
里的	-1569
阳光	-1570
除了	-1571
难以	-1572
ook	-1573
▁==	-1574
▁AI	-1575
▁be	-1576
▁分析	-1577
关键词	-1578
对人类	-1579
成为了	-1580
我可以	-1581
或其他	-1582
结构和	-1583
▁cur	-1584
操作系统	-1585
数据进行	-1586
日常生活	-1587
)。	-1588
hn	-1589
ir	-1590
▁O	-1591
▁中	-1592
▁年	-1593
不起	-1594
之处	-1595
人生	-1596
单位	-1597
卫生	-1598
危机	-1599
原子	-1600
名字	-1601
哈希	-1602
土壤	-1603
地震	-1604
夜晚	-1605
失败	-1606
性别	-1607
成绩	-1608
我将	-1609
指导	-1610
推文	-1611
搭配	-1612
支出	-1613
无论	-1614
是由	-1615
某些	-1616
检索	-1617
氏度	-1618
照片	-1619
爱情	-1620
的值	-1621
组合	-1622
至关	-1623
舒适	-1624
节省	-1625
茶匙	-1626
葡萄	-1627
蓝色	-1628
读者	-1629
贫困	-1630
迅速	-1631
还能	-1632
随时	-1633
ast	-1634
人们的	-1635
会导致	-1636
出色的	-1637
和服务	-1638
对环境	-1639
必要的	-1640
未来的	-1641
注意力	-1642
消费者	-1643
的好处	-1644
的能力	-1645
通过对	-1646
▁将以下	-1647
个人信息	-1648
开发人员	-1649
我是一个	-1650
▁char	-1651
▁综上所述	-1652
▁这是一个	-1653
可持续发展	-1654
Python	-1655
▁Python	-1656
ac	-1657
pe	-1658
ud	-1659
▁大	-1660
一定	-1661
不再	-1662
促销	-1663
允许	-1664
充分	-1665
先生	-1666
到的	-1667
区域	-1668
只有	-1669
吸收	-1670
地址	-1671
外部	-1672
天空	-1673
导数	-1674
引发	-1675
微笑	-1676
思想	-1677
恢复	-1678
撰写	-1679
来越	-1680
检测	-1681
水的	-1682
活力	-1683
牛奶	-1684
生素	-1685
的总	-1686
练习	-1687
美食	-1688
翻译	-1689
行星	-1690
观看	-1691
资料	-1692
这将	-1693
长的	-1694
障碍	-1695
食材	-1696
ath	-1697
inu	-1698
omm	-1699
▁厘米	-1700
▁如何	-1701
云计算	-1702
传统的	-1703
可以是	-1704
所需的	-1705
数据中	-1706
方法来	-1707
最大的	-1708
有很多	-1709
每一个	-1710
生活在	-1711
的目的	-1712
看起来	-1713
维生素	-1714
著名的	-1715
请提供	-1716
越来越	-1717
root	-1718
▁The	-1719
▁can	-1720
▁sel	-1721
▁在一个	-1722
可以用于	-1723
这个问题	-1724
▁社交媒体	-1725
indows	-1726
交换	-1727
代谢	-1728
信任	-1729
免疫	-1730
内的	-1731
出来	-1732
口感	-1733
商务	-1734
土豆	-1735
均匀	-1736
子的	-1737
并对	-1738
废弃	-1739
态度	-1740
担心	-1741
拥堵	-1742
指标	-1743
提示	-1744
日期	-1745
智慧	-1746
有着	-1747
机构	-1748
棒球	-1749
橄榄	-1750
次数	-1751
氧气	-1752
派对	-1753
清洗	-1754
监控	-1755
离开	-1756
紧张	-1757
经理	-1758
翻炒	-1759
脂肪	-1760
表面	-1761
适量	-1762
邀请	-1763
针对	-1764
ass	-1765
est	-1766
ill	-1767
▁In	-1768
▁on	-1769
▁or	-1770
▁识别	-1771
▁这些	-1772
不需要	-1773
与其他	-1774
同时也	-1775
和分析	-1776
是否为	-1777
是通过	-1778
特定的	-1779
理解和	-1780
的定义	-1781
的文章	-1782
的环境	-1783
碳排放	-1784
美味的	-1785
领导者	-1786
node	-1787
rans	-1788
▁如果您	-1789
了巨大的	-1790
可以用来	-1791
构建一个	-1792
股票价格	-1793
agram	-1794
AR	-1795
ia	-1796
一只	-1797
上述	-1798
传达	-1799
写作	-1800
决于	-1801
动态	-1802
受众	-1803
呈现	-1804
咨询	-1805
场所	-1806
外观	-1807
大大	-1808
实例	-1809
山脉	-1810
布局	-1811
年龄	-1812
建设	-1813
愉快	-1814
提醒	-1815
改写	-1816
旋转	-1817
星球	-1818
永远	-1819
深入	-1820
热带	-1821
班牙	-1822
皮肤	-1823
相信	-1824
符合	-1825
等于	-1826
类似	-1827
系列	-1828
覆盖	-1829
负面	-1830
财务	-1831
身份	-1832
部门	-1833
都在	-1834
集中	-1835
and	-1836
ere	-1837
ist	-1838
ohn	-1839
out	-1840
rue	-1841
▁加入	-1842
▁我们	-1843
为用户	-1844
你需要	-1845
取决于	-1846
可以让	-1847
并通过	-1848
的价格	-1849
的原因	-1850
积极的	-1851
被认为	-1852
西班牙	-1853
运动员	-1854
需求和	-1855
inux	-1856
▁这句话	-1857
▓▓▓▓	-1858
没有提供	-1859
组成部分	-1860
营销策略	-1861
▁False	-1862
▁写一篇关于	-1863
----------------	-1864
一片	-1865
世纪	-1866
人群	-1867
倾听	-1868
制造	-1869
加强	-1870
医学	-1871
双方	-1872
只是	-1873
夜空	-1874
学家	-1875
实施	-1876
尼亚	-1877
平面	-1878
年代	-1879
式的	-1880
德国	-1881
意见	-1882
感染	-1883
愿意	-1884
指南	-1885
易于	-1886
更为	-1887
最小	-1888
有机	-1889
期间	-1890
未知	-1891
比喻	-1892
烈的	-1893
王国	-1894
相似	-1895
答案	-1896
纸张	-1897
缺点	-1898
美的	-1899
聚类	-1900
菜肴	-1901
观的	-1902
规律	-1903
规模	-1904
论文	-1905
证据	-1906
诗歌	-1907
谷歌	-1908
象征	-1909
质的	-1910
运算	-1911
迭代	-1912
预防	-1913
驱动	-1914
黑暗	-1915
end	-1916
▁as	-1917
▁准备	-1918
为我们	-1919
健康的	-1920
准确地	-1921
同义词	-1922
在一个	-1923
太阳系	-1924
将数据	-1925
应用于	-1926
物联网	-1927
的来说	-1928
高质量	-1929
vide	-1930
世界各地	-1931
可以减少	-1932
森林砍伐	-1933
至关重要	-1934
语言模型	-1935
非常重要	-1936
▁with	-1937
无监督学习	-1938
PT	-1939
ld	-1940
pt	-1941
▁要	-1942
一段	-1943
不良	-1944
传输	-1945
作者	-1946
公正	-1947
具备	-1948
分解	-1949
制度	-1950
力学	-1951
发出	-1952
发挥	-1953
发送	-1954
后的	-1955
土地	-1956
大约	-1957
对手	-1958
寻求	-1959
幸福	-1960
思考	-1961
您在	-1962
接收	-1963
摘要	-1964
放在	-1965
最佳	-1966
某个	-1967
查看	-1968
概括	-1969
深刻	-1970
清楚	-1971
火车	-1972
玛丽	-1973
现金	-1974
用水	-1975
电器	-1976
电视	-1977
直线	-1978
移民	-1979
红色	-1980
缺乏	-1981
联邦	-1982
转化	-1983
ase	-1984
ont	-1985
wit	-1986
▁el	-1987
世界的	-1988
严重的	-1989
以下是	-1990
具体的	-1991
准确的	-1992
受欢迎	-1993
它通过	-1994
安全性	-1995
应用的	-1996
或服务	-1997
接下来	-1998
提供更	-1999
有价值	-2000
来帮助	-2001
棒球棒	-2002
橄榄油	-2003
流行的	-2004
的形式	-2005
被称为	-2006
通常会	-2007
高度为	-2008
aceb	-2009
数据分析	-2010
电子商务	-2011
语音识别	-2012
这个句子	-2013
这是一个	-2014
value	-2015
▁else	-2016
▁self	-2017
ounter	-2018
▁下面是一个	-2019
acebook	-2020
DP	-2021
SE	-2022
ob	-2023
rt	-2024
▁水	-2025
▁等	-2026
一项	-2027
今天	-2028
传递	-2029
体育	-2030
体重	-2031
值为	-2032
克斯	-2033
协议	-2034
和水	-2035
地理	-2036
天然	-2037
它是	-2038
完全	-2039
完整	-2040
定律	-2041
容器	-2042
对比	-2043
层次	-2044
居民	-2045
度过	-2046
感谢	-2047
所在	-2048
承担	-2049
排名	-2050
时光	-2051
时刻	-2052
暴力	-2053
海拔	-2054
瑜伽	-2055
生动	-2056
电话	-2057
的首	-2058
相比	-2059
简要	-2060
约翰	-2061
罪犯	-2062
观察	-2063
设施	-2064
这家	-2065
这部	-2066
透明	-2067
金属	-2068
除以	-2069
风暴	-2070
高兴	-2071
鸟类	-2072
ata	-2073
cel	-2074
cri	-2075
put	-2076
▁->	-2077
▁Th	-2078
▁me	-2079
▁利用	-2080
▁对于	-2081
▁给定	-2082
一个人	-2083
以提高	-2084
充满了	-2085
准确性	-2086
可能的	-2087
客户的	-2088
当地的	-2089
的两个	-2090
的主题	-2091
的文本	-2092
的机会	-2093
的活动	-2094
的语言	-2095
美丽的	-2096
通常是	-2097
HTML	-2098
▁not	-2099
▁以下是	-2100
加密货币	-2101
相关信息	-2102
设计一个	-2103
这是一种	-2104
这种方法	-2105
right	-2106
ustom	-2107
▁that	-2108
不同类型的	-2109
之间的关系	-2110
产品和服务	-2111
有助于提高	-2112
计算机程序	-2113
Google	-2114
)，	-2115
ig	-2116
▁j	-2117
▁}	-2118
▁–	-2119
一张	-2120
上涨	-2121
为你	-2122
人为	-2123
人民	-2124
便利	-2125
信用	-2126
冰沙	-2127
减缓	-2128
前往	-2129
力于	-2130
动作	-2131
动语	-2132
可视	-2133
味道	-2134
哪个	-2135
坚持	-2136
外界	-2137
奖励	-2138
好奇	-2139
字典	-2140
学会	-2141
定位	-2142
展现	-2143
建造	-2144
成就	-2145
户外	-2146
收益	-2147
新陈	-2148
日本	-2149
月亮	-2150
有些	-2151
来到	-2152
样式	-2153
样的	-2154
氛围	-2155
测量	-2156
渴望	-2157
热情	-2158
熊猫	-2159
理想	-2160
用途	-2161
画面	-2162
眼睛	-2163
突出	-2164
精确	-2165
考试	-2166
而言	-2167
节约	-2168
表格	-2169
论点	-2170
词的	-2171
课堂	-2172
足够	-2173
距离	-2174
轻轻	-2175
过度	-2176
这项	-2177
那个	-2178
非洲	-2179
顾客	-2180
Web	-2181
ach	-2182
ard	-2183
ure	-2184
▁do	-2185
▁以上	-2186
▁希望	-2187
▁技术	-2188
不仅仅	-2189
了许多	-2190
以下几	-2191
动语态	-2192
参与者	-2193
发生在	-2194
告诉我	-2195
并进行	-2196
数据集	-2197
海平面	-2198
满意度	-2199
的一种	-2200
的变化	-2201
的基本	-2202
的安全	-2203
的速度	-2204
相应的	-2205
而不是	-2206
致力于	-2207
这句话	-2208
适用于	-2209
ance	-2210
▁len	-2211
减轻压力	-2212
可以考虑	-2213
客服代表	-2214
工作效率	-2215
帮助企业	-2216
提供更多	-2217
放松身心	-2218
新陈代谢	-2219
目标受众	-2220
编程语言	-2221
进行分类	-2222
野生动物	-2223
▁True	-2224
▁nums	-2225
▁总的来说	-2226
▁机器学习	-2227
▁设计一个	-2228
witter	-2229
▁range	-2230
('	-2231
)/	-2232
CP	-2233
QL	-2234
lf	-2235
▁>	-2236
▁K	-2237
▁李	-2238
一边	-2239
一首	-2240
不变	-2241
专注	-2242
严格	-2243
举办	-2244
事物	-2245
人物	-2246
以其	-2247
作出	-2248
儿童	-2249
入侵	-2250
公园	-2251
兴奋	-2252
冒险	-2253
分支	-2254
则是	-2255
勇气	-2256
危险	-2257
可用	-2258
名为	-2259
多元	-2260
多少	-2261
大地	-2262
大型	-2263
大学	-2264
孤独	-2265
它在	-2266
宗教	-2267
实用	-2268
宣布	-2269
将会	-2270
就能	-2271
开放	-2272
性质	-2273
想象	-2274
感恩	-2275
房间	-2276
投入	-2277
指数	-2278
教师	-2279
斯坦	-2280
晚餐	-2281
替代	-2282
框架	-2283
正常	-2284
正式	-2285
气球	-2286
消化	-2287
渐渐	-2288
特别	-2289
的主	-2290
突然	-2291
笔记	-2292
紧急	-2293
草莓	-2294
装饰	-2295
谨慎	-2296
遗传	-2297
遵循	-2298
酸奶	-2299
重力	-2300
锅中	-2301
革命	-2302
魔法	-2303
are	-2304
ask	-2305
min	-2306
our	-2307
ous	-2308
▁ex	-2309
▁it	-2310
▁保持	-2311
▁其中	-2312
▁客户	-2313
▁当然	-2314
▁注意	-2315
也可能	-2316
以便我	-2317
会影响	-2318
充足的	-2319
可以用	-2320
可视化	-2321
和优化	-2322
多样性	-2323
如果你	-2324
安全的	-2325
年轻人	-2326
技术来	-2327
数据和	-2328
方军队	-2329
方面的	-2330
更高的	-2331
的三个	-2332
的事情	-2333
的列表	-2334
的情况	-2335
算法来	-2336
蛋白质	-2337
这包括	-2338
适量的	-2339
ould	-2340
▁对不起	-2341
不确定性	-2342
区别在于	-2343
垃圾邮件	-2344
完成任务	-2345
根据您的	-2346
注意的是	-2347
目标客户	-2348
设计思维	-2349
通常需要	-2350
ction	-2351
为用户提供	-2352
产品或服务	-2353
可以帮助你	-2354
吸引更多的	-2355
这种情况下	-2356
社交媒体平台	-2357
Windows	-2358
▁provide	-2359
)(	-2360
."	-2361
NA	-2362
ap	-2363
ci	-2364
im	-2365
sh	-2366
▁Y	-2367
▁上	-2368
一切	-2369
一篇	-2370
之后	-2371
之外	-2372
二叉	-2373
体现	-2374
体系	-2375
免费	-2376
公平	-2377
再次	-2378
冠状	-2379
刺激	-2380
十六	-2381
印象	-2382
及其	-2383
响应	-2384
唯一	-2385
大家	-2386
成果	-2387
捕捉	-2388
损害	-2389
支撑	-2390
放置	-2391
无数	-2392
日益	-2393
有益	-2394
极端	-2395
标记	-2396
概述	-2397
激发	-2398
烹饪	-2399
燃烧	-2400
狮子	-2401
猩猩	-2402
王子	-2403
用电	-2404
盐和	-2405
等待	-2406
纽约	-2407
终于	-2408
经营	-2409
给予	-2410
绝对	-2411
联合	-2412
英里	-2413
觉得	-2414
计数	-2415
说话	-2416
路线	-2417
较低	-2418
运营	-2419
风能	-2420
ack	-2421
art	-2422
ava	-2423
ive	-2424
ore	-2425
ost	-2426
per	-2427
▁le	-2428
▁制作	-2429
▁增强	-2430
▁然而	-2431
▁随着	-2432
一定的	-2433
与他人	-2434
依赖于	-2435
分布式	-2436
分类为	-2437
办公室	-2438
厘米的	-2439
可以将	-2440
和使用	-2441
和管理	-2442
在美国	-2443
它能够	-2444
很重要	-2445
感恩节	-2446
方程式	-2447
时间内	-2448
时间和	-2449
来确定	-2450
来解决	-2451
污染物	-2452
环境中	-2453
的关键	-2454
的力量	-2455
的平方	-2456
的经济	-2457
的计算	-2458
的颜色	-2459
等方式	-2460
表现出	-2461
被广泛	-2462
这两个	-2463
都可以	-2464
rade	-2465
ress	-2466
▁are	-2467
▁是一个	-2468
智能手机	-2469
有所不同	-2470
生成一个	-2471
生活方式	-2472
用户体验	-2473
虚拟现实	-2474
Linux	-2475
cript	-2476
有助于减少	-2477
能够更好地	-2478
计算机科学	-2479
我们可以使用	-2480
ustomers	-2481
"。	-2482
ah	-2483
ee	-2484
ft	-2485
ng	-2486
▁或	-2487
▁调	-2488
▁那	-2489
▁防	-2490
一杯	-2491
三边	-2492
他在	-2493
伦理	-2494
保障	-2495
升高	-2496
后果	-2497
向量	-2498
含有	-2499
周期	-2500
四个	-2501
国王	-2502
图案	-2503
太空	-2504
女性	-2505
实践	-2506
废物	-2507
引力	-2508
强的	-2509
我会	-2510
扩展	-2511
招聘	-2512
指定	-2513
放弃	-2514
整体	-2515
斯科	-2516
无需	-2517
明亮	-2518
月球	-2519
有限	-2520
机制	-2521
某种	-2522
样本	-2523
每年	-2524
洗手	-2525
海水	-2526
涵盖	-2527
热爱	-2528
理念	-2529
生日	-2530
男人	-2531
的小	-2532
线条	-2533
绩效	-2534
色谱	-2535
茨比	-2536
血管	-2537
让你	-2538
谢谢	-2539
账户	-2540
这段	-2541
这篇	-2542
通信	-2543
野餐	-2544
零食	-2545
静态	-2546
风景	-2547
黄色	-2548
aly	-2549
ant	-2550
ear	-2551
▁作为	-2552
▁抱歉	-2553
▁研究	-2554
▁预测	-2555
下一个	-2556
也就是	-2557
他人的	-2558
优质的	-2559
估计量	-2560
信息和	-2561
另一个	-2562
可爱的	-2563
和挑战	-2564
和数据	-2565
和维护	-2566
处理器	-2567
多元化	-2568
大利亚	-2569
学生的	-2570
它可以	-2571
就可以	-2572
工程师	-2573
形容词	-2574
是一项	-2575
有可能	-2576
有趣的	-2577
浏览器	-2578
清晰的	-2579
灵活性	-2580
的五个	-2581
的单词	-2582
目的地	-2583
社会的	-2584
笔记本	-2585
舒适的	-2586
表面积	-2587
转化为	-2588
还需要	-2589
项目的	-2590
预处理	-2591
帮助人们	-2592
平方厘米	-2593
建立一个	-2594
每个人都	-2595
澳大利亚	-2596
生活质量	-2597
空气质量	-2598
素食饮食	-2599
这些信息	-2600
▁None	-2601
▁task	-2602
您可以使用	-2603
您没有提供	-2604
非常重要的	-2605
三角形的面积	-2606
公共交通工具	-2607
)：	-2608
TP	-2609
ak	-2610
▁U	-2611
▁r	-2612
▁多	-2613
▁此	-2614
》（	-2615
一组	-2616
优先	-2617
伦敦	-2618
侵犯	-2619
公交	-2620
共享	-2621
初始	-2622
删除	-2623
利润	-2624
十年	-2625
参考	-2626
听众	-2627
夏季	-2628
大陆	-2629
天的	-2630
女孩	-2631
完善	-2632
寒冷	-2633
屏幕	-2634
总线	-2635
恶意	-2636
成分	-2637
或不	-2638
手段	-2639
打印	-2640
扮演	-2641
抑郁	-2642
描绘	-2643
放入	-2644
无限	-2645
早餐	-2646
显著	-2647
最初	-2648
本地	-2649
构成	-2650
格式	-2651
歌曲	-2652
水分	-2653
沙拉	-2654
温柔	-2655
灾难	-2656
爆发	-2657
父亲	-2658
用品	-2659
画家	-2660
的光	-2661
的新	-2662
监测	-2663
立方	-2664
简化	-2665
绘制	-2666
老虎	-2667
自主	-2668
节奏	-2669
节能	-2670
行的	-2671
认真	-2672
让人	-2673
词语	-2674
诸多	-2675
近的	-2676
进程	-2677
远的	-2678
遇到	-2679
隐喻	-2680
预期	-2681
饮料	-2682
马斯	-2683
骨骼	-2684
魅力	-2685
SQL	-2686
app	-2687
ert	-2688
ile	-2689
ine	-2690
ity	-2691
omp	-2692
▁at	-2693
▁ne	-2694
▁定义	-2695
▁法国	-2696
▁然后	-2697
▁这种	-2698
下面是	-2699
产生的	-2700
使用了	-2701
供应链	-2702
其中的	-2703
列表中	-2704
参与度	-2705
受到了	-2706
可靠性	-2707
当我们	-2708
很好的	-2709
快乐的	-2710
找到了	-2711
技能和	-2712
提供的	-2713
提高了	-2714
摄氏度	-2715
是一部	-2716
更快地	-2717
生产力	-2718
生活中	-2719
生物体	-2720
的不同	-2721
的应用	-2722
的步骤	-2723
黑胡椒	-2724
John	-2725
ight	-2726
ment	-2727
name	-2728
▁imp	-2729
▁区块链	-2730
▁机器人	-2731
个性化的	-2732
中的应用	-2733
交通拥堵	-2734
以下步骤	-2735
冠状病毒	-2736
十六进制	-2737
可以提高	-2738
可能需要	-2739
品牌形象	-2740
回收利用	-2741
最重要的	-2742
的过程中	-2743
睡眠质量	-2744
营销活动	-2745
被认为是	-2746
驾驶汽车	-2747
骑自行车	-2748
ample	-2749
ommon	-2750
▁气候变化	-2751
和机器学习	-2752
更好地了解	-2753
Facebook	-2754
Re	-2755
te	-2756
▁u	-2757
▁√	-2758
一名	-2759
一层	-2760
上下	-2761
两者	-2762
严峻	-2763
个体	-2764
中央	-2765
乐趣	-2766
人士	-2767
人际	-2768
仔细	-2769
仪式	-2770
会在	-2771
会对	-2772
伤害	-2773
便捷	-2774
修复	-2775
债务	-2776
做法	-2777
储存	-2778
公开	-2779
冬季	-2780
冷静	-2781
出了	-2782
切碎	-2783
加剧	-2784
加工	-2785
单元	-2786
参观	-2787
只需	-2788
叫做	-2789
可归	-2790
各个	-2791
各国	-2792
各自	-2793
同事	-2794
含义	-2795
和不	-2796
地点	-2797
培养	-2798
备份	-2799
宁静	-2800
室内	-2801
密度	-2802
对待	-2803
导航	-2804
展开	-2805
带有	-2806
开车	-2807
引人	-2808
很好	-2809
总体	-2810
慢性	-2811
投放	-2812
折扣	-2813
拟合	-2814
括号	-2815
拷贝	-2816
按钮	-2817
提纲	-2818
携带	-2819
方差	-2820
无家	-2821
更具	-2822
曾经	-2823
树木	-2824
正面	-2825
歧视	-2826
流畅	-2827
渗透	-2828
热量	-2829
爱因	-2830
父母	-2831
玩耍	-2832
电力	-2833
电动	-2834
疲劳	-2835
确认	-2836
种植	-2837
简介	-2838
简历	-2839
管制	-2840
精力	-2841
给我	-2842
维持	-2843
老板	-2844
良好	-2845
艾米	-2846
苏珊	-2847
英语	-2848
衡量	-2849
规定	-2850
证明	-2851
评价	-2852
试图	-2853
车辆	-2854
较高	-2855
选项	-2856
递归	-2857
野外	-2858
隐藏	-2859
面部	-2860
香草	-2861
骑士	-2862
ang	-2863
ans	-2864
ark	-2865
ash	-2866
ave	-2867
day	-2868
dom	-2869
ock	-2870
pri	-2871
qrt	-2872
str	-2873
the	-2874
▁en	-2875
▁wh	-2876
▁分类	-2877
▁环境	-2878
▁网络	-2879
▁这是	-2880
世界中	-2881
个性化	-2882
以帮助	-2883
促进了	-2884
关键字	-2885
动植物	-2886
南美洲	-2887
好奇心	-2888
将它们	-2889
带来的	-2890
并根据	-2891
并没有	-2892
并确保	-2893
废弃物	-2894
患者的	-2895
想法和	-2896
技术在	-2897
是一份	-2898
是两种	-2899
来存储	-2900
的可能	-2901
相同的	-2902
相色谱	-2903
稳定性	-2904
立方体	-2905
竞争力	-2906
让他们	-2907
许多人	-2908
详细的	-2909
这本书	-2910
通常由	-2911
餐厅的	-2912
able	-2913
ater	-2914
char	-2915
nums	-2916
ount	-2917
word	-2918
▁min	-2919
▁计算机	-2920
一个好的	-2921
可持续性	-2922
商业计划	-2923
它是一种	-2924
您的问题	-2925
无家可归	-2926
时间旅行	-2927
有所帮助	-2928
爱因斯坦	-2929
的情况下	-2930
竞争对手	-2931
自行车赛	-2932
输入数据	-2933
▁This	-2934
以下是一些	-2935
可以帮助您	-2936
因素的影响	-2937
更好地理解	-2938
海平面上升	-2939
以下几个方面	-2940
stagram	-2941
()	-2942
),	-2943
)^	-2944
He	-2945
cl	-2946
ze	-2947
▁Q	-2948
▁v	-2949
▁高	-2950
一点	-2951
一道	-2952
为主	-2953
乐观	-2954
也有	-2955
互相	-2956
五种	-2957
从中	-2958
伙伴	-2959
依据	-2960
信仰	-2961
停止	-2962
克服	-2963
关闭	-2964
创业	-2965
利率	-2966
剃须	-2967
加热	-2968
加速	-2969
十分	-2970
升序	-2971
协调	-2972
博物	-2973
友谊	-2974
反映	-2975
变革	-2976
合成	-2977
和无	-2978
哲学	-2979
回忆	-2980
固定	-2981
圆形	-2982
增添	-2983
复制	-2984
多数	-2985
宇宙	-2986
定制	-2987
富含	-2988
富有	-2989
对方	-2990
尤其	-2991
嵌入	-2992
左右	-2993
干扰	-2994
库存	-2995
底斯	-2996
开头	-2997
强化	-2998
强度	-2999
很快	-3000
微软	-3001
您还	-3002
情节	-3003
战役	-3004
手法	-3005
推出	-3006
插入	-3007
敏感	-3008
斜率	-3009
星星	-3010
晚上	-3011
最高	-3012
期望	-3013
杂货	-3014
概率	-3015
求职	-3016
汤匙	-3017
消息	-3018
漏洞	-3019
灵感	-3020
点击	-3021
爱好	-3022
猴子	-3023
环法	-3024
男孩	-3025
疼痛	-3026
知名	-3027
离子	-3028
篮球	-3029
繁殖	-3030
绘画	-3031
而不	-3032
英寸	-3033
融化	-3034
表中	-3035
让我	-3036
边界	-3037
边的	-3038
还会	-3039
这只	-3040
这次	-3041
这款	-3042
进度	-3043
途径	-3044
配置	-3045
酒店	-3046
额外	-3047
风力	-3048
鱼类	-3049
鲜艳	-3050
鹦鹉	-3051
SEO	-3052
ail	-3053
ful	-3054
ree	-3055
▁li	-3056
▁se	-3057
▁us	-3058
▁智能	-3059
▁测试	-3060
▁需要	-3061
世界里	-3062
产生了	-3063
什么是	-3064
价值观	-3065
优缺点	-3066
会产生	-3067
元素的	-3068
全新的	-3069
分别为	-3070
博物馆	-3071
吸引力	-3072
和创新	-3073
和支持	-3074
土豆泥	-3075
地球的	-3076
它们在	-3077
帮助你	-3078
底斯堡	-3079
建议您	-3080
托马斯	-3081
是为了	-3082
是由于	-3083
最好的	-3084
来推广	-3085
来表示	-3086
来预测	-3087
标准差	-3088
标志的	-3089
比特币	-3090
水污染	-3091
申请人	-3092
的人口	-3093
的任务	-3094
的优点	-3095
的具体	-3096
的客户	-3097
的技术	-3098
的清单	-3099
的物品	-3100
的生长	-3101
的角色	-3102
的计划	-3103
等问题	-3104
边长为	-3105
这样的	-3106
限制令	-3107
麦克斯	-3108
heit	-3109
next	-3110
▁all	-3111
▁app	-3112
▁val	-3113
▁was	-3114
▁写一首	-3115
一些建议	-3116
一篇关于	-3117
三角形的	-3118
不必要的	-3119
不断学习	-3120
促销活动	-3121
减少浪费	-3122
受欢迎的	-3123
变得更加	-3124
团队合作	-3125
在不同的	-3126
在线购物	-3127
帮助我们	-3128
更有效地	-3129
极端天气	-3130
枪支管制	-3131
沟通能力	-3132
的平均值	-3133
编写一个	-3134
负面影响	-3135
身体健康	-3136
这个过程	-3137
这些数据	-3138
高质量的	-3139
ahren	-3140
array	-3141
grade	-3142
可持续能源	-3143
的生活方式	-3144
社交媒体上	-3145
笔记本电脑	-3146
环法自行车赛	-3147
▁Google	-3148
ahrenheit	-3149
LE	-3150
LP	-3151
TC	-3152
],	-3153
ff	-3154
od	-3155
▁$	-3156
▁•	-3157
▁与	-3158
▁如	-3159
▁小	-3160
▁海	-3161
▁米	-3162
▁该	-3163
一件	-3164
上了	-3165
上面	-3166
下午	-3167
东西	-3168
主语	-3169
也不	-3170
众多	-3171
会员	-3172
保留	-3173
信号	-3174
修辞	-3175
倒入	-3176
先进	-3177
关心	-3178
典型	-3179
分成	-3180
分比	-3181
制成	-3182
危害	-3183
原始	-3184
友好	-3185
发育	-3186
名叫	-3187
听到	-3188
吸烟	-3189
和平	-3190
咖喱	-3191
品质	-3192
哺乳	-3193
善良	-3194
回报	-3195
均衡	-3196
夏日	-3197
奴隶	-3198
奶奶	-3199
子树	-3200
它将	-3201
家具	-3202
家族	-3203
小的	-3204
属性	-3205
带上	-3206
幅画	-3207
年份	-3208
建模	-3209
强壮	-3210
当下	-3211
当时	-3212
形态	-3213
影片	-3214
心态	-3215
忙碌	-3216
快捷	-3217
愉悦	-3218
指令	-3219
文艺	-3220
旅途	-3221
春季	-3222
普遍	-3223
更改	-3224
替换	-3225
最好	-3226
期待	-3227
术语	-3228
权力	-3229
村庄	-3230
杠杆	-3231
极其	-3232
构造	-3233
柠檬	-3234
椅子	-3235
欢快	-3236
欧元	-3237
殖民	-3238
每次	-3239
流感	-3240
浪漫	-3241
液体	-3242
深处	-3243
滥用	-3244
熟悉	-3245
珊瑚	-3246
生理	-3247
留下	-3248
疑问	-3249
白色	-3250
的大	-3251
看法	-3252
研发	-3253
神奇	-3254
穿过	-3255
立即	-3256
管道	-3257
精准	-3258
精心	-3259
精灵	-3260
纤维	-3261
美好	-3262
而闻	-3263
胡萝	-3264
能否	-3265
至少	-3266
萨姆	-3267
蓝莓	-3268
表演	-3269
认知	-3270
记住	-3271
说服	-3272
资产	-3273
走向	-3274
跑步	-3275
运作	-3276
进而	-3277
透视	-3278
银器	-3279
马拉	-3280
骗局	-3281
黄油	-3282
齿轮	-3283
！"	-3284
：[	-3285
CSS	-3286
ble	-3287
ome	-3288
ong	-3289
rit	-3290
row	-3291
sed	-3292
tic	-3293
▁An	-3294
▁su	-3295
▁代码	-3296
▁促进	-3297
▁假设	-3298
▁创作	-3299
▁印度	-3300
▁提出	-3301
▁支持	-3302
▁改善	-3303
▁这段	-3304
为人类	-3305
主人公	-3306
以便在	-3307
以防止	-3308
优先级	-3309
公交车	-3310
分析和	-3311
勇敢的	-3312
北美洲	-3313
句子中	-3314
在工作	-3315
地球上	-3316
大流行	-3317
实际上	-3318
展示了	-3319
并将其	-3320
强烈的	-3321
心血管	-3322
态度和	-3323
感受到	-3324
我需要	-3325
技术和	-3326
描述了	-3327
是我们	-3328
更多地	-3329
最近的	-3330
最高的	-3331
来进行	-3332
深呼吸	-3333
热力学	-3334
生活的	-3335
百分比	-3336
的一些	-3337
的动物	-3338
的声音	-3339
的建议	-3340
的最小	-3341
的特点	-3342
的结构	-3343
的能源	-3344
的选择	-3345
神经元	-3346
美好的	-3347
而闻名	-3348
联合国	-3349
胡萝卜	-3350
足够的	-3351
遇到了	-3352
面临着	-3353
avaS	-3354
ener	-3355
port	-3356
sius	-3357
▁Web	-3358
▁web	-3359
一个句子	-3360
不同之处	-3361
人们可以	-3362
健康问题	-3363
健康饮食	-3364
可以提供	-3365
地球上的	-3366
地理位置	-3367
它们之间	-3368
确保您的	-3369
简洁明了	-3370
能够根据	-3371
节约能源	-3372
进行排序	-3373
采取措施	-3374
预测结果	-3375
▁作为一个	-3376
下面是一个	-3377
下面是一些	-3378
之间的区别	-3379
人工智能的	-3380
应用程序的	-3381
提供更多的	-3382
数据科学家	-3383
海拔高度为	-3384
疾病的风险	-3385
人工神经网络	-3386
机器学习模型	-3387
Twitter	-3388
("	-3389
AB	-3390
ER	-3391
Ph	-3392
du	-3393
ph	-3394
sp	-3395
▁X	-3396
▁人	-3397
▁光	-3398
▁即	-3399
▁每	-3400
▁比	-3401
三明	-3402
临时	-3403
之旅	-3404
也很	-3405
事故	-3406
享用	-3407
付出	-3408
付款	-3409
似乎	-3410
但它	-3411
体积	-3412
作家	-3413
促使	-3414
修饰	-3415
做好	-3416
光线	-3417
冲击	-3418
分裂	-3419
前进	-3420
加载	-3421
协助	-3422
卡通	-3423
原创	-3424
发掘	-3425
变成	-3426
古典	-3427
咳嗽	-3428
喝水	-3429
器和	-3430
回到	-3431
困境	-3432
图表	-3433
在家	-3434
在这	-3435
坐在	-3436
基督	-3437
夏天	-3438
大火	-3439
失去	-3440
女子	-3441
奶昔	-3442
实体	-3443
害怕	-3444
少年	-3445
就会	-3446
尼泊	-3447
已知	-3448
巴黎	-3449
希腊	-3450
带领	-3451
干净	-3452
干旱	-3453
幽默	-3454
庆祝	-3455
归类	-3456
彩椒	-3457
感冒	-3458
我要	-3459
战略	-3460
拒绝	-3461
拓扑	-3462
摄入	-3463
放到	-3464
敏捷	-3465
整理	-3466
时态	-3467
普及	-3468
普通	-3469
暗示	-3470
更高	-3471
最新	-3472
有害	-3473
正方	-3474
此时	-3475
沸点	-3476
法院	-3477
注册	-3478
流动	-3479
温馨	-3480
漫步	-3481
激情	-3482
灭绝	-3483
烤箱	-3484
版权	-3485
物流	-3486
电缆	-3487
的和	-3488
看着	-3489
真的	-3490
笑话	-3491
红帽	-3492
约瑟	-3493
纸币	-3494
综合	-3495
联盟	-3496
胜利	-3497
胸痛	-3498
自身	-3499
自转	-3500
节水	-3501
菜单	-3502
蝴蝶	-3503
血液	-3504
评分	-3505
请求	-3506
诺贝	-3507
调查	-3508
调节	-3509
通讯	-3510
重写	-3511
重视	-3512
铅笔	-3513
防护	-3514
陌生	-3515
集成	-3516
零售	-3517
露营	-3518
面上	-3519
面试	-3520
风速	-3521
飓风	-3522
飞机	-3523
食用	-3524
鸟儿	-3525
鸭子	-3526
---	-3527
Mar	-3528
NLP	-3529
ces	-3530
dex	-3531
fit	-3532
ial	-3533
ick	-3534
sum	-3535
vel	-3536
▁Is	-3537
▁by	-3538
▁中国	-3539
▁产品	-3540
▁定期	-3541
▁您好	-3542
▁提升	-3543
▁模型	-3544
▁用户	-3545
▁系统	-3546
▁经济	-3547
▁苹果	-3548
▁除了	-3549
三明治	-3550
上下文	-3551
与人类	-3552
专注于	-3553
为人们	-3554
以获取	-3555
免疫力	-3556
内心的	-3557
函数来	-3558
勇敢地	-3559
历史上	-3560
发生的	-3561
可以从	-3562
可用于	-3563
合理的	-3564
和客户	-3565
和视频	-3566
喜欢的	-3567
国家的	-3568
大自然	-3569
学习和	-3570
学习者	-3571
对社会	-3572
尼亚州	-3573
尼泊尔	-3574
并不能	-3575
序列中	-3576
很大的	-3577
提到的	-3578
支持和	-3579
效率和	-3580
最新的	-3581
极大的	-3582
氧运动	-3583
涉及到	-3584
温暖的	-3585
焦虑和	-3586
环境的	-3587
珊瑚礁	-3588
生命的	-3589
的一切	-3590
的数量	-3591
的最大	-3592
的标志	-3593
的概率	-3594
的次数	-3595
的段落	-3596
的类型	-3597
的行为	-3598
的观点	-3599
的长度	-3600
相关性	-3601
相对论	-3602
矿物质	-3603
离太阳	-3604
第二个	-3605
等信息	-3606
系统中	-3607
让用户	-3608
诺贝尔	-3609
过去的	-3610
透视表	-3611
通常比	-3612
造成了	-3613
造成的	-3614
采用了	-3615
陈述句	-3616
非线性	-3617
....	-3618
Word	-3619
bers	-3620
dele	-3621
head	-3622
self	-3623
▁con	-3624
▁str	-3625
以下几点	-3626
公众演讲	-3627
公式计算	-3628
加拿大的	-3629
化学物质	-3630
博客文章	-3631
可以尝试	-3632
可以有效	-3633
告诉我们	-3634
哈希函数	-3635
就业机会	-3636
帮助他们	-3637
恶意软件	-3638
情感分析	-3639
意大利面	-3640
提供一个	-3641
是世界上	-3642
的第一个	-3643
网上购物	-3644
能够促进	-3645
能够通过	-3646
这些问题	-3647
这样可以	-3648
通常包括	-3649
通常用于	-3650
随机森林	-3651
顺序排列	-3652
领导能力	-3653
鼓励人们	-3654
▁find	-3655
▁list	-3656
▁sent	-3657
▁sort	-3658
▁user	-3659
▁描述一个	-3660
▁提供一个	-3661
▁计算给定	-3662
也可以通过	-3663
人工智能在	-3664
供应链管理	-3665
减少碳排放	-3666
对心理健康	-3667
提供了一个	-3668
计算机能够	-3669
result	-3670
▁解释为什么	-3671
分布式数据库	-3672
回答您的问题	-3673
能够帮助我们	-3674
avaScript	-3675
formation	-3676
▁sentence	-3677
)]	-3678
CT	-3679
PI	-3680
ox	-3681
▁o	-3682
▁≈	-3683
▁三	-3684
▁不	-3685
▁举	-3686
▁它	-3687
▁第	-3688
▁解	-3689
▁让	-3690
▁阿	-3691
、"	-3692
一座	-3693
一致	-3694
不太	-3695
丢失	-3696
中立	-3697
丽莎	-3698
乘客	-3699
也许	-3700
亚洲	-3701
从小	-3702
你想	-3703
保存	-3704
兔子	-3705
全麦	-3706
公里	-3707
军事	-3708
农田	-3709
冰盖	-3710
几何	-3711
切片	-3712
创立	-3713
利于	-3714
利的	-3715
加快	-3716
勇往	-3717
包装	-3718
区的	-3719
千米	-3720
半球	-3721
反对	-3722
发明	-3723
另外	-3724
只要	-3725
可行	-3726
合同	-3727
合法	-3728
品种	-3729
哪种	-3730
地图	-3731
坚果	-3732
复兴	-3733
大于	-3734
大碗	-3735
大象	-3736
如此	-3737
妇女	-3738
妈妈	-3739
始终	-3740
学和	-3741
学科	-3742
定价	-3743
密的	-3744
对您	-3745
小于	-3746
尼克	-3747
居住	-3748
工资	-3749
师的	-3750
当然	-3751
总之	-3752
感情	-3753
我想	-3754
手工	-3755
把握	-3756
投票	-3757
抵抗	-3758
担忧	-3759
拯救	-3760
指引	-3761
推理	-3762
摄影	-3763
故障	-3764
救援	-3765
日落	-3766
明显	-3767
景点	-3768
最优	-3769
权益	-3770
来对	-3771
来的	-3772
极性	-3773
桌子	-3774
模块	-3775
欢笑	-3776
步行	-3777
每月	-3778
水和	-3779
法则	-3780
法规	-3781
活跃	-3782
消除	-3783
深远	-3784
渲染	-3785
演示	-3786
灌溉	-3787
版本	-3788
物和	-3789
猎鹰	-3790
玉米	-3791
玩家	-3792
球员	-3793
球队	-3794
生机	-3795
直前	-3796
直至	-3797
礼貌	-3798
福利	-3799
种类	-3800
给您	-3801
缺陷	-3802
罗尼	-3803
罗马	-3804
菠菜	-3805
行驶	-3806
要素	-3807
角度	-3808
警察	-3809
认识	-3810
语句	-3811
语气	-3812
财富	-3813
这份	-3814
这位	-3815
这场	-3816
进化	-3817
进展	-3818
连续	-3819
遗产	-3820
配料	-3821
配送	-3822
重大	-3823
量和	-3824
鞋子	-3825
韧性	-3826
领土	-3827
飞行	-3828
饰演	-3829
马克	-3830
高于	-3831
，-	-3832
，《	-3833
GPT	-3834
any	-3835
ite	-3836
lif	-3837
▁(-	-3838
▁Sm	-3839
▁ab	-3840
▁my	-3841
▁sh	-3842
▁优化	-3843
▁公司	-3844
▁在线	-3845
▁答案	-3846
▁算法	-3847
▁通常	-3848
▁遍历	-3849
一句话	-3850
一系列	-3851
专业的	-3852
严格的	-3853
中获得	-3854
也称为	-3855
亲爱的	-3856
信息的	-3857
健康和	-3858
公式为	-3859
创新的	-3860
创造力	-3861
十进制	-3862
华氏度	-3863
历史和	-3864
可以被	-3865
听起来	-3866
和对比	-3867
和工具	-3868
和焦虑	-3869
和需求	-3870
大多数	-3871
孩子的	-3872
它不仅	-3873
完成了	-3874
完成后	-3875
小企业	-3876
并使用	-3877
彼此的	-3878
得到了	-3879
您应该	-3880
我不能	-3881
或组织	-3882
推动了	-3883
政府和	-3884
是否有	-3885
是指在	-3886
更快速	-3887
未知的	-3888
来描述	-3889
来设计	-3890
水资源	-3891
求职信	-3892
深入的	-3893
深刻的	-3894
添加到	-3895
清楚地	-3896
的产品	-3897
的位置	-3898
的函数	-3899
的区别	-3900
的城市	-3901
的天气	-3902
的意思	-3903
的感觉	-3904
的特征	-3905
的状态	-3906
的电影	-3907
的质量	-3908
看到了	-3909
知识和	-3910
研究员	-3911
神秘的	-3912
简单易	-3913
算法和	-3914
经验和	-3915
自然界	-3916
范围内	-3917
获得了	-3918
词嵌入	-3919
运动的	-3920
这不仅	-3921
这个词	-3922
进行了	-3923
销售额	-3924
错误的	-3925
陌生人	-3926
需要对	-3927
alth	-3928
ated	-3929
ates	-3930
left	-3931
▁Are	-3932
▁GPT	-3933
▁写一篇	-3934
▁决策树	-3935
▁在这个	-3936
▁有一天	-3937
个人口味	-3938
交换位置	-3939
人类智能	-3940
企业可以	-3941
保护环境	-3942
做出决策	-3943
共同努力	-3944
其中包括	-3945
勇往直前	-3946
可能包括	-3947
吸引更多	-3948
哺乳动物	-3949
大量数据	-3950
字体大小	-3951
存在一些	-3952
实际情况	-3953
家庭教育	-3954
工业生产	-3955
市场需求	-3956
性别平等	-3957
我们应该	-3958
拓扑结构	-3959
推荐系统	-3960
文章内容	-3961
文艺复兴	-3962
最常见的	-3963
的同义词	-3964
社交网络	-3965
约瑟医生	-3966
组织可以	-3967
统计数据	-3968
能够提供	-3969
被动语态	-3970
这一过程	-3971
这有助于	-3972
进行调整	-3973
需要帮助	-3974
食物浪费	-3975
erday	-3976
index	-3977
udent	-3978
▁HTML	-3979
▁sqrt	-3980
▁text	-3981
▁this	-3982
▁创造一个	-3983
▁制定一个	-3984
保持良好的	-3985
塑料棒球棒	-3986
客户满意度	-3987
数据中学习	-3988
是一种非常	-3989
是人工智能	-3990
的工作原理	-3991
能够帮助您	-3992
common	-3993
▁trans	-3994
▁以下是一个	-3995
▁写一首关于	-3996
在这种情况下	-3997
客服代表应该	-3998
numbers	-3999
▁import	-4000
esterday	-4001
▁information	-4002
":	-4003
"，	-4004
)、	-4005
*(	-4006
Ex	-4007
GB	-4008
II	-4009
RO	-4010
SA	-4011
ew	-4012
to	-4013
”（	-4014
▁k	-4015
▁开	-4016
▁更	-4017
▁黑	-4018
▁，	-4019
》：	-4020
一词	-4021
三维	-4022
主角	-4023
之下	-4024
乘以	-4025
乘积	-4026
乡村	-4027
交谈	-4028
人力	-4029
代入	-4030
任意	-4031
仿佛	-4032
优美	-4033
伯格	-4034
伯特	-4035
但不	-4036
但他	-4037
俳句	-4038
借款	-4039
公主	-4040
公民	-4041
公立	-4042
关联	-4043
内在	-4044
出生	-4045
分割	-4046
分离	-4047
切成	-4048
副词	-4049
包裹	-4050
区分	-4051
口号	-4052
另一	-4053
叶斯	-4054
吐司	-4055
和防	-4056
唱歌	-4057
商家	-4058
因数	-4059
国内	-4060
地上	-4061
地页	-4062
场合	-4063
坚定	-4064
埃及	-4065
域名	-4066
基金	-4067
外出	-4068
多彩	-4069
失业	-4070
守望	-4071
安静	-4072
完美	-4073
实惠	-4074
审核	-4075
客观	-4076
宪法	-4077
对新	-4078
将在	-4079
小型	-4080
小李	-4081
小琪	-4082
尺寸	-4083
尽力	-4084
帐户	-4085
带着	-4086
常用	-4087
平静	-4088
并与	-4089
康复	-4090
引入	-4091
得不	-4092
心中	-4093
心和	-4094
心情	-4095
您所	-4096
成语	-4097
扎克	-4098
扩大	-4099
抗议	-4100
护理	-4101
拼写	-4102
挖掘	-4103
探险	-4104
接近	-4105
推移	-4106
提前	-4107
撒上	-4108
播客	-4109
教会	-4110
数的	-4111
无人	-4112
暴风	-4113
更有	-4114
有时	-4115
木质	-4116
未经	-4117
本文	-4118
机场	-4119
杏仁	-4120
条形	-4121
极地	-4122
构图	-4123
某人	-4124
查理	-4125
标点	-4126
案件	-4127
橙子	-4128
欢乐	-4129
水能	-4130
流失	-4131
海啸	-4132
海底	-4133
海豚	-4134
消失	-4135
溶解	-4136
潜水	-4137
激动	-4138
火墙	-4139
热门	-4140
照亮	-4141
特殊	-4142
狐狸	-4143
玩具	-4144
玫瑰	-4145
瓦尔	-4146
电池	-4147
的可	-4148
的话	-4149
监狱	-4150
确实	-4151
祖先	-4152
私人	-4153
种族	-4154
空中	-4155
粉丝	-4156
精彩	-4157
组件	-4158
绕着	-4159
绽放	-4160
缩写	-4161
翅雀	-4162
而在	-4163
艾丽	-4164
花朵	-4165
血压	-4166
补充	-4167
表情	-4168
解答	-4169
设立	-4170
询问	-4171
调料	-4172
调用	-4173
账号	-4174
贵的	-4175
起义	-4176
过多	-4177
邦联	-4178
邪恶	-4179
酸化	-4180
限于	-4181
除此	-4182
陷入	-4183
随后	-4184
难忘	-4185
霍尔	-4186
面向	-4187
面粉	-4188
预报	-4189
餐饮	-4190
）:	-4191
bot	-4192
ink	-4193
lay	-4194
les	-4195
ork	-4196
que	-4197
red	-4198
sis	-4199
uth	-4200
▁De	-4201
▁Re	-4202
▁am	-4203
▁qu	-4204
▁un	-4205
▁个人	-4206
▁但是	-4207
▁德国	-4208
▁文本	-4209
▁最终	-4210
▁构建	-4211
▁目标	-4212
▁第二	-4213
▁给出	-4214
▁绿色	-4215
▁老板	-4216
▁记录	-4217
▁进行	-4218
▁避免	-4219
▁阅读	-4220
不断地	-4221
与家人	-4222
中使用	-4223
中所有	-4224
二叉树	-4225
二进制	-4226
以获得	-4227
任总统	-4228
会增加	-4229
做什么	-4230
关系的	-4231
内容和	-4232
准备好	-4233
出一个	-4234
分类器	-4235
前一个	-4236
加茨比	-4237
去中心	-4238
反义词	-4239
取得了	-4240
各样的	-4241
合作用	-4242
和个人	-4243
和发展	-4244
和处理	-4245
和学习	-4246
哈希值	-4247
国家和	-4248
地区的	-4249
塑料袋	-4250
学生们	-4251
它们都	-4252
它通常	-4253
守望者	-4254
对应的	-4255
小琪琪	-4256
小红帽	-4257
山脉的	-4258
并最终	-4259
心脏病	-4260
忠诚度	-4261
您希望	-4262
感兴趣	-4263
我才能	-4264
所有人	-4265
扮演着	-4266
无论是	-4267
时间表	-4268
是人类	-4269
最大值	-4270
有一天	-4271
来控制	-4272
来提高	-4273
来自于	-4274
极大地	-4275
极高的	-4276
森林里	-4277
测试和	-4278
的元素	-4279
的外观	-4280
的总和	-4281
的想法	-4282
的时候	-4283
的智能	-4284
的服务	-4285
的规则	-4286
的运动	-4287
的领域	-4288
目标是	-4289
目的是	-4290
直线的	-4291
稳定的	-4292
等技术	-4293
等方面	-4294
等活动	-4295
纽约市	-4296
结构化	-4297
而言之	-4298
落地页	-4299
表示为	-4300
设计的	-4301
语法和	-4302
这个人	-4303
这幅画	-4304
遥远的	-4305
部电影	-4306
都具有	-4307
重要性	-4308
金翅雀	-4309
问题和	-4310
颜色和	-4311
ough	-4312
▁CSS	-4313
▁Pro	-4314
▁Ser	-4315
▁UTC	-4316
▁but	-4317
▁下面是	-4318
▁世界上	-4319
中位数是	-4320
中心思想	-4321
中的所有	-4322
为你提供	-4323
主要包括	-4324
人类活动	-4325
以下文本	-4326
修辞手法	-4327
免疫系统	-4328
共同祖先	-4329
分类问题	-4330
南方军队	-4331
取得成功	-4332
可持续的	-4333
可能存在	-4334
图像分类	-4335
基础设施	-4336
对环境的	-4337
平方公里	-4338
强化学习	-4339
扎克伯格	-4340
承担责任	-4341
排序算法	-4342
搅拌均匀	-4343
数据处理	-4344
新闻文章	-4345
旨在通过	-4346
机化合物	-4347
法律法规	-4348
流行程度	-4349
生态环境	-4350
相似之处	-4351
研究表明	-4352
空气造成	-4353
能够增强	-4354
能够满足	-4355
能帮助您	-4356
西班牙语	-4357
购物体验	-4358
贸易保护	-4359
身心健康	-4360
软件开发	-4361
运动员的	-4362
这部电影	-4363
进行分析	-4364
通过使用	-4365
量子比特	-4366
量子计算	-4367
除此之外	-4368
需要使用	-4369
静态方法	-4370
Reach	-4371
omple	-4372
verse	-4373
▁cont	-4374
▁have	-4375
▁will	-4376
充足的睡眠	-4377
带来更多的	-4378
您可以尝试	-4379
您可以根据	-4380
时间复杂度	-4381
时间的推移	-4382
有助于促进	-4383
生物多样性	-4384
选择合适的	-4385
ompany	-4386
▁stack	-4387
▁would	-4388
▁人工智能在	-4389
全球气候变化	-4390
提高工作效率	-4391
是两种不同的	-4392
anagram	-4393
assword	-4394
▁需要注意的是	-4395
ransform	-4396
▁student	-4397
althReach	-4398
._	-4399
AW	-4400
BM	-4401
Ch	-4402
Ju	-4403
NB	-4404
`，	-4405
aw	-4406
iz	-4407
sb	-4408
▁%	-4409
▁Z	-4410
▁万	-4411
▁二	-4412
▁原	-4413
▁旁	-4414
▁春	-4415
▁月	-4416
▁白	-4417
▁自	-4418
▁讲	-4419
》。	-4420
一化	-4421
不受	-4422
不足	-4423
个数	-4424
中性	-4425
为他	-4426
主动	-4427
主板	-4428
乐意	-4429
也在	-4430
也能	-4431
习语	-4432
于是	-4433
云端	-4434
五边	-4435
亚马	-4436
人心	-4437
仅仅	-4438
从未	-4439
仔裤	-4440
付费	-4441
代的	-4442
伊斯	-4443
传奇	-4444
传粉	-4445
体能	-4446
余数	-4447
使命	-4448
依靠	-4449
信念	-4450
债券	-4451
免受	-4452
全面	-4453
关节	-4454
其它	-4455
养殖	-4456
内置	-4457
内质	-4458
冒泡	-4459
冰箱	-4460
减肥	-4461
分泌	-4462
刺猬	-4463
加上	-4464
加哥	-4465
半径	-4466
南部	-4467
卡车	-4468
即将	-4469
厚的	-4470
原则	-4471
发起	-4472
取出	-4473
受损	-4474
叙述	-4475
古代	-4476
可读	-4477
启动	-4478
命名	-4479
和高	-4480
善于	-4481
四处	-4482
回家	-4483
回应	-4484
塑造	-4485
填埋	-4486
声明	-4487
处于	-4488
备用	-4489
多层	-4490
天主	-4491
夸张	-4492
女人	-4493
子里	-4494
它能	-4495
宝藏	-4496
客人	-4497
家园	-4498
家居	-4499
对其	-4500
尽快	-4501
尿病	-4502
工厂	-4503
布斯	-4504
常数	-4505
平板	-4506
并非	-4507
废气	-4508
废水	-4509
弓箭	-4510
强大	-4511
强烈	-4512
很大	-4513
快递	-4514
思路	-4515
性格	-4516
恐慌	-4517
感和	-4518
房东	-4519
手指	-4520
抄袭	-4521
抓住	-4522
拍摄	-4523
拥挤	-4524
提问	-4525
效应	-4526
效益	-4527
整合	-4528
斯特	-4529
时空	-4530
昆虫	-4531
明智	-4532
映射	-4533
暴露	-4534
最早	-4535
有序	-4536
木材	-4537
本身	-4538
林肯	-4539
桥梁	-4540
正义	-4541
每种	-4542
比尔	-4543
气息	-4544
污水	-4545
汤姆	-4546
泄露	-4547
波动	-4548
海滩	-4549
湿度	-4550
源自	-4551
潜能	-4552
火星	-4553
火腿	-4554
灾害	-4555
点的	-4556
照耀	-4557
特性	-4558
王星	-4559
理性	-4560
瑞士	-4561
电能	-4562
病人	-4563
的开	-4564
的解	-4565
的诗	-4566
益处	-4567
盛开	-4568
短信	-4569
短缺	-4570
离性	-4571
离散	-4572
穿着	-4573
站在	-4574
笼罩	-4575
等等	-4576
策划	-4577
简短	-4578
索引	-4579
紫色	-4580
结尾	-4581
结论	-4582
给了	-4583
给人	-4584
统一	-4585
而又	-4586
而异	-4587
聚集	-4588
聪明	-4589
脚本	-4590
脚步	-4591
腐败	-4592
膨胀	-4593
航班	-4594
航空	-4595
花园	-4596
若干	-4597
虚构	-4598
融入	-4599
西瓜	-4600
视为	-4601
财政	-4602
质数	-4603
赢得	-4604
走进	-4605
转移	-4606
轮机	-4607
较大	-4608
迁徙	-4609
还款	-4610
这也	-4611
这就	-4612
进口	-4613
选取	-4614
部件	-4615
重量	-4616
镜头	-4617
问候	-4618
降维	-4619
雨林	-4620
音阶	-4621
音频	-4622
顺利	-4623
顾问	-4624
预先	-4625
餐桌	-4626
麦田	-4627
："	-4628
：(	-4629
","	-4630
GDP	-4631
ais	-4632
ana	-4633
ary	-4634
ber	-4635
che	-4636
der	-4637
emp	-4638
gth	-4639
hop	-4640
ide	-4641
ify	-4642
ime	-4643
key	-4644
let	-4645
ory	-4646
ton	-4647
udi	-4648
▁Ex	-4649
▁ac	-4650
▁so	-4651
▁了解	-4652
▁全球	-4653
▁关于	-4654
▁基于	-4655
▁夜空	-4656
▁寻找	-4657
▁开发	-4658
▁收集	-4659
▁故事	-4660
▁游戏	-4661
▁许多	-4662
不得不	-4663
不稳定	-4664
为客户	-4665
为社会	-4666
书籍和	-4667
了一些	-4668
亚马逊	-4669
人们对	-4670
以确定	-4671
会根据	-4672
但由于	-4673
作者的	-4674
供应商	-4675
值得一	-4676
关注的	-4677
关系型	-4678
内质网	-4679
减少对	-4680
分别是	-4681
分解成	-4682
去商店	-4683
吸引了	-4684
员工的	-4685
和信息	-4686
和组织	-4687
和销售	-4688
喜马拉	-4689
基础的	-4690
大利润	-4691
大规模	-4692
大部分	-4693
天然气	-4694
安全地	-4695
实现的	-4696
对方的	-4697
导致的	-4698
工作的	-4699
市场的	-4700
并促进	-4701
并提高	-4702
归一化	-4703
归类为	-4704
形式的	-4705
您想要	-4706
情感和	-4707
成功地	-4708
我们在	-4709
我们将	-4710
我没有	-4711
我知道	-4712
找到最	-4713
按升序	-4714
按字母	-4715
文章中	-4716
新产品	-4717
是一场	-4718
有利于	-4719
有哪些	-4720
朋友们	-4721
权利和	-4722
来保护	-4723
来吸引	-4724
检测器	-4725
殖民地	-4726
潜在的	-4727
牛仔裤	-4728
物理学	-4729
物质的	-4730
的关系	-4731
的国家	-4732
的增加	-4733
的夜晚	-4734
的字母	-4735
的平台	-4736
的所有	-4737
的技巧	-4738
的挑战	-4739
的政策	-4740
的最新	-4741
的股票	-4742
的课程	-4743
目标值	-4744
目标的	-4745
短故事	-4746
种类的	-4747
第一次	-4748
管理员	-4749
糖尿病	-4750
组成的	-4751
细胞的	-4752
结束后	-4753
结果为	-4754
网站或	-4755
能够与	-4756
艺术家	-4757
节点的	-4758
芝加哥	-4759
莫斯科	-4760
行为的	-4761
设计师	-4762
读者的	-4763
象征着	-4764
这是一	-4765
酒店业	-4766
长时间	-4767
难忘的	-4768
霍尔顿	-4769
领域的	-4770
风格的	-4771
驾驶员	-4772
NASA	-4773
cess	-4774
ific	-4775
otos	-4776
pper	-4777
▁hel	-4778
▁spe	-4779
▁为什么	-4780
▁亲爱的	-4781
▁接下来	-4782
▁请注意	-4783
专业人士	-4784
中的数据	-4785
中的每个	-4786
中间位置	-4787
主要区别	-4788
主要来源	-4789
义相对论	-4790
也带来了	-4791
交通工具	-4792
人口约为	-4793
从而降低	-4794
他们可以	-4795
他们能够	-4796
他们需要	-4797
以下单词	-4798
偏估计量	-4799
公立学校	-4800
农业生产	-4801
决策能力	-4802
创业公司	-4803
北方军队	-4804
医疗服务	-4805
吸引人的	-4806
喜马拉雅	-4807
图像识别	-4808
在线课程	-4809
太阳系中	-4810
它们可以	-4811
安全性和	-4812
已经成为	-4813
广告投放	-4814
很重要的	-4815
感到非常	-4816
投资者的	-4817
数字列表	-4818
数据中的	-4819
枪支死亡	-4820
水的沸点	-4821
测试人员	-4822
海洋生物	-4823
海洋酸化	-4824
潜在客户	-4825
热带风暴	-4826
环保意识	-4827
现金流量	-4828
生活中的	-4829
的数据集	-4830
短时间内	-4831
移动设备	-4832
简单来说	-4833
管理系统	-4834
线性回归	-4835
维生素和	-4836
缓解压力	-4837
美国总统	-4838
能够吸引	-4839
虚拟学习	-4840
训练数据	-4841
训练模型	-4842
许多国家	-4843
谷歌文档	-4844
资金支持	-4845
这个故事	-4846
进行计算	-4847
逻辑回归	-4848
重要作用	-4849
金融机构	-4850
锻炼身体	-4851
非常适合	-4852
面部识别	-4853
means	-4854
ocker	-4855
▁data	-4856
▁elif	-4857
▁head	-4858
▁need	-4859
▁数据分析	-4860
▁构建一个	-4861
也可以使用	-4862
人工智能和	-4863
它们之间的	-4864
对数据进行	-4865
日常生活中	-4866
是一个非常	-4867
木质棒球棒	-4868
的一个重要	-4869
盐和黑胡椒	-4870
矩形的面积	-4871
计算机系统	-4872
这将有助于	-4873
▁Smith	-4874
▁about	-4875
▁analy	-4876
为我们提供了	-4877
减缓气候变化	-4878
可以帮助企业	-4879
可以帮助医生	-4880
可再生能源的	-4881
基于深度学习	-4882
搜索引擎优化	-4883
文艺复兴时期	-4884
是一种常见的	-4885
有价值的信息	-4886
能够帮助人们	-4887
自动驾驶汽车	-4888
解决这个问题	-4889
celsius	-4890
▁random	-4891
▁创建一个包含	-4892
健康的生活方式	-4893
自动化客户服务	-4894
▓▓▓▓▓▓▓▓	-4895
减少温室气体排放	-4896
fahrenheit	-4897
HealthReach	-4898
!=	-4899
%。	-4900
']	-4901
)=	-4902
::	-4903
</	-4904
AN	-4905
CO	-4906
ST	-4907
`:	-4908
ax	-4909
br	-4910
ca	-4911
cy	-4912
ie	-4913
ip	-4914
ry	-4915
▁头	-4916
▁求	-4917
▁绿	-4918
▁而	-4919
▁说	-4920
一年	-4921
一类	-4922
一群	-4923
一颗	-4924
万人	-4925
三年	-4926
不懈	-4927
丛林	-4928
两人	-4929
中火	-4930
主张	-4931
丽的	-4932
举例	-4933
乐部	-4934
乘坐	-4935
书馆	-4936
买家	-4937
五年	-4938
人和	-4939
他不	-4940
仙女	-4941
以后	-4942
优雅	-4943
会有	-4944
传送	-4945
你们	-4946
便于	-4947
信心	-4948
做的	-4949
健身	-4950
像头	-4951
入胜	-4952
全国	-4953
兰教	-4954
共和	-4955
内啡	-4956
内战	-4957
冰激	-4958
冲洗	-4959
冷冻	-4960
冷却	-4961
减小	-4962
出色	-4963
击败	-4964
划分	-4965
创始	-4966
利益	-4967
副本	-4968
北方	-4969
升级	-4970
午饭	-4971
卓越	-4972
单独	-4973
即时	-4974
压缩	-4975
去皮	-4976
双手	-4977
反转	-4978
发表	-4979
古老	-4980
只小	-4981
号码	-4982
司法	-4983
同意	-4984
后代	-4985
否则	-4986
启发	-4987
命令	-4988
和分	-4989
和地	-4990
和狗	-4991
喜悦	-4992
器官	-4993
回复	-4994
图灵	-4995
圆的	-4996
地壳	-4997
地将	-4998
型和	-4999
城堡	-5000
填字	-5001
声誉	-5002
多次	-5003
多项	-5004
女装	-5005
子弹	-5006
字段	-5007
它有	-5008
它还	-5009
宠物	-5010
宣言	-5011
家里	-5012
密欧	-5013
尊敬	-5014
小块	-5015
小明	-5016
居里	-5017
山峰	-5018
岛屿	-5019
巴西	-5020
布置	-5021
师傅	-5022
带入	-5023
帮您	-5024
干预	-5025
年来	-5026
开支	-5027
引用	-5028
引言	-5029
当今	-5030
心灵	-5031
忽略	-5032
忽视	-5033
怎么	-5034
恐惧	-5035
您对	-5036
您将	-5037
感的	-5038
感知	-5039
慢慢	-5040
慷慨	-5041
我是	-5042
截止	-5043
执法	-5044
扫描	-5045
承受	-5046
承诺	-5047
报纸	-5048
招募	-5049
损坏	-5050
授权	-5051
探究	-5052
摩尔	-5053
摩擦	-5054
播放	-5055
教授	-5056
教练	-5057
散步	-5058
斯顿	-5059
新教	-5060
旅程	-5061
旋律	-5062
旧金	-5063
早上	-5064
是对	-5065
是用	-5066
更换	-5067
机智	-5068
机械	-5069
权威	-5070
权限	-5071
杉矶	-5072
来看	-5073
极具	-5074
枯竭	-5075
柔和	-5076
树叶	-5077
树皮	-5078
格兰	-5079
格雷	-5080
模仿	-5081
模具	-5082
模板	-5083
模糊	-5084
樱桃	-5085
欣赏	-5086
歌词	-5087
正则	-5088
毁灭	-5089
毅力	-5090
比利	-5091
比的	-5092
毛巾	-5093
水生	-5094
沿海	-5095
法官	-5096
法的	-5097
活泼	-5098
浓度	-5099
深深	-5100
清除	-5101
演变	-5102
潜力	-5103
濒危	-5104
炎热	-5105
炒至	-5106
烧烤	-5107
牌堆	-5108
牛排	-5109
狗狗	-5110
猎物	-5111
珍惜	-5112
生气	-5113
男子	-5114
画作	-5115
的起	-5116
相反	-5117
相邻	-5118
短暂	-5119
石头	-5120
石油	-5121
矿物	-5122
研讨	-5123
硬盘	-5124
碰撞	-5125
碳汇	-5126
秋季	-5127
租房	-5128
稀土	-5129
立刻	-5130
篝火	-5131
篡改	-5132
精度	-5133
素质	-5134
繁荣	-5135
线圈	-5136
统治	-5137
缺少	-5138
网购	-5139
罗斯	-5140
羽毛	-5141
翅膀	-5142
者和	-5143
而出	-5144
职责	-5145
肉类	-5146
股市	-5147
肯定	-5148
自治	-5149
致的	-5150
航天	-5151
艾伦	-5152
节目	-5153
芝士	-5154
芬奇	-5155
花瓶	-5156
苏联	-5157
英雄	-5158
莉莉	-5159
蜂蜜	-5160
融合	-5161
衬衫	-5162
被困	-5163
装置	-5164
西亚	-5165
规范	-5166
许可	-5167
评测	-5168
试着	-5169
诚实	-5170
误解	-5171
诸如	-5172
谋杀	-5173
豪猪	-5174
赋予	-5175
超级	-5176
越大	-5177
身上	-5178
较为	-5179
还有	-5180
这对	-5181
这类	-5182
追踪	-5183
遥感	-5184
都要	-5185
配件	-5186
酒师	-5187
链表	-5188
问答	-5189
阐述	-5190
阴影	-5191
降雨	-5192
随地	-5193
集合	-5194
雇主	-5195
面糊	-5196
颁发	-5197
预计	-5198
颗粒	-5199
题目	-5200
首诗	-5201
香味	-5202
高级	-5203
鳄梨	-5204
黑客	-5205
黑色	-5206
黛西	-5207
？”	-5208
CPU	-5209
TTP	-5210
Tub	-5211
VID	-5212
all	-5213
ane	-5214
bit	-5215
ele	-5216
fer	-5217
ily	-5218
loy	-5219
ose	-5220
rix	-5221
”，“	-5222
▁!=	-5223
▁Ad	-5224
▁Bu	-5225
▁ID	-5226
▁SE	-5227
▁Sh	-5228
▁St	-5229
▁√[	-5230
▁一天	-5231
▁世界	-5232
▁内容	-5233
▁医疗	-5234
▁发展	-5235
▁发布	-5236
▁变量	-5237
▁回收	-5238
▁因为	-5239
▁在此	-5240
▁学习	-5241
▁它的	-5242
▁尽管	-5243
▁推广	-5244
▁改写	-5245
▁旁白	-5246
▁杰克	-5247
▁熊猫	-5248
▁玛丽	-5249
▁男人	-5250
▁番茄	-5251
▁自然	-5252
▁解决	-5253
▁设定	-5254
▁评估	-5255
▁返回	-5256
▁鼓励	-5257
一次性	-5258
不平等	-5259
不开车	-5260
不知道	-5261
与客户	-5262
两个人	-5263
两句话	-5264
个人的	-5265
为企业	-5266
为您的	-5267
主要以	-5268
乔布斯	-5269
了一种	-5270
代表着	-5271
以保持	-5272
会发生	-5273
使人们	-5274
例子中	-5275
俱乐部	-5276
充分的	-5277
光系统	-5278
冰激凌	-5279
决定的	-5280
出现在	-5281
分类和	-5282
创新和	-5283
利用率	-5284
到一个	-5285
动物的	-5286
原子核	-5287
只需要	-5288
可能有	-5289
可靠的	-5290
向工程	-5291
和减少	-5292
和控制	-5293
和政治	-5294
和格式	-5295
和治疗	-5296
和测试	-5297
和温暖	-5298
和目标	-5299
和经济	-5300
咖啡师	-5301
图书馆	-5302
城市的	-5303
培训和	-5304
基督教	-5305
多项式	-5306
大气层	-5307
失业率	-5308
存储和	-5309
存储在	-5310
它使用	-5311
它负责	-5312
对企业	-5313
导数是	-5314
将永远	-5315
将这些	-5316
工作和	-5317
希望您	-5318
年轻的	-5319
并不是	-5320
并减少	-5321
并确定	-5322
并采取	-5323
引起的	-5324
强密码	-5325
影响力	-5326
很高兴	-5327
微笑着	-5328
想象力	-5329
意识到	-5330
我们就	-5331
抗氧化	-5332
探讨了	-5333
提供商	-5334
搜索树	-5335
政府的	-5336
数字的	-5337
数量的	-5338
新语言	-5339
方式的	-5340
方法论	-5341
无限的	-5342
旧金山	-5343
时间线	-5344
明智的	-5345
是一门	-5346
是多少	-5347
是用来	-5348
最长的	-5349
有创意	-5350
有时候	-5351
有用的	-5352
李先生	-5353
条件下	-5354
来到了	-5355
来完成	-5356
来计算	-5357
正方形	-5358
每一天	-5359
每一次	-5360
氏温度	-5361
洛杉矶	-5362
激烈的	-5363
烤鸡肉	-5364
猫和狗	-5365
番茄和	-5366
疾病的	-5367
的世界	-5368
的乐趣	-5369
的交易	-5370
的人生	-5371
的依赖	-5372
的功能	-5373
的基础	-5374
的季节	-5375
的推文	-5376
的氛围	-5377
的算法	-5378
的色彩	-5379
的身体	-5380
的魅力	-5381
等因素	-5382
简洁易	-5383
算法的	-5384
精准的	-5385
组织的	-5386
给用户	-5387
罗密欧	-5388
肌肉和	-5389
肺功能	-5390
能够让	-5391
行业中	-5392
被用于	-5393
被用来	-5394
覆盖着	-5395
请注意	-5396
贝叶斯	-5397
较高的	-5398
这对于	-5399
这就是	-5400
都包含	-5401
都有其	-5402
长度为	-5403
附近的	-5404
需求的	-5405
食物和	-5406
食物链	-5407
高效的	-5408
Tube	-5409
angu	-5410
ctor	-5411
data	-5412
eria	-5413
ical	-5414
ning	-5415
ooth	-5416
sion	-5417
tics	-5418
▁Spe	-5419
▁col	-5420
▁des	-5421
▁her	-5422
▁int	-5423
▁per	-5424
▁pri	-5425
▁sub	-5426
▁为以下	-5427
一个关于	-5428
一个新的	-5429
不断发展	-5430
不断变化	-5431
个人喜好	-5432
中的一个	-5433
为我们的	-5434
也会影响	-5435
互联网的	-5436
人类健康	-5437
伊斯兰教	-5438
健康状况	-5439
全球经济	-5440
其中一个	-5441
分析方法	-5442
可以利用	-5443
可以快速	-5444
大大减少	-5445
天气预报	-5446
如何使用	-5447
如果您有	-5448
学生债务	-5449
它们能够	-5450
它提供了	-5451
实例对象	-5452
实例方法	-5453
客户反馈	-5454
希望能够	-5455
广泛应用	-5456
应该包括	-5457
引人入胜	-5458
您的产品	-5459
成本上涨	-5460
我们使用	-5461
提供一些	-5462
数据隐私	-5463
新鲜水果	-5464
时间管理	-5465
替代能源	-5466
机器翻译	-5467
格雷瓦尔	-5468
气相色谱	-5469
治疗方案	-5470
清洁能源	-5471
潜在买家	-5472
物理学家	-5473
生产效率	-5474
生活习惯	-5475
用户界面	-5476
的平方根	-5477
的方法来	-5478
目标设定	-5479
相比之下	-5480
能够提高	-5481
能源供应	-5482
自然资源	-5483
药物治疗	-5484
表达式的	-5485
解决冲突	-5486
详细信息	-5487
请您提供	-5488
这是因为	-5489
选择一个	-5490
降低成本	-5491
需要准备	-5492
需要根据	-5493
需要考虑	-5494
面对困难	-5495
音乐作品	-5496
项目经理	-5497
麦田里的	-5498
atrix	-5499
ature	-5500
input	-5501
lease	-5502
rofit	-5503
▁Here	-5504
▁like	-5505
▁sequ	-5506
▁work	-5507
▁your	-5508
▁列出三种	-5509
▁将给定的	-5510
▁建议一个	-5511
▁根据输入	-5512
▁神经网络	-5513
▁素食饮食	-5514
▁编写一个	-5515
一个简单的	-5516
三角形面积	-5517
三边分别为	-5518
不同种类的	-5519
个人或组织	-5520
为客户提供	-5521
之间的交流	-5522
也可以用来	-5523
二叉搜索树	-5524
位于尼泊尔	-5525
保持好奇心	-5526
各种各样的	-5527
大量的数据	-5528
完整的句子	-5529
技术的发展	-5530
改变我们的	-5531
敏捷方法论	-5532
时间旅行的	-5533
有机化合物	-5534
枪支死亡率	-5535
深远的影响	-5536
的一个分支	-5537
讲述了一个	-5538
还可以通过	-5539
量子计算机	-5540
ouTube	-5541
▁Analy	-5542
▁alist	-5543
▁count	-5544
▁gener	-5545
▁right	-5546
▁tasks	-5547
主要区别在于	-5548
人工智能算法	-5549
以下句子中的	-5550
关系型数据库	-5551
可以帮助用户	-5552
可以考虑使用	-5553
数据进行分析	-5554
机器学习技术	-5555
极端天气事件	-5556
电子邮件地址	-5557
的时间复杂度	-5558
预测股票价格	-5559
anguage	-5560
ression	-5561
可以根据自己的	-5562
麦田里的守望者	-5563
password	-5564
医疗保健成本上涨	-5565
▁sequence	-5566
ransformer	-5567
▁Instagram	-5568
▁customers	-5569
!"	-5570
''	-5571
')	-5572
**	-5573
?"	-5574
CH	-5575
TE	-5576
Un	-5577
]，	-5578
^(	-5579
ht	-5580
ml	-5581
og	-5582
oy	-5583
px	-5584
▁q	-5585
▁÷	-5586
▁　	-5587
▁下	-5588
▁可	-5589
▁来	-5590
▁杯	-5591
▁王	-5592
▁简	-5593
▁花	-5594
▁马	-5595
▁：	-5596
一场	-5597
一封	-5598
一幅	-5599
一旦	-5600
三条	-5601
上万	-5602
不利	-5603
不到	-5604
不如	-5605
不满	-5606
不错	-5607
与人	-5608
专家	-5609
两边	-5610
中风	-5611
为人	-5612
主机	-5613
举行	-5614
乔治	-5615
习俗	-5616
习性	-5617
书的	-5618
了她	-5619
争议	-5620
二世	-5621
五度	-5622
人在	-5623
从事	-5624
从那	-5625
件人	-5626
会聚	-5627
传感	-5628
但我	-5629
住所	-5630
你好	-5631
供水	-5632
倍数	-5633
倒序	-5634
值是	-5635
倾向	-5636
偏见	-5637
像是	-5638
光和	-5639
克的	-5640
入睡	-5641
共有	-5642
共识	-5643
其实	-5644
内卢	-5645
写的	-5646
农民	-5647
冰川	-5648
冰淇	-5649
冷水	-5650
几乎	-5651
几种	-5652
凤蝶	-5653
凯撒	-5654
出发	-5655
分散	-5656
分数	-5657
刑事	-5658
利安	-5659
利弊	-5660
前所	-5661
前景	-5662
前行	-5663
加利	-5664
势力	-5665
化简	-5666
医院	-5667
华盛	-5668
即使	-5669
卷饼	-5670
原产	-5671
发音	-5672
古巴	-5673
可口	-5674
可爱	-5675
台风	-5676
同性	-5677
同样	-5678
名词	-5679
听取	-5680
员会	-5681
周末	-5682
品尝	-5683
嘴豆	-5684
四种	-5685
在不	-5686
地中	-5687
埃尔	-5688
复苏	-5689
外国	-5690
外星	-5691
大幅	-5692
奔跑	-5693
奶油	-5694
学名	-5695
学术	-5696
它用	-5697
定谔	-5698
家务	-5699
家长	-5700
寄生	-5701
对抗	-5702
尽情	-5703
局势	-5704
局部	-5705
局面	-5706
展望	-5707
山区	-5708
崛起	-5709
常量	-5710
干燥	-5711
并未	-5712
并行	-5713
广阔	-5714
开心	-5715
引导	-5716
张牌	-5717
当选	-5718
彻底	-5719
很难	-5720
得出	-5721
性强	-5722
恰当	-5723
您说	-5724
情境	-5725
惊奇	-5726
惩罚	-5727
惯性	-5728
意外	-5729
感激	-5730
慈善	-5731
戏剧	-5732
成千	-5733
战斗	-5734
房子	-5735
所处	-5736
手电	-5737
打破	-5738
打造	-5739
抽象	-5740
拟人	-5741
持久	-5742
持有	-5743
指的	-5744
捕获	-5745
接口	-5746
提倡	-5747
改为	-5748
教室	-5749
整洁	-5750
文学	-5751
新冠	-5752
时的	-5753
明天	-5754
明的	-5755
星夜	-5756
星形	-5757
星期	-5758
是不	-5759
是谁	-5760
显得	-5761
晒霜	-5762
曝光	-5763
曲线	-5764
最多	-5765
最少	-5766
月到	-5767
有云	-5768
有用	-5769
木制	-5770
木星	-5771
村民	-5772
极限	-5773
林间	-5774
标识	-5775
标语	-5776
桌面	-5777
橙汁	-5778
橙色	-5779
欺诈	-5780
母亲	-5781
每周	-5782
水力	-5783
永恒	-5784
求解	-5785
法和	-5786
波特	-5787
洗车	-5788
洪水	-5789
海岸	-5790
混乱	-5791
清新	-5792
清爽	-5793
温和	-5794
源于	-5795
潮流	-5796
激活	-5797
灯塔	-5798
炒菜	-5799
煤炭	-5800
片的	-5801
牛顿	-5802
现场	-5803
珠穆	-5804
班级	-5805
瑞典	-5806
电磁	-5807
电费	-5808
疯狂	-5809
病例	-5810
登山	-5811
的好	-5812
的日	-5813
的树	-5814
的第	-5815
的词	-5816
皇帝	-5817
监管	-5818
相等	-5819
睡袋	-5820
短期	-5821
石墙	-5822
神的	-5823
科幻	-5824
秩序	-5825
空格	-5826
穿越	-5827
米饭	-5828
素养	-5829
繁忙	-5830
约束	-5831
约热	-5832
纷纷	-5833
细腻	-5834
编码	-5835
缩小	-5836
缩短	-5837
缺失	-5838
而非	-5839
耐力	-5840
耳朵	-5841
能效	-5842
色调	-5843
花费	-5844
草图	-5845
蒸汽	-5846
行各	-5847
行政	-5848
行程	-5849
表述	-5850
西方	-5851
见到	-5852
视力	-5853
视野	-5854
解冻	-5855
解析	-5856
让他	-5857
试试	-5858
试错	-5859
调性	-5860
调试	-5861
谈论	-5862
负担	-5863
财产	-5864
路上	-5865
跳跃	-5866
车库	-5867
辅助	-5868
过于	-5869
这组	-5870
连贯	-5871
适宜	-5872
选举	-5873
通知	-5874
通话	-5875
逝世	-5876
郁的	-5877
配备	-5878
配对	-5879
酒吧	-5880
重建	-5881
量版	-5882
金额	-5883
长为	-5884
闰年	-5885
阶级	-5886
阿尔	-5887
隔离	-5888
雨水	-5889
非法	-5890
靠近	-5891
预约	-5892
预订	-5893
领先	-5894
餐具	-5895
馅饼	-5896
香气	-5897
高大	-5898
鲜花	-5899
麦克	-5900
麻雀	-5901
龙头	-5902
）+	-5903
，"	-5904
：$	-5905
)^(	-5906
ATP	-5907
Mem	-5908
NBA	-5909
ROM	-5910
UDP	-5911
cle	-5912
com	-5913
cur	-5914
ins	-5915
ric	-5916
sby	-5917
ush	-5918
▁+=	-5919
▁//	-5920
▁Ar	-5921
▁Sp	-5922
▁Wh	-5923
▁ad	-5924
▁ro	-5925
▁　　	-5926
▁不要	-5927
▁两个	-5928
▁主题	-5929
▁做法	-5930
▁动物	-5931
▁地震	-5932
▁垃圾	-5933
▁增长	-5934
▁女人	-5935
▁客服	-5936
▁尊敬	-5937
▁成本	-5938
▁或者	-5939
▁执行	-5940
▁持续	-5941
▁教育	-5942
▁月亮	-5943
▁李华	-5944
▁材料	-5945
▁标题	-5946
▁欧洲	-5947
▁混合	-5948
▁潜水	-5949
▁王丽	-5950
▁现在	-5951
▁用于	-5952
▁确保	-5953
▁社会	-5954
▁科技	-5955
▁移动	-5956
▁简化	-5957
▁约翰	-5958
▁网站	-5959
▁获取	-5960
▁表示	-5961
▁语言	-5962
▁这只	-5963
▁那么	-5964
▁锻炼	-5965
▁非常	-5966
▁香蕉	-5967
▁鸡蛋	-5968
一本书	-5969
一直在	-5970
一词的	-5971
不超过	-5972
世界观	-5973
中心的	-5974
为他们	-5975
主义的	-5976
主题的	-5977
之一是	-5978
也存在	-5979
了一位	-5980
了一段	-5981
了这个	-5982
人物的	-5983
从小到	-5984
他们在	-5985
他们对	-5986
会说话	-5987
会释放	-5988
伴随着	-5989
但它们	-5990
使其更	-5991
做出了	-5992
公倍数	-5993
共同点	-5994
其他人	-5995
内啡肽	-5996
冰淇淋	-5997
出现了	-5998
函数的	-5999
则认为	-6000
到其他	-6001
剃须刀	-6002
前所未	-6003
半周长	-6004
华盛顿	-6005
可读性	-6006
可重复	-6007
同性恋	-6008
向量机	-6009
吸引人	-6010
呈现出	-6011
和决策	-6012
和功能	-6013
和完善	-6014
和建议	-6015
和技术	-6016
和改进	-6017
和法律	-6018
和游戏	-6019
和环境	-6020
和理解	-6021
和社交	-6022
和结构	-6023
和营养	-6024
和输出	-6025
因为他	-6026
团队的	-6027
围绕着	-6028
在教育	-6029
在许多	-6030
在购物	-6031
在这里	-6032
处理和	-6033
外星人	-6034
天主教	-6035
太阳光	-6036
失败中	-6037
存储器	-6038
它们是	-6039
它利用	-6040
它包括	-6041
安全和	-6042
寄生虫	-6043
导致了	-6044
就像一	-6045
已经在	-6046
并帮助	-6047
并获得	-6048
并解释	-6049
并返回	-6050
并鼓励	-6051
应提供	-6052
应注意	-6053
开发的	-6054
形状和	-6055
形状的	-6056
影响的	-6057
惊人的	-6058
或多个	-6059
手电筒	-6060
提出的	-6061
收入和	-6062
改写成	-6063
教育和	-6064
数据点	-6065
文化中	-6066
文本的	-6067
新业务	-6068
新技能	-6069
是一只	-6070
是一名	-6071
是一款	-6072
是使用	-6073
是美国	-6074
更大的	-6075
最后一	-6076
有一只	-6077
有些人	-6078
有说服	-6079
杂货店	-6080
来缓解	-6081
来获取	-6082
来获得	-6083
来评估	-6084
来调整	-6085
氢离子	-6086
活动和	-6087
清新的	-6088
满意的	-6089
火车站	-6090
特别是	-6091
环保的	-6092
理想的	-6093
电子书	-6094
疑问句	-6095
病毒和	-6096
的一天	-6097
的人们	-6098
的传统	-6099
的历史	-6100
的发生	-6101
的威胁	-6102
的学习	-6103
的排放	-6104
的描述	-6105
的效率	-6106
的数值	-6107
的时刻	-6108
的有效	-6109
的有趣	-6110
的核心	-6111
的歌曲	-6112
的流程	-6113
的温度	-6114
的示例	-6115
的策略	-6116
的精神	-6117
的要求	-6118
盖茨比	-6119
相对较	-6120
研讨会	-6121
科动物	-6122
程序的	-6123
等任务	-6124
系统和	-6125
经典的	-6126
经济学	-6127
统计学	-6128
网站上	-6129
美国的	-6130
翻译成	-6131
能力的	-6132
葡萄汁	-6133
葡萄糖	-6134
蔬菜和	-6135
薛定谔	-6136
被视为	-6137
要注意	-6138
解释性	-6139
计数器	-6140
训练集	-6141
讲故事	-6142
讲述了	-6143
设置为	-6144
请随时	-6145
购买的	-6146
软件和	-6147
运动和	-6148
近年来	-6149
还能够	-6150
这两种	-6151
选择的	-6152
都拥有	-6153
里约热	-6154
防火墙	-6155
限量版	-6156
需求量	-6157
需要在	-6158
额外的	-6159
食动物	-6160
香蕉皮	-6161
鹰嘴豆	-6162
LECT	-6163
Rash	-6164
ails	-6165
atch	-6166
find	-6167
igit	-6168
ious	-6169
itle	-6170
lish	-6171
onic	-6172
reen	-6173
sort	-6174
tern	-6175
ther	-6176
ural	-6177
verb	-6178
vice	-6179
wind	-6180
▁key	-6181
▁low	-6182
▁pre	-6183
▁sum	-6184
▁为一家	-6185
▁举一个	-6186
▁墨西哥	-6187
▁如果你	-6188
▁尊敬的	-6189
▁是一种	-6190
▁李先生	-6191
▁灵活性	-6192
▁让我们	-6193
▁这两种	-6194
不断调整	-6195
世界遗产	-6196
个人电脑	-6197
中使用的	-6198
中的重要	-6199
丰富多彩	-6200
也就是说	-6201
了一系列	-6202
交通事故	-6203
交通运输	-6204
从而减少	-6205
以下段落	-6206
传达信息	-6207
伦理问题	-6208
但我可以	-6209
体育比赛	-6210
侵犯版权	-6211
促进社会	-6212
保持不变	-6213
信息检索	-6214
借款人的	-6215
免费大学	-6216
全球气温	-6217
公交车站	-6218
公司名称	-6219
其中一些	-6220
内心深处	-6221
分析结果	-6222
分类模型	-6223
创意团队	-6224
制定一个	-6225
化学反应	-6226
化学工程	-6227
医疗保险	-6228
卫生组织	-6229
历史文化	-6230
古典主义	-6231
可以包括	-6232
可以实现	-6233
可以将其	-6234
可以选择	-6235
可爱的小	-6236
合作伙伴	-6237
合作推广	-6238
吸引力的	-6239
品牌知名	-6240
图灵测试	-6241
外部链接	-6242
多方面的	-6243
多种方式	-6244
学习方式	-6245
学习资源	-6246
定期更新	-6247
实际应用	-6248
客户体验	-6249
客户需求	-6250
对数据的	-6251
工作场所	-6252
市场竞争	-6253
帮助用户	-6254
应用场景	-6255
心肺功能	-6256
心脏疾病	-6257
快速发展	-6258
总体参数	-6259
成千上万	-6260
户外活动	-6261
手工木制	-6262
提供更加	-6263
提高价格	-6264
提高网站	-6265
数据收集	-6266
数组中的	-6267
数量减少	-6268
更准确地	-6269
最喜欢的	-6270
最著名的	-6271
有效沟通	-6272
材料制成	-6273
杠杆原理	-6274
枪支暴力	-6275
查理二世	-6276
标点符号	-6277
格底斯堡	-6278
模型进行	-6279
注意力和	-6280
流行文化	-6281
液相色谱	-6282
玩具卡车	-6283
生存环境	-6284
生活成本	-6285
用户输入	-6286
病毒软件	-6287
症状包括	-6288
的三个值	-6289
的人来说	-6290
的相关性	-6291
皇帝凤蝶	-6292
目标用户	-6293
研究人员	-6294
确定您的	-6295
科学研究	-6296
空间管理	-6297
立方体的	-6298
等方法来	-6299
等方面的	-6300
简要介绍	-6301
绿色出行	-6302
网页内容	-6303
考虑使用	-6304
职业发展	-6305
股票市场	-6306
能够减少	-6307
能够有效	-6308
能够适应	-6309
能源消耗	-6310
自我激励	-6311
葛底斯堡	-6312
观看电影	-6313
计算能力	-6314
许多因素	-6315
这一目标	-6316
这些工具	-6317
这些建议	-6318
这些气体	-6319
进行推广	-6320
远程医疗	-6321
逆向工程	-6322
通过分析	-6323
采取行动	-6324
量子力学	-6325
锅中加入	-6326
随时随地	-6327
需要确定	-6328
面包师傅	-6329
页面加载	-6330
预测分析	-6331
风力发电	-6332
Memes	-6333
ative	-6334
atsby	-6335
brush	-6336
reate	-6337
▁John	-6338
▁Tree	-6339
▁more	-6340
▁name	-6341
▁root	-6342
▁some	-6343
▁such	-6344
▁want	-6345
▁webs	-6346
▁一个好的	-6347
▁列出五个	-6348
▁喜马拉雅	-6349
▁平方厘米	-6350
▁找出以下	-6351
▁根据以下	-6352
▁沟通能力	-6353
▁深度学习	-6354
▁计算以下	-6355
▁这个句子	-6356
一个成功的	-6357
一次性塑料	-6358
不交换位置	-6359
中最重要的	-6360
以便我能够	-6361
任美国总统	-6362
传统的政策	-6363
出现的次数	-6364
前所未有的	-6365
区块链技术	-6366
可以有效地	-6367
合适的标题	-6368
因此我无法	-6369
团队领导者	-6370
图片和视频	-6371
多元化投资	-6372
大量数据的	-6373
实现自己的	-6374
客户的问题	-6375
对空气造成	-6376
提供了一种	-6377
数据透视表	-6378
是太阳系中	-6379
更好地应对	-6380
更好地管理	-6381
有助于预防	-6382
正则表达式	-6383
每个人都有	-6384
的医疗保健	-6385
直线的斜率	-6386
自行车比赛	-6387
证据的政策	-6388
这可以通过	-6389
里约热内卢	-6390
需要大量的	-6391
Rashid	-6392
length	-6393
▁inter	-6394
▁there	-6395
▁while	-6396
▁写一个关于	-6397
▁无监督学习	-6398
为您提供帮助	-6399
人工智能系统	-6400
从数据中学习	-6401
以下几个步骤	-6402
免费大学教育	-6403
减少食物浪费	-6404
团队合作精神	-6405
在线购物网站	-6406
在这个过程中	-6407
对您有所帮助	-6408
无家可归人群	-6409
最少的三个值	-6410
根据您的需求	-6411
目标设定计划	-6412
聊天机器人的	-6413
虚拟现实技术	-6414
被广泛应用于	-6415
遥感图像分类	-6416
counter	-6417
otoshop	-6418
▁comple	-6419
▁sorted	-6420
▁创建一个关于	-6421
▁机器学习算法	-6422
维生素和矿物质	-6423
解决问题的能力	-6424
限量版手工木制	-6425
随着时间的推移	-6426
▁Counter	-6427
▁Twitter	-6428
▁Windows	-6429
▁counter	-6430
▁reverse	-6431
▁喜马拉雅山脉的	-6432
是太阳系中离太阳	-6433
的第一个共同祖先	-6434
Instagram	-6435
是一种分布式数据库	-6436
JavaScript	-6437
我是一个人工智能助手	-6438
限量版手工木制玩具卡车	-6439
".	-6440
++	-6441
/(	-6442
AM	-6443
Al	-6444
An	-6445
De	-6446
IM	-6447
IS	-6448
La	-6449
OW	-6450
Or	-6451
[\	-6452
])	-6453
`：	-6454
cm	-6455
co	-6456
ey	-6457
iv	-6458
so	-6459
},	-6460
”、	-6461
▁个	-6462
▁主	-6463
▁到	-6464
▁前	-6465
▁去	-6466
▁安	-6467
▁巴	-6468
▁想	-6469
▁拉	-6470
▁斯	-6471
▁深	-6472
▁火	-6473
▁盐	-6474
▁若	-6475
。#	-6476
一会	-6477
一部	-6478
下方	-6479
不停	-6480
不够	-6481
不时	-6482
不知	-6483
与其	-6484
业和	-6485
两国	-6486
个字	-6487
中所	-6488
临界	-6489
为其	-6490
为我	-6491
为食	-6492
主观	-6493
之中	-6494
之和	-6495
乐园	-6496
乘车	-6497
买了	-6498
二次	-6499
交叉	-6500
交织	-6501
享有	-6502
人数	-6503
以来	-6504
以此	-6505
任期	-6506
会被	-6507
传动	-6508
伤亡	-6509
但在	-6510
低于	-6511
体型	-6512
你有	-6513
供给	-6514
依次	-6515
侵蚀	-6516
便携	-6517
借助	-6518
倡导	-6519
储备	-6520
储蓄	-6521
光能	-6522
克力	-6523
公路	-6524
兴起	-6525
内涵	-6526
农药	-6527
冬天	-6528
冰块	-6529
冲浪	-6530
冷战	-6531
准则	-6532
凭借	-6533
分歧	-6534
初学	-6535
前面	-6536
助记	-6537
劳动	-6538
势能	-6539
化和	-6540
区间	-6541
博士	-6542
原色	-6543
又称	-6544
及性	-6545
及物	-6546
反射	-6547
发光	-6548
取代	-6549
取消	-6550
变异	-6551
可变	-6552
后来	-6553
呼啸	-6554
和多	-6555
和对	-6556
和弦	-6557
和金	-6558
品和	-6559
哈利	-6560
哪里	-6561
商为	-6562
噪音	-6563
回了	-6564
回顾	-6565
因其	-6566
土星	-6567
地位	-6568
地铁	-6569
增大	-6570
多余	-6571
多多	-6572
夜间	-6573
大力	-6574
大战	-6575
大洋	-6576
奇幻	-6577
奖金	-6578
奖项	-6579
她是	-6580
好了	-6581
字塔	-6582
字幕	-6583
官方	-6584
实行	-6585
容量	-6586
宽为	-6587
宾语	-6588
密切	-6589
寓意	-6590
对应	-6591
导师	-6592
寿命	-6593
射性	-6594
小镇	-6595
尾巴	-6596
山顶	-6597
差距	-6598
帐篷	-6599
并向	-6600
并将	-6601
幸运	-6602
店员	-6603
开展	-6604
开来	-6605
开源	-6606
引号	-6607
当他	-6608
当您	-6609
彩虹	-6610
影像	-6611
得以	-6612
微风	-6613
性地	-6614
您要	-6615
意面	-6616
感官	-6617
愤怒	-6618
愿望	-6619
成人	-6620
成立	-6621
截距	-6622
手中	-6623
手术	-6624
打击	-6625
扩张	-6626
扩散	-6627
把它	-6628
抛体	-6629
报道	-6630
押韵	-6631
抽样	-6632
拍照	-6633
拓宽	-6634
拓展	-6635
指控	-6636
指示	-6637
捍卫	-6638
排除	-6639
推导	-6640
推行	-6641
推进	-6642
擅长	-6643
收获	-6644
收藏	-6645
改用	-6646
散射	-6647
整除	-6648
文森	-6649
料和	-6650
旁边	-6651
早晨	-6652
早期	-6653
时代	-6654
明媚	-6655
是个	-6656
是将	-6657
是无	-6658
景色	-6659
景象	-6660
暂时	-6661
更低	-6662
更少	-6663
更能	-6664
最长	-6665
朗玛	-6666
朴素	-6667
机组	-6668
架构	-6669
某一	-6670
标注	-6671
树上	-6672
树的	-6673
根本	-6674
梦境	-6675
梵高	-6676
检验	-6677
森堡	-6678
欧盟	-6679
歌手	-6680
正直	-6681
比亚	-6682
毕业	-6683
民众	-6684
气氛	-6685
沿着	-6686
洗衣	-6687
洞察	-6688
测验	-6689
消极	-6690
深受	-6691
温带	-6692
游客	-6693
游泳	-6694
演员	-6695
灯泡	-6696
炒饭	-6697
点和	-6698
热烈	-6699
焚烧	-6700
煎至	-6701
煮熟	-6702
燃油	-6703
爱与	-6704
片段	-6705
牙刷	-6706
牙齿	-6707
物价	-6708
特色	-6709
犯下	-6710
现状	-6711
甜味	-6712
生涯	-6713
甲烷	-6714
电源	-6715
画廊	-6716
病历	-6717
痕迹	-6718
痛苦	-6719
癌症	-6720
白天	-6721
的中	-6722
的刺	-6723
的心	-6724
的水	-6725
盗窃	-6726
相应	-6727
相当	-6728
眼神	-6729
着一	-6730
矩形	-6731
确切	-6732
碳水	-6733
碳酸	-6734
磁场	-6735
祝福	-6736
种群	-6737
租金	-6738
空调	-6739
穿梭	-6740
童话	-6741
第四	-6742
签署	-6743
精细	-6744
繁琐	-6745
级的	-6746
线上	-6747
给你	-6748
绝望	-6749
维修	-6750
编制	-6751
网址	-6752
美景	-6753
耗尽	-6754
聆听	-6755
肢体	-6756
育种	-6757
脱毛	-6758
脱颖	-6759
芯片	-6760
荒漠	-6761
荷兰	-6762
菲尔	-6763
葫芦	-6764
蒙娜	-6765
蒜末	-6766
藤蔓	-6767
蛾子	-6768
融资	-6769
行乐	-6770
街头	-6771
衰退	-6772
装备	-6773
西藏	-6774
西部	-6775
观测	-6776
触摸	-6777
警方	-6778
让她	-6779
设为	-6780
设有	-6781
访客	-6782
诉讼	-6783
语义	-6784
走出	-6785
超越	-6786
身影	-6787
身边	-6788
轨迹	-6789
转动	-6790
辣椒	-6791
边缘	-6792
过上	-6793
过期	-6794
过来	-6795
近似	-6796
还要	-6797
这使	-6798
这条	-6799
适用	-6800
递增	-6801
通用	-6802
速小	-6803
遗址	-6804
那只	-6805
邻居	-6806
都为	-6807
配合	-6808
里昂	-6809
里面	-6810
锤子	-6811
间接	-6812
降解	-6813
陪伴	-6814
难度	-6815
震撼	-6816
非凡	-6817
面条	-6818
革新	-6819
韧的	-6820
音箱	-6821
顶尖	-6822
顶部	-6823
预热	-6824
频率	-6825
食性	-6826
食肉	-6827
餐馆	-6828
馅料	-6829
首次	-6830
首页	-6831
香氛	-6832
骑行	-6833
鸟鸣	-6834
麻烦	-6835
）=	-6836
'))	-6837
...	-6838
::=	-6839
ABC	-6840
Sam	-6841
TCP	-6842
alk	-6843
aqu	-6844
cis	-6845
ets	-6846
ice	-6847
ict	-6848
ien	-6849
ies	-6850
ild	-6851
ley	-6852
lia	-6853
lic	-6854
log	-6855
now	-6856
ody	-6857
off	-6858
old	-6859
rom	-6860
rop	-6861
tal	-6862
tel	-6863
ude	-6864
way	-6865
”、“	-6866
▁La	-6867
▁To	-6868
▁bu	-6869
▁dp	-6870
▁go	-6871
▁lo	-6872
▁mm	-6873
▁mx	-6874
▁po	-6875
▁up	-6876
▁we	-6877
▁人类	-6878
▁今天	-6879
▁价格	-6880
▁你好	-6881
▁具体	-6882
▁函数	-6883
▁分享	-6884
▁创新	-6885
▁创造	-6886
▁删除	-6887
▁加强	-6888
▁包括	-6889
▁及时	-6890
▁句子	-6891
▁同事	-6892
▁命名	-6893
▁地球	-6894
▁实验	-6895
▁工业	-6896
▁开始	-6897
▁投资	-6898
▁按照	-6899
▁搜索	-6900
▁改变	-6901
▁文化	-6902
▁旅行	-6903
▁明确	-6904
▁春天	-6905
▁更新	-6906
▁曾经	-6907
▁汽车	-6908
▁环保	-6909
▁目前	-6910
▁社交	-6911
▁管理	-6912
▁经过	-6913
▁编辑	-6914
▁自由	-6915
▁计划	-6916
▁说出	-6917
▁跟踪	-6918
▁这样	-6919
▁这道	-6920
▁这里	-6921
▁递归	-6922
▁除以	-6923
▁面积	-6924
▁食物	-6925
一会儿	-6926
一部分	-6927
三个词	-6928
上一层	-6929
上进行	-6930
不公正	-6931
不起的	-6932
与您的	-6933
个国家	-6934
中加入	-6935
临界点	-6936
为学生	-6937
主人的	-6938
主要的	-6939
乐观的	-6940
了如何	-6941
了很多	-6942
人之一	-6943
亿美元	-6944
介绍了	-6945
代表了	-6946
以人为	-6947
以减少	-6948
件物品	-6949
企业家	-6950
传粉者	-6951
但是我	-6952
你能够	-6953
信用卡	-6954
做一些	-6955
全面的	-6956
公因数	-6957
关键点	-6958
兴趣和	-6959
具有很	-6960
典型的	-6961
内容是	-6962
决策和	-6963
分布在	-6964
创新性	-6965
初始化	-6966
初学者	-6967
制造业	-6968
加利福	-6969
加速度	-6970
劳动力	-6971
包括了	-6972
原产于	-6973
友好的	-6974
发挥着	-6975
发现了	-6976
古老的	-6977
可能对	-6978
可能性	-6979
吃午饭	-6980
各自的	-6981
各行各	-6982
呼吸道	-6983
和促销	-6984
和准备	-6985
和印度	-6986
和城市	-6987
和安全	-6988
和工作	-6989
和放松	-6990
和目的	-6991
和谐与	-6992
和颜色	-6993
咖啡店	-6994
咖啡豆	-6995
咖啡馆	-6996
唯一的	-6997
在人生	-6998
在使用	-6999
在未来	-7000
在特定	-7001
在网上	-7002
在那里	-7003
地中海	-7004
地区和	-7005
型文本	-7006
增加了	-7007
大碗中	-7008
天空中	-7009
她开始	-7010
委员会	-7011
子树中	-7012
它旨在	-7013
定义为	-7014
实现了	-7015
客户对	-7016
家庭的	-7017
容忽视	-7018
对世界	-7019
对学生	-7020
对植物	-7021
尊重和	-7022
小兔子	-7023
小男孩	-7024
尼西亚	-7025
层次的	-7026
层负责	-7027
属性和	-7028
巧克力	-7029
常用于	-7030
年代的	-7031
年数据	-7032
并做出	-7033
并分析	-7034
并及时	-7035
并建立	-7036
并释放	-7037
序列的	-7038
应该是	-7039
开始时	-7040
引人注	-7041
很乐意	-7042
快乐和	-7043
快节奏	-7044
快速的	-7045
怎么样	-7046
情绪和	-7047
我们要	-7048
我建议	-7049
或减少	-7050
或设备	-7051
或金属	-7052
房子的	-7053
房屋的	-7054
所以它	-7055
找一个	-7056
投资于	-7057
拟人化	-7058
持续了	-7059
指定的	-7060
探索和	-7061
摄像头	-7062
放射性	-7063
文森特	-7064
新技术	-7065
方式来	-7066
旅途中	-7067
明显的	-7068
是一件	-7069
是一幅	-7070
是一本	-7071
是两个	-7072
智慧和	-7073
暴风雨	-7074
曝光度	-7075
更多人	-7076
更新为	-7077
最多的	-7078
最大化	-7079
最小值	-7080
最终的	-7081
最适合	-7082
有大量	-7083
服务员	-7084
村民们	-7085
条形图	-7086
来减少	-7087
来识别	-7088
样式表	-7089
森林的	-7090
此代码	-7091
比如说	-7092
活动中	-7093
涡轮机	-7094
温暖和	-7095
游戏和	-7096
烤箱中	-7097
然后用	-7098
生物学	-7099
生物的	-7100
生物群	-7101
用户名	-7102
用电量	-7103
疫情对	-7104
的一部	-7105
的人物	-7106
的作品	-7107
的决定	-7108
的后果	-7109
的味道	-7110
的大小	-7111
的导数	-7112
的平衡	-7113
的开始	-7114
的形象	-7115
的态度	-7116
的情绪	-7117
的操作	-7118
的效果	-7119
的数学	-7120
的文件	-7121
的文化	-7122
的旅行	-7123
的最佳	-7124
的水果	-7125
的潜在	-7126
的知识	-7127
的经历	-7128
的网站	-7129
的范围	-7130
的语法	-7131
的运行	-7132
的随机	-7133
的首都	-7134
盒测试	-7135
真正的	-7136
确定的	-7137
离开了	-7138
私有云	-7139
科学的	-7140
程序法	-7141
空气中	-7142
类定义	-7143
精美的	-7144
绿色的	-7145
美国和	-7146
胡椒粉	-7147
能提供	-7148
脂牛奶	-7149
航天局	-7150
艺术品	-7151
草地上	-7152
蓝色的	-7153
行业的	-7154
视频或	-7155
计算出	-7156
认为是	-7157
让人们	-7158
质量为	-7159
资源的	-7160
赢得了	-7161
转换成	-7162
软件的	-7163
轻松地	-7164
过拟合	-7165
还包括	-7166
适应性	-7167
通常在	-7168
通常指	-7169
速度和	-7170
逻辑门	-7171
都属于	-7172
金黄色	-7173
银行或	-7174
问题或	-7175
隐藏层	-7176
零售商	-7177
需要我	-7178
青少年	-7179
非常高	-7180
面对面	-7181
鞋子和	-7182
音速小	-7183
项研究	-7184
预测或	-7185
香草精	-7186
鱼类的	-7187
）+（	-7188
---|	-7189
ARCH	-7190
HTTP	-7191
aint	-7192
ator	-7193
gram	-7194
ines	-7195
irst	-7196
lect	-7197
loat	-7198
math	-7199
orry	-7200
ound	-7201
page	-7202
rand	-7203
rove	-7204
▁::=	-7205
▁API	-7206
▁Now	-7207
▁eas	-7208
▁end	-7209
▁gre	-7210
▁how	-7211
▁its	-7212
▁out	-7213
▁个性化	-7214
▁什么是	-7215
▁字符串	-7216
▁热力学	-7217
▁请提供	-7218
▁这个词	-7219
三维模型	-7220
不仅仅是	-7221
不可篡改	-7222
不断优化	-7223
不良影响	-7224
两个数字	-7225
两种宗教	-7226
严重影响	-7227
中国西藏	-7228
中的元素	-7229
中的角色	-7230
为未来的	-7231
之间存在	-7232
也受到了	-7233
也是一个	-7234
也是一种	-7235
也有一些	-7236
书籍推荐	-7237
了不起的	-7238
交叉验证	-7239
交通系统	-7240
产生影响	-7241
产生积极	-7242
从失败中	-7243
从而提高	-7244
他们可能	-7245
价格上涨	-7246
会聚边界	-7247
但不限于	-7248
作为输入	-7249
使用它们	-7250
保持冷静	-7251
元素周期	-7252
充分利用	-7253
充满活力	-7254
全球贸易	-7255
全麦面包	-7256
其他问题	-7257
冰盖融化	-7258
利安走向	-7259
加密技术	-7260
十进制数	-7261
去中心化	-7262
及物动词	-7263
发现自己	-7264
可以分为	-7265
可以同时	-7266
可以增强	-7267
可以大大	-7268
可以改善	-7269
可以让您	-7270
可以采用	-7271
可以锻炼	-7272
可靠性和	-7273
各行各业	-7274
吸引用户	-7275
周围环境	-7276
商业领域	-7277
因为它们	-7278
图形元素	-7279
她的朋友	-7280
学习体验	-7281
安全可靠	-7282
安全措施	-7283
安排时间	-7284
定期锻炼	-7285
实际需求	-7286
工作经验	-7287
平板电脑	-7288
并将它们	-7289
建立联系	-7290
建筑材料	-7291
开发团队	-7292
您的博客	-7293
慢性疾病	-7294
执行任务	-7295
技术趋势	-7296
投资组合	-7297
抗氧化剂	-7298
括号内的	-7299
指数增长	-7300
接受一个	-7301
控制体重	-7302
数学方程	-7303
数据存储	-7304
数据结构	-7305
文本中的	-7306
方便快捷	-7307
日益严峻	-7308
是正确的	-7309
智能助手	-7310
更多信息	-7311
更多的人	-7312
最小元素	-7313
最高法院	-7314
未经授权	-7315
机器人的	-7316
机组人员	-7317
每个人的	-7318
比较不同	-7319
水力发电	-7320
沿海城市	-7321
消化系统	-7322
消费习惯	-7323
消费者的	-7324
渗透过程	-7325
满意度和	-7326
珠穆朗玛	-7327
生产商品	-7328
生物学家	-7329
用户可以	-7330
用户数据	-7331
的一部分	-7332
的可能性	-7333
的时间和	-7334
的时间线	-7335
的首都是	-7336
硬件配置	-7337
确保所有	-7338
社会责任	-7339
离性障碍	-7340
私人汽车	-7341
策略应当	-7342
简要描述	-7343
算法可以	-7344
经济实惠	-7345
绿色能源	-7346
网站设计	-7347
翻炒均匀	-7348
能源效率	-7349
脱颖而出	-7350
自主学习	-7351
自我意识	-7352
获得更多	-7353
营养成分	-7354
蒙娜丽莎	-7355
虚拟世界	-7356
蛋糕模具	-7357
警察暴力	-7358
计算模型	-7359
计算资源	-7360
让孩子们	-7361
设计标志	-7362
诊断疾病	-7363
语音助手	-7364
调性音阶	-7365
负责管理	-7366
财务规划	-7367
越来越多	-7368
输出结果	-7369
过程中的	-7370
这个短语	-7371
这样才能	-7372
这项技术	-7373
进行交流	-7374
进行实时	-7375
进行比较	-7376
远程工作	-7377
连接起来	-7378
适应能力	-7379
避免使用	-7380
那么它的	-7381
重复利用	-7382
长期暴露	-7383
阅读书籍	-7384
预测未来	-7385
餐厅提供	-7386
Adele	-7387
False	-7388
Phone	-7389
Sport	-7390
anced	-7391
apple	-7392
athan	-7393
order	-7394
prime	-7395
▁FROM	-7396
▁Taqu	-7397
▁curr	-7398
▁from	-7399
▁most	-7400
▁next	-7401
▁spec	-7402
▁them	-7403
▁they	-7404
▁以上就是	-7405
▁作为一名	-7406
▁全球变暖	-7407
▁列出三个	-7408
▁列出五种	-7409
▁创作一首	-7410
▁可以使用	-7411
▁应用程序	-7412
▁当然可以	-7413
▁总而言之	-7414
▁描述一种	-7415
▁提高效率	-7416
▁简单来说	-7417
▁给定一组	-7418
▁设计思维	-7419
▁这个故事	-7420
▁选择一个	-7421
▁除此之外	-7422
世界各地的	-7423
了解他们的	-7424
以下是一个	-7425
做出明智的	-7426
全球范围内	-7427
化学工程师	-7428
可以为企业	-7429
可以通过对	-7430
可能会影响	-7431
含有丰富的	-7432
周围的环境	-7433
和其他动物	-7434
团队成员的	-7435
国家和地区	-7436
墨西哥餐厅	-7437
完成的任务	-7438
客服代表应	-7439
帮助您确定	-7440
建立良好的	-7441
您可以考虑	-7442
您可以通过	-7443
我们可以用	-7444
所以我无法	-7445
技术在教育	-7446
提供优质的	-7447
提供的信息	-7448
数据的分析	-7449
文章的内容	-7450
无机化合物	-7451
是很重要的	-7452
最高的山峰	-7453
有什么区别	-7454
有说服力的	-7455
机器人伦理	-7456
植物的生长	-7457
清晰的目标	-7458
焦虑和抑郁	-7459
电子邮件和	-7460
的主要原因	-7461
的主要观点	-7462
的数据结构	-7463
的文本处理	-7464
的解决方案	-7465
目标客户群	-7466
碳水化合物	-7467
移动应用的	-7468
算法来找到	-7469
结构和功能	-7470
给定的句子	-7471
而实例方法	-7472
能够有效地	-7473
表达自己的	-7474
规则型文本	-7475
计算机网络	-7476
计算机视觉	-7477
软件工程师	-7478
这样我才能	-7479
释放内啡肽	-7480
重要的影响	-7481
需要更多的	-7482
鞋子和配件	-7483
......	-7484
ARCHAR	-7485
ctator	-7486
ctions	-7487
profit	-7488
▁Adele	-7489
▁Linux	-7490
▁Tooth	-7491
▁array	-7492
▁input	-7493
▁sorry	-7494
▁total	-7495
▁以下是一些	-7496
▁以下是一份	-7497
▁比较和对比	-7498
中国西藏自治	-7499
优秀的领导者	-7500
促进经济增长	-7501
列表进行排序	-7502
包括但不限于	-7503
医疗保健领域	-7504
取得了巨大的	-7505
可以通过分析	-7506
可重复使用的	-7507
在这个世界里	-7508
实现人工智能	-7509
对环境的污染	-7510
您提供的信息	-7511
搜索引擎排名	-7512
文章的可读性	-7513
活动现金流量	-7514
电子商务网站	-7515
移动应用程序	-7516
这可能会导致	-7517
造成了巨大的	-7518
面部识别技术	-7519
页面加载速度	-7520
udience	-7521
▁SELECT	-7522
▁report	-7523
▁transl	-7524
▁一个应用程序	-7525
▁在一个遥远的	-7526
▁在这种情况下	-7527
一个成功的经理	-7528
了不起的盖茨比	-7529
使用可再生能源	-7530
减轻压力和焦虑	-7531
古典主义世界观	-7532
吸引更多的流量	-7533
基于传统的政策	-7534
对空气造成污染	-7535
社交媒体上分享	-7536
转换为十六进制	-7537
Sportify	-7538
anagrams	-7539
▁VARCHAR	-7540
▁context	-7541
▁example	-7542
▁greater	-7543
▁健康的生活方式	-7544
利安走向公交车站	-7545
我是一个语言模型	-7546
▁Facebook	-7547
▁Taqueria	-7548
▁下面是一个简单的	-7549
▁Analytics	-7550
▁yesterday	-7551
人工智能可以帮助医生	-7552
▁Toothbrush	-7553
▁作为一个人工智能助手	-7554
基于深度学习的文本处理	-7555
"]	-7556
'(	-7557
)+	-7558
,-	-7559
.《	-7560
="	-7561
CM	-7562
Cl	-7563
DA	-7564
ET	-7565
IP	-7566
IT	-7567
Ne	-7568
RE	-7569
St	-7570
Su	-7571
UI	-7572
VM	-7573
Wi	-7574
]+	-7575
]:	-7576
]。	-7577
az	-7578
be	-7579
di	-7580
ik	-7581
iā	-7582
js	-7583
mo	-7584
pl	-7585
ps	-7586
ty	-7587
▁五	-7588
▁但	-7589
▁再	-7590
▁发	-7591
▁四	-7592
▁圣	-7593
▁天	-7594
▁威	-7595
▁就	-7596
▁按	-7597
▁无	-7598
▁猪	-7599
▁由	-7600
▁秋	-7601
▁设	-7602
▁走	-7603
▁黄	-7604
一双	-7605
一句	-7606
一周	-7607
一支	-7608
一来	-7609
一棵	-7610
一款	-7611
七岁	-7612
丈夫	-7613
三件	-7614
上学	-7615
上班	-7616
下去	-7617
下的	-7618
下载	-7619
不佳	-7620
不挠	-7621
不易	-7622
不被	-7623
不适	-7624
与您	-7625
专门	-7626
两位	-7627
两条	-7628
两栖	-7629
两类	-7630
丧失	-7631
中断	-7632
为真	-7633
为空	-7634
主意	-7635
主流	-7636
丽叶	-7637
久性	-7638
之不	-7639
之差	-7640
乘法	-7641
也为	-7642
买入	-7643
争端	-7644
事业	-7645
亚当	-7646
交付	-7647
产业	-7648
产权	-7649
亲自	-7650
人对	-7651
人称	-7652
他会	-7653
代替	-7654
以免	-7655
以防	-7656
优良	-7657
会后	-7658
会给	-7659
会计	-7660
会让	-7661
伞柄	-7662
伤口	-7663
伪装	-7664
但她	-7665
住着	-7666
作物	-7667
你在	-7668
依然	-7669
保守	-7670
保险	-7671
修正	-7672
偏好	-7673
做到	-7674
全局	-7675
全部	-7676
共产	-7677
共处	-7678
内角	-7679
农村	-7680
决心	-7681
减去	-7682
几年	-7683
出版	-7684
出错	-7685
出门	-7686
划线	-7687
刚刚	-7688
创伤	-7689
别人	-7690
到最	-7691
制的	-7692
前十	-7693
剥夺	-7694
力臂	-7695
办法	-7696
办理	-7697
加勒	-7698
动能	-7699
勃勃	-7700
勇于	-7701
包容	-7702
华丽	-7703
协同	-7704
单调	-7705
南北	-7706
博主	-7707
卡尔	-7708
卡路	-7709
厕所	-7710
原本	-7711
原来	-7712
厨房	-7713
去除	-7714
及格	-7715
反抗	-7716
发烧	-7717
受伤	-7718
变换	-7719
变软	-7720
口腔	-7721
口语	-7722
可供	-7723
可见	-7724
可达	-7725
叶子	-7726
各有	-7727
各类	-7728
合适	-7729
名言	-7730
后悔	-7731
后面	-7732
吧台	-7733
听觉	-7734
启示	-7735
命运	-7736
和头	-7737
和海	-7738
和糖	-7739
和菲	-7740
哮喘	-7741
唐纳	-7742
售价	-7743
喉咙	-7744
回馈	-7745
困惑	-7746
国庆	-7747
在了	-7748
在该	-7749
地带	-7750
地热	-7751
地说	-7752
均值	-7753
坐标	-7754
堆肥	-7755
填充	-7756
墙壁	-7757
增进	-7758
士山	-7759
壳层	-7760
备受	-7761
外套	-7762
多年	-7763
大写	-7764
太平	-7765
夫斯	-7766
奇数	-7767
奋斗	-7768
女士	-7769
如水	-7770
姐妹	-7771
姜黄	-7772
孔雀	-7773
孤单	-7774
孤立	-7775
它与	-7776
完毕	-7777
家中	-7778
家和	-7779
宽松	-7780
射在	-7781
少许	-7782
尔尼	-7783
就医	-7784
尾气	-7785
层叠	-7786
巨浪	-7787
师生	-7788
年人	-7789
年至	-7790
幼崽	-7791
底比	-7792
底部	-7793
建构	-7794
开采	-7795
引领	-7796
弗吉	-7797
弹劾	-7798
弹性	-7799
当天	-7800
很久	-7801
得对	-7802
心率	-7803
心肌	-7804
怀疑	-7805
怪物	-7806
恐怖	-7807
患有	-7808
您好	-7809
您应	-7810
悬崖	-7811
惊叹	-7812
惊喜	-7813
惊讶	-7814
感动	-7815
慢跑	-7816
憧憬	-7817
成了	-7818
成熟	-7819
我能	-7820
或从	-7821
或水	-7822
或缺	-7823
截图	-7824
戴尔	-7825
所能	-7826
打包	-7827
打粉	-7828
批准	-7829
技法	-7830
投影	-7831
护士	-7832
抵御	-7833
担任	-7834
拉克	-7835
拔下	-7836
招呼	-7837
指出	-7838
指向	-7839
挖矿	-7840
捐赠	-7841
捕食	-7842
探测	-7843
推断	-7844
插头	-7845
揭示	-7846
援助	-7847
撤离	-7848
支架	-7849
改编	-7850
救赎	-7851
教程	-7852
数列	-7853
数百	-7854
敲打	-7855
文稿	-7856
文鱼	-7857
料理	-7858
断电	-7859
新兴	-7860
新颖	-7861
既能	-7862
日出	-7863
日至	-7864
时不	-7865
时段	-7866
昨天	-7867
晚饭	-7868
更深	-7869
有人	-7870
有点	-7871
服饰	-7872
朝着	-7873
期刊	-7874
末尾	-7875
本质	-7876
机中	-7877
机动	-7878
机和	-7879
机等	-7880
权重	-7881
来为	-7882
杰出	-7883
极为	-7884
林格	-7885
果汁	-7886
树枝	-7887
校园	-7888
样品	-7889
核桃	-7890
格局	-7891
梳理	-7892
植被	-7893
榜样	-7894
比例	-7895
比海	-7896
比萨	-7897
毫不	-7898
气压	-7899
求出	-7900
求和	-7901
沉浸	-7902
沙漠	-7903
没错	-7904
河道	-7905
治愈	-7906
法语	-7907
波兰	-7908
泰国	-7909
流入	-7910
海伦	-7911
海报	-7912
消防	-7913
淀粉	-7914
淋浴	-7915
深沉	-7916
混淆	-7917
清水	-7918
湖边	-7919
滑动	-7920
漂亮	-7921
漫长	-7922
火势	-7923
火灾	-7924
灵长	-7925
炉灶	-7926
炎症	-7927
点点	-7928
烤盘	-7929
烧开	-7930
然一	-7931
熟透	-7932
燕麦	-7933
爱心	-7934
特效	-7935
特的	-7936
犹豫	-7937
猎豹	-7938
现有	-7939
玻璃	-7940
珠宝	-7941
球门	-7942
生意	-7943
生抽	-7944
生病	-7945
用作	-7946
用例	-7947
画中	-7948
疑人	-7949
疗法	-7950
的五	-7951
的吗	-7952
的州	-7953
的数	-7954
的爱	-7955
的表	-7956
的门	-7957
目光	-7958
直观	-7959
省钱	-7960
看待	-7961
看看	-7962
真诚	-7963
着迷	-7964
短短	-7965
短篇	-7966
碎片	-7967
礼物	-7968
祝你	-7969
祝您	-7970
禁区	-7971
科夫	-7972
移到	-7973
稀缺	-7974
穿上	-7975
窃取	-7976
笑容	-7977
笔触	-7978
等式	-7979
筛选	-7980
签名	-7981
签订	-7982
简约	-7983
类和	-7984
粉色	-7985
粒子	-7986
粮食	-7987
精湛	-7988
繁多	-7989
繁星	-7990
纪人	-7991
纪念	-7992
纯净	-7993
纸牌	-7994
细菌	-7995
结账	-7996
维亚	-7997
绿植	-7998
缓慢	-7999
罗勒	-8000
翱翔	-8001
而过	-8002
肠道	-8003
肥胖	-8004
肺炎	-8005
肺癌	-8006
肺部	-8007
背包	-8008
能在	-8009
能等	-8010
能被	-8011
脚踏	-8012
脱离	-8013
脸上	-8014
膳食	-8015
至今	-8016
艰辛	-8017
色素	-8018
芒果	-8019
芦笋	-8020
英文	-8021
草原	-8022
草药	-8023
荣誉	-8024
获奖	-8025
蓝图	-8026
蔓延	-8027
蘑菇	-8028
蛋饼	-8029
蠕虫	-8030
血糖	-8031
行事	-8032
衣服	-8033
被我	-8034
被迫	-8035
西兰	-8036
见过	-8037
角落	-8038
解放	-8039
警告	-8040
订阅	-8041
认可	-8042
讽刺	-8043
证实	-8044
详情	-8045
语境	-8046
误差	-8047
请问	-8048
谈判	-8049
账本	-8050
质地	-8051
贫富	-8052
起了	-8053
起到	-8054
越南	-8055
足球	-8056
身处	-8057
车道	-8058
转向	-8059
轻便	-8060
较小	-8061
较短	-8062
较长	-8063
辨认	-8064
辩论	-8065
达成	-8066
迁移	-8067
过着	-8068
过高	-8069
还在	-8070
这么	-8071
这会	-8072
这名	-8073
这群	-8074
进攻	-8075
远处	-8076
远离	-8077
迟到	-8078
迷失	-8079
退化	-8080
送到	-8081
逆差	-8082
逐步	-8083
通货	-8084
遭受	-8085
部位	-8086
都将	-8087
都很	-8088
都被	-8089
酒精	-8090
量等	-8091
金星	-8092
金钱	-8093
钢铁	-8094
铃声	-8095
锅里	-8096
错过	-8097
长笛	-8098
间的	-8099
队伍	-8100
阶乘	-8101
阻止	-8102
阻碍	-8103
陆地	-8104
降序	-8105
难民	-8106
雄性	-8107
雅图	-8108
雕塑	-8109
雨中	-8110
雨天	-8111
面前	-8112
面团	-8113
面料	-8114
频繁	-8115
风情	-8116
食道	-8117
饮用	-8118
饱和	-8119
香肠	-8120
鸟语	-8121
默认	-8122
默默	-8123
鼓舞	-8124
！”	-8125
％。	-8126
）/	-8127
，`	-8128
？"	-8129
!",	-8130
"))	-8131
)*(	-8132
)/(	-8133
AWS	-8134
IBM	-8135
Red	-8136
Tom	-8137
ain	-8138
arn	-8139
ars	-8140
bal	-8141
dec	-8142
dit	-8143
ell	-8144
els	-8145
eon	-8146
for	-8147
ger	-8148
ian	-8149
ich	-8150
ire	-8151
ise	-8152
itt	-8153
jor	-8154
lie	-8155
lig	-8156
mic	-8157
mit	-8158
ood	-8159
opy	-8160
rot	-8161
ten	-8162
tle	-8163
vid	-8164
▁As	-8165
▁Ch	-8166
▁Co	-8167
▁II	-8168
▁My	-8169
▁Oh	-8170
▁Ph	-8171
▁TO	-8172
▁cl	-8173
▁fe	-8174
▁hi	-8175
▁ph	-8176
▁sc	-8177
▁sk	-8178
▁sp	-8179
▁√(	-8180
▁上午	-8181
▁不过	-8182
▁乘客	-8183
▁介绍	-8184
▁从那	-8185
▁他们	-8186
▁休息	-8187
▁估计	-8188
▁你的	-8189
▁保护	-8190
▁列表	-8191
▁勇气	-8192
▁呼吸	-8193
▁商品	-8194
▁城市	-8195
▁增加	-8196
▁处理	-8197
▁夏日	-8198
▁大蒜	-8199
▁大调	-8200
▁姓名	-8201
▁存储	-8202
▁安装	-8203
▁容器	-8204
▁富含	-8205
▁市场	-8206
▁帐篷	-8207
▁年后	-8208
▁当前	-8209
▁感谢	-8210
▁成功	-8211
▁打开	-8212
▁推荐	-8213
▁撰写	-8214
▁政府	-8215
▁数字	-8216
▁文章	-8217
▁无法	-8218
▁日本	-8219
▁早上	-8220
▁更加	-8221
▁查询	-8222
▁概述	-8223
▁模拟	-8224
▁每个	-8225
▁每天	-8226
▁水果	-8227
▁活动	-8228
▁添加	-8229
▁清晰	-8230
▁电影	-8231
▁睡眠	-8232
▁睡袋	-8233
▁第三	-8234
▁给我	-8235
▁维护	-8236
▁节省	-8237
▁英国	-8238
▁获得	-8239
▁讨论	-8240
▁讲述	-8241
▁设置	-8242
▁这家	-8243
▁采用	-8244
▁镜头	-8245
▁防护	-8246
▁阳光	-8247
▁饰演	-8248
▁鸡肉	-8249
一个点	-8250
一个被	-8251
一致性	-8252
一起去	-8253
不仅能	-8254
不再是	-8255
不可能	-8256
不同于	-8257
不存在	-8258
不满意	-8259
且具有	-8260
个数字	-8261
中找到	-8262
中没有	-8263
中进行	-8264
为人知	-8265
为患者	-8266
主要有	-8267
也开始	-8268
了一项	-8269
了他们	-8270
了大量	-8271
事实或	-8272
五度圆	-8273
五边形	-8274
亚当斯	-8275
亚洲和	-8276
人类对	-8277
从一个	-8278
从那天	-8279
以应对	-8280
优美的	-8281
会带来	-8282
会通过	-8283
伟大的	-8284
传感器	-8285
位置的	-8286
体现了	-8287
体现在	-8288
余数为	-8289
你应该	-8290
使他们	-8291
使用和	-8292
使用户	-8293
便携式	-8294
保存在	-8295
保守派	-8296
保持对	-8297
修饰语	-8298
倾向于	-8299
全世界	-8300
公共云	-8301
关联性	-8302
兴奋地	-8303
其他的	-8304
内在的	-8305
再加入	-8306
准确率	-8307
出来的	-8308
分查找	-8309
分配给	-8310
分钟的	-8311
切好的	-8312
列表的	-8313
则返回	-8314
创作的	-8315
创建新	-8316
创立了	-8317
制造商	-8318
动物园	-8319
千克的	-8320
单元格	-8321
卡路里	-8322
厘米和	-8323
反映了	-8324
发展的	-8325
发现新	-8326
变量和	-8327
另一种	-8328
只小猪	-8329
可根据	-8330
可用性	-8331
可用来	-8332
可用的	-8333
名字叫	-8334
吸引着	-8335
告诉您	-8336
和一个	-8337
和他的	-8338
和内容	-8339
和冲突	-8340
和反馈	-8341
和土壤	-8342
和大蒜	-8343
和家人	-8344
和布局	-8345
和投资	-8346
和未来	-8347
和设备	-8348
和资源	-8349
和软件	-8350
和预测	-8351
咖喱粉	-8352
喜欢在	-8353
图像的	-8354
在不同	-8355
在其中	-8356
在处理	-8357
在当下	-8358
在某些	-8359
在疫情	-8360
在这一	-8361
在阅读	-8362
地使用	-8363
塔芝士	-8364
增长率	-8365
外星球	-8366
大猩猩	-8367
大蒜和	-8368
太平洋	-8369
如何在	-8370
学习的	-8371
它主要	-8372
它位于	-8373
它具有	-8374
它拥有	-8375
完毕后	-8376
完美的	-8377
实用的	-8378
对您的	-8379
将更加	-8380
将获得	-8381
小时的	-8382
小王子	-8383
屈不挠	-8384
展现了	-8385
展现出	-8386
市中心	-8387
市场和	-8388
希望能	-8389
平台上	-8390
平均值	-8391
平均数	-8392
并从中	-8393
并可能	-8394
并吸引	-8395
并调整	-8396
广泛的	-8397
应该有	-8398
底比斯	-8399
废物的	-8400
建立了	-8401
建筑物	-8402
引发了	-8403
很多人	-8404
很好地	-8405
得商为	-8406
性能和	-8407
总线型	-8408
愉快的	-8409
意思是	-8410
感冒和	-8411
我们会	-8412
我认为	-8413
或感染	-8414
或朋友	-8415
或程序	-8416
截止到	-8417
所创建	-8418
所在的	-8419
打电话	-8420
技巧和	-8421
技术对	-8422
探索性	-8423
接触到	-8424
描绘了	-8425
摩擦力	-8426
收件人	-8427
政府对	-8428
文件的	-8429
新鲜的	-8430
方便地	-8431
方式和	-8432
旅行者	-8433
时尚的	-8434
明确的	-8435
是基于	-8436
是如何	-8437
显示器	-8438
暗反应	-8439
更安全	-8440
更重要	-8441
最优解	-8442
有帮助	-8443
有引力	-8444
有机会	-8445
本文将	-8446
朱丽叶	-8447
来保证	-8448
来增强	-8449
来学习	-8450
来支持	-8451
来衡量	-8452
标准的	-8453
模式和	-8454
欢快地	-8455
每一层	-8456
每一项	-8457
氮氧化	-8458
水分子	-8459
水平的	-8460
水果和	-8461
水果干	-8462
注意到	-8463
流量的	-8464
浅拷贝	-8465
清洁和	-8466
溶解性	-8467
爱好者	-8468
王国里	-8469
现实的	-8470
瓣大蒜	-8471
生产和	-8472
男女装	-8473
白色的	-8474
的一项	-8475
的乘积	-8476
的书籍	-8477
的人都	-8478
的优势	-8479
的作者	-8480
的健康	-8481
的光芒	-8482
的反应	-8483
的各种	-8484
的名称	-8485
的字体	-8486
的孩子	-8487
的布局	-8488
的开发	-8489
的成本	-8490
的提示	-8491
的文明	-8492
的景象	-8493
的权利	-8494
的标题	-8495
的模型	-8496
的正确	-8497
的气候	-8498
的热量	-8499
的爱情	-8500
的电子	-8501
的画面	-8502
的症状	-8503
的相对	-8504
的细节	-8505
的自然	-8506
的视觉	-8507
的访问	-8508
的资源	-8509
的顺序	-8510
直观的	-8511
相对于	-8512
短暂的	-8513
研究与	-8514
种植盆	-8515
第三方	-8516
等不同	-8517
等元素	-8518
等措施	-8519
简洁大	-8520
算法中	-8521
管理者	-8522
类似于	-8523
类游戏	-8524
精确的	-8525
系统对	-8526
经纪人	-8527
经验的	-8528
继电器	-8529
而变化	-8530
而是要	-8531
而西瓜	-8532
职位的	-8533
聚类和	-8534
脑风暴	-8535
自信心	-8536
自变量	-8537
自然的	-8538
舒适和	-8539
茂密的	-8540
西葫芦	-8541
要计算	-8542
观点和	-8543
角色的	-8544
让观众	-8545
让顾客	-8546
设备上	-8547
设备和	-8548
设计和	-8549
访问者	-8550
评论和	-8551
该公司	-8552
请确保	-8553
请记住	-8554
课程中	-8555
调酒师	-8556
谋杀罪	-8557
贷款额	-8558
跑步鞋	-8559
达芬奇	-8560
过多的	-8561
运动中	-8562
运算符	-8563
这一切	-8564
这也是	-8565
这表明	-8566
连接的	-8567
选择器	-8568
通过与	-8569
那个数	-8570
那只鸟	-8571
都存在	-8572
钢铁侠	-8573
长期的	-8574
陷入了	-8575
颗粒物	-8576
颜色的	-8577
首都是	-8578
高效地	-8579
Insp	-8580
List	-8581
aliz	-8582
ally	-8583
ango	-8584
edia	-8585
gage	-8586
gend	-8587
html	-8588
ible	-8589
icul	-8590
idth	-8591
inal	-8592
iron	-8593
lent	-8594
most	-8595
pose	-8596
rent	-8597
ring	-8598
rown	-8599
stem	-8600
stru	-8601
ters	-8602
text	-8603
ving	-8604
ward	-8605
▁---	-8606
▁DNA	-8607
▁Eng	-8608
▁acc	-8609
▁any	-8610
▁ass	-8611
▁att	-8612
▁don	-8613
▁let	-8614
▁set	-8615
▁she	-8616
▁thr	-8617
▁估计有	-8618
▁写一段	-8619
▁南美洲	-8620
▁在美国	-8621
▁太阳能	-8622
▁很高兴	-8623
▁快乐的	-8624
▁意大利	-8625
▁我抱歉	-8626
▁我无法	-8627
▁更好的	-8628
▁橄榄油	-8629
▁科学家	-8630
▁美国的	-8631
▁自动化	-8632
▁西班牙	-8633
▁这个人	-8634
▁这本书	-8635
一个人的	-8636
一个国家	-8637
一些物种	-8638
一般持续	-8639
一般来说	-8640
三个数字	-8641
不可或缺	-8642
不容忽视	-8643
不断进步	-8644
世界大战	-8645
个人绩效	-8646
个人资料	-8647
个人身份	-8648
中位数为	-8649
中的一种	-8650
为什么它	-8651
主动语态	-8652
举例来说	-8653
乔布斯的	-8654
了一定的	-8655
互动活动	-8656
互联网上	-8657
五个步骤	-8658
交流方式	-8659
人体健康	-8660
人力成本	-8661
人际关系	-8662
从而实现	-8663
从而影响	-8664
从而获得	-8665
他们认为	-8666
以下代码	-8667
以下几种	-8668
以确保其	-8669
企业形象	-8670
会后疲劳	-8671
会影响到	-8672
会说话的	-8673
传统育种	-8674
体育锻炼	-8675
使用纸币	-8676
促进骨骼	-8677
保持联系	-8678
信息安全	-8679
做好准备	-8680
健康食品	-8681
允许用户	-8682
光合作用	-8683
克服困难	-8684
公共场所	-8685
共产主义	-8686
共同构成	-8687
关键时刻	-8688
兴趣爱好	-8689
其中包含	-8690
其他因素	-8691
具体情况	-8692
内置函数	-8693
冒泡排序	-8694
冰川融化	-8695
出现次数	-8696
创作一首	-8697
创建新的	-8698
加勒比海	-8699
医疗行业	-8700
卡通形象	-8701
原始对象	-8702
发生变化	-8703
受到多种	-8704
受到影响	-8705
古代文明	-8706
另一方面	-8707
可以增加	-8708
可以看到	-8709
可能会对	-8710
可能会有	-8711
可解释性	-8712
员工姓名	-8713
员工提供	-8714
呼吸困难	-8715
和天然气	-8716
和社会的	-8717
因为他们	-8718
因此我们	-8719
在办公室	-8720
坚持不懈	-8721
基因工程	-8722
基本操作	-8723
塑料污染	-8724
增强现实	-8725
墨西哥菜	-8726
处理软件	-8727
大量信息	-8728
太阳照耀	-8729
太阳系的	-8730
她的父亲	-8731
字塔骗局	-8732
它们通常	-8733
它改变了	-8734
它是一个	-8735
实际问题	-8736
客户问题	-8737
家庭成员	-8738
对未来的	-8739
尔尼科夫	-8740
就像一朵	-8741
尽量减少	-8742
展示您的	-8743
市场营销	-8744
带来更多	-8745
带领团队	-8746
帮助医生	-8747
平均风速	-8748
年轻人的	-8749
形成一个	-8750
快速了解	-8751
快速增长	-8752
您可以在	-8753
您在野外	-8754
您想要我	-8755
您的名字	-8756
您的网页	-8757
您说得对	-8758
您还可以	-8759
感受到了	-8760
成为一个	-8761
成为一种	-8762
成为全球	-8763
我的建议	-8764
我的程序	-8765
探讨如何	-8766
提交申请	-8767
提供了更	-8768
提供各种	-8769
摄氏温度	-8770
支出情况	-8771
收集大量	-8772
政治局势	-8773
故事情节	-8774
教学模式	-8775
数字素养	-8776
文件系统	-8777
是一种非	-8778
是否正确	-8779
是否符合	-8780
是否需要	-8781
是计算机	-8782
是错误的	-8783
更丰富的	-8784
更准确的	-8785
最流行的	-8786
有一定的	-8787
服务框架	-8788
来帮助您	-8789
来自不同	-8790
标签分类	-8791
森林里的	-8792
模型训练	-8793
樱桃番茄	-8794
正在努力	-8795
每个节点	-8796
水分摄入	-8797
污水处理	-8798
波特先生	-8799
海伦公式	-8800
湿度水平	-8801
满足客户	-8802
满足用户	-8803
演示文稿	-8804
灵活性和	-8805
特定任务	-8806
特征提取	-8807
猫科动物	-8808
环境中的	-8809
环境变化	-8810
生态平衡	-8811
生长发育	-8812
用来存储	-8813
电话号码	-8814
的信息和	-8815
的准确性	-8816
的原因是	-8817
的影响是	-8818
的机器人	-8819
的栖息地	-8820
的环境中	-8821
的目的是	-8822
的需求和	-8823
目标人群	-8824
相互作用	-8825
相关关系	-8826
石墙起义	-8827
砍伐森林	-8828
研究发现	-8829
稀土元素	-8830
算法包括	-8831
约束条件	-8832
线性模型	-8833
组织能力	-8834
经济衰退	-8835
给您提供	-8836
继续翻炒	-8837
绿色植物	-8838
网络中立	-8839
而设计的	-8840
职业生涯	-8841
肢体语言	-8842
能够处理	-8843
能够独立	-8844
能够自动	-8845
能够迅速	-8846
能更好地	-8847
能源成本	-8848
节约用水	-8849
苹果农民	-8850
药物研发	-8851
表示产品	-8852
表面积为	-8853
觉得自己	-8854
让计算机	-8855
诺贝尔奖	-8856
购物清单	-8857
身份盗窃	-8858
过去十年	-8859
近的行星	-8860
这一主题	-8861
这一概念	-8862
这个动作	-8863
这个词的	-8864
这些变化	-8865
这名学生	-8866
这种情况	-8867
这种方式	-8868
这篇文章	-8869
这部小说	-8870
进行优化	-8871
选择适合	-8872
通货膨胀	-8873
通过收集	-8874
避免浪费	-8875
避免过度	-8876
邦联军队	-8877
邪恶势力	-8878
配送服务	-8879
重力势能	-8880
重要意义	-8881
针对性的	-8882
银行账户	-8883
销售人员	-8884
销售目标	-8885
长时间的	-8886
阅读困难	-8887
需要不断	-8888
需要我们	-8889
需要进行	-8890
需要通过	-8891
非常喜欢	-8892
非常广泛	-8893
非结构化	-8894
面内质网	-8895
音速小子	-8896
预先定义	-8897
预测能力	-8898
领导者的	-8899
食肉动物	-8900
驱动程序	-8901
COVID	-8902
Julia	-8903
anana	-8904
aring	-8905
check	-8906
email	-8907
emper	-8908
ickly	-8909
ility	-8910
istic	-8911
offee	-8912
price	-8913
print	-8914
quare	-8915
thing	-8916
words	-8917
▁Fran	-8918
▁comm	-8919
▁easy	-8920
▁ever	-8921
▁help	-8922
▁left	-8923
▁make	-8924
▁math	-8925
▁play	-8926
▁word	-8927
▁writ	-8928
▁代码实现	-8929
▁光合作用	-8930
▁决策能力	-8931
▁分析以下	-8932
▁加拿大的	-8933
▁客户服务	-8934
▁平方公里	-8935
▁我们可以	-8936
▁我是一个	-8937
▁把这句话	-8938
▁机组人员	-8939
▁森林砍伐	-8940
▁用一句话	-8941
▁监督学习	-8942
▁给定一个	-8943
▁计算一个	-8944
一个或多个	-8945
一个机器人	-8946
一起吃午饭	-8947
三角形三边	-8948
下一个单词	-8949
两个字符串	-8950
两种不同的	-8951
中脱颖而出	-8952
中风的风险	-8953
为我们提供	-8954
事件时间线	-8955
产生巨大的	-8956
使其听起来	-8957
保持健康的	-8958
具有重要的	-8959
创建新版本	-8960
到达目的地	-8961
前一个节点	-8962
千克的物体	-8963
变得越来越	-8964
可以更好地	-8965
可能会产生	-8966
可能会出现	-8967
可靠的数据	-8968
和海洋酸化	-8969
和深度学习	-8970
品牌知名度	-8971
在工作场所	-8972
在搜索引擎	-8973
增强免疫力	-8974
大大提高了	-8975
如果您希望	-8976
实际应用中	-8977
层叠样式表	-8978
属性和方法	-8979
广义相对论	-8980
应用程序和	-8981
底比斯骗局	-8982
我们的生活	-8983
我无法看到	-8984
技术的应用	-8985
技能和经验	-8986
拥有丰富的	-8987
按升序排列	-8988
排放大量的	-8989
提供更好的	-8990
操作系统的	-8991
支持向量机	-8992
最受欢迎的	-8993
有助于增强	-8994
有助于降低	-8995
有效的方法	-8996
有效的沟通	-8997
朴素贝叶斯	-8998
来训练模型	-8999
极其重要的	-9000
模型的性能	-9001
测试人员会	-9002
物体的质量	-9003
珠穆朗玛峰	-9004
理解对方的	-9005
生态系统的	-9006
的博客文章	-9007
的最大利润	-9008
社交媒体和	-9009
简单的例子	-9010
而有所不同	-9011
而机器学习	-9012
能帮助人们	-9013
能提供更多	-9014
计算机硬件	-9015
诊断和治疗	-9016
这只是一个	-9017
这意味着它	-9018
这里有一个	-9019
这里有一些	-9020
适应环境的	-9021
采取有效的	-9022
重力加速度	-9023
重要的作用	-9024
量子逻辑门	-9025
面对面交流	-9026
风力涡轮机	-9027
Nathan	-9028
Unwind	-9029
ashion	-9030
▁Sonic	-9031
▁colle	-9032
▁could	-9033
▁their	-9034
▁upper	-9035
▁下面是一些	-9036
▁增强免疫力	-9037
▁您可以使用	-9038
▁根据给定的	-9039
▁社交媒体的	-9040
▁解释什么是	-9041
不仅仅是一个	-9042
个人口味添加	-9043
主要组成部分	-9044
也受到了影响	-9045
也带来了一些	-9046
人工智能可以	-9047
会产生大量的	-9048
值得注意的是	-9049
减少空气污染	-9050
加利福尼亚州	-9051
可以帮助人们	-9052
带来了巨大的	-9053
按照以下步骤	-9054
提供了更多的	-9055
斯科尔尼科夫	-9056
无人驾驶汽车	-9057
是一种有效的	-9058
是非常重要的	-9059
有价值的内容	-9060
构造一个句子	-9061
枪支死亡率从	-9062
模拟人类智能	-9063
深度学习技术	-9064
计算机科学中	-9065
让计算机能够	-9066
识别垃圾邮件	-9067
贸易保护主义	-9068
这款应用程序	-9069
锻炼能够帮助	-9070
需要帮助的人	-9071
食品配送服务	-9072
鼓励人们使用	-9073
YouTube	-9074
ational	-9075
ormaliz	-9076
▁Docker	-9077
▁create	-9078
▁height	-9079
▁iPhone	-9080
▁matrix	-9081
▁screen	-9082
▁string	-9083
▁在这个例子中	-9084
▁希望这些建议	-9085
▁自然语言处理	-9086
人工智能技术的	-9087
基于证据的政策	-9088
探索性数据分析	-9089
气候变化的影响	-9090
渗透测试人员会	-9091
温室气体的排放	-9092
生态系统的平衡	-9093
病毒和恶意软件	-9094
的主要区别在于	-9095
预先定义的规则	-9096
Inspiron	-9097
________	-9098
balanced	-9099
gression	-9100
▁Company	-9101
▁company	-9102
▁through	-9103
▁website	-9104
▁下面是一个使用	-9105
产生了深远的影响	-9106
人工智能和机器人	-9107
利用人工智能技术	-9108
对心理健康的影响	-9109
提供有价值的信息	-9110
这个三角形的面积	-9111
▁analysis	-9112
▁specific	-9113
一个好的团队领导者	-9114
多利安走向公交车站	-9115
自动化客户服务流程	-9116
emperature	-9117
▁Spectator	-9118
出现次数最少的三个值	-9119
是人工智能的一个分支	-9120
Transformer	-9121
▁JavaScript	-9122
▁fahrenheit	-9123
""	-9124
"、	-9125
%，	-9126
({	-9127
).	-9128
.”	-9129
:“	-9130
=(	-9131
=√	-9132
Ac	-9133
Ad	-9134
CE	-9135
Co	-9136
DD	-9137
Ec	-9138
GH	-9139
Hy	-9140
Is	-9141
It	-9142
NN	-9143
OR	-9144
OS	-9145
PC	-9146
Pl	-9147
Py	-9148
RM	-9149
RP	-9150
Sh	-9151
Sp	-9152
TA	-9153
Th	-9154
XX	-9155
['	-9156
\.	-9157
aS	-9158
do	-9159
ds	-9160
fl	-9161
ll	-9162
no	-9163
sc	-9164
tn	-9165
up	-9166
wo	-9167
yn	-9168
²-	-9169
▁。	-9170
▁以	-9171
▁内	-9172
▁北	-9173
▁南	-9174
▁反	-9175
▁向	-9176
▁尼	-9177
▁山	-9178
▁快	-9179
▁新	-9180
▁日	-9181
▁时	-9182
▁清	-9183
▁牛	-9184
▁狗	-9185
▁猫	-9186
▁珍	-9187
▁相	-9188
▁红	-9189
▁谁	-9190
▁长	-9191
▁静	-9192
▁餐	-9193
▁鸡	-9194
》，	-9195
一无	-9196
一门	-9197
三口	-9198
三项	-9199
上传	-9200
上市	-9201
上课	-9202
下了	-9203
下单	-9204
下标	-9205
下线	-9206
不了	-9207
不在	-9208
不安	-9209
不管	-9210
与之	-9211
与伦	-9212
且不	-9213
东京	-9214
东北	-9215
丢弃	-9216
两性	-9217
两点	-9218
两片	-9219
严肃	-9220
中子	-9221
中有	-9222
为她	-9223
主导	-9224
主演	-9225
主管	-9226
举措	-9227
之路	-9228
乐于	-9229
也对	-9230
书写	-9231
买卖	-9232
了吗	-9233
事务	-9234
事项	-9235
二战	-9236
亚伯	-9237
亚氮	-9238
交往	-9239
产量	-9240
人人	-9241
人性	-9242
人才	-9243
人道	-9244
从不	-9245
他把	-9246
他是	-9247
他最	-9248
他要	-9249
他说	-9250
代数	-9251
以外	-9252
休闲	-9253
伞面	-9254
传记	-9255
伴随	-9256
位是	-9257
低脂	-9258
住宿	-9259
体内	-9260
体温	-9261
体的	-9262
何时	-9263
你所	-9264
使之	-9265
使他	-9266
使句	-9267
使您	-9268
供您	-9269
便宜	-9270
信徒	-9271
修理	-9272
偏远	-9273
停车	-9274
偶数	-9275
偿还	-9276
储物	-9277
元前	-9278
充沛	-9279
光滑	-9280
光芒	-9281
克萨	-9282
全家	-9283
全身	-9284
八大	-9285
共鸣	-9286
关掉	-9287
再见	-9288
军的	-9289
冠军	-9290
冲动	-9291
凉爽	-9292
减压	-9293
减弱	-9294
凯西	-9295
出口	-9296
击球	-9297
分化	-9298
分母	-9299
分辨	-9300
切丝	-9301
切换	-9302
刑法	-9303
则会	-9304
初步	-9305
利亚	-9306
到您	-9307
制品	-9308
前的	-9309
剩下	-9310
力来	-9311
力矩	-9312
动荡	-9313
化妆	-9314
化肥	-9315
北斋	-9316
北美	-9317
单一	-9318
卖出	-9319
南方	-9320
占据	-9321
卫星	-9322
印刷	-9323
压抑	-9324
原型	-9325
去世	-9326
参议	-9327
叙事	-9328
叠加	-9329
口碑	-9330
口罩	-9331
只读	-9332
可信	-9333
可是	-9334
可疑	-9335
吃掉	-9336
吃饭	-9337
同一	-9338
同步	-9339
后再	-9340
后期	-9341
后者	-9342
向上	-9343
向前	-9344
君主	-9345
听说	-9346
呼吁	-9347
和修	-9348
和偏	-9349
和民	-9350
和流	-9351
和牛	-9352
哥伦	-9353
哲理	-9354
商人	-9355
善举	-9356
喜爱	-9357
噪声	-9358
四周	-9359
四步	-9360
因人	-9361
团结	-9362
图标	-9363
圣经	-9364
在其	-9365
在外	-9366
在高	-9367
地下	-9368
地域	-9369
地平	-9370
地标	-9371
场上	-9372
场地	-9373
场面	-9374
坐着	-9375
型号	-9376
培根	-9377
基层	-9378
報表	-9379
填写	-9380
增多	-9381
壁画	-9382
士顿	-9383
复利	-9384
夕阳	-9385
外交	-9386
外形	-9387
多汁	-9388
大国	-9389
大声	-9390
大海	-9391
大纲	-9392
大致	-9393
天文	-9394
天生	-9395
太多	-9396
失望	-9397
失误	-9398
头发	-9399
头灯	-9400
头痛	-9401
夸大	-9402
夹克	-9403
奉献	-9404
奥秘	-9405
奶酪	-9406
她在	-9407
如其	-9408
如同	-9409
姆斯	-9410
姿势	-9411
威尔	-9412
子集	-9413
字节	-9414
存入	-9415
孜然	-9416
学等	-9417
它为	-9418
它也	-9419
它以	-9420
它向	-9421
安宁	-9422
定理	-9423
宝贵	-9424
实力	-9425
审判	-9426
审查	-9427
客厅	-9428
客气	-9429
家电	-9430
容纳	-9431
宽度	-9432
密集	-9433
对你	-9434
对外	-9435
对该	-9436
导弹	-9437
小写	-9438
小数	-9439
尔兰	-9440
就餐	-9441
山上	-9442
山车	-9443
州的	-9444
工人	-9445
巧妙	-9446
巨额	-9447
巨龙	-9448
巩固	-9449
巾纸	-9450
市值	-9451
布兰	-9452
带到	-9453
常的	-9454
平凡	-9455
平和	-9456
平底	-9457
年到	-9458
年前	-9459
年度	-9460
年间	-9461
并用	-9462
幻想	-9463
广大	-9464
庇护	-9465
应聘	-9466
底边	-9467
座位	-9468
座椅	-9469
延伸	-9470
开关	-9471
开朗	-9472
弦月	-9473
弯曲	-9474
弹出	-9475
当你	-9476
录音	-9477
待遇	-9478
律师	-9479
徒步	-9480
得分	-9481
得多	-9482
微弱	-9483
微波	-9484
德性	-9485
德里	-9486
心地	-9487
心旷	-9488
必需	-9489
忘记	-9490
忙于	-9491
急救	-9492
恶劣	-9493
恺撒	-9494
您会	-9495
您未	-9496
悲惨	-9497
情商	-9498
意志	-9499
意浓	-9500
感人	-9501
感慨	-9502
愿景	-9503
成正	-9504
我也	-9505
我在	-9506
或在	-9507
或是	-9508
或点	-9509
所属	-9510
所措	-9511
所爱	-9512
手册	-9513
手臂	-9514
打油	-9515
批判	-9516
投诉	-9517
抛光	-9518
报警	-9519
抵押	-9520
抽到	-9521
抽取	-9522
拆卸	-9523
拉罕	-9524
拌匀	-9525
拜访	-9526
拿马	-9527
指责	-9528
按时	-9529
挣扎	-9530
损伤	-9531
排版	-9532
接到	-9533
提案	-9534
插件	-9535
搭建	-9536
摇滚	-9537
攀爬	-9538
收到	-9539
收敛	-9540
收缩	-9541
敌人	-9542
教堂	-9543
教导	-9544
教父	-9545
教职	-9546
敢于	-9547
文献	-9548
断开	-9549
斯塔	-9550
族群	-9551
无关	-9552
无忧	-9553
无比	-9554
无畏	-9555
无误	-9556
日照	-9557
旧鞋	-9558
昂贵	-9559
是从	-9560
是哪	-9561
是平	-9562
是我	-9563
是最	-9564
是的	-9565
是要	-9566
是非	-9567
显然	-9568
智人	-9569
智力	-9570
暂停	-9571
暴雨	-9572
最能	-9573
月光	-9574
有很	-9575
服用	-9576
机或	-9577
权衡	-9578
材质	-9579
来时	-9580
杰作	-9581
构思	-9582
果断	-9583
染色	-9584
柔软	-9585
树干	-9586
校长	-9587
根源	-9588
梯度	-9589
棘手	-9590
横截	-9591
横轴	-9592
橡树	-9593
欢呼	-9594
歌声	-9595
止痛	-9596
正文	-9597
步态	-9598
武器	-9599
武汉	-9600
武装	-9601
残酷	-9602
毅然	-9603
每当	-9604
毛皮	-9605
气管	-9606
气道	-9607
氢离	-9608
水星	-9609
水是	-9610
水源	-9611
汇率	-9612
沃特	-9613
沉积	-9614
沉默	-9615
沙滩	-9616
河畔	-9617
治理	-9618
法庭	-9619
泰坦	-9620
洁白	-9621
洋溢	-9622
洗净	-9623
洗碗	-9624
流利	-9625
流派	-9626
流经	-9627
浇灌	-9628
海外	-9629
海量	-9630
海鲜	-9631
海龙	-9632
深情	-9633
深邃	-9634
清理	-9635
湖泊	-9636
溶剂	-9637
滋润	-9638
滑板	-9639
滤镜	-9640
演化	-9641
火焰	-9642
灯光	-9643
灵魂	-9644
炎等	-9645
点钟	-9646
煎蛋	-9647
照明	-9648
片刻	-9649
牙签	-9650
牛至	-9651
牧羊	-9652
特图	-9653
狂欢	-9654
狩猎	-9655
独自	-9656
独角	-9657
猛的	-9658
猫的	-9659
王位	-9660
理和	-9661
瑞拉	-9662
甜美	-9663
生于	-9664
用具	-9665
用刀	-9666
用词	-9667
田野	-9668
申根	-9669
畏惧	-9670
留住	-9671
疏散	-9672
疏松	-9673
疲倦	-9674
登上	-9675
登录	-9676
登记	-9677
白鲸	-9678
的事	-9679
的发	-9680
的女	-9681
的视	-9682
的转	-9683
监护	-9684
监禁	-9685
相近	-9686
相连	-9687
眼的	-9688
着她	-9689
着手	-9690
着重	-9691
睡觉	-9692
瞬间	-9693
矛盾	-9694
矫正	-9695
确立	-9696
碎冰	-9697
碳足	-9698
禁止	-9699
私家	-9700
种种	-9701
税收	-9702
突破	-9703
窗户	-9704
竞赛	-9705
竹子	-9706
签证	-9707
箔纸	-9708
管网	-9709
簿記	-9710
类中	-9711
粒体	-9712
糖浆	-9713
系数	-9714
素和	-9715
紧密	-9716
紧紧	-9717
紧迫	-9718
纠正	-9719
纯粹	-9720
纵轴	-9721
线器	-9722
线索	-9723
线路	-9724
组中	-9725
细分	-9726
终止	-9727
经销	-9728
结点	-9729
维度	-9730
绿洲	-9731
缓存	-9732
编排	-9733
网红	-9734
美妙	-9735
老人	-9736
老师	-9737
而成	-9738
而来	-9739
而油	-9740
耐心	-9741
肌肤	-9742
肥皂	-9743
背后	-9744
脚下	-9745
自助	-9746
自在	-9747
自学	-9748
自杀	-9749
舞动	-9750
舞蹈	-9751
船只	-9752
艰难	-9753
芥末	-9754
花色	-9755
草地	-9756
菜品	-9757
菠萝	-9758
营造	-9759
著称	-9760
蕴涵	-9761
虚伪	-9762
虚假	-9763
蛇类	-9764
蛋区	-9765
蛋黄	-9766
蜿蜒	-9767
蝙蝠	-9768
被告	-9769
西洋	-9770
要点	-9771
观和	-9772
规格	-9773
解为	-9774
触点	-9775
言论	-9776
警官	-9777
认证	-9778
让您	-9779
议会	-9780
记得	-9781
论坛	-9782
词性	-9783
读写	-9784
调优	-9785
调味	-9786
谓语	-9787
象的	-9788
豪宅	-9789
財務	-9790
质子	-9791
购房	-9792
费率	-9793
资本	-9794
赞扬	-9795
走过	-9796
超市	-9797
趣味	-9798
跑向	-9799
跨国	-9800
身着	-9801
转录	-9802
轮胎	-9803
轶事	-9804
辐射	-9805
辨识	-9806
还将	-9807
这两	-9808
这片	-9809
进食	-9810
迷人	-9811
迷信	-9812
追溯	-9813
退款	-9814
送达	-9815
选用	-9816
途中	-9817
通勤	-9818
造型	-9819
遭到	-9820
那一	-9821
那座	-9822
那样	-9823
都不	-9824
重的	-9825
野花	-9826
金黄	-9827
鉴定	-9828
钓鱼	-9829
铺垫	-9830
销量	-9831
镜像	-9832
长大	-9833
长远	-9834
队长	-9835
防水	-9836
阻塞	-9837
附件	-9838
限时	-9839
随意	-9840
隔绝	-9841
难关	-9842
难过	-9843
雇用	-9844
零度	-9845
音效	-9846
顶点	-9847
颁奖	-9848
预告	-9849
预定	-9850
颜料	-9851
风吹	-9852
风和	-9853
飞船	-9854
饥荒	-9855
饺子	-9856
马里	-9857
骨质	-9858
高峰	-9859
高汤	-9860
高维	-9861
鸿沟	-9862
，“	-9863
：《	-9864
：（	-9865
({[	-9866
)):	-9867
=√[	-9868
API	-9869
Art	-9870
Bob	-9871
Bon	-9872
CEO	-9873
ERE	-9874
GHz	-9875
Hel	-9876
Log	-9877
Off	-9878
Pat	-9879
Pro	-9880
Rob	-9881
Wil	-9882
aaS	-9883
air	-9884
ara	-9885
css	-9886
ctu	-9887
ely	-9888
fri	-9889
gen	-9890
hex	-9891
imp	-9892
inf	-9893
isc	-9894
ish	-9895
ism	-9896
klf	-9897
lcm	-9898
lis	-9899
lst	-9900
max	-9901
new	-9902
ney	-9903
obe	-9904
oft	-9905
oon	-9906
ott	-9907
ove	-9908
pop	-9909
pot	-9910
rad	-9911
ron	-9912
sci	-9913
sty	-9914
sub	-9915
ved	-9916
▁</	-9917
▁=（	-9918
▁Be	-9919
▁Di	-9920
▁Le	-9921
▁Me	-9922
▁["	-9923
▁pl	-9924
▁te	-9925
▁{}	-9926
▁一场	-9927
▁一旦	-9928
▁不同	-9929
▁事实	-9930
▁人们	-9931
▁什么	-9932
▁从前	-9933
▁代表	-9934
▁修改	-9935
▁写出	-9936
▁冥想	-9937
▁分钟	-9938
▁判断	-9939
▁助手	-9940
▁勇敢	-9941
▁协作	-9942
▁合理	-9943
▁响应	-9944
▁天空	-9945
▁娱乐	-9946
▁安全	-9947
▁对方	-9948
▁尊重	-9949
▁希腊	-9950
▁年的	-9951
▁应用	-9952
▁心理	-9953
▁总体	-9954
▁情感	-9955
▁想象	-9956
▁感受	-9957
▁接受	-9958
▁教师	-9959
▁整个	-9960
▁斯洛	-9961
▁方法	-9962
▁星形	-9963
▁是指	-9964
▁月光	-9965
▁服装	-9966
▁本地	-9967
▁查找	-9968
▁梦想	-9969
▁此致	-9970
▁水下	-9971
▁清单	-9972
▁渐渐	-9973
▁狮子	-9974
▁猎鹰	-9975
▁猩猩	-9976
▁现代	-9977
▁生活	-9978
▁电子	-9979
▁疾病	-9980
▁的值	-9981
▁示例	-9982
▁第一	-9983
▁素食	-9984
▁细胞	-9985
▁经营	-9986
▁继续	-9987
▁编写	-9988
▁缺乏	-9989
▁网上	-9990
▁自制	-9991
▁自动	-9992
▁节能	-9993
▁花儿	-9994
▁草莓	-9995
▁蓝莓	-9996
▁虽然	-9997
▁调用	-9998
▁调试	-9999
▁责任	-10000
▁购买	-10001
▁转换	-10002
▁遵循	-10003
▁野餐	-10004
▁阿尔	-10005
▁面包	-10006
▁食品	-10007
▁鸭子	-10008
一开始	-10009
一汤匙	-10010
三个人	-10011
三文鱼	-10012
上发布	-10013
不变的	-10014
不完整	-10015
与他们	-10016
与外界	-10017
与我们	-10018
与朋友	-10019
与自然	-10020
丝分裂	-10021
两个数	-10022
两个点	-10023
两者的	-10024
个字符	-10025
个洋葱	-10026
个鸡蛋	-10027
中国的	-10028
中获取	-10029
为一个	-10030
为主要	-10031
为乘客	-10032
为团队	-10033
为每个	-10034
主题句	-10035
举行的	-10036
也不会	-10037
也不同	-10038
也更加	-10039
也需要	-10040
也非常	-10041
了一倍	-10042
了一场	-10043
了他的	-10044
事件和	-10045
云服务	-10046
互动和	-10047
五年前	-10048
些什么	-10049
交互式	-10050
交互性	-10051
交流和	-10052
产品在	-10053
人心的	-10054
仍然是	-10055
从伦敦	-10056
从外界	-10057
从大量	-10058
从小就	-10059
他决定	-10060
他发现	-10061
他开始	-10062
以便于	-10063
以保护	-10064
以保证	-10065
以及它	-10066
以增加	-10067
以实现	-10068
以提供	-10069
以满足	-10070
以达到	-10071
仪式的	-10072
价格为	-10073
价格和	-10074
任何人	-10075
企业的	-10076
伊拉克	-10077
会破坏	-10078
会议上	-10079
会逐渐	-10080
会造成	-10081
会降低	-10082
会面临	-10083
传送体	-10084
传递出	-10085
但他们	-10086
但现在	-10087
低气压	-10088
体能和	-10089
体验到	-10090
你想要	-10091
你最近	-10092
你知道	-10093
使学生	-10094
使它们	-10095
使我们	-10096
俄罗斯	-10097
俗习惯	-10098
修改和	-10099
做晚饭	-10100
先计算	-10101
先进的	-10102
光反应	-10103
克萨斯	-10104
免费的	-10105
全局最	-10106
公元前	-10107
公园里	-10108
公平的	-10109
共和国	-10110
其期望	-10111
其进行	-10112
内角和	-10113
内部的	-10114
写一篇	-10115
冬天的	-10116
冲厕所	-10117
准确和	-10118
几分钟	-10119
几句话	-10120
出生于	-10121
分享给	-10122
分钟才	-10123
切换到	-10124
制作的	-10125
前进的	-10126
力量的	-10127
加剧了	-10128
动物和	-10129
助记符	-10130
包装和	-10131
化学式	-10132
北半球	-10133
区块的	-10134
半径为	-10135
半部分	-10136
卓越的	-10137
南半球	-10138
卡片的	-10139
即一年	-10140
原创的	-10141
原材料	-10142
去公园	-10143
去探索	-10144
参与到	-10145
又称为	-10146
及时的	-10147
双方的	-10148
发展和	-10149
发明了	-10150
发生了	-10151
取得的	-10152
变成了	-10153
叫什么	-10154
可以对	-10155
可口的	-10156
可扩展	-10157
可有效	-10158
可能在	-10159
可行的	-10160
各地的	-10161
合色素	-10162
同一个	-10163
后加入	-10164
向用户	-10165
听到了	-10166
周长为	-10167
和专业	-10168
和严重	-10169
和主人	-10170
和优惠	-10171
和共享	-10172
和动物	-10173
和场合	-10174
和帮助	-10175
和总结	-10176
和成长	-10177
和执行	-10178
和效率	-10179
和教育	-10180
和文化	-10181
和方法	-10182
和朋友	-10183
和歧视	-10184
和清洗	-10185
和焚烧	-10186
和监控	-10187
和能力	-10188
和蓝色	-10189
和解释	-10190
和谐的	-10191
咖啡机	-10192
哪一个	-10193
哲学家	-10194
商品的	-10195
商店的	-10196
喉咙痛	-10197
喝咖啡	-10198
回收桶	-10199
回收的	-10200
因变量	-10201
固定的	-10202
固定相	-10203
图像和	-10204
在一些	-10205
在公司	-10206
在学校	-10207
在实验	-10208
在家里	-10209
在开始	-10210
在森林	-10211
在沟通	-10212
在现代	-10213
在这种	-10214
在进行	-10215
在金融	-10216
地处理	-10217
地平线	-10218
坚果和	-10219
垃圾箱	-10220
多样化	-10221
多样的	-10222
大国家	-10223
大城市	-10224
大数据	-10225
大气中	-10226
大熊猫	-10227
太阳和	-10228
夫斯基	-10229
失去了	-10230
夸张的	-10231
她感到	-10232
如手机	-10233
始位置	-10234
姓名和	-10235
嫌疑人	-10236
学习到	-10237
学会了	-10238
学到了	-10239
它们为	-10240
它包含	-10241
它定义	-10242
它并不	-10243
它用来	-10244
安排好	-10245
宝藏的	-10246
宝贵的	-10247
实用性	-10248
客观的	-10249
富士山	-10250
对土壤	-10251
对象时	-10252
对象的	-10253
将所有	-10254
将根据	-10255
小女孩	-10256
小小的	-10257
小李会	-10258
小精灵	-10259
尤其是	-10260
尼克号	-10261
尽可能	-10262
岛上的	-10263
已经有	-10264
市场上	-10265
带回了	-10266
常用来	-10267
并且在	-10268
并定期	-10269
并比较	-10270
并破坏	-10271
广告等	-10272
应该从	-10273
废纸张	-10274
建立在	-10275
建立起	-10276
建议或	-10277
开发和	-10278
式设计	-10279
强壮的	-10280
往往是	-10281
微波炉	-10282
心旷神	-10283
心肌梗	-10284
您还应	-10285
惯性力	-10286
意义的	-10287
成正比	-10288
成绩的	-10289
我只能	-10290
我喜欢	-10291
我最近	-10292
或损坏	-10293
或提供	-10294
或步行	-10295
或系统	-10296
战争的	-10297
所在地	-10298
手机或	-10299
打开了	-10300
打开门	-10301
打油诗	-10302
抵抗力	-10303
拼写和	-10304
持久的	-10305
指导下	-10306
挑战和	-10307
描述的	-10308
提克斯	-10309
搜索和	-10310
支球队	-10311
数字是	-10312
数据包	-10313
数据被	-10314
数据越	-10315
数百万	-10316
文档中	-10317
新员工	-10318
新客户	-10319
新对象	-10320
新方法	-10321
新知识	-10322
新闻稿	-10323
方差和	-10324
方法和	-10325
旅行中	-10326
时进行	-10327
是一家	-10328
是一座	-10329
是否是	-10330
是星期	-10331
显著的	-10332
晒太阳	-10333
暴风雪	-10334
更具体	-10335
替代品	-10336
最后的	-10337
最重要	-10338
月亮的	-10339
有一座	-10340
有其他	-10341
有机物	-10342
有益于	-10343
有益的	-10344
有能力	-10345
有责任	-10346
有限的	-10347
服装和	-10348
机器的	-10349
来促进	-10350
来保持	-10351
来创建	-10352
来制定	-10353
来增加	-10354
来形容	-10355
来改善	-10356
来源于	-10357
来表达	-10358
来辅助	-10359
来选择	-10360
极强的	-10361
极性的	-10362
标准化	-10363
桌子和	-10364
植物的	-10365
模糊的	-10366
欧元区	-10367
正式的	-10368
正整数	-10369
每小时	-10370
比其他	-10371
比较的	-10372
水烧开	-10373
水能等	-10374
沃特尼	-10375
泡打粉	-10376
活力的	-10377
活动的	-10378
流失和	-10379
浓密的	-10380
深拷贝	-10381
清晰地	-10382
游乐园	-10383
游戏的	-10384
源代码	-10385
热量的	-10386
热门的	-10387
然后再	-10388
爱尔兰	-10389
爱情的	-10390
牛至叶	-10391
特征的	-10392
特点是	-10393
独角兽	-10394
环境和	-10395
甘特图	-10396
生产商	-10397
生物进	-10398
用水的	-10399
由两个	-10400
疼痛和	-10401
疾病和	-10402
病人的	-10403
的一场	-10404
的一方	-10405
的一般	-10406
的三种	-10407
的主语	-10408
的人员	-10409
的伤害	-10410
的体验	-10411
的作用	-10412
的减少	-10413
的利弊	-10414
的办公	-10415
的同时	-10416
的增长	-10417
的处理	-10418
的对话	-10419
的小说	-10420
的帮助	-10421
的常见	-10422
的微笑	-10423
的快乐	-10424
的提高	-10425
的改变	-10426
的政治	-10427
的文字	-10428
的旋转	-10429
的材料	-10430
的消息	-10431
的游戏	-10432
的演讲	-10433
的生产	-10434
的研究	-10435
的神奇	-10436
的科学	-10437
的简短	-10438
的系统	-10439
的经典	-10440
的网页	-10441
的美丽	-10442
的职位	-10443
的舒适	-10444
的订单	-10445
的讨论	-10446
的语气	-10447
的距离	-10448
的运作	-10449
的运用	-10450
的食品	-10451
的食谱	-10452
的高大	-10453
目动物	-10454
目标和	-10455
相似性	-10456
相关联	-10457
相结合	-10458
真实的	-10459
着各种	-10460
矩形的	-10461
研究的	-10462
确保在	-10463
碳足迹	-10464
社会学	-10465
社区的	-10466
祈使句	-10467
移动到	-10468
程序或	-10469
程度的	-10470
空间中	-10471
突如其	-10472
第二天	-10473
等功能	-10474
等各种	-10475
等多种	-10476
等操作	-10477
等步骤	-10478
簿記員	-10479
类似的	-10480
籽水果	-10481
粒子的	-10482
精确地	-10483
纤维等	-10484
线网络	-10485
组织或	-10486
组织者	-10487
经销商	-10488
结合了	-10489
结束时	-10490
给了他	-10491
给人们	-10492
给出的	-10493
给我们	-10494
给自己	-10495
给观众	-10496
绝对的	-10497
缩写为	-10498
网站和	-10499
罗勒叶	-10500
罗斯福	-10501
而增加	-10502
而奋斗	-10503
而对于	-10504
而新教	-10505
而有所	-10506
耐久性	-10507
联盟的	-10508
背后的	-10509
背景和	-10510
能保证	-10511
能有效	-10512
能量的	-10513
脂肪和	-10514
脚踏板	-10515
自己和	-10516
节点都	-10517
英寸的	-10518
苹果树	-10519
菲尔德	-10520
蓝色和	-10521
行动来	-10522
衡量的	-10523
表现了	-10524
表现力	-10525
衬衫和	-10526
被发现	-10527
被引入	-10528
西兰花	-10529
西雅图	-10530
覆盖在	-10531
观众们	-10532
规律和	-10533
詹姆斯	-10534
计划和	-10535
计数法	-10536
认识到	-10537
让客户	-10538
让自己	-10539
设计图	-10540
评论区	-10541
识别和	-10542
词汇表	-10543
该函数	-10544
该系统	-10545
该词的	-10546
购物袋	-10547
超过了	-10548
身体的	-10549
身边的	-10550
轮排序	-10551
轻轻地	-10552
较低的	-10553
输入层	-10554
过去时	-10555
过山车	-10556
这使得	-10557
这并不	-10558
这样我	-10559
这里有	-10560
进化论	-10561
透明度	-10562
通常不	-10563
通常与	-10564
通过了	-10565
通过在	-10566
逝世于	-10567
避免在	-10568
邀请她	-10569
部门的	-10570
都经过	-10571
都非常	-10572
醒目的	-10573
采取了	-10574
重复性	-10575
金色的	-10576
铝箔纸	-10577
锻炼和	-10578
问候语	-10579
问题上	-10580
问题是	-10581
防晒霜	-10582
阶导数	-10583
集线器	-10584
零售业	-10585
非正式	-10586
面积为	-10587
革命性	-10588
预训练	-10589
领域中	-10590
食用油	-10591
饮用水	-10592
验证和	-10593
高性能	-10594
高科技	-10595
鸟类和	-10596
黑色的	-10597
默默地	-10598
）：$	-10599
ANET	-10600
Bonj	-10601
None	-10602
Play	-10603
True	-10604
Witt	-10605
acos	-10606
agon	-10607
aisy	-10608
arch	-10609
ardo	-10610
coin	-10611
cted	-10612
ders	-10613
face	-10614
gent	-10615
ging	-10616
inci	-10617
ique	-10618
lean	-10619
liam	-10620
mean	-10621
olly	-10622
ouse	-10623
plex	-10624
pple	-10625
reat	-10626
reet	-10627
rive	-10628
side	-10629
size	-10630
sqrt	-10631
temp	-10632
they	-10633
▁"""	-10634
▁Buk	-10635
▁Can	-10636
▁How	-10637
▁NOW	-10638
▁TCP	-10639
▁Yes	-10640
▁You	-10641
▁add	-10642
▁bre	-10643
▁buy	-10644
▁cel	-10645
▁che	-10646
▁det	-10647
▁dog	-10648
▁has	-10649
▁hex	-10650
▁inc	-10651
▁jum	-10652
▁new	-10653
▁say	-10654
▁云计算	-10655
▁关键词	-10656
▁写一份	-10657
▁写一条	-10658
▁准备好	-10659
▁初始化	-10660
▁和她的	-10661
▁咖啡师	-10662
▁在野外	-10663
▁安全性	-10664
▁将句子	-10665
▁归一化	-10666
▁您可以	-10667
▁我需要	-10668
▁技术对	-10669
▁比子弹	-10670
▁物联网	-10671
▁生成与	-10672
▁用以下	-10673
▁系统的	-10674
▁这就是	-10675
▁这段话	-10676
一个变量	-10677
一些关于	-10678
一些学生	-10679
一些时间	-10680
一天中的	-10681
一条关于	-10682
一段时间	-10683
一起努力	-10684
不仅能够	-10685
不会影响	-10686
不会枯竭	-10687
不断完善	-10688
不知所措	-10689
不要使用	-10690
与伦比的	-10691
与客户的	-10692
两个变量	-10693
两栖动物	-10694
两种方法	-10695
严重威胁	-10696
严重污染	-10697
个人成长	-10698
中的五个	-10699
中的作用	-10700
中的排名	-10701
中间元素	-10702
为了确保	-10703
为什么要	-10704
为您分析	-10705
为投资者	-10706
主要用于	-10707
主要观点	-10708
乐观主义	-10709
也可以在	-10710
了他们的	-10711
了解它的	-10712
二次方程	-10713
五边形的	-10714
亚伯拉罕	-10715
交互效应	-10716
交通信息	-10717
产品特点	-10718
产品质量	-10719
产生可行	-10720
享受当下	-10721
享受美食	-10722
人为灾害	-10723
人口增长	-10724
人口密度	-10725
人工成本	-10726
从小到大	-10727
仔细检查	-10728
他们负责	-10729
令人印象	-10730
以下一些	-10731
以下三个	-10732
以下操作	-10733
以下文章	-10734
以下陈述	-10735
以及其他	-10736
以及如何	-10737
以更好地	-10738
休息时间	-10739
优化交通	-10740
但实际上	-10741
你也可以	-10742
你的目标	-10743
供应弹性	-10744
供您参考	-10745
供给法则	-10746
保护人民	-10747
保护我们	-10748
做出决定	-10749
做出贡献	-10750
停止自转	-10751
健康早餐	-10752
健康有益	-10753
允许学生	-10754
八大行星	-10755
公共卫生	-10756
共同基金	-10757
关键信息	-10758
具有非常	-10759
准确性和	-10760
减少压力	-10761
减少拥堵	-10762
减少汽车	-10763
凯撒沙拉	-10764
分为两类	-10765
分享您的	-10766
切成小块	-10767
刑事司法	-10768
创建网站	-10769
创造力和	-10770
到最后一	-10771
力的作用	-10772
动态规划	-10773
包括温度	-10774
区块链上	-10775
区的边界	-10776
医疗费用	-10777
卡通主题	-10778
去商店买	-10779
及时行乐	-10780
古巴导弹	-10781
可以为你	-10782
可以直接	-10783
可以设计	-10784
可能会因	-10785
可能会被	-10786
可能包含	-10787
各个领域	-10788
各国政府	-10789
和水资源	-10790
和测试集	-10791
回收公司	-10792
回收纸张	-10793
回答问题	-10794
因人而异	-10795
因此将其	-10796
图形化的	-10797
圆的周长	-10798
在森林里	-10799
在线金融	-10800
均衡饮食	-10801
垃圾填埋	-10802
基本元素	-10803
增长速度	-10804
备份重要	-10805
多种因素	-10806
大力发展	-10807
大气中的	-10808
大自然中	-10809
大规模的	-10810
太空探索	-10811
太阳辐射	-10812
她的爱情	-10813
好的模型	-10814
如何影响	-10815
如果客户	-10816
如果您的	-10817
如果需要	-10818
学习效率	-10819
学习方法	-10820
学习进度	-10821
学生可以	-10822
它们都是	-10823
它被广泛	-10824
完成项目	-10825
定期检查	-10826
定期评估	-10827
客户群体	-10828
家人提供	-10829
家庭清洁	-10830
家庭游戏	-10831
家庭用电	-10832
容易出错	-10833
对国家的	-10834
对当地的	-10835
对自己的	-10836
对调酒师	-10837
导致大量	-10838
导致许多	-10839
尤其是在	-10840
尾气排放	-10841
屏幕截图	-10842
展示你的	-10843
工业革命	-10844
工作人员	-10845
巨大贡献	-10846
帮助学生	-10847
帮助客户	-10848
帮助组织	-10849
平底锅中	-10850
并不总是	-10851
并且需要	-10852
并能够在	-10853
应该具有	-10854
度过一个	-10855
建构主义	-10856
开发新的	-10857
开始写作	-10858
当前节点	-10859
影响力的	-10860
徒步旅行	-10861
得到有效	-10862
循环利用	-10863
心和毅力	-10864
性的工作	-10865
您提供的	-10866
您的报纸	-10867
您的需求	-10868
情绪反应	-10869
情绪状态	-10870
感的提升	-10871
慈善机构	-10872
成为一名	-10873
我们能够	-10874
我们这里	-10875
我们首先	-10876
我将为您	-10877
我要一杯	-10878
或感染源	-10879
所使用的	-10880
所有人的	-10881
所有动物	-10882
所需材料	-10883
技术使用	-10884
技术增长	-10885
投资回报	-10886
抵押登记	-10887
担任总统	-10888
担心自己	-10889
招聘人员	-10890
持续时间	-10891
排序后的	-10892
排放标准	-10893
提供帮助	-10894
提供支持	-10895
提供有关	-10896
提高客户	-10897
提高效率	-10898
提高语言	-10899
插入排序	-10900
收入水平	-10901
政治格局	-10902
教育水平	-10903
数字鸿沟	-10904
数据传输	-10905
数据安全	-10906
数据科学	-10907
整个世界	-10908
文本数据	-10909
文本生成	-10910
方便用户	-10911
无法提供	-10912
日照时间	-10913
易于理解	-10914
易于阅读	-10915
星球上的	-10916
是一部由	-10917
是否为空	-10918
是感恩节	-10919
智能家居	-10920
智能音箱	-10921
更加生动	-10922
更多关于	-10923
更容易地	-10924
更快速地	-10925
更美好的	-10926
更重要的	-10927
最伟大的	-10928
有害物质	-10929
有更多的	-10930
有氧运动	-10931
有深入的	-10932
服务器端	-10933
来帮助你	-10934
标记语言	-10935
检查一个	-10936
植物细胞	-10937
模拟人类	-10938
模拟动物	-10939
欧洲国家	-10940
正在迅速	-10941
正在进行	-10942
武装入侵	-10943
每个字母	-10944
比如使用	-10945
气候危机	-10946
气温上升	-10947
气球仪式	-10948
氧化亚氮	-10949
没有任何	-10950
浪漫主义	-10951
海外领土	-10952
消防队长	-10953
添加一些	-10954
温带森林	-10955
温度上升	-10956
游戏规则	-10957
激活函数	-10958
濒危动物	-10959
火车经过	-10960
点击进入	-10961
热带雨林	-10962
犯罪分子	-10963
独立宣言	-10964
环境污染	-10965
现代主义	-10966
生成字幕	-10967
生机勃勃	-10968
生物技术	-10969
生物降解	-10970
用于分析	-10971
用于提高	-10972
用于研究	-10973
用户反馈	-10974
用户通过	-10975
用户需求	-10976
用来表达	-10977
电动牙刷	-10978
电子设备	-10979
电视节目	-10980
的世界里	-10981
的例子是	-10982
的可及性	-10983
的日子里	-10984
的最小值	-10985
的每一个	-10986
的结构和	-10987
的需求量	-10988
的颜色和	-10989
的首字母	-10990
盐和胡椒	-10991
目标系统	-10992
直接使用	-10993
相信自己	-10994
相对较低	-10995
睡眠环境	-10996
知识产权	-10997
硬件设备	-10998
碳排放量	-10999
社会保障	-11000
社会现象	-11001
社会问题	-11002
社区支持	-11003
离散程度	-11004
种族歧视	-11005
种类繁多	-11006
科学实验	-11007
程序运行	-11008
稳定供应	-11009
空气中的	-11010
穿着一件	-11011
第一定律	-11012
第三定律	-11013
简单易学	-11014
算法来对	-11015
算法通过	-11016
精心准备	-11017
系统包括	-11018
紧张刺激	-11019
繁殖后代	-11020
纸牌游戏	-11021
经济发展	-11022
经济活动	-11023
结构清晰	-11024
给予我们	-11025
给出需要	-11026
给定段落	-11027
给定输入	-11028
绝对零度	-11029
缓解焦虑	-11030
美国移民	-11031
美国经济	-11032
而不需要	-11033
职业道德	-11034
联邦军队	-11035
股票分割	-11036
能够执行	-11037
能够清楚	-11038
能够激励	-11039
能够理解	-11040
能够进行	-11041
能量矿物	-11042
膳食纤维	-11043
自动执行	-11044
自己喜欢	-11045
自己的话	-11046
自我成长	-11047
自然灾害	-11048
自然现象	-11049
自然界的	-11050
自然选择	-11051
色彩鲜艳	-11052
节省能源	-11053
范围内的	-11054
营养不良	-11055
营养丰富	-11056
血液循环	-11057
行为疗法	-11058
行打油诗	-11059
补充水分	-11060
表现良好	-11061
表示匹配	-11062
表达方式	-11063
表达能力	-11064
被我买了	-11065
视觉效果	-11066
视频通话	-11067
角色扮演	-11068
计数器中	-11069
计算一个	-11070
计算公式	-11071
计算如下	-11072
计算给定	-11073
订单状态	-11074
讨论如何	-11075
训练目的	-11076
记忆信息	-11077
许多好处	-11078
设置一个	-11079
设置提醒	-11080
访问控制	-11081
评估模型	-11082
详细介绍	-11083
详细描述	-11084
语法错误	-11085
请告诉我	-11086
课堂合作	-11087
谷歌地图	-11088
购买产品	-11089
贷款申请	-11090
贸易逆差	-11091
越南战争	-11092
路线规划	-11093
轻松愉快	-11094
这一行为	-11095
这两个词	-11096
这个季节	-11097
这些因素	-11098
这些国家	-11099
这些挑战	-11100
这位女士	-11101
这家公司	-11102
这样一来	-11103
这次旅行	-11104
这段时间	-11105
这种技术	-11106
进行处理	-11107
进行学习	-11108
进行快速	-11109
进行研究	-11110
选择哪种	-11111
通常具有	-11112
通讯设备	-11113
通过不断	-11114
通过提供	-11115
通过提高	-11116
通过改进	-11117
道德责任	-11118
遗传信息	-11119
部分组成	-11120
部署环境	-11121
都有一个	-11122
采取一些	-11123
释放能量	-11124
重要性的	-11125
销售演讲	-11126
阅读材料	-11127
阅读能力	-11128
防止犯罪	-11129
阳光明媚	-11130
阴影笼罩	-11131
降低风险	-11132
需求定律	-11133
需要掌握	-11134
需要政府	-11135
需要注意	-11136
需要消耗	-11137
需要经过	-11138
非常满意	-11139
音乐功能	-11140
预防措施	-11141
颜色方案	-11142
风景优美	-11143
风险管理	-11144
食性动物	-11145
餐饮行业	-11146
饮食减肥	-11147
驱动开发	-11148
验证软件	-11149
骨质疏松	-11150
黑客攻击	-11151
黑胡椒粉	-11152
鼓励员工	-11153
('({[	-11154
Hello	-11155
Words	-11156
acill	-11157
ality	-11158
arked	-11159
arrot	-11160
ather	-11161
class	-11162
clude	-11163
earch	-11164
ector	-11165
ently	-11166
extra	-11167
igits	-11168
inary	-11169
loyee	-11170
otion	-11171
stion	-11172
ticle	-11173
title	-11174
uplex	-11175
upper	-11176
urrit	-11177
velop	-11178
width	-11179
▁Comm	-11180
▁Mart	-11181
▁Node	-11182
▁Word	-11183
▁also	-11184
▁beat	-11185
▁each	-11186
▁font	-11187
▁form	-11188
▁good	-11189
▁happ	-11190
▁here	-11191
▁high	-11192
▁indi	-11193
▁know	-11194
▁love	-11195
▁noun	-11196
▁part	-11197
▁poss	-11198
▁prev	-11199
▁sell	-11200
▁year	-11201
▁为了确定	-11202
▁从那以后	-11203
▁列出使用	-11204
▁制定一份	-11205
▁制定预算	-11206
▁在此部分	-11207
▁在给定的	-11208
▁头脑风暴	-11209
▁它的韧性	-11210
▁定期检查	-11211
▁成本效益	-11212
▁找出给定	-11213
▁数据收集	-11214
▁渗透过程	-11215
▁生成五个	-11216
▁用两句话	-11217
▁用给定的	-11218
▁空气污染	-11219
▁给我一个	-11220
▁继续遍历	-11221
▁自然选择	-11222
▁节约能源	-11223
▁输出结果	-11224
▁这个男人	-11225
▁这个算法	-11226
▁这个陈述	-11227
▁这段代码	-11228
▁这部电影	-11229
▁远程医疗	-11230
▁阿尔伯特	-11231
▁领导能力	-11232
一个有趣的	-11233
一些简单的	-11234
一段时间的	-11235
一般持续从	-11236
一词的定义	-11237
七岁的孩子	-11238
下一个节点	-11239
不同的任务	-11240
两个人之间	-11241
严重的胸痛	-11242
个人和社会	-11243
个性化教学	-11244
丰富的数据	-11245
为他们提供	-11246
主要是由于	-11247
也可能导致	-11248
二进制表示	-11249
于空气污染	-11250
亚当斯警官	-11251
产品参与度	-11252
从而更好地	-11253
他们的服务	-11254
以便更好地	-11255
会发生什么	-11256
使用适当的	-11257
保护自己的	-11258
健康和健身	-11259
健康的工作	-11260
公众演讲的	-11261
内心深处的	-11262
几何平均数	-11263
分钟才开始	-11264
创始人之一	-11265
到您的网站	-11266
加入适量的	-11267
动植物种群	-11268
北方军队在	-11269
区块都包含	-11270
即一年中的	-11271
去中心化的	-11272
可以表示为	-11273
可以让用户	-11274
可能的方法	-11275
各有优缺点	-11276
各种不同的	-11277
吸引了无数	-11278
和强化学习	-11279
困难和挑战	-11280
在许多方面	-11281
地球的自转	-11282
塑料废物的	-11283
处世界遗产	-11284
多种不同的	-11285
大数据分析	-11286
太阳系中最	-11287
如果您需要	-11288
存储客户的	-11289
它可以用于	-11290
它可以通过	-11291
它用自己的	-11292
对人类健康	-11293
对植物生长	-11294
对调酒师说	-11295
将数据分为	-11296
并释放氧气	-11297
广泛使用的	-11298
广泛应用于	-11299
应用的核心	-11300
引人注目的	-11301
引起的疾病	-11302
弗吉尼亚州	-11303
强人工智能	-11304
当前节点的	-11305
心血管健康	-11306
心血管疾病	-11307
态度和行为	-11308
您的餐厅的	-11309
我们可以将	-11310
我作为一个	-11311
我将很乐意	-11312
我无法直接	-11313
技术的进步	-11314
折扣和促销	-11315
按字母顺序	-11316
提供了新的	-11317
提供必要的	-11318
撒上适量的	-11319
改变了人们	-11320
数学方程式	-11321
数学表达式	-11322
数据预处理	-11323
无偏估计量	-11324
时间和精力	-11325
是一个复杂	-11326
是否为闰年	-11327
是机器学习	-11328
更容易受到	-11329
最好的朋友	-11330
最早的文明	-11331
最长的河流	-11332
有偏估计量	-11333
有吸引力的	-11334
有效的时间	-11335
有用的信息	-11336
服务机器人	-11337
桌子和椅子	-11338
比较和对比	-11339
汽车经销商	-11340
注意力集中	-11341
泰坦尼克号	-11342
热带低气压	-11343
物品的清单	-11344
犯下谋杀罪	-11345
狭义相对论	-11346
班级的平均	-11347
生态系统中	-11348
生活在水生	-11349
生物进化的	-11350
申请限制令	-11351
电动剃须刀	-11352
的五个因素	-11353
的人口密度	-11354
的文章内容	-11355
的最大挑战	-11356
的经济体系	-11357
的高大身影	-11358
知识和技能	-11359
种技术趋势	-11360
积极的心态	-11361
积极的态度	-11362
空间复杂度	-11363
突如其来的	-11364
系统对外界	-11365
系统的功能	-11366
系统的潜在	-11367
经济实惠的	-11368
给用户带来	-11369
网络研讨会	-11370
美国和苏联	-11371
聚集在一起	-11372
自己内心的	-11373
至关重要的	-11374
芝加哥大火	-11375
获得更高的	-11376
营销和销售	-11377
薛定谔方程	-11378
视频或音频	-11379
解决的问题	-11380
让用户可以	-11381
许多不同的	-11382
许多小企业	-11383
语音识别和	-11384
贷款额度和	-11385
越来越多的	-11386
足够的信息	-11387
这一层负责	-11388
这个句子中	-11389
这可能导致	-11390
这篇文章的	-11391
选择不同的	-11392
选择适当的	-11393
通常发生在	-11394
重要的任务	-11395
集中注意力	-11396
需求和喜好	-11397
需要一定的	-11398
颜色和线条	-11399
风格的家具	-11400
Docker	-11401
Robert	-11402
agonia	-11403
ainted	-11404
atural	-11405
bottle	-11406
cision	-11407
ential	-11408
grades	-11409
header	-11410
imeter	-11411
insert	-11412
redict	-11413
search	-11414
termin	-11415
ything	-11416
▁Excel	-11417
▁appro	-11418
▁belie	-11419
▁brand	-11420
▁doing	-11421
▁float	-11422
▁grade	-11423
▁lower	-11424
▁major	-11425
▁might	-11426
▁offer	-11427
▁sound	-11428
▁story	-11429
▁which	-11430
▁以下是三个	-11431
▁区块链技术	-11432
▁医疗机器人	-11433
▁可再生能源	-11434
▁增长百分比	-11435
▁将以下文本	-11436
▁快乐的夏天	-11437
▁把以下句子	-11438
▁欧洲金翅雀	-11439
▁解离性障碍	-11440
▁输出结果为	-11441
▁选择正确的	-11442
▁量子计算机	-11443
三年工作经验	-11444
不确定性原理	-11445
与客户的信任	-11446
与家人或朋友	-11447
中的每个元素	-11448
为您提供一个	-11449
为我们的地球	-11450
主要来源包括	-11451
产生积极影响	-11452
产生负面影响	-11453
以下公式计算	-11454
任美国总统是	-11455
估计总体参数	-11456
位于尼泊尔与	-11457
使用人工智能	-11458
使用公共交通	-11459
全局最大利润	-11460
具有重要意义	-11461
冒泡排序算法	-11462
医疗保健服务	-11463
古巴导弹危机	-11464
可以提供更多	-11465
可以锻炼你的	-11466
可持续发展的	-11467
吸引潜在买家	-11468
和中风的风险	-11469
多层神经网络	-11470
学生债务危机	-11471
实现这一目标	-11472
家庭清洁服务	-11473
对你有所帮助	-11474
对环境的影响	-11475
导致全球变暖	-11476
带来更多便利	-11477
您的网站内容	-11478
我们需要考虑	-11479
提供了丰富的	-11480
提高公共交通	-11481
提高新陈代谢	-11482
提高生产效率	-11483
提高睡眠质量	-11484
新移动应用的	-11485
新鲜水果冰沙	-11486
方差和标准差	-11487
无机化合物则	-11488
是一种以人为	-11489
是一种常用的	-11490
是一种简单的	-11491
最常见的单词	-11492
未来做好准备	-11493
正方形的面积	-11494
每个人都应该	-11495
澳大利亚国庆	-11496
的最小公倍数	-11497
盐和黑胡椒粉	-11498
目标客户群体	-11499
矩形的面积为	-11500
线性回归模型	-11501
网络拓扑结构	-11502
能够促进大脑	-11503
能够快速分析	-11504
能够快速适应	-11505
英国海外领土	-11506
葛底斯堡战役	-11507
被认为是一种	-11508
解决气候危机	-11509
警察暴力事件	-11510
计算机科学家	-11511
计算机程序员	-11512
认知行为疗法	-11513
设备驱动程序	-11514
贸易保护措施	-11515
这种加密货币	-11516
里约热内卢市	-11517
野生动物造成	-11518
预测电子邮件	-11519
Artific	-11520
Bonjour	-11521
Example	-11522
William	-11523
cessing	-11524
elegram	-11525
eonardo	-11526
example	-11527
inorder	-11528
ligence	-11529
mployee	-11530
▁DeWitt	-11531
▁France	-11532
▁Gatsby	-11533
▁assist	-11534
▁button	-11535
▁engage	-11536
▁helper	-11537
▁number	-11538
▁please	-11539
▁square	-11540
▁世界卫生组织	-11541
▁人工智能技术	-11542
▁利用社交媒体	-11543
▁回收可以减少	-11544
▁环境可持续性	-11545
▁环法自行车赛	-11546
为您的家人提供	-11547
为无家可归人群	-11548
之间的主要区别	-11549
五边形的内角和	-11550
产生可行的结果	-11551
优秀的客户服务	-11552
传统的化石燃料	-11553
保证充足的睡眠	-11554
全球变暖的速度	-11555
创建数据透视表	-11556
化石燃料的依赖	-11557
因为您没有提供	-11558
大量的二氧化碳	-11559
学生之间的交流	-11560
实现自己的目标	-11561
我可以为您提供	-11562
我要一杯葡萄汁	-11563
拉斯科尔尼科夫	-11564
按字母顺序排列	-11565
数据的离散程度	-11566
是否为垃圾邮件	-11567
有效的时间管理	-11568
有说服力的文章	-11569
添加到区块链上	-11570
满意度和忠诚度	-11571
班级的平均成绩	-11572
理解对方的观点	-11573
的数据分析方法	-11574
的重要组成部分	-11575
算法中基本操作	-11576
解决问题的方法	-11577
训练集和测试集	-11578
该词的流行程度	-11579
这款笔记本电脑	-11580
进行调整和优化	-11581
适应环境的个体	-11582
银行或金融机构	-11583
驱动的医疗保健	-11584
骑自行车或步行	-11585
▁Bukater	-11586
▁Command	-11587
▁English	-11588
▁Service	-11589
▁article	-11590
▁celsius	-11591
▁details	-11592
▁webpage	-11593
▁written	-11594
▁一个好的领导者	-11595
▁它的韧性来自于	-11596
加拿大的生活成本	-11597
因此将其作为一个	-11598
对植物生长的影响	-11599
是否为二叉搜索树	-11600
有害物质或感染源	-11601
构建移动应用程序	-11602
自然语言处理技术	-11603
通过对大量数据的	-11604
遥感图像分类方法	-11605
邀请她一起吃午饭	-11606
部署机器学习模型	-11607
Patagonia	-11608
customers	-11609
ormalized	-11610
▁Language	-11611
▁anything	-11612
▁generate	-11613
▁students	-11614
▁这个故事告诉我们	-11615
为无家可归人群提供	-11616
人工智能和机器学习	-11617
到最后一分钟才开始	-11618
受到多种因素的影响	-11619
可以帮助个人或组织	-11620
可以根据自己的需求	-11621
是一种人工智能技术	-11622
这种方法可以帮助你	-11623
Artificial	-11624
▁Photoshop	-11625
▁perimeter	-11626
▁something	-11627
中国西藏自治区的边界	-11628
这个动作可以锻炼你的	-11629
是一种分布式数据库技术	-11630
自然语言处理和机器学习	-11631
▁collections	-11632
这款应用程序可以帮助用户	-11633
预测电子邮件是否为垃圾邮件	-11634
目标设定计划可以帮助个人或组织	-11635
位于尼泊尔与中国西藏自治区的边界	-11636
"（	-11637
'。	-11638
((	-11639
([	-11640
);	-11641
)`	-11642
>`	-11643
Ab	-11644
Am	-11645
BC	-11646
CD	-11647
DE	-11648
Fi	-11649
Ge	-11650
IN	-11651
Io	-11652
ME	-11653
My	-11654
NT	-11655
OH	-11656
Op	-11657
PL	-11658
PU	-11659
Ri	-11660
Te	-11661
To	-11662
US	-11663
VR	-11664
We	-11665
[-	-11666
]]	-11667
]`	-11668
`。	-11669
cd	-11670
dp	-11671
ep	-11672
gg	-11673
gr	-11674
ha	-11675
ib	-11676
mm	-11677
na	-11678
oc	-11679
pH	-11680
py	-11681
ql	-11682
ru	-11683
uc	-11684
wi	-11685
wn	-11686
²。	-11687
³/	-11688
īn	-11689
√(	-11690
▁&	-11691
▁?	-11692
▁_	-11693
▁~	-11694
▁乌	-11695
▁伊	-11696
▁假	-11697
▁全	-11698
▁冰	-11699
▁分	-11700
▁吃	-11701
▁喝	-11702
▁回	-11703
▁圆	-11704
▁处	-11705
▁奥	-11706
▁寂	-11707
▁并	-11708
▁找	-11709
▁据	-11710
▁整	-11711
▁最	-11712
▁期	-11713
▁本	-11714
▁果	-11715
▁法	-11716
▁润	-11717
▁烤	-11718
▁热	-11719
▁现	-11720
▁生	-11721
▁看	-11722
▁碳	-11723
▁纯	-11724
▁给	-11725
▁至	-11726
▁苏	-11727
▁英	-11728
▁蓝	-11729
▁轻	-11730
▁近	-11731
▁还	-11732
▁远	-11733
▁选	-11734
▁道	-11735
▁铁	-11736
▁银	-11737
▁问	-11738
▁鲜	-11739
一元	-11740
一分	-11741
一则	-11742
一副	-11743
一半	-11744
一口	-11745
一国	-11746
一块	-11747
一大	-11748
一度	-11749
一把	-11750
一案	-11751
一笔	-11752
一股	-11753
一锅	-11754
一面	-11755
万物	-11756
三位	-11757
三大	-11758
上午	-11759
上去	-11760
下一	-11761
下周	-11762
下棋	-11763
下班	-11764
下跌	-11765
不好	-11766
不妨	-11767
不已	-11768
不当	-11769
不必	-11770
不清	-11771
不渝	-11772
不用	-11773
不符	-11774
不耐	-11775
不言	-11776
专有	-11777
世代	-11778
世的	-11779
两极	-11780
严厉	-11781
严谨	-11782
个州	-11783
个月	-11784
个词	-11785
个项	-11786
中也	-11787
中等	-11788
丰收	-11789
为何	-11790
为假	-11791
为正	-11792
为负	-11793
主句	-11794
主持	-11795
举起	-11796
义务	-11797
之上	-11798
之夜	-11799
乙醇	-11800
书中	-11801
书名	-11802
了人	-11803
了他	-11804
了在	-11805
了对	-11806
了该	-11807
二元	-11808
二手	-11809
云朵	-11810
亚那	-11811
交给	-11812
产卵	-11813
亮点	-11814
亲子	-11815
亲密	-11816
亲眼	-11817
人与	-11818
人名	-11819
人均	-11820
人情	-11821
人脉	-11822
人队	-11823
仅供	-11824
从大	-11825
从高	-11826
他也	-11827
他和	-11828
他对	-11829
他想	-11830
他还	-11831
付诸	-11832
代词	-11833
以为	-11834
以前	-11835
以备	-11836
以往	-11837
们在	-11838
件事	-11839
伊州	-11840
优质	-11841
会使	-11842
传染	-11843
传说	-11844
伦嫩	-11845
伴侣	-11846
伽利	-11847
但也	-11848
位词	-11849
体形	-11850
体质	-11851
余额	-11852
作业	-11853
作息	-11854
你会	-11855
你就	-11856
使人	-11857
使水	-11858
例句	-11859
依依	-11860
侧重	-11861
俊昊	-11862
保罗	-11863
保育	-11864
修建	-11865
候选	-11866
值表	-11867
假期	-11868
做了	-11869
做饭	-11870
健壮	-11871
偶蹄	-11872
傲慢	-11873
僵尸	-11874
元组	-11875
兄妹	-11876
兄弟	-11877
充实	-11878
先将	-11879
光明	-11880
光的	-11881
克林	-11882
免税	-11883
入水	-11884
全力	-11885
全谷	-11886
公寓	-11887
共计	-11888
关怀	-11889
关税	-11890
关语	-11891
其所	-11892
养成	-11893
兼容	-11894
内脏	-11895
冒着	-11896
写了	-11897
写信	-11898
写出	-11899
农场	-11900
准时	-11901
减排	-11902
凝固	-11903
几点	-11904
几秒	-11905
凯尔	-11906
凯特	-11907
出售	-11908
出租	-11909
分发	-11910
分层	-11911
分开	-11912
分心	-11913
分界	-11914
分词	-11915
分隔	-11916
切块	-11917
切实	-11918
列哪	-11919
则更	-11920
初创	-11921
初期	-11922
利诺	-11923
到低	-11924
剂量	-11925
削弱	-11926
前沿	-11927
剥削	-11928
剧本	-11929
剧烈	-11930
剩余	-11931
剩菜	-11932
剽窃	-11933
加鞭	-11934
动机	-11935
动画	-11936
动着	-11937
动铁	-11938
劳特	-11939
勒索	-11940
匈牙	-11941
化等	-11942
匿名	-11943
十大	-11944
十字	-11945
十足	-11946
千万	-11947
升起	-11948
協助	-11949
单击	-11950
单支	-11951
卖方	-11952
南瓜	-11953
占领	-11954
卡特	-11955
卡罗	-11956
即为	-11957
历程	-11958
厌倦	-11959
厚度	-11960
去了	-11961
去核	-11962
去看	-11963
友善	-11964
反之	-11965
反复	-11966
发的	-11967
发货	-11968
受害	-11969
受益	-11970
变黄	-11971
叫声	-11972
可怕	-11973
可穿	-11974
可选	-11975
台上	-11976
史密	-11977
叶绿	-11978
司机	-11979
吃到	-11980
各式	-11981
各项	-11982
合并	-11983
合规	-11984
同名	-11985
同行	-11986
同音	-11987
名人	-11988
名和	-11989
后续	-11990
向她	-11991
向往	-11992
向您	-11993
吕斯	-11994
否定	-11995
含量	-11996
听证	-11997
启用	-11998
吹奏	-11999
告别	-12000
周边	-12001
和人	-12002
和低	-12003
和巴	-12004
和我	-12005
和新	-12006
和橙	-12007
和火	-12008
和煦	-12009
和盐	-12010
和睦	-12011
和词	-12012
和鼠	-12013
哀鸣	-12014
哭声	-12015
哭泣	-12016
售后	-12017
商场	-12018
嘉宾	-12019
嘴巴	-12020
器具	-12021
器等	-12022
回来	-12023
因特	-12024
固体	-12025
固态	-12026
固醇	-12027
国度	-12028
国歌	-12029
国防	-12030
图层	-12031
在多	-12032
在本	-12033
地利	-12034
地面	-12035
场的	-12036
均为	-12037
域内	-12038
培育	-12039
堵车	-12040
塑形	-12041
塔科	-12042
填入	-12043
墙面	-12044
处罚	-12045
复习	-12046
外来	-12047
外汇	-12048
外线	-12049
外表	-12050
多么	-12051
多吃	-12052
多边	-12053
大楼	-12054
大概	-12055
天堂	-12056
天赋	-12057
太棒	-12058
失调	-12059
奈川	-12060
奋力	-12061
奠定	-12062
奥运	-12063
女神	-12064
奶牛	-12065
她们	-12066
她很	-12067
好友	-12068
好莱	-12069
好转	-12070
妻子	-12071
姑娘	-12072
委内	-12073
婚姻	-12074
存放	-12075
学位	-12076
它对	-12077
它由	-12078
守护	-12079
守门	-12080
官员	-12081
实地	-12082
实的	-12083
宣战	-12084
室温	-12085
家谱	-12086
容忍	-12087
富豪	-12088
对称	-12089
导游	-12090
封闭	-12091
将于	-12092
将来	-12093
尊严	-12094
小孩	-12095
小巧	-12096
小火	-12097
小组	-12098
少的	-12099
尔纳	-12100
屋顶	-12101
履行	-12102
山间	-12103
岛上	-12104
岛国	-12105
岩石	-12106
巢穴	-12107
工学	-12108
工艺	-12109
左边	-12110
巨人	-12111
巨头	-12112
已被	-12113
巴拉	-12114
巴胺	-12115
市民	-12116
布鲁	-12117
帐号	-12118
帖子	-12119
帮你	-12120
常规	-12121
平原	-12122
年内	-12123
并把	-12124
并有	-12125
并给	-12126
幻灯	-12127
应急	-12128
底层	-12129
废墟	-12130
废除	-12131
度量	-12132
延续	-12133
延误	-12134
延长	-12135
开口	-12136
开启	-12137
异常	-12138
式和	-12139
弥漫	-12140
强劲	-12141
归属	-12142
当代	-12143
当作	-12144
当我	-12145
征服	-12146
待办	-12147
律宾	-12148
得更	-12149
得知	-12150
微调	-12151
志愿	-12152
忧郁	-12153
忽然	-12154
怀抱	-12155
态和	-12156
急剧	-12157
总值	-12158
总和	-12159
总量	-12160
恐龙	-12161
恒定	-12162
悠扬	-12163
悦耳	-12164
悬垂	-12165
悲伤	-12166
悲剧	-12167
情景	-12168
惊慌	-12169
想起	-12170
意图	-12171
意象	-12172
感性	-12173
愤慨	-12174
慰藉	-12175
懂得	-12176
成群	-12177
我不	-12178
我对	-12179
我很	-12180
或半	-12181
或大	-12182
或您	-12183
或灰	-12184
战后	-12185
战场	-12186
截取	-12187
截至	-12188
所获	-12189
所著	-12190
所说	-12191
手动	-12192
手和	-12193
手或	-12194
手表	-12195
才艺	-12196
打入	-12197
打出	-12198
打扫	-12199
打折	-12200
打着	-12201
打碎	-12202
托管	-12203
托邦	-12204
扣除	-12205
执导	-12206
扼要	-12207
承认	-12208
抗炎	-12209
折叠	-12210
折断	-12211
抛射	-12212
护肤	-12213
报价	-12214
报表	-12215
抬头	-12216
抵制	-12217
抵达	-12218
抹布	-12219
抽出	-12220
拉出	-12221
拉肯	-12222
拘无	-12223
拥抱	-12224
拨打	-12225
指挥	-12226
指环	-12227
按下	-12228
按需	-12229
挑选	-12230
挚友	-12231
挥手	-12232
挪威	-12233
挫折	-12234
挽回	-12235
接壤	-12236
接着	-12237
推迟	-12238
提到	-12239
插图	-12240
搜寻	-12241
携手	-12242
摇曳	-12243
摘录	-12244
撤退	-12245
操纵	-12246
擦干	-12247
擦拭	-12248
支柱	-12249
支点	-12250
支配	-12251
收取	-12252
收费	-12253
放心	-12254
放纵	-12255
敏锐	-12256
教训	-12257
散发	-12258
数为	-12259
整天	-12260
整治	-12261
斑纹	-12262
斗争	-12263
斗牛	-12264
料酒	-12265
斯大	-12266
新型	-12267
施肥	-12268
无处	-12269
无情	-12270
无虑	-12271
既有	-12272
日子	-12273
日志	-12274
日程	-12275
早已	-12276
时长	-12277
明喻	-12278
明快	-12279
易懂	-12280
易用	-12281
易读	-12282
星际	-12283
春天	-12284
是杂	-12285
晚的	-12286
普林	-12287
晴朗	-12288
暑假	-12289
曲折	-12290
更佳	-12291
更大	-12292
更浓	-12293
月至	-12294
有个	-12295
有何	-12296
有偏	-12297
有力	-12298
有罪	-12299
望着	-12300
期限	-12301
木头	-12302
木瓜	-12303
本国	-12304
本来	-12305
机票	-12306
机身	-12307
杀死	-12308
李明	-12309
条纹	-12310
条边	-12311
来欺	-12312
松树	-12313
松鼠	-12314
极佳	-12315
林中	-12316
林纳	-12317
果酱	-12318
枝头	-12319
枫树	-12320
枯萎	-12321
架上	-12322
柜台	-12323
柯艾	-12324
树丛	-12325
树立	-12326
树造	-12327
样子	-12328
核外	-12329
核膜	-12330
根廷	-12331
格言	-12332
框中	-12333
案例	-12334
案的	-12335
梅尔	-12336
棕色	-12337
植株	-12338
横穿	-12339
樱花	-12340
次要	-12341
欢欣	-12342
欣慰	-12343
欲望	-12344
歌唱	-12345
正宗	-12346
正念	-12347
此句	-12348
死于	-12349
每晚	-12350
每道	-12351
毛发	-12352
毛笔	-12353
民主	-12354
气势	-12355
气和	-12356
气象	-12357
氢键	-12358
水价	-12359
水位	-12360
水坝	-12361
水壶	-12362
水流	-12363
水面	-12364
求根	-12365
求生	-12366
汉堡	-12367
汹涌	-12368
沉迷	-12369
沮丧	-12370
河马	-12371
油脂	-12372
沼泽	-12373
沿途	-12374
法定	-12375
法等	-12376
法罗	-12377
注重	-12378
洗漱	-12379
流口	-12380
海浪	-12381
海狸	-12382
淘汰	-12383
深思	-12384
深林	-12385
深知	-12386
清澈	-12387
清真	-12388
清醒	-12389
渔鹰	-12390
游玩	-12391
湍急	-12392
湿润	-12393
溃疡	-12394
溪流	-12395
滋养	-12396
滋味	-12397
满怀	-12398
漏掉	-12399
漏水	-12400
演出	-12401
演唱	-12402
演奏	-12403
潮湿	-12404
激素	-12405
火海	-12406
火鸡	-12407
灰狼	-12408
灿烂	-12409
炎炎	-12410
炖煮	-12411
炖锅	-12412
烤约	-12413
烦恼	-12414
热水	-12415
热点	-12416
热的	-12417
焦点	-12418
然的	-12419
燃煤	-12420
爪子	-12421
爬上	-12422
爱着	-12423
片或	-12424
物等	-12425
物资	-12426
特尔	-12427
特质	-12428
特里	-12429
特长	-12430
犯规	-12431
狂喜	-12432
狡猾	-12433
猜测	-12434
猪肉	-12435
王之	-12436
珠峰	-12437
瓶颈	-12438
甘蓝	-12439
甜点	-12440
生的	-12441
生菜	-12442
用力	-12443
用心	-12444
用法	-12445
用语	-12446
用餐	-12447
电气	-12448
留在	-12449
留给	-12450
略有	-12451
疲力	-12452
病情	-12453
痕症	-12454
瘫痪	-12455
白糖	-12456
的两	-12457
的体	-12458
的古	-12459
的家	-12460
的牌	-12461
的线	-12462
的车	-12463
的量	-12464
的链	-12465
的雪	-12466
皮革	-12467
盆子	-12468
盲目	-12469
直播	-12470
直角	-12471
相加	-12472
相成	-12473
相符	-12474
相辅	-12475
省略	-12476
看不	-12477
看似	-12478
看作	-12479
真或	-12480
真挚	-12481
真空	-12482
眼前	-12483
睡前	-12484
短文	-12485
短诗	-12486
矿工	-12487
碱性	-12488
磁铁	-12489
种子	-12490
科研	-12491
秘鲁	-12492
积分	-12493
稅務	-12494
稍等	-12495
税率	-12496
稳重	-12497
空白	-12498
穿搭	-12499
窒息	-12500
窗口	-12501
立体	-12502
立场	-12503
竖直	-12504
竞技	-12505
竭诚	-12506
第六	-12507
等不	-12508
筑巢	-12509
简称	-12510
米的	-12511
类比	-12512
粗壮	-12513
粘贴	-12514
精致	-12515
糖粉	-12516
累加	-12517
累积	-12518
纠缠	-12519
级别	-12520
纳入	-12521
纳多	-12522
纸上	-12523
纺锤	-12524
线型	-12525
线程	-12526
细微	-12527
终点	-12528
绑定	-12529
结局	-12530
绚丽	-12531
绚烂	-12532
续航	-12533
维网	-12534
绿化	-12535
绿意	-12536
编号	-12537
缩放	-12538
缺水	-12539
罪行	-12540
置信	-12541
美化	-12542
群居	-12543
群岛	-12544
群组	-12545
翩翩	-12546
翻转	-12547
而战	-12548
而猫	-12549
聚会	-12550
肝脏	-12551
股东	-12552
肤色	-12553
胜率	-12554
胜负	-12555
胰岛	-12556
胰腺	-12557
能带	-12558
能比	-12559
脚型	-12560
腌制	-12561
臭鼬	-12562
良构	-12563
节日	-12564
节课	-12565
花儿	-12566
英尺	-12567
茁壮	-12568
茂盛	-12569
草和	-12570
草本	-12571
荒凉	-12572
药和	-12573
药品	-12574
药用	-12575
获益	-12576
萧条	-12577
落叶	-12578
落在	-12579
葛饰	-12580
葱葱	-12581
藏室	-12582
藻类	-12583
虐待	-12584
蚊液	-12585
蚊虫	-12586
蛋壳	-12587
蜜蜂	-12588
螺栓	-12589
衣裙	-12590
补助	-12591
补码	-12592
补贴	-12593
被动	-12594
被猜	-12595
袭击	-12596
裁决	-12597
裁剪	-12598
西斯	-12599
见证	-12600
观念	-12601
观赏	-12602
觅食	-12603
解救	-12604
解毒	-12605
触动	-12606
言语	-12607
讲话	-12608
设法	-12609
证书	-12610
证券	-12611
诈骗	-12612
诗人	-12613
诠释	-12614
误食	-12615
说他	-12616
课桌	-12617
谚语	-12618
谜语	-12619
谬误	-12620
谷物	-12621
货物	-12622
贴心	-12623
费城	-12624
赋值	-12625
赛事	-12626
赞誉	-12627
走到	-12628
走路	-12629
起伏	-12630
起止	-12631
起着	-12632
起舞	-12633
超凡	-12634
超的	-12635
越小	-12636
跑车	-12637
跑鞋	-12638
跟进	-12639
路径	-12640
路由	-12641
路过	-12642
跳舞	-12643
踏上	-12644
身后	-12645
身穿	-12646
车等	-12647
轨道	-12648
转变	-12649
转运	-12650
轮廓	-12651
轴和	-12652
辅导	-12653
输送	-12654
辨别	-12655
辩护	-12656
过了	-12657
过往	-12658
过滤	-12659
过长	-12660
迎接	-12661
这又	-12662
这座	-12663
进取	-12664
进的	-12665
远足	-12666
违反	-12667
违法	-12668
连词	-12669
迫使	-12670
追逐	-12671
退休	-12672
退火	-12673
适中	-12674
逃离	-12675
逃避	-12676
逆转	-12677
选址	-12678
遇见	-12679
遗忘	-12680
邮箱	-12681
都用	-12682
配上	-12683
酥脆	-12684
酸甜	-12685
采集	-12686
里程	-12687
重塑	-12688
金色	-12689
钦佩	-12690
钱财	-12691
锋利	-12692
长篇	-12693
长者	-12694
长达	-12695
门前	-12696
门票	-12697
闪电	-12698
闪闪	-12699
问我	-12700
间隙	-12701
防御	-12702
防范	-12703
阶层	-12704
阿拉	-12705
附着	-12706
降水	-12707
降至	-12708
险恶	-12709
陶瓷	-12710
随之	-12711
隔夜	-12712
雇佣	-12713
雇员	-12714
震惊	-12715
青年	-12716
青春	-12717
静静	-12718
面纱	-12719
韩国	-12720
音符	-12721
顶端	-12722
顶级	-12723
顾虑	-12724
预审	-12725
预警	-12726
领埴	-12727
领袖	-12728
风味	-12729
飞往	-12730
飞盘	-12731
飞速	-12732
饥饿	-12733
饲养	-12734
饼干	-12735
首例	-12736
首都	-12737
马桶	-12738
马特	-12739
驾车	-12740
骑车	-12741
骗子	-12742
高唱	-12743
高档	-12744
高潮	-12745
高达	-12746
高额	-12747
鲁棒	-12748
鲜嫩	-12749
鸟笼	-12750
黄河	-12751
黑夜	-12752
黑白	-12753
鼻塞	-12754
鼻子	-12755
齿间	-12756
％，	-12757
）-	-12758
：'	-12759
"、"	-12760
');	-12761
)))	-12762
*(-	-12763
.",	-12764
ANN	-12765
ARP	-12766
ATE	-12767
BST	-12768
Cal	-12769
DPH	-12770
GAW	-12771
GBT	-12772
Hom	-12773
IDI	-12774
ISP	-12775
IoT	-12776
Mac	-12777
Max	-12778
Mer	-12779
RAM	-12780
Ten	-12781
Tok	-12782
Val	-12783
__(	-12784
add	-12785
ady	-12786
agu	-12787
ake	-12788
aki	-12789
ari	-12790
ato	-12791
but	-12792
den	-12793
ect	-12794
ein	-12795
ene	-12796
ern	-12797
etw	-12798
fic	-12799
gcd	-12800
gre	-12801
hor	-12802
ift	-12803
ign	-12804
ina	-12805
isa	-12806
iss	-12807
jav	-12808
las	-12809
lip	-12810
mer	-12811
nap	-12812
nes	-12813
olk	-12814
ona	-12815
ond	-12816
oud	-12817
pon	-12818
ppo	-12819
ris	-12820
ser	-12821
sql	-12822
ted	-12823
uce	-12824
une	-12825
use	-12826
uto	-12827
▁<=	-12828
▁Ba	-12829
▁CO	-12830
▁El	-12831
▁Fe	-12832
▁Go	-12833
▁IV	-12834
▁It	-12835
▁Je	-12836
▁Jr	-12837
▁NA	-12838
▁On	-12839
▁Or	-12840
▁Ro	-12841
▁Sk	-12842
▁Un	-12843
▁VI	-12844
▁VR	-12845
▁[-	-12846
▁[[	-12847
▁[]	-12848
▁__	-12849
▁`[	-12850
▁ax	-12851
▁cv	-12852
▁da	-12853
▁fa	-12854
▁id	-12855
▁no	-12856
▁op	-12857
▁vi	-12858
▁{"	-12859
▁一些	-12860
▁两者	-12861
▁书籍	-12862
▁于是	-12863
▁人体	-12864
▁他的	-12865
▁代入	-12866
▁价值	-12867
▁企业	-12868
▁优点	-12869
▁信息	-12870
▁倒入	-12871
▁倾听	-12872
▁充分	-12873
▁关注	-12874
▁养殖	-12875
▁写下	-12876
▁农业	-12877
▁冬季	-12878
▁决策	-12879
▁创立	-12880
▁加密	-12881
▁十年	-12882
▁卡尔	-12883
▁原子	-12884
▁参加	-12885
▁参数	-12886
▁另外	-12887
▁同时	-12888
▁员工	-12889
▁哪些	-12890
▁国家	-12891
▁在这	-12892
▁坚定	-12893
▁坚果	-12894
▁埃及	-12895
▁夏天	-12896
▁夏季	-12897
▁大三	-12898
▁她做	-12899
▁她的	-12900
▁如今	-12901
▁它们	-12902
▁安提	-12903
▁完成	-12904
▁定位	-12905
▁实时	-12906
▁对比	-12907
▁导航	-12908
▁将商	-12909
▁工作	-12910
▁巴黎	-12911
▁年龄	-12912
▁广告	-12913
▁引言	-12914
▁影片	-12915
▁得到	-12916
▁微软	-12917
▁微风	-12918
▁快速	-12919
▁您的	-12920
▁所有	-12921
▁指出	-12922
▁推行	-12923
▁提倡	-12924
▁改用	-12925
▁改进	-12926
▁整体	-12927
▁文件	-12928
▁斜率	-12929
▁旅游	-12930
▁无需	-12931
▁时为	-12932
▁春季	-12933
▁智慧	-12934
▁更多	-12935
▁未来	-12936
▁本文	-12937
▁柠檬	-12938
▁标签	-12939
▁检查	-12940
▁橙子	-12941
▁欢笑	-12942
▁欢迎	-12943
▁正确	-12944
▁每周	-12945
▁每组	-12946
▁比利	-12947
▁比尔	-12948
▁比赛	-12949
▁水煮	-12950
▁水的	-12951
▁海底	-12952
▁清洁	-12953
▁温暖	-12954
▁渲染	-12955
▁演讲	-12956
▁点击	-12957
▁燃烧	-12958
▁燕麦	-12959
▁牛奶	-12960
▁狐狸	-12961
▁王子	-12962
▁现金	-12963
▁理解	-12964
▁生产	-12965
▁生命	-12966
▁疫情	-12967
▁种植	-12968
▁积极	-12969
▁突出	-12970
▁立即	-12971
▁等待	-12972
▁终于	-12973
▁结合	-12974
▁编制	-12975
▁缺点	-12976
▁网购	-12977
▁翻译	-12978
▁考虑	-12979
▁职业	-12980
▁能量	-12981
▁色彩	-12982
▁葡萄	-12983
▁行为	-12984
▁要想	-12985
▁视频	-12986
▁解冻	-12987
▁设立	-12988
▁诊断	-12989
▁请求	-12990
▁调整	-12991
▁调查	-12992
▁负责	-12993
▁财务	-12994
▁质量	-12995
▁资源	-12996
▁身体	-12997
▁软件	-12998
▁运用	-12999
▁运行	-13000
▁这场	-13001
▁这将	-13002
▁这时	-13003
▁这款	-13004
▁这篇	-13005
▁适量	-13006
▁邀请	-13007
▁那天	-13008
▁部署	-13009
▁配料	-13010
▁酸奶	-13011
▁重复	-13012
▁野花	-13013
▁阐述	-13014
▁防水	-13015
▁非洲	-13016
▁领导	-13017
▁颜色	-13018
▁风能	-13019
▁饮料	-13020
▁验证	-13021
▁鸟儿	-13022
▁齿轮	-13023
。',	-13024
一个与	-13025
一些人	-13026
一些低	-13027
一些水	-13028
一件新	-13029
一切都	-13030
一家人	-13031
一小时	-13032
一幅画	-13033
一年的	-13034
一张牌	-13035
一无二	-13036
一案中	-13037
一步步	-13038
一段话	-13039
一路上	-13040
一颗耀	-13041
一首诗	-13042
三个月	-13043
三原色	-13044
三年级	-13045
上升到	-13046
上放置	-13047
上添加	-13048
下一次	-13049
下划线	-13050
下都能	-13051
下面的	-13052
不一样	-13053
不仅在	-13054
不仅是	-13055
不停地	-13056
不可分	-13057
不客气	-13058
不属于	-13059
不幸运	-13060
不应该	-13061
不愿意	-13062
不熟悉	-13063
不耐烦	-13064
不能被	-13065
不要把	-13066
不饱和	-13067
与一个	-13068
与个人	-13069
与传统	-13070
与合作	-13071
与喜悦	-13072
与当前	-13073
与用户	-13074
与自身	-13075
且令人	-13076
业务的	-13077
丛林中	-13078
两边的	-13079
个人和	-13080
个例子	-13081
个字母	-13082
个小时	-13083
个数是	-13084
中产生	-13085
中可以	-13086
中国特	-13087
中描述	-13088
中提取	-13089
中添加	-13090
中选择	-13091
为中心	-13092
为了让	-13093
为全球	-13094
为听众	-13095
为基础	-13096
为当地	-13097
为身体	-13098
主要求	-13099
主观的	-13100
主语是	-13101
之和为	-13102
也不能	-13103
也没有	-13104
也能够	-13105
了一名	-13106
了一幅	-13107
了一本	-13108
了一组	-13109
了一辆	-13110
了人们	-13111
了什么	-13112
了公民	-13113
了各种	-13114
了她的	-13115
了网页	-13116
了解和	-13117
了解您	-13118
事实上	-13119
事物的	-13120
于传统	-13121
互动性	-13122
交易的	-13123
交易量	-13124
交通和	-13125
产品与	-13126
享受到	-13127
人与人	-13128
人体内	-13129
人口的	-13130
人性的	-13131
人死亡	-13132
人群的	-13133
从大到	-13134
他们会	-13135
他喜欢	-13136
他总是	-13137
他成功	-13138
他每天	-13139
他没有	-13140
他热爱	-13141
他自己	-13142
他认为	-13143
付费的	-13144
代码中	-13145
以减轻	-13146
以及您	-13147
以吸引	-13148
以增强	-13149
以改善	-13150
以此来	-13151
以评估	-13152
以适应	-13153
企业在	-13154
休斯顿	-13155
优点和	-13156
优点是	-13157
优良的	-13158
优雅和	-13159
会损害	-13160
会消耗	-13161
会议室	-13162
传递给	-13163
伽利略	-13164
但仍然	-13165
但最终	-13166
但这也	-13167
但随后	-13168
位置和	-13169
位著名	-13170
低脂肪	-13171
作品中	-13172
作品的	-13173
你感到	-13174
你正在	-13175
使整个	-13176
使用更	-13177
使用电	-13178
供应量	-13179
依赖性	-13180
侧重于	-13181
便利性	-13182
保护区	-13183
保护我	-13184
保持着	-13185
信号灯	-13186
借款人	-13187
做准备	-13188
做的功	-13189
健身房	-13190
储存和	-13191
储存的	-13192
元标签	-13193
公司和	-13194
公司将	-13195
共和党	-13196
其价格	-13197
其服务	-13198
兼容性	-13199
内存中	-13200
内存和	-13201
内容的	-13202
再加上	-13203
农产品	-13204
农药和	-13205
冲浪里	-13206
决定了	-13207
决定去	-13208
减少了	-13209
凯尔特	-13210
分析并	-13211
分界线	-13212
分辨率	-13213
划分为	-13214
列出了	-13215
则是指	-13216
则说明	-13217
创作出	-13218
创建了	-13219
创意营	-13220
创造了	-13221
创造和	-13222
创造性	-13223
初始值	-13224
别让我	-13225
制作出	-13226
制定者	-13227
削弱了	-13228
副作用	-13229
力量与	-13230
力量和	-13231
动物会	-13232
动铁铁	-13233
劳特布	-13234
勇敢和	-13235
勇气去	-13236
勤洗手	-13237
包饺子	-13238
匈牙利	-13239
化妆成	-13240
北方的	-13241
十年的	-13242
升高和	-13243
单位是	-13244
卢森堡	-13245
印度洋	-13246
印度的	-13247
印象派	-13248
去上班	-13249
去学校	-13250
参观了	-13251
又具有	-13252
又美味	-13253
双关语	-13254
双方都	-13255
反映出	-13256
发明家	-13257
发生于	-13258
受害者	-13259
受影响	-13260
变位词	-13261
变化等	-13262
变量的	-13263
古埃及	-13264
另一片	-13265
只包含	-13266
可以由	-13267
可回收	-13268
可穿戴	-13269
可能更	-13270
可能比	-13271
史密斯	-13272
右子树	-13273
向上的	-13274
向客户	-13275
听证会	-13276
启发式	-13277
告诉过	-13278
周围的	-13279
周期表	-13280
周长的	-13281
命名为	-13282
和不足	-13283
和互动	-13284
和交流	-13285
和产品	-13286
和人类	-13287
和他们	-13288
和价值	-13289
和优势	-13290
和传播	-13291
和体验	-13292
和促进	-13293
和信仰	-13294
和修改	-13295
和兴趣	-13296
和冬季	-13297
和分发	-13298
和利用	-13299
和化学	-13300
和听觉	-13301
和品牌	-13302
和商业	-13303
和回收	-13304
和国家	-13305
和完成	-13306
和定位	-13307
和家庭	-13308
和导航	-13309
和岛屿	-13310
和德国	-13311
和忠诚	-13312
和思考	-13313
和性别	-13314
和性能	-13315
和您的	-13316
和推广	-13317
和提高	-13318
和收益	-13319
和故事	-13320
和数学	-13321
和新教	-13322
和方向	-13323
和氧气	-13324
和水源	-13325
和洪水	-13326
和活力	-13327
和海啸	-13328
和短语	-13329
和科技	-13330
和算法	-13331
和结束	-13332
和绘画	-13333
和网络	-13334
和肌肉	-13335
和自信	-13336
和自由	-13337
和葡萄	-13338
和血管	-13339
和计算	-13340
和训练	-13341
和语言	-13342
和语音	-13343
和进步	-13344
和金色	-13345
和预防	-13346
和验证	-13347
和高度	-13348
和高效	-13349
和黄色	-13350
咖啡因	-13351
品牌的	-13352
哈希表	-13353
善良和	-13354
善良的	-13355
回到了	-13356
回收点	-13357
因为她	-13358
因此它	-13359
图案或	-13360
圆形的	-13361
在下午	-13362
在世界	-13363
在中国	-13364
在他的	-13365
在其他	-13366
在各种	-13367
在夜间	-13368
在学习	-13369
在搜索	-13370
在收集	-13371
在数学	-13372
在每个	-13373
在界面	-13374
在社会	-13375
在空中	-13376
在紧急	-13377
在虚拟	-13378
在这些	-13379
在面对	-13380
圭亚那	-13381
地发现	-13382
地回答	-13383
地欢迎	-13384
地理解	-13385
场景和	-13386
坚韧的	-13387
型山脉	-13388
埃尔哈	-13389
基因组	-13390
塞林格	-13391
增添了	-13392
壮丽的	-13393
壮观的	-13394
处死刑	-13395
外观和	-13396
外面的	-13397
多媒体	-13398
大家的	-13399
大海的	-13400
大约为	-13401
大约是	-13402
天上的	-13403
天王星	-13404
太棒了	-13405
太空中	-13406
头结点	-13407
夸张法	-13408
奉俊昊	-13409
奥运会	-13410
女神像	-13411
她一直	-13412
她发现	-13413
好朋友	-13414
好莱坞	-13415
如果有	-13416
如核桃	-13417
威尔逊	-13418
子序列	-13419
字母和	-13420
存在于	-13421
存在的	-13422
季节性	-13423
孤独的	-13424
学校日	-13425
它不是	-13426
它也是	-13427
它们对	-13428
它们来	-13429
它们还	-13430
它发出	-13431
它可能	-13432
它已经	-13433
它应该	-13434
它是由	-13435
它最初	-13436
它涉及	-13437
它试图	-13438
守门员	-13439
安静的	-13440
定制性	-13441
实体法	-13442
实验室	-13443
客户和	-13444
宽松的	-13445
对他的	-13446
对图片	-13447
对患者	-13448
对我们	-13449
对手的	-13450
对未来	-13451
对某个	-13452
对物体	-13453
对自己	-13454
对这些	-13455
将其存	-13456
将影响	-13457
将执行	-13458
将继续	-13459
将蛋糕	-13460
将面临	-13461
将食物	-13462
小时候	-13463
小目标	-13464
少量的	-13465
居住地	-13466
属性的	-13467
山爆发	-13468
山脉和	-13469
工厂和	-13470
左子树	-13471
巧妙地	-13472
已成为	-13473
已排序	-13474
已经是	-13475
巴拿马	-13476
希望和	-13477
席执行	-13478
常常会	-13479
干燥的	-13480
平台的	-13481
平等的	-13482
年中最	-13483
年利率	-13484
年复利	-13485
并且对	-13486
并保持	-13487
并分享	-13488
并利用	-13489
并可以	-13490
并增强	-13491
并安装	-13492
并对比	-13493
并尽量	-13494
并开始	-13495
并执行	-13496
并持续	-13497
并按照	-13498
并生成	-13499
并考虑	-13500
并行性	-13501
并防止	-13502
幽默的	-13503
应具有	-13504
应用到	-13505
应该与	-13506
应采取	-13507
底边长	-13508
废弃的	-13509
建议吗	-13510
建设和	-13511
开发出	-13512
开始前	-13513
弃牌堆	-13514
弥漫着	-13515
强调了	-13516
当前的	-13517
形成了	-13518
往往会	-13519
得到的	-13520
微弱的	-13521
心理学	-13522
必不可	-13523
必需品	-13524
忠诚的	-13525
快速地	-13526
怎样的	-13527
急救包	-13528
性疾病	-13529
总会有	-13530
总冠军	-13531
总是在	-13532
总线上	-13533
总结出	-13534
总费用	-13535
您已经	-13536
您是否	-13537
您没有	-13538
惊叹的	-13539
想要的	-13540
愉悦的	-13541
感到无	-13542
愿你的	-13543
成一个	-13544
成就感	-13545
成本和	-13546
我们便	-13547
我们有	-13548
我已经	-13549
我希望	-13550
我想要	-13551
我推荐	-13552
我相信	-13553
或中性	-13554
或动物	-13555
或培根	-13556
或情感	-13557
或成就	-13558
或方法	-13559
或更少	-13560
或电子	-13561
或行为	-13562
或行动	-13563
或语音	-13564
或进行	-13565
或间接	-13566
所笼罩	-13567
打印从	-13568
打招呼	-13569
找不到	-13570
找到的	-13571
技术上	-13572
抄袭和	-13573
把弓箭	-13574
投影仪	-13575
抽牌堆	-13576
拘无束	-13577
招聘者	-13578
拥挤的	-13579
指南针	-13580
指导和	-13581
指环王	-13582
按钮被	-13583
排放在	-13584
控制权	-13585
推导式	-13586
推断出	-13587
描述为	-13588
揭示了	-13589
搜索量	-13590
支气管	-13591
政府将	-13592
政策和	-13593
故障或	-13594
教育的	-13595
数字化	-13596
数字和	-13597
数字或	-13598
数据框	-13599
数据源	-13600
文化的	-13601
斗牛犬	-13602
新发现	-13603
新应用	-13604
新思想	-13605
新朋友	-13606
方便您	-13607
方式等	-13608
方法的	-13609
旅游业	-13610
无条件	-13611
无论你	-13612
既可以	-13613
日完成	-13614
日开始	-13615
时代的	-13616
时保持	-13617
时期的	-13618
时间或	-13619
时间段	-13620
时间等	-13621
昂贵的	-13622
明扼要	-13623
星球上	-13624
映射到	-13625
是一句	-13626
是一条	-13627
是一片	-13628
是企业	-13629
是关于	-13630
是关键	-13631
是因为	-13632
是完全	-13633
是方差	-13634
是根据	-13635
是每个	-13636
是海底	-13637
是细胞	-13638
是非常	-13639
显示屏	-13640
智能化	-13641
更适合	-13642
更高效	-13643
替换为	-13644
月球的	-13645
有几种	-13646
有很大	-13647
有意义	-13648
期付款	-13649
未排序	-13650
未见过	-13651
机交互	-13652
机会和	-13653
权力和	-13654
村庄的	-13655
条件和	-13656
来临时	-13657
来产生	-13658
来减轻	-13659
来分析	-13660
来制作	-13661
来展示	-13662
来得到	-13663
来执行	-13664
来找到	-13665
来支付	-13666
来构建	-13667
来理解	-13668
来训练	-13669
来证明	-13670
来降低	-13671
果汁或	-13672
染色体	-13673
柔软的	-13674
柯艾略	-13675
柯里昂	-13676
标志着	-13677
树造林	-13678
格式的	-13679
格林纳	-13680
桌面上	-13681
梵高的	-13682
棕色的	-13683
森林是	-13684
椅子和	-13685
模型在	-13686
模型等	-13687
模式并	-13688
樱花树	-13689
橄榄球	-13690
欢乐的	-13691
止痛药	-13692
此同时	-13693
此问题	-13694
此阶段	-13695
武汉市	-13696
段时间	-13697
段的中	-13698
毅力和	-13699
每一刻	-13700
每个月	-13701
每天都	-13702
比特人	-13703
比赛中	-13704
毕业的	-13705
氢氧化	-13706
河流域	-13707
法律和	-13708
法罗山	-13709
波函数	-13710
波士顿	-13711
波海啸	-13712
洋溢着	-13713
洞察力	-13714
洪水和	-13715
活力和	-13716
活动等	-13717
活跃的	-13718
流动性	-13719
测试等	-13720
测试集	-13721
海洋的	-13722
海滩上	-13723
涵盖了	-13724
深刻地	-13725
深厚的	-13726
混合云	-13727
混合物	-13728
清真寺	-13729
温柔地	-13730
温馨的	-13731
渴望着	-13732
游戏或	-13733
源自于	-13734
满足您	-13735
满足感	-13736
漏洞来	-13737
漫步在	-13738
漫长的	-13739
激发态	-13740
火星上	-13741
灯光和	-13742
灰姑娘	-13743
炉灶和	-13744
热情和	-13745
热爱和	-13746
焕然一	-13747
然后将	-13748
煎好的	-13749
照射在	-13750
煮好的	-13751
爬到了	-13752
父母会	-13753
牙齿和	-13754
牛一样	-13755
物种的	-13756
特性的	-13757
特殊的	-13758
犯罪的	-13759
犹豫地	-13760
独立的	-13761
玉米卷	-13762
环绕着	-13763
现在时	-13764
球员奖	-13765
理性的	-13766
甜美的	-13767
生日卡	-13768
生活和	-13769
生活着	-13770
用中火	-13771
用于在	-13772
用水量	-13773
由于其	-13774
甲烷和	-13775
申请者	-13776
电影的	-13777
电磁铁	-13778
留一点	-13779
的一半	-13780
的一员	-13781
的一面	-13782
的丈夫	-13783
的主体	-13784
的主句	-13785
的产生	-13786
的人性	-13787
的人才	-13788
的人数	-13789
的人群	-13790
的人际	-13791
的值为	-13792
的光线	-13793
的公司	-13794
的军事	-13795
的冬天	-13796
的冲击	-13797
的分享	-13798
的分类	-13799
的努力	-13800
的化学	-13801
的原理	-13802
的反抗	-13803
的口感	-13804
的名字	-13805
的含义	-13806
的和是	-13807
的商业	-13808
的商店	-13809
的国王	-13810
的复杂	-13811
的夏日	-13812
的字段	-13813
的家具	-13814
的家庭	-13815
的对象	-13816
的就业	-13817
的开合	-13818
的强度	-13819
的性质	-13820
的情节	-13821
的感官	-13822
的手机	-13823
的攻击	-13824
的数字	-13825
的文档	-13826
的旅游	-13827
的时态	-13828
的普及	-13829
的术语	-13830
的条件	-13831
的标签	-13832
的森林	-13833
的比喻	-13834
的没错	-13835
的法律	-13836
的注意	-13837
的渠道	-13838
的理论	-13839
的男孩	-13840
的短篇	-13841
的程序	-13842
的程度	-13843
的笔触	-13844
的管理	-13845
的索引	-13846
的结束	-13847
的绘画	-13848
的缩写	-13849
的联系	-13850
的艺术	-13851
的计数	-13852
的记忆	-13853
的设计	-13854
的诗歌	-13855
的象征	-13856
的资金	-13857
的输入	-13858
的途径	-13859
的部分	-13860
的阶乘	-13861
的限制	-13862
的隐喻	-13863
的餐厅	-13864
皮埃尔	-13865
盘子里	-13866
相符的	-13867
真值表	-13868
短缺和	-13869
短语或	-13870
研究所	-13871
破坏和	-13872
确保了	-13873
确定您	-13874
社交圈	-13875
社会中	-13876
神奇的	-13877
神奈川	-13878
私家车	-13879
科技界	-13880
积极和	-13881
移动相	-13882
移民局	-13883
程序和	-13884
程度上	-13885
突出了	-13886
第一天	-13887
等优点	-13888
等内容	-13889
等多个	-13890
等待着	-13891
等指标	-13892
等方法	-13893
等材料	-13894
等行业	-13895
等都会	-13896
算法是	-13897
篝火旁	-13898
米饭和	-13899
类动物	-13900
类型为	-13901
类水果	-13902
精彩的	-13903
精细的	-13904
紧张感	-13905
纽约州	-13906
组织和	-13907
细胞内	-13908
细致的	-13909
经历和	-13910
经常在	-13911
结果是	-13912
结果来	-13913
给主人	-13914
给人以	-13915
给人民	-13916
绝对值	-13917
网络上	-13918
网络和	-13919
罗伯特	-13920
罪犯的	-13921
老师的	-13922
老年人	-13923
者提供	-13924
而受到	-13925
而无法	-13926
而无需	-13927
而著称	-13928
职责和	-13929
联系人	-13930
股市随	-13931
胆固醇	-13932
能促进	-13933
能够为	-13934
能够从	-13935
能够以	-13936
能够被	-13937
脂肪酸	-13938
自定义	-13939
自己要	-13940
自由和	-13941
臭鼬芋	-13942
艾丽丝	-13943
艾伦的	-13944
节目的	-13945
芯片组	-13946
花园里	-13947
英特尔	-13948
英里的	-13949
苹果和	-13950
苹果派	-13951
茶匙盐	-13952
莓酸奶	-13953
蓝莓和	-13954
蕴涵式	-13955
虚构的	-13956
表示了	-13957
表面上	-13958
被困在	-13959
西半球	-13960
覆盆子	-13961
见到你	-13962
观众的	-13963
让身体	-13964
让身心	-13965
记录的	-13966
记忆力	-13967
设定的	-13968
设计中	-13969
证明了	-13970
评测者	-13971
词汇量	-13972
该网站	-13973
该职位	-13974
语音和	-13975
请重新	-13976
请问您	-13977
课堂上	-13978
谨慎地	-13979
费用的	-13980
资源和	-13981
赋予了	-13982
超能力	-13983
趣味性	-13984
踏上了	-13985
踩蛋壳	-13986
身上的	-13987
身处何	-13988
车库里	-13989
较大的	-13990
输入为	-13991
输出层	-13992
辨识度	-13993
过去式	-13994
运输和	-13995
还可能	-13996
还支持	-13997
这一刻	-13998
这一天	-13999
这个新	-14000
这些人	-14001
这只是	-14002
这可以	-14003
这可能	-14004
这样做	-14005
这样就	-14006
这里的	-14007
这需要	-14008
这首诗	-14009
进入了	-14010
进行时	-14011
连衣裙	-14012
迟到了	-14013
迷人的	-14014
适合的	-14015
选择题	-14016
通常为	-14017
通常以	-14018
通常有	-14019
通用的	-14020
逼真的	-14021
那一刻	-14022
那就是	-14023
那里的	-14024
部分是	-14025
都可能	-14026
都基于	-14027
都应该	-14028
都有着	-14029
都需要	-14030
酸循环	-14031
重大的	-14032
重奶油	-14033
重新焕	-14034
链接或	-14035
销售员	-14036
锋利的	-14037
问题时	-14038
降低患	-14039
降雨量	-14040
随机数	-14041
需要多	-14042
需要将	-14043
霜痕症	-14044
露营时	-14045
非小说	-14046
非常多	-14047
非常小	-14048
面包圈	-14049
面试官	-14050
音乐和	-14051
顺序为	-14052
预告片	-14053
食物的	-14054
餐巾纸	-14055
餐桌上	-14056
饮食和	-14057
马加鞭	-14058
马吕斯	-14059
马拉松	-14060
驾驶等	-14061
高层次	-14062
高度的	-14063
魅力和	-14064
鲜明的	-14065
鸟儿在	-14066
黑暗中	-14067
），《	-14068
---+	-14069
ABLE	-14070
Acme	-14071
Ance	-14072
Card	-14073
Fran	-14074
IMIT	-14075
Java	-14076
LGBT	-14077
Mars	-14078
Name	-14079
Nick	-14080
Open	-14081
Ruth	-14082
Tour	-14083
acea	-14084
airy	-14085
akes	-14086
ales	-14087
alia	-14088
amic	-14089
ange	-14090
arry	-14091
ased	-14092
ayer	-14093
azon	-14094
ball	-14095
berg	-14096
body	-14097
case	-14098
chat	-14099
cial	-14100
clus	-14101
cury	-14102
date	-14103
ense	-14104
enus	-14105
estC	-14106
eter	-14107
ever	-14108
fers	-14109
hist	-14110
init	-14111
ired	-14112
iter	-14113
like	-14114
lock	-14115
loss	-14116
ming	-14117
oSQL	-14118
oice	-14119
omet	-14120
orld	-14121
rain	-14122
ream	-14123
requ	-14124
rist	-14125
ross	-14126
stor	-14127
tegr	-14128
used	-14129
uter	-14130
vert	-14131
▁ARP	-14132
▁Des	-14133
▁III	-14134
▁Out	-14135
▁SQL	-14136
▁She	-14137
▁TOP	-14138
▁XOR	-14139
▁bub	-14140
▁cap	-14141
▁cat	-14142
▁clf	-14143
▁dec	-14144
▁dic	-14145
▁dri	-14146
▁eff	-14147
▁get	-14148
▁man	-14149
▁mel	-14150
▁one	-14151
▁par	-14152
▁pun	-14153
▁row	-14154
▁ser	-14155
▁sim	-14156
▁top	-14157
▁ver	-14158
▁vis	-14159
▁三原色	-14160
▁上面的	-14161
▁下列哪	-14162
▁亚马逊	-14163
▁从数组	-14164
▁他正在	-14165
▁做一些	-14166
▁健康的	-14167
▁公司应	-14168
▁决策力	-14169
▁列出与	-14170
▁加拿大	-14171
▁另一种	-14172
▁同事一	-14173
▁同事二	-14174
▁告诉我	-14175
▁土豆泥	-14176
▁在训练	-14177
▁在设计	-14178
▁夜空中	-14179
▁她正在	-14180
▁将下面	-14181
▁当我们	-14182
▁您希望	-14183
▁所有的	-14184
▁手电筒	-14185
▁数据库	-14186
▁方法来	-14187
▁是一场	-14188
▁月亮高	-14189
▁有一个	-14190
▁根据你	-14191
▁此模块	-14192
▁比特币	-14193
▁法国的	-14194
▁的左边	-14195
▁盐适量	-14196
▁第一步	-14197
▁第二次	-14198
▁第二步	-14199
▁罗密欧	-14200
▁舒适的	-14201
▁良好的	-14202
▁蛋白质	-14203
▁要制作	-14204
▁讲一个	-14205
▁请描述	-14206
▁调酒师	-14207
▁运动和	-14208
▁这道菜	-14209
▁防晒霜	-14210
▁防火墙	-14211
▁领导力	-14212
一个元素	-14213
一个包含	-14214
一个声音	-14215
一个对象	-14216
一个有序	-14217
一个项目	-14218
一份关于	-14219
一位医生	-14220
一条推文	-14221
一条直线	-14222
一杯咖啡	-14223
一道简单	-14224
万亿美元	-14225
万有引力	-14226
三个元素	-14227
三只小猪	-14228
三种颜色	-14229
三项运动	-14230
上下文中	-14231
上升趋势	-14232
下一个项	-14233
不公正的	-14234
不再需要	-14235
不可避免	-14236
不同类型	-14237
不屈不挠	-14238
不断增加	-14239
不断增长	-14240
不断探索	-14241
不断提高	-14242
不断更新	-14243
不是一个	-14244
不要错过	-14245
与因变量	-14246
与陌生人	-14247
专业知识	-14248
业务增长	-14249
业务过程	-14250
业务运营	-14251
两个主要	-14252
两个元素	-14253
两个国家	-14254
两个岛屿	-14255
两个整数	-14256
两个文本	-14257
两个朋友	-14258
两个物体	-14259
两个角色	-14260
两个超级	-14261
两位小数	-14262
两性物质	-14263
两边同时	-14264
两项研究	-14265
个人坐在	-14266
中的不同	-14267
中的主要	-14268
中的产品	-14269
中的场景	-14270
中的特征	-14271
丰富多样	-14272
临时住所	-14273
为主题的	-14274
为了保护	-14275
为了确定	-14276
为二叉树	-14277
为人类的	-14278
为基础的	-14279
为学习者	-14280
为您找到	-14281
为您服务	-14282
主机空间	-14283
主要好处	-14284
主要论点	-14285
主题派对	-14286
之间通过	-14287
也可能是	-14288
也有助于	-14289
也被称为	-14290
了大量的	-14291
了更多的	-14292
了解客户	-14293
了解您的	-14294
二分查找	-14295
五个常见	-14296
交通费用	-14297
交通路线	-14298
产品价格	-14299
产品是否	-14300
享受生活	-14301
人为错误	-14302
人们开始	-14303
人们选择	-14304
人力资源	-14305
人工干预	-14306
人物之一	-14307
人类助手	-14308
人类拥有	-14309
人类文明	-14310
人类理解	-14311
人类生存	-14312
人类语言	-14313
人际交流	-14314
什么帮助	-14315
什么样的	-14316
从伦敦到	-14317
从而产生	-14318
从而增强	-14319
从而导致	-14320
仔细研究	-14321
他们各自	-14322
他们已经	-14323
他们彼此	-14324
他出生于	-14325
他遇到了	-14326
付诸实践	-14327
代码中的	-14328
代码实现	-14329
代表一个	-14330
代表职位	-14331
以上步骤	-14332
以下方式	-14333
以便能够	-14334
以免损坏	-14335
以及它们	-14336
以及控制	-14337
以及确定	-14338
以获得更	-14339
价格合理	-14340
任何地点	-14341
任何时间	-14342
任何问题	-14343
企业发展	-14344
优化问题	-14345
会议室内	-14346
传粉者的	-14347
但它们的	-14348
但已经在	-14349
住着一位	-14350
体积流量	-14351
作为一种	-14352
作出贡献	-14353
作息时间	-14354
你只需要	-14355
你想知道	-14356
你有什么	-14357
你的建议	-14358
使其成为	-14359
使您能够	-14360
使用各种	-14361
使用字典	-14362
使用欧元	-14363
供水管网	-14364
供水系统	-14365
促进睡眠	-14366
促进身体	-14367
保存文件	-14368
保护措施	-14369
保持健康	-14370
保持社交	-14371
保持高效	-14372
保育中心	-14373
信息技术	-14374
信息获取	-14375
信用价值	-14376
信用报告	-14377
信用数据	-14378
信用风险	-14379
倒序排列	-14380
值得一读	-14381
假设我们	-14382
偏远地区	-14383
做些什么	-14384
做出一个	-14385
做的事情	-14386
健康需求	-14387
偿还债务	-14388
元素之一	-14389
克萨斯州	-14390
入侵物种	-14391
全球性的	-14392
全球气候	-14393
公交车上	-14394
公因数是	-14395
公平竞争	-14396
公开透明	-14397
其他一些	-14398
其他原因	-14399
其期望值	-14400
内容包括	-14401
内容应该	-14402
再次发生	-14403
农业技术	-14404
农业灌溉	-14405
农村地区	-14406
决策树的	-14407
决策过程	-14408
冷冻食品	-14409
准备工作	-14410
减少污染	-14411
几个方面	-14412
几何形状	-14413
出现问题	-14414
出现频率	-14415
出行方式	-14416
分布式的	-14417
分析客户	-14418
分析数据	-14419
分析文本	-14420
分配时间	-14421
分配系统	-14422
分隔开来	-14423
列表中的	-14424
则是一种	-14425
创建图形	-14426
创建插图	-14427
创建特定	-14428
创新方法	-14429
创造性的	-14430
初创公司	-14431
删除其中	-14432
利率水平	-14433
利用这些	-14434
利诺伊州	-14435
别让我走	-14436
制作咖啡	-14437
制作奶昔	-14438
制造业中	-14439
力的大小	-14440
功能主义	-14441
加入洋葱	-14442
动物救援	-14443
勒索软件	-14444
包括数据	-14445
北方联邦	-14446
北美洲和	-14447
医学领域	-14448
医生进行	-14449
医疗系统	-14450
华氏温度	-14451
华盛顿州	-14452
单支铅笔	-14453
南北战争	-14454
南方邦联	-14455
历史事件	-14456
原因包括	-14457
参与度和	-14458
参加考试	-14459
及时发现	-14460
及时调整	-14461
反应生成	-14462
反馈信息	-14463
发生什么	-14464
受到外部	-14465
受到许多	-14466
口语练习	-14467
只是一个	-14468
可以吸引	-14469
可以实时	-14470
可以带来	-14471
可以成为	-14472
可以找到	-14473
可以描述	-14474
可以混合	-14475
可以获得	-14476
可以表示	-14477
可以轻松	-14478
可以避免	-14479
可以邀请	-14480
可以防止	-14481
可能会使	-14482
可能会在	-14483
可能具有	-14484
可能出现	-14485
可能引起	-14486
可能无法	-14487
可能面临	-14488
合法权益	-14489
同一个人	-14490
同时注意	-14491
否则返回	-14492
听众了解	-14493
告诉他们	-14494
呼吸新鲜	-14495
呼吸系统	-14496
呼啸而过	-14497
和加拿大	-14498
和安全的	-14499
和快乐的	-14500
和数据框	-14501
和服务器	-14502
和法律的	-14503
和海王星	-14504
和深拷贝	-14505
和谐共处	-14506
和谐发展	-14507
和鼠海豚	-14508
咨询专业	-14509
哥伦比亚	-14510
哪个国家	-14511
哲学段落	-14512
唯一标识	-14513
商品描述	-14514
喜欢运动	-14515
四个元素	-14516
四个季节	-14517
回到过去	-14518
回归问题	-14519
因此需要	-14520
因特拉肯	-14521
国内生产	-14522
国际合作	-14523
国际组织	-14524
国际贸易	-14525
图像生成	-14526
圆形图案	-14527
土地流失	-14528
在人生的	-14529
在家制作	-14530
在线培训	-14531
在线粒体	-14532
在线购买	-14533
在线银行	-14534
在美国的	-14535
在自己的	-14536
在草地上	-14537
在高度为	-14538
地壳运动	-14539
地球是平	-14540
垃圾分类	-14541
基于规则	-14542
基于这些	-14543
基因物质	-14544
基督教和	-14545
基础上的	-14546
增加生产	-14547
增加网站	-14548
增强您的	-14549
增强肌肉	-14550
增强自信	-14551
墨西哥城	-14552
处理单元	-14553
处理数值	-14554
备受赞誉	-14555
外出就餐	-14556
多样性和	-14557
多样性的	-14558
多种原因	-14559
多种措施	-14560
多种疾病	-14561
大约需要	-14562
大蒜和姜	-14563
失业率的	-14564
奴隶制的	-14565
奶昔基础	-14566
好的数据	-14567
如何工作	-14568
如何改变	-14569
如何进行	-14570
如太阳能	-14571
如果一个	-14572
如果他们	-14573
如果你想	-14574
如果您想	-14575
如果数据	-14576
委内瑞拉	-14577
字体选择	-14578
存储设备	-14579
学习新的	-14580
学习材料	-14581
学习算法	-14582
学习能力	-14583
学校安全	-14584
学生记录	-14585
学生贷款	-14586
它不需要	-14587
它也可以	-14588
它们一般	-14589
它们主要	-14590
它们共同	-14591
它们通过	-14592
它们需要	-14593
它依赖于	-14594
它可以为	-14595
它描述了	-14596
它有助于	-14597
它的速度	-14598
它让我们	-14599
安全协议	-14600
安全威胁	-14601
安全意识	-14602
安全漏洞	-14603
安装节水	-14604
完成一次	-14605
完成各种	-14606
完成您的	-14607
完成这个	-14608
定制化的	-14609
定期审查	-14610
实体法和	-14611
实现如下	-14612
实现方式	-14613
实现目标	-14614
实现经济	-14615
实现长期	-14616
实用技巧	-14617
实际行动	-14618
客户订单	-14619
客户评价	-14620
客户需要	-14621
客服人员	-14622
家庭收入	-14623
家庭预算	-14624
容易受到	-14625
密不可分	-14626
寒冷温度	-14627
对人类和	-14628
对他人的	-14629
对企业的	-14630
对小企业	-14631
对自行车	-14632
寻求帮助	-14633
导师能够	-14634
就可以在	-14635
就是一个	-14636
就能找到	-14637
尽量使用	-14638
尽量保持	-14639
属于申根	-14640
岁孩子的	-14641
工业污染	-14642
巨大影响	-14643
市场价格	-14644
希望找到	-14645
希望通过	-14646
希腊酸奶	-14647
带来巨大	-14648
席执行官	-14649
帮助人类	-14650
帮助患者	-14651
平均温度	-14652
年轻人们	-14653
并不一定	-14654
并且可以	-14655
并且没有	-14656
并向他们	-14657
并行计算	-14658
幸福快乐	-14659
广泛用于	-14660
庆祝活动	-14661
库存水平	-14662
应用包括	-14663
应用界面	-14664
应用软件	-14665
应该注意	-14666
应该清晰	-14667
废弃物的	-14668
建立完善	-14669
建议一个	-14670
建议使用	-14671
建造一座	-14672
开始一天	-14673
开始对话	-14674
开始标签	-14675
开始遍历	-14676
引起胸痛	-14677
当前迭代	-14678
当地经济	-14679
当我们对	-14680
当选总统	-14681
循环经济	-14682
心旷神怡	-14683
心理状态	-14684
心脏健康	-14685
快递公司	-14686
快速响应	-14687
快速找到	-14688
思维方式	-14689
性的信息	-14690
总是追求	-14691
总的来说	-14692
恢复时间	-14693
患者监护	-14694
您也可以	-14695
您提到的	-14696
您的内容	-14697
您的订单	-14698
您选择的	-14699
悲惨世界	-14700
情感状态	-14701
想出一个	-14702
意见领袖	-14703
意识形态	-14704
感到没有	-14705
我们已经	-14706
我们必须	-14707
我们进行	-14708
我会尽力	-14709
或者使用	-14710
房东需要	-14711
所有数字	-14712
所有这些	-14713
所获荣誉	-14714
所购买的	-14715
执行死刑	-14716
执行计划	-14717
找到他们	-14718
投资者或	-14719
抗议活动	-14720
折扣优惠	-14721
抛体运动	-14722
报告生成	-14723
抱歉听到	-14724
抽象概念	-14725
拓宽教学	-14726
拥有一个	-14727
拥有许多	-14728
持续风速	-14729
指的是在	-14730
指的是由	-14731
捍卫正义	-14732
排放大量	-14733
探讨一下	-14734
接收来自	-14735
控制支出	-14736
控制设备	-14737
描述一个	-14738
提交按钮	-14739
提供动力	-14740
提供及时	-14741
提供实时	-14742
提供快速	-14743
提出一个	-14744
提醒我们	-14745
提高资源	-14746
搅拌机中	-14747
搜索算法	-14748
摄像头和	-14749
撰写一篇	-14750
支出项目	-14751
收入增加	-14752
改变世界	-14753
改善城市	-14754
改善环境	-14755
放松技巧	-14756
敏感信息	-14757
敏感数据	-14758
救援人员	-14759
教学视频	-14760
教学质量	-14761
教职员工	-14762
教育背景	-14763
数字营销	-14764
数学分支	-14765
数学问题	-14766
数据丢失	-14767
数据泄露	-14768
数据驱动	-14769
敲打物体	-14770
整个大陆	-14771
整个王国	-14772
整个网络	-14773
整天都在	-14774
整数规划	-14775
文化实践	-14776
文本摘要	-14777
文本编辑	-14778
文本进行	-14779
文章中的	-14780
新冠肺炎	-14781
新技术来	-14782
新的区块	-14783
方式不同	-14784
方程式中	-14785
旅游景点	-14786
旅行行程	-14787
旅行计划	-14788
无拘无束	-14789
无法直接	-14790
无法获得	-14791
无法访问	-14792
日本料理	-14793
旨在促进	-14794
时尚品牌	-14795
时尚趋势	-14796
时应注意	-14797
时间安排	-14798
时间表和	-14799
映射关系	-14800
是一个非	-14801
是一种将	-14802
是指一种	-14803
是指通过	-14804
是生活在	-14805
是蓝色的	-14806
普林斯顿	-14807
智能设备	-14808
更为合理	-14809
更加灵活	-14810
更加精彩	-14811
更加美好	-14812
更加高效	-14813
更多资源	-14814
更容易被	-14815
更有可能	-14816
最不可能	-14817
最有价值	-14818
最有可能	-14819
月球继续	-14820
有丝分裂	-14821
有何不同	-14822
有害气体	-14823
有机废物	-14824
有的家里	-14825
服务器上	-14826
服务行业	-14827
服务质量	-14828
服装品牌	-14829
期间保持	-14830
权力腐败	-14831
权衡利弊	-14832
条件反射	-14833
来到地球	-14834
来源之一	-14835
极地冰盖	-14836
极性分子	-14837
枪支犯罪	-14838
查找范围	-14839
标志应当	-14840
根据市场	-14841
棋类游戏	-14842
植树造林	-14843
模型需要	-14844
模型预测	-14845
横截面积	-14846
横穿道路	-14847
次要来源	-14848
正常运行	-14849
正常邮件	-14850
正念冥想	-14851
此过程中	-14852
死亡病例	-14853
段的中点	-14854
每个元素	-14855
每个字符	-14856
每个样本	-14857
每个玩家	-14858
每天都会	-14859
每天阅读	-14860
每月预算	-14861
比较两个	-14862
气温升高	-14863
氧气氧化	-14864
水平方向	-14865
治疗方法	-14866
治疗焦虑	-14867
法律规定	-14868
注意到了	-14869
洋葱大蒜	-14870
洗车服务	-14871
活在当下	-14872
流行音乐	-14873
测试用例	-14874
海水中的	-14875
海水膨胀	-14876
海洋污染	-14877
深入了解	-14878
深刻印象	-14879
深远影响	-14880
混乱程度	-14881
混合动力	-14882
混合均匀	-14883
湖边慢跑	-14884
潜在好处	-14885
潜在风险	-14886
激励能力	-14887
濒危物种	-14888
烹饪方式	-14889
烹饪用具	-14890
然后加入	-14891
然后根据	-14892
然后通过	-14893
牛排放在	-14894
牧羊少年	-14895
物种灭绝	-14896
特别是在	-14897
特定主题	-14898
特征信息	-14899
独一无二	-14900
环保组织	-14901
环境保护	-14902
环境问题	-14903
现在正在	-14904
理解能力	-14905
瑜伽中的	-14906
生动活泼	-14907
生命中的	-14908
生命安全	-14909
生日快乐	-14910
生活更加	-14911
生物群系	-14912
生物群落	-14913
生理指标	-14914
用于存储	-14915
用于支持	-14916
用于评估	-14917
用户使用	-14918
用来表示	-14919
用电习惯	-14920
由于缺乏	-14921
电动汽车	-14922
电动滑板	-14923
电子产品	-14924
电子表格	-14925
电源开关	-14926
电视广告	-14927
疫情导致	-14928
疾病传播	-14929
的中位数	-14930
的价格点	-14931
的优点是	-14932
的估计量	-14933
的信息吗	-14934
的可靠性	-14935
的大规模	-14936
的形容词	-14937
的总费用	-14938
的数据库	-14939
的方法是	-14940
的时间是	-14941
的短故事	-14942
的第二个	-14943
的语言和	-14944
的身体和	-14945
的那个数	-14946
监狱过度	-14947
目标元素	-14948
目标前进	-14949
目标市场	-14950
直到找到	-14951
直接影响	-14952
直线上的	-14953
直线运动	-14954
相对简单	-14955
相辅相成	-14956
看到的是	-14957
眼神接触	-14958
矿物燃料	-14959
研究如何	-14960
研究方向	-14961
确保它们	-14962
社会公正	-14963
社会安全	-14964
社会绩效	-14965
科学家和	-14966
科学技术	-14967
科学方法	-14968
科学知识	-14969
科技公司	-14970
科技创新	-14971
科技领域	-14972
积极参与	-14973
移动应用	-14974
移民申请	-14975
稳定性较	-14976
穿越时空	-14977
突然停止	-14978
立即就医	-14979
立方体有	-14980
竖直方向	-14981
竞争优势	-14982
童话故事	-14983
第一印象	-14984
等领域中	-14985
签订合同	-14986
简单地说	-14987
简单易用	-14988
简洁大方	-14989
简洁易懂	-14990
简洁易读	-14991
篮球比赛	-14992
类中建立	-14993
精确控制	-14994
系统状态	-14995
系统需要	-14996
紧急会议	-14997
紫色光的	-14998
繁星点点	-14999
线性关系	-15000
线性方程	-15001
组合起来	-15002
组织结构	-15003
细胞核膜	-15004
经典游戏	-15005
绘制一个	-15006
给人一种	-15007
给出一个	-15008
给定数据	-15009
统计分析	-15010
继续努力	-15011
继续探索	-15012
续航能力	-15013
综合考虑	-15014
绿色债券	-15015
网络广告	-15016
网络服务	-15017
网络电缆	-15018
网络结构	-15019
罗马数字	-15020
美国领土	-15021
者的角色	-15022
而是一个	-15023
而是通过	-15024
联系信息	-15025
聚类算法	-15026
背景图片	-15027
背景设定	-15028
胜利次数	-15029
能够及时	-15030
能够吸收	-15031
能够增加	-15032
能源安全	-15033
能源生产	-15034
脱脂牛奶	-15035
自动完成	-15036
自己需要	-15037
自然环境	-15038
自然过程	-15039
致力于为	-15040
航空公司	-15041
良好睡眠	-15042
良构公式	-15043
花费大量	-15044
英文字母	-15045
茁壮成长	-15046
草本植物	-15047
草食动物	-15048
药用植物	-15049
获得成功	-15050
菜肴类型	-15051
菠菜和菲	-15052
营养物质	-15053
营销计划	-15054
葛饰北斋	-15055
蔬菜炖锅	-15056
虚拟助手	-15057
虽然两者	-15058
血糖水平	-15059
表演艺术	-15060
要求政府	-15061
解决复杂	-15062
解决方法	-15063
解决美国	-15064
解决这个	-15065
警告消息	-15066
计算数字	-15067
计算机中	-15068
计算机的	-15069
订单信息	-15070
讨论主题	-15071
让人无法	-15072
训练计划	-15073
许多植物	-15074
设定一个	-15075
设计理念	-15076
访问权限	-15077
诗歌形式	-15078
详细阐述	-15079
语法正确	-15080
语言流畅	-15081
诸多好处	-15082
诸多挑战	-15083
调整模型	-15084
负面情绪	-15085
财产损失	-15086
财务状况	-15087
货币价值	-15088
质的合成	-15089
贫困家庭	-15090
贫富差距	-15091
购买了一	-15092
购房贷款	-15093
贷款合同	-15094
资源有限	-15095
走向成功	-15096
起止日期	-15097
软件质量	-15098
输入变量	-15099
迅速蔓延	-15100
过去五年	-15101
过去时态	-15102
运动可以	-15103
运动方式	-15104
运动能够	-15105
运用这些	-15106
运算速度	-15107
运营成本	-15108
运营效率	-15109
运行成本	-15110
运行速度	-15111
还会导致	-15112
还导致了	-15113
还有许多	-15114
这一理论	-15115
这一问题	-15116
这个世界	-15117
这个函数	-15118
这个数字	-15119
这个方程	-15120
这个男人	-15121
这个目标	-15122
这个网站	-15123
这些技术	-15124
这些数字	-15125
这些词汇	-15126
这些资源	-15127
这些软件	-15128
这些都会	-15129
这包括对	-15130
这场战争	-15131
这幅画作	-15132
这段文字	-15133
这种关系	-15134
这种疾病	-15135
这种草药	-15136
这种音乐	-15137
这组数字	-15138
进一步地	-15139
进行决策	-15140
进行描述	-15141
进行改进	-15142
进行数据	-15143
进行检查	-15144
进行评估	-15145
远程办公	-15146
适当休息	-15147
选择颜色	-15148
逐渐减少	-15149
逐渐增加	-15150
通信技术	-15151
通常会在	-15152
通常通过	-15153
通过冥想	-15154
通过发现	-15155
通过学习	-15156
通过实验	-15157
通过智能	-15158
通过模拟	-15159
通过采取	-15160
造成危害	-15161
造成损害	-15162
逻辑谬误	-15163
遍历整个	-15164
道德体系	-15165
道德困境	-15166
道德标准	-15167
遗传算法	-15168
避免过多	-15169
都会产生	-15170
都受到了	-15171
都是基于	-15172
都是非常	-15173
都有很多	-15174
都能过上	-15175
释放压力	-15176
重力作用	-15177
重大影响	-15178
重新排列	-15179
重要信息	-15180
野餐清单	-15181
量子算法	-15182
金融市场	-15183
鉴定鸟类	-15184
销售管道	-15185
错误代码	-15186
锻炼计划	-15187
闪闪发光	-15188
问题日益	-15189
阅读环境	-15190
防护措施	-15191
阿尔伯特	-15192
阿提克斯	-15193
降序排列	-15194
随着时间	-15195
隐私保护	-15196
隔离措施	-15197
难以支撑	-15198
难以置信	-15199
雇主要求	-15200
雨水收集	-15201
需求增加	-15202
需求曲线	-15203
需要多少	-15204
需要结合	-15205
霍比特人	-15206
非常出色	-15207
非常容易	-15208
非常强大	-15209
非常生气	-15210
音乐播放	-15211
页面上的	-15212
页面标题	-15213
预测效果	-15214
预测股票	-15215
预热烤箱	-15216
预订航班	-15217
颜色搭配	-15218
风俗习惯	-15219
风险评估	-15220
飞速发展	-15221
食材制作	-15222
饮食习惯	-15223
首先确定	-15224
驾驶员的	-15225
高额回报	-15226
鲜花盛开	-15227
黑盒测试	-15228
齿轮传动	-15229
Chars	-15230
Covid	-15231
Daisy	-15232
Eclip	-15233
Excel	-15234
Intel	-15235
Press	-15236
Super	-15237
Watch	-15238
acter	-15239
ading	-15240
alist	-15241
andas	-15242
ander	-15243
astor	-15244
atest	-15245
ating	-15246
cycle	-15247
ement	-15248
erson	-15249
first	-15250
imous	-15251
inger	-15252
javas	-15253
jsklf	-15254
learn	-15255
least	-15256
light	-15257
ments	-15258
onder	-15259
oplas	-15260
owing	-15261
oyful	-15262
pport	-15263
range	-15264
ravel	-15265
ready	-15266
rowth	-15267
score	-15268
stant	-15269
stein	-15270
ument	-15271
uthor	-15272
viron	-15273
water	-15274
▁----	-15275
▁King	-15276
▁Lily	-15277
▁Love	-15278
▁Mark	-15279
▁Ruth	-15280
▁They	-15281
▁When	-15282
▁aren	-15283
▁away	-15284
▁card	-15285
▁comp	-15286
▁copy	-15287
▁date	-15288
▁disc	-15289
▁door	-15290
▁feel	-15291
▁item	-15292
▁mult	-15293
▁once	-15294
▁only	-15295
▁orig	-15296
▁pass	-15297
▁path	-15298
▁show	-15299
▁temp	-15300
▁then	-15301
▁used	-15302
▁valu	-15303
▁walk	-15304
▁一种创意	-15305
▁人为灾害	-15306
▁优化网站	-15307
▁你有什么	-15308
▁信息检索	-15309
▁具体来说	-15310
▁内容营销	-15311
▁写一个以	-15312
▁冠状病毒	-15313
▁减少污染	-15314
▁减少浪费	-15315
▁列出三件	-15316
▁创作一个	-15317
▁创建一条	-15318
▁利用剩菜	-15319
▁制作冰沙	-15320
▁可以放在	-15321
▁可以通过	-15322
▁合作推广	-15323
▁哈希函数	-15324
▁在线教育	-15325
▁垃圾处理	-15326
▁增长数值	-15327
▁大三和弦	-15328
▁如果您想	-15329
▁如果您是	-15330
▁如果我们	-15331
▁工业生产	-15332
▁建立一个	-15333
▁建议一种	-15334
▁开发一个	-15335
▁强化学习	-15336
▁意大利面	-15337
▁所需材料	-15338
▁找出一个	-15339
▁找出数字	-15340
▁投资股票	-15341
▁描述以下	-15342
▁操作系统	-15343
▁数据隐私	-15344
▁有氧运动	-15345
▁枪支暴力	-15346
▁查理二世	-15347
▁模型评估	-15348
▁注意事项	-15349
▁消防队长	-15350
▁澳大利亚	-15351
▁热带风暴	-15352
▁环境保护	-15353
▁环境友好	-15354
▁用户界面	-15355
▁电子邮件	-15356
▁的导数是	-15357
▁的首都是	-15358
▁睡眠充足	-15359
▁确定您的	-15360
▁算法交易	-15361
▁组织可以	-15362
▁经济效益	-15363
▁给出一个	-15364
▁网上购物	-15365
▁虚拟学习	-15366
▁解决这个	-15367
▁记录员工	-15368
▁设定目标	-15369
▁说出一种	-15370
▁这个函数	-15371
▁这个问题	-15372
▁这段文字	-15373
▁选择颜色	-15374
▁量子计算	-15375
▁随机森林	-15376
▁预测以下	-15377
▁预测分析	-15378
▁黑盒测试	-15379
一个可能的	-15380
一些建议和	-15381
一定数量的	-15382
一种新语言	-15383
一门新语言	-15384
一颗耀眼的	-15385
不利的影响	-15386
不可篡改性	-15387
不同地区的	-15388
不同的输入	-15389
不同的需求	-15390
不得不离开	-15391
不错的选择	-15392
与他人一起	-15393
与他人交流	-15394
与其他用户	-15395
与实例对象	-15396
两种宗教都	-15397
严格的安全	-15398
中国特色的	-15399
中间有一个	-15400
为主动语态	-15401
主题相关的	-15402
之间存在正	-15403
之间的互动	-15404
之间的对话	-15405
之间的距离	-15406
也有很大的	-15407
了一个名为	-15408
了解自己的	-15409
事实或数据	-15410
交易的安全	-15411
交流方式的	-15412
交织在一起	-15413
人口最多的	-15414
人工智能还	-15415
人类的生存	-15416
从外界吸收	-15417
从小到大的	-15418
他们来到了	-15419
他们的工作	-15420
令人惊叹的	-15421
以提高预测	-15422
价格上涨时	-15423
企业和个人	-15424
优化问题的	-15425
优秀的员工	-15426
会释放大量	-15427
但它们之间	-15428
位于伊拉克	-15429
作者的姓名	-15430
作者的观点	-15431
你可以使用	-15432
你可以根据	-15433
你可以通过	-15434
你没有提供	-15435
你需要确定	-15436
使用可靠的	-15437
使用清晰的	-15438
侵犯了公民	-15439
保持竞争力	-15440
保证数据的	-15441
做好充分的	-15442
公立学校的	-15443
其他神经元	-15444
具体的句子	-15445
具体的诗歌	-15446
具备良好的	-15447
具有出色的	-15448
具有很强的	-15449
具有独特的	-15450
具有较高的	-15451
内容和结构	-15452
军事机器人	-15453
农药和化肥	-15454
冥想的好处	-15455
冰淇淋口味	-15456
决心和毅力	-15457
决策树模型	-15458
准确的预测	-15459
减少水污染	-15460
函数来计算	-15461
列表推导式	-15462
制定有效的	-15463
力和注意力	-15464
劳特布伦嫩	-15465
勇敢地面对	-15466
勇敢的骑士	-15467
医疗保健可	-15468
协作的力量	-15469
博客文章的	-15470
印度尼西亚	-15471
压力和焦虑	-15472
原因是什么	-15473
及时的反馈	-15474
发布新闻稿	-15475
可以为沙拉	-15476
可持续利用	-15477
可爱的小狗	-15478
可穿戴设备	-15479
可能会增加	-15480
可能发生的	-15481
合色素分子	-15482
同时也可以	-15483
同时也能够	-15484
后面一个点	-15485
含有大量的	-15486
吸引更多人	-15487
吸烟会增加	-15488
和不确定性	-15489
和二氧化碳	-15490
和促销活动	-15491
和发展机会	-15492
和土壤污染	-15493
和无氧运动	-15494
和流行文化	-15495
和湿度水平	-15496
和环境保护	-15497
和生态系统	-15498
和社会问题	-15499
和管理数据	-15500
和解决问题	-15501
和谷歌文档	-15502
商品或服务	-15503
国家的经济	-15504
图案或文字	-15505
在世界各地	-15506
在人工智能	-15507
在公共场所	-15508
在商业领域	-15509
在教育领域	-15510
在解决问题	-15511
基于区块链	-15512
塑造了一个	-15513
塔芝士蛋饼	-15514
增加或减少	-15515
多种多样的	-15516
夜晚看起来	-15517
太阳能发电	-15518
她穿着一件	-15519
好的建议吗	-15520
如二氧化碳	-15521
如果您提供	-15522
如果网站的	-15523
如果这个人	-15524
字典来存储	-15525
学习新技能	-15526
孩子们可以	-15527
它们对人类	-15528
宝藏的碎片	-15529
实现的目标	-15530
实际生活中	-15531
客户参与度	-15532
客户忠诚度	-15533
对学生表现	-15534
对模型进行	-15535
对环境产生	-15536
对身体健康	-15537
就能更好地	-15538
局部最大值	-15539
局部最小值	-15540
展示了一个	-15541
展示了人类	-15542
属于自己的	-15543
巨大的汉堡	-15544
已经有销售	-15545
希望您能够	-15546
带来巨大的	-15547
帮助投资者	-15548
常见的宠物	-15549
平均质量为	-15550
平衡的股票	-15551
年统计数据	-15552
年龄列表的	-15553
并对其进行	-15554
并采取措施	-15555
广泛的应用	-15556
应该从政府	-15557
应该有一个	-15558
废弃的房屋	-15559
度过了一段	-15560
开发过程中	-15561
形状的面积	-15562
彻底改变了	-15563
心脏和血管	-15564
思维能力和	-15565
性和可靠性	-15566
患者的健康	-15567
您可以按照	-15568
您可能需要	-15569
您所提到的	-15570
您需要使用	-15571
悬垂修饰语	-15572
惊人的速度	-15573
意见和建议	-15574
感冒和流感	-15575
成为了一个	-15576
成功的关键	-15577
我们更容易	-15578
我们的使命	-15579
我们的地球	-15580
我们的未来	-15581
我可以为你	-15582
或骑自行车	-15583
所有的动物	-15584
技术和算法	-15585
拥有出色的	-15586
按照自己的	-15587
排版和格式	-15588
控制自己的	-15589
提供了各种	-15590
提高生产力	-15591
提高网站的	-15592
支持和帮助	-15593
支球队组成	-15594
收件人姓名	-15595
放到已排序	-15596
政策制定者	-15597
故事的主题	-15598
数据分析和	-15599
数据可视化	-15600
数据的学习	-15601
整数是否为	-15602
文本机器人	-15603
文章的主题	-15604
斯波特先生	-15605
新投资者的	-15606
新的可能性	-15607
新营销活动	-15608
旅游目的地	-15609
无与伦比的	-15610
时间的演变	-15611
明亮的颜色	-15612
是一年中最	-15613
是一种模仿	-15614
是一项非常	-15615
显著的差异	-15616
更多地参与	-15617
更多的细节	-15618
更好地利用	-15619
更好的服务	-15620
更快地发现	-15621
更高的价格	-15622
最后的晚餐	-15623
最小公倍数	-15624
最近的餐厅	-15625
最高法院在	-15626
有什么影响	-15627
有助于减缓	-15628
有很多好处	-15629
有效地解决	-15630
有许多好处	-15631
机会和挑战	-15632
机器人开始	-15633
杂货店结账	-15634
来解决问题	-15635
极大的影响	-15636
查看当地的	-15637
标志的形状	-15638
栖息地中的	-15639
根据给定的	-15640
根据自己的	-15641
模拟人类的	-15642
死刑的观点	-15643
每个人都要	-15644
每个种植盆	-15645
比喻来描述	-15646
毕业的护士	-15647
气候变化对	-15648
氮氧化物和	-15649
污染物排放	-15650
汤匙橄榄油	-15651
没有葡萄汁	-15652
清新的空气	-15653
清楚地表达	-15654
渠道来推广	-15655
游戏和娱乐	-15656
潜在的好处	-15657
火车在下午	-15658
火车经过时	-15659
热情地欢迎	-15660
焦虑和压力	-15661
煎蛋三明治	-15662
燃烧卡路里	-15663
理解和处理	-15664
生产能力和	-15665
生活必需品	-15666
生物学家们	-15667
用户也可以	-15668
用户的隐私	-15669
申请人需要	-15670
电子商务店	-15671
番茄和西瓜	-15672
的三种方法	-15673
的不同阶段	-15674
的不确定性	-15675
的人口约为	-15676
的人际关系	-15677
的办公环境	-15678
的外观设计	-15679
的天气现象	-15680
的安全威胁	-15681
的客户记录	-15682
的工作效率	-15683
的工作环境	-15684
的提示列表	-15685
的文章摘要	-15686
的有趣事实	-15687
的步骤如下	-15688
的物品清单	-15689
的生活成本	-15690
的短篇故事	-15691
的硬件配置	-15692
的立方体的	-15693
的计算公式	-15694
的重要步骤	-15695
的重要途径	-15696
直接或间接	-15697
相关的问题	-15698
相应的回答	-15699
相邻的两个	-15700
看起来像是	-15701
社交媒体等	-15702
秋季和冬季	-15703
科学计数法	-15704
积极乐观的	-15705
稳定的收入	-15706
第一任总统	-15707
等化石燃料	-15708
算法和数据	-15709
精心准备的	-15710
精确地测量	-15711
系统来存储	-15712
线性系统的	-15713
终于找到了	-15714
经济增长和	-15715
经济的影响	-15716
经过一系列	-15717
结合在一起	-15718
给定文章的	-15719
给定的年份	-15720
给定的数据	-15721
给定的文本	-15722
网络中所有	-15723
网页的外观	-15724
美丽的风景	-15725
美味的食物	-15726
翻译成法语	-15727
翻译成英语	-15728
而气相色谱	-15729
聚类和降维	-15730
肌肉和骨骼	-15731
能够准确地	-15732
能帮助我们	-15733
自己独特的	-15734
自己的时间	-15735
自己的梦想	-15736
自己的表现	-15737
舒适的生活	-15738
茂密的森林	-15739
获取信息和	-15740
获得更多的	-15741
获得更好的	-15742
营养不良和	-15743
蓝色代表着	-15744
融合在一起	-15745
表明客户对	-15746
解决复杂的	-15747
让人们可以	-15748
让身心放松	-15749
讲述了一位	-15750
讲述了一名	-15751
许多人认为	-15752
设计标志时	-15753
评估和改进	-15754
请提供需要	-15755
购买所需的	-15756
身边的朋友	-15757
转化为电能	-15758
输入和输出	-15759
输入数据的	-15760
过期的食物	-15761
运动的好处	-15762
还可以帮助	-15763
还能够改善	-15764
这两个概念	-15765
这个世界的	-15766
这家咖啡店	-15767
这应该包括	-15768
递增子序列	-15769
通常由塑料	-15770
造成严重的	-15771
遇到的问题	-15772
都可以接受	-15773
都有自己的	-15774
野生动植物	-15775
野生动物的	-15776
需求和想法	-15777
非线性问题	-15778
革命性时刻	-15779
香草冰激凌	-15780
鲜艳的色彩	-15781
Gatsby	-15782
Orders	-15783
Reduce	-15784
achine	-15785
adverb	-15786
append	-15787
ations	-15788
banana	-15789
duPlay	-15790
ending	-15791
esting	-15792
gender	-15793
iculum	-15794
ission	-15795
matrix	-15796
pposed	-15797
prices	-15798
random	-15799
sorted	-15800
styles	-15801
ternal	-15802
unning	-15803
urrito	-15804
verage	-15805
▁COVID	-15806
▁Could	-15807
▁Drive	-15808
▁Elect	-15809
▁Intel	-15810
▁Layer	-15811
▁Molly	-15812
▁MySQL	-15813
▁Shift	-15814
▁alley	-15815
▁apple	-15816
▁break	-15817
▁check	-15818
▁chord	-15819
▁class	-15820
▁clean	-15821
▁color	-15822
▁every	-15823
▁exper	-15824
▁extra	-15825
▁first	-15826
▁house	-15827
▁jumps	-15828
▁media	-15829
▁other	-15830
▁place	-15831
▁price	-15832
▁quick	-15833
▁robot	-15834
▁think	-15835
▁today	-15836
▁下列哪一项	-15837
▁下面是一份	-15838
▁企业和组织	-15839
▁写一条关于	-15840
▁区块链账本	-15841
▁印度尼西亚	-15842
▁可持续发展	-15843
▁在锅中加入	-15844
▁如果您希望	-15845
▁如果您需要	-15846
▁定义了网页	-15847
▁将以下句子	-15848
▁底比斯骗局	-15849
▁当前节点的	-15850
▁数据科学家	-15851
▁有助于预防	-15852
▁根据您提供	-15853
▁比较并对比	-15854
▁珠穆朗玛峰	-15855
▁生成一个与	-15856
▁记录员工的	-15857
▁这只是一个	-15858
▁这是细胞的	-15859
▁选择适当的	-15860
不同的方式来	-15861
不属于的段落	-15862
不必要的支出	-15863
不断学习新的	-15864
世界卫生组织	-15865
世界各地的人	-15866
两个岛屿之间	-15867
两个超级大国	-15868
中的所有节点	-15869
为人们提供了	-15870
为投资者提供	-15871
乔布斯的成功	-15872
了许多重要的	-15873
二氧化碳和水	-15874
二氧化碳浓度	-15875
云服务提供商	-15876
产品价格提高	-15877
人们可以减少	-15878
人口快速增长	-15879
人工智能正在	-15880
人工智能能够	-15881
人工智能软件	-15882
从失败中学习	-15883
从小到大排列	-15884
位于中间位置	-15885
使其听起来更	-15886
使用机器学习	-15887
使用社交媒体	-15888
促进社会公正	-15889
保持身体健康	-15890
允许开发人员	-15891
元素周期表中	-15892
全球范围内的	-15893
关闭不必要的	-15894
典型的学校日	-15895
减少交通拥堵	-15896
减少人力成本	-15897
减少私人汽车	-15898
分享个人信息	-15899
刑事司法系统	-15900
创业公司需要	-15901
创造一个舒适	-15902
制定一个明确	-15903
加剧全球变暖	-15904
包括气候变化	-15905
区块的哈希值	-15906
十六进制单词	-15907
发送电子邮件	-15908
受欢迎的水果	-15909
句子中使用了	-15910
另一个字符串	-15911
可以大大降低	-15912
可以帮助您的	-15913
可以帮助我们	-15914
可以帮助读者	-15915
可以有效降低	-15916
可以混合生成	-15917
可以通过网络	-15918
可再生能源是	-15919
可持续的措施	-15920
吸引更多客户	-15921
呼吸新鲜空气	-15922
和无机化合物	-15923
和金字塔骗局	-15924
和防病毒软件	-15925
回答这个问题	-15926
国内生产总值	-15927
在全球范围内	-15928
在实际应用中	-15929
在日常生活中	-15930
在紧急情况下	-15931
在线营销活动	-15932
在线银行服务	-15933
地球上的生命	-15934
地球停止自转	-15935
处理大量数据	-15936
备份重要数据	-15937
天主教和新教	-15938
如果中间元素	-15939
孩子们在网上	-15940
它能帮助我们	-15941
家庭游戏之夜	-15942
家庭预算计划	-15943
对心理健康的	-15944
对社会的影响	-15945
常用的检测器	-15946
并不是绝对的	-15947
并不能有效地	-15948
并对模型进行	-15949
幸福感的提升	-15950
应对会后疲劳	-15951
应用程序标志	-15952
影响空气质量	-15953
您的日常生活	-15954
您的营销策略	-15955
感兴趣的课程	-15956
感到没有动力	-15957
成为了好朋友	-15958
成绩的百分比	-15959
我们可以得到	-15960
我们可以计算	-15961
我们太阳系的	-15962
所有员工提供	-15963
投票的重要性	-15964
提供更优质的	-15965
提取文本中的	-15966
提高注意力和	-15967
提高生活质量	-15968
提高自我意识	-15969
放入搅拌机中	-15970
数据分析顾问	-15971
文字处理软件	-15972
无家可归问题	-15973
时间复杂度是	-15974
是一个简单的	-15975
是否符合预期	-15976
更容易理解和	-15977
最高的山峰是	-15978
有许多不同的	-15979
服务器管理员	-15980
未见过的文本	-15981
机器学习方法	-15982
来说至关重要	-15983
极地冰盖融化	-15984
标准差是方差	-15985
标记的数据集	-15986
格底斯堡战役	-15987
植物细胞呼吸	-15988
每一项的导数	-15989
气候变化问题	-15990
测试驱动开发	-15991
海豚和鼠海豚	-15992
消化系统健康	-15993
瑞士因特拉肯	-15994
生物降解塑料	-15995
用户可以通过	-15996
的不同而有所	-15997
的时间和成本	-15998
的线段的中点	-15999
监督学习方法	-16000
监督学习算法	-16001
目标用户群体	-16002
确定目标受众	-16003
社交媒体上的	-16004
社交媒体账号	-16005
神奈川冲浪里	-16006
精神健康问题	-16007
线上互动活动	-16008
经典条件反射	-16009
给定表达式的	-16010
统一整个大陆	-16011
维护数据安全	-16012
而可再生能源	-16013
腐败对国家的	-16014
自己的话解释	-16015
获得更多资金	-16016
获得良好睡眠	-16017
计算机系统的	-16018
训练好的模型	-16019
设计思维鼓励	-16020
请随时告诉我	-16021
谷歌搜索引擎	-16022
贷款信用价值	-16023
越来越多的人	-16024
转换为摄氏度	-16025
输入数据量的	-16026
达到排放标准	-16027
过去十年科技	-16028
这个中心思想	-16029
这可以帮助你	-16030
这样可以帮助	-16031
这种能量矿物	-16032
通常被认为是	-16033
逻辑回归模型	-16034
道德伦理问题	-16035
采取以下步骤	-16036
采取预防措施	-16037
重写以下句子	-16038
重写这个句子	-16039
鉴定鸟类物种	-16040
针对武装入侵	-16041
销售代表职位	-16042
问题日益严峻	-16043
非常抱歉听到	-16044
非结构化数据	-16045
风力涡轮机的	-16046
首先需要确定	-16047
Eclipse	-16048
Mercury	-16049
science	-16050
sulting	-16051
unction	-16052
ustomer	-16053
▁Coffee	-16054
▁Sheets	-16055
▁Street	-16056
▁barked	-16057
▁beaten	-16058
▁bubble	-16059
▁descri	-16060
▁digits	-16061
▁factor	-16062
▁instru	-16063
▁person	-16064
▁simple	-16065
▁social	-16066
▁strong	-16067
▁一个好的论点	-16068
▁人工神经网络	-16069
▁优秀的领导者	-16070
▁修改以下句子	-16071
▁公共交通工具	-16072
▁分析以下诗歌	-16073
▁发布一条关于	-16074
▁和她的朋友们	-16075
▁将给定的数字	-16076
▁搜索引擎优化	-16077
▁深度学习模型	-16078
▁生成一篇关于	-16079
▁给定一组数字	-16080
▁美国独立宣言	-16081
▁这个男人正在	-16082
一个完整的句子	-16083
一本书被我买了	-16084
不仅有助于减少	-16085
世界上最著名的	-16086
为乘客提供更加	-16087
乐观主义的力量	-16088
也可能引起胸痛	-16089
书籍和观看电影	-16090
书籍推荐系统的	-16091
人口增长和城市	-16092
人工智能在商业	-16093
人工智能的概念	-16094
人工智能系统的	-16095
从伦敦到莫斯科	-16096
以便我能更好地	-16097
价格之间的关系	-16098
传粉者数量减少	-16099
促进可再生能源	-16100
做出明智的决策	-16101
公司的品牌形象	-16102
共享应用程序的	-16103
具有中国特色的	-16104
减缓气候变化的	-16105
列表中每个元素	-16106
创造一个全新的	-16107
千克的物体受到	-16108
发挥着重要作用	-16109
取决于许多因素	-16110
可以使用不同的	-16111
可以在短时间内	-16112
可以尝试不同的	-16113
可能会有所不同	-16114
吸引更多的客户	-16115
基于深度学习的	-16116
夜晚看起来不同	-16117
它们之间有一些	-16118
它们的生存环境	-16119
它能够帮助我们	-16120
实体法和程序法	-16121
导致海平面上升	-16122
居民提供更多的	-16123
工作场所多样性	-16124
年统计数据显示	-16125
应用的核心功能	-16126
建立良好的关系	-16127
开发人员在公司	-16128
总线型拓扑结构	-16129
您的产品或服务	-16130
慢性疾病的风险	-16131
所获荣誉或成就	-16132
抄袭和侵犯版权	-16133
括号内的多项式	-16134
提供优质的服务	-16135
提供可靠的数据	-16136
敏捷方法论强调	-16137
数据和应用程序	-16138
数据进行预处理	-16139
整数是否为质数	-16140
文章的中心思想	-16141
文艺复兴时期的	-16142
是世界上最大的	-16143
智能手机或其他	-16144
更好地应对压力	-16145
最有价值球员奖	-16146
有助于提高您的	-16147
来回答您的问题	-16148
模型的准确性和	-16149
治疗焦虑的方法	-16150
浅拷贝和深拷贝	-16151
温室气体排放量	-16152
满足客户的需求	-16153
澳大利亚国庆节	-16154
热力学第一定律	-16155
物联网可以通过	-16156
瑜伽在工作场所	-16157
瑞士劳特布伦嫩	-16158
生物多样性减少	-16159
甲烷和氧化亚氮	-16160
的主要组成部分	-16161
的时间复杂度为	-16162
目标人群和场合	-16163
直线的数学方程	-16164
社交媒体对社会	-16165
稳定的能源供应	-16166
类中建立方法来	-16167
经验的专业人士	-16168
而无机化合物则	-16169
能够与团队成员	-16170
能够为用户提供	-16171
能够在关键时刻	-16172
能够增强人们的	-16173
能够更好地处理	-16174
能够适应不同的	-16175
自变量与因变量	-16176
自然语言处理和	-16177
自行车比赛之一	-16178
营销和销售策略	-16179
规则型文本处理	-16180
让孩子们化妆成	-16181
请提供文章内容	-16182
购房贷款的流程	-16183
这将帮助您确定	-16184
这里有一些建议	-16185
问题的解决方案	-16186
雇主要求申请者	-16187
面临的最大挑战	-16188
颜色和线条样式	-16189
---|---|	-16190
Ancestor	-16191
Decision	-16192
Leonardo	-16193
ctuation	-16194
entative	-16195
language	-16196
oplasmic	-16197
pression	-16198
stemious	-16199
terminer	-16200
▁ARPANET	-16201
▁AdWords	-16202
▁However	-16203
▁Martian	-16204
▁Natural	-16205
▁YouTube	-16206
▁already	-16207
▁analyze	-16208
▁believe	-16209
▁comment	-16210
▁convert	-16211
▁current	-16212
▁driving	-16213
▁fashion	-16214
▁forward	-16215
▁include	-16216
▁lowestC	-16217
▁painted	-16218
▁perform	-16219
▁古典主义世界观	-16220
▁热力学第三定律	-16221
▁由于您没有提供	-16222
▁这是一个简单的	-16223
为了解决这个问题	-16224
之间的几何平均数	-16225
了一个巨大的汉堡	-16226
人工智能可以协助	-16227
人工智能可以帮助	-16228
人工智能语言模型	-16229
会对野生动物造成	-16230
作为一个语言模型	-16231
医疗保健的可及性	-16232
厘米的矩形的面积	-16233
发挥着重要的作用	-16234
取得了巨大的成功	-16235
可以使用交叉验证	-16236
吸引更多的投资者	-16237
和基于传统的政策	-16238
哈希函数应该具有	-16239
在社交媒体上分享	-16240
基于区块链技术的	-16241
基督教和伊斯兰教	-16242
对学生表现的影响	-16243
小写十六进制单词	-16244
您可以根据自己的	-16245
我没有足够的信息	-16246
担任总统的时间是	-16247
数组中的最小元素	-16248
时间管理策略应当	-16249
最早的文明出现在	-16250
朴素贝叶斯分类器	-16251
机器学习算法可以	-16252
杂货店结账系统的	-16253
枪支暴力可能导致	-16254
森堡不确定性原理	-16255
温室气体排放增加	-16256
温带森林生物群落	-16257
电视节目营销策略	-16258
的原因是多方面的	-16259
而基于传统的政策	-16260
聊天机器人的脚本	-16261
股市随时间的演变	-16262
表达自己的想法和	-16263
规则型文本处理和	-16264
解决美国监狱过度	-16265
运动能够帮助人们	-16266
这个故事可以通过	-16267
造成了巨大的影响	-16268
那些需要帮助的人	-16269
Customers	-16270
Photoshop	-16271
enerative	-16272
imousines	-16273
velopment	-16274
vironment	-16275
▁Audience	-16276
▁Electric	-16277
▁customer	-16278
▁descript	-16279
▁keywords	-16280
▁possible	-16281
▁supposed	-16282
▁世界卫生组织宣布	-16283
▁根据您提供的数据	-16284
之间存在正相关关系	-16285
之间的主要区别在于	-16286
人口快速增长的城市	-16287
人工智能还可以通过	-16288
公立学校应该从政府	-16289
公立学校的资金支持	-16290
医疗保健成本上涨的	-16291
可重复使用的购物袋	-16292
在搜索引擎中的排名	-16293
地球的自转突然停止	-16294
平衡的股票投资组合	-16295
您没有提供文章内容	-16296
我们这里没有葡萄汁	-16297
技术在教育中的应用	-16298
技术驱动的医疗保健	-16299
提供优质的客户服务	-16300
改变我们的生活方式	-16301
更好地了解客户需求	-16302
期间保持健康和健身	-16303
查看当地的天气预报	-16304
渗透测试人员会尝试	-16305
生产能力和供应弹性	-16306
给定表达式的真值表	-16307
聊天机器人的词汇表	-16308
自然语言处理技术来	-16309
菠菜和菲塔芝士蛋饼	-16310
贷款额度和利率水平	-16311
长期暴露于空气污染	-16312
阴影笼罩的高大身影	-16313
acillation	-16314
javascript	-16315
▁Customers	-16316
▁WordPress	-16317
▁Yesterday	-16318
▁generated	-16319
▁interface	-16320
▁reticulum	-16321
▁transpose	-16322
▁机器学习和深度学习	-16323
▁气候变化和海洋酸化	-16324
作为一个人工智能助手	-16325
大气中的二氧化碳浓度	-16326
并不能有效地防止犯罪	-16327
改变了人们的生活方式	-16328
无监督学习和强化学习	-16329
标准差是方差的平方根	-16330
汽车经销商的客户记录	-16331
温度对植物生长的影响	-16332
等到最后一分钟才开始	-16333
算法中基本操作的次数	-16334
给定的年份是否为闰年	-16335
通过采取可持续的措施	-16336
temperature	-16337
waterbottle	-16338
▁Regression	-16339
▁作为一名人工智能助手	-16340
▁我是一个人工智能助手	-16341
一个好的团队领导者应当	-16342
书籍推荐系统的应用界面	-16343
人工智能和机器人技术的	-16344
在不同的夜晚看起来不同	-16345
有效的时间管理策略应当	-16346
用户可以根据自己的需求	-16347
美国和苏联两个超级大国	-16348
-----------+	-16349
▁Transformer	-16350
▁reverseList	-16351
人工智能软件能够快速分析	-16352
使用机器学习识别垃圾邮件	-16353
已经有销售经验的专业人士	-16354
ommonAncestor	-16355
▁Intelligence	-16356
▁区块链是一种分布式数据库技术	-16357
▁机器学习是人工智能的一个分支	-16358
公立学校应该从政府获得更多资金	-16359
基于深度学习的遥感图像分类方法	-16360
▓▓▓▓▓▓▓▓▓▓▓▓▓▓▓▓	-16361
">	-16362
(-	-16363
)-	-16364
)”	-16365
*-	-16366
,"	-16367
,”	-16368
-]	-16369
-|	-16370
.)	-16371
.（	-16372
:-	-16373
=[	-16374
AC	-16375
AJ	-16376
AS	-16377
AX	-16378
Ar	-16379
BT	-16380
CA	-16381
ED	-16382
En	-16383
Fl	-16384
Gr	-16385
Ho	-16386
JR	-16387
Jo	-16388
LU	-16389
Ma	-16390
NO	-16391
NS	-16392
OL	-16393
Of	-16394
PD	-16395
PE	-16396
PG	-16397
Pr	-16398
RD	-16399
RF	-16400
RI	-16401
Sc	-16402
Se	-16403
Sm	-16404
Sy	-16405
TF	-16406
Ty	-16407
UR	-16408
Vi	-16409
WS	-16410
[°	-16411
]}	-16412
`,	-16413
`<	-16414
`（	-16415
ae	-16416
ba	-16417
eB	-16418
ec	-16419
fe	-16420
ga	-16421
gu	-16422
hi	-16423
iǎ	-16424
iǔ	-16425
ka	-16426
kg	-16427
ki	-16428
la	-16429
mè	-16430
oS	-16431
oj	-16432
pᵢ	-16433
rl	-16434
rö	-16435
sw	-16436
ww	-16437
xy	-16438
yr	-16439
za	-16440
zy	-16441
}]	-16442
}°	-16443
°=	-16444
²)	-16445
▁)	-16446
▁.	-16447
▁@	-16448
▁«	-16449
▁»	-16450
▁π	-16451
▁∑	-16452
▁【	-16453
▁也	-16454
▁令	-16455
▁会	-16456
▁伞	-16457
▁伯	-16458
▁做	-16459
▁像	-16460
▁六	-16461
▁冷	-16462
▁刀	-16463
▁则	-16464
▁刚	-16465
▁加	-16466
▁勇	-16467
▁只	-16468
▁吉	-16469
▁同	-16470
▁哈	-16471
▁哦	-16472
▁嗯	-16473
▁埃	-16474
▁夜	-16475
▁学	-16476
▁完	-16477
▁宽	-16478
▁帕	-16479
▁库	-16480
▁度	-16481
▁心	-16482
▁折	-16483
▁招	-16484
▁拼	-16485
▁提	-16486
▁摆	-16487
▁摩	-16488
▁明	-16489
▁晒	-16490
▁晚	-16491
▁智	-16492
▁曾	-16493
▁朱	-16494
▁林	-16495
▁查	-16496
▁树	-16497
▁桃	-16498
▁梦	-16499
▁次	-16500
▁毛	-16501
▁氢	-16502
▁波	-16503
▁注	-16504
▁泰	-16505
▁流	-16506
▁点	-16507
▁煮	-16508
▁熵	-16509
▁爱	-16510
▁狮	-16511
▁瑰	-16512
▁男	-16513
▁离	-16514
▁稻	-16515
▁立	-16516
▁筹	-16517
▁粗	-16518
▁糖	-16519
▁紫	-16520
▁繁	-16521
▁纸	-16522
▁线	-16523
▁船	-16524
▁艾	-16525
▁芬	-16526
▁莫	-16527
▁蒙	-16528
▁起	-16529
▁轴	-16530
▁都	-16531
▁金	-16532
▁雨	-16533
▁雪	-16534
▁面	-16535
▁香	-16536
▁龙	-16537
。)	-16538
。）	-16539
》(	-16540
一丝	-16541
一体	-16542
一动	-16543
一员	-16544
一对	-16545
一小	-16546
一所	-16547
一抹	-16548
一方	-16549
一日	-16550
一本	-16551
一根	-16552
一流	-16553
一生	-16554
一看	-16555
一碗	-16556
一试	-16557
一辆	-16558
一阵	-16559
丁斯	-16560
万千	-16561
万能	-16562
三人	-16563
三类	-16564
三行	-16565
上前	-16566
上司	-16567
上周	-16568
上放	-16569
上方	-16570
上时	-16571
上看	-16572
上线	-16573
上网	-16574
上还	-16575
上门	-16576
下令	-16577
下列	-16578
下半	-16579
下有	-16580
下河	-16581
下目	-16582
不一	-16583
不久	-16584
不便	-16585
不公	-16586
不分	-16587
不均	-16588
不失	-16589
不带	-16590
不惜	-16591
不惧	-16592
不想	-16593
不止	-16594
不禁	-16595
不等	-16596
不舍	-16597
不论	-16598
不高	-16599
与他	-16600
与众	-16601
与会	-16602
与安	-16603
与狗	-16604
与罚	-16605
与酸	-16606
与龙	-16607
专利	-16608
专用	-16609
且通	-16610
丘吉	-16611
丙酮	-16612
东部	-16613
两周	-16614
两层	-16615
两届	-16616
两款	-16617
严密	-16618
个子	-16619
个簇	-16620
个角	-16621
个边	-16622
个面	-16623
个音	-16624
中土	-16625
中年	-16626
中序	-16627
中期	-16628
中碳	-16629
中转	-16630
中部	-16631
中餐	-16632
串口	-16633
临其	-16634
为伴	-16635
为弱	-16636
为期	-16637
为末	-16638
为本	-16639
为此	-16640
为每	-16641
为生	-16642
为的	-16643
主体	-16644
主旨	-16645
主页	-16646
乃至	-16647
之余	-16648
之地	-16649
之家	-16650
之手	-16651
之父	-16652
之王	-16653
之美	-16654
之苦	-16655
乐队	-16656
乙酰	-16657
也使	-16658
也各	-16659
也就	-16660
也比	-16661
也被	-16662
也要	-16663
也较	-16664
书上	-16665
书店	-16666
书法	-16667
书面	-16668
买一	-16669
买房	-16670
乱扔	-16671
了四	-16672
了电	-16673
了耸	-16674
事与	-16675
二者	-16676
于你	-16677
于此	-16678
互惠	-16679
互换	-16680
互补	-16681
五十	-16682
五大	-16683
五颜	-16684
亚州	-16685
亚述	-16686
交替	-16687
交界	-16688
交的	-16689
交配	-16690
亦然	-16691
产地	-16692
亲友	-16693
亲戚	-16694
亿吨	-16695
仁慈	-16696
仅次	-16697
仅能	-16698
今后	-16699
仍有	-16700
从头	-16701
从我	-16702
仓储	-16703
仓库	-16704
他为	-16705
他于	-16706
他們	-16707
他心	-16708
他或	-16709
他所	-16710
他深	-16711
他耳	-16712
他骑	-16713
代言	-16714
以供	-16715
以原	-16716
以深	-16717
以身	-16718
仪的	-16719
们将	-16720
仰望	-16721
▁	-16722
的	-16723
，	-16724
。	-16725
一	-16726
和	-16727
e	-16728
.	-16729
个	-16730
是	-16731
以	-16732
：	-16733
能	-16734
可	-16735
用	-16736
、	-16737
在	-16738
t	-16739
a	-16740
人	-16741
n	-16742
r	-16743
o	-16744
1	-16745
i	-16746
有	-16747
为	-16748
这	-16749
s	-16750
中	-16751
生	-16752
2	-16753
了	-16754
不	-16755
们	-16756
数	-16757
来	-16758
要	-16759
于	-16760
-	-16761
提	-16762
我	-16763
l	-16764
对	-16765
行	-16766
成	-16767
时	-16768
过	-16769
通	-16770
学	-16771
地	-16772
0	-16773
大	-16774
方	-16775
物	-16776
法	-16777
据	-16778
动	-16779
他	-16780
分	-16781
会	-16782
定	-16783
您	-16784
它	-16785
如	-16786
种	-16787
h	-16788
u	-16789
3	-16790
到	-16791
出	-16792
力	-16793
更	-16794
使	-16795
并	-16796
c	-16797
下	-16798
多	-16799
作	-16800
进	-16801
5	-16802
子	-16803
d	-16804
性	-16805
体	-16806
理	-16807
量	-16808
计	-16809
工	-16810
:	-16811
上	-16812
m	-16813
化	-16814
或	-16815
机	-16816
,	-16817
4	-16818
需	-16819
等	-16820
应	-16821
自	-16822
面	-16823
发	-16824
常	-16825
供	-16826
高	-16827
p	-16828
助	-16829
程	-16830
解	-16831
表	-16832
度	-16833
间	-16834
类	-16835
同	-16836
其	-16837
文	-16838
算	-16839
入	-16840
(	-16841
)	-16842
关	-16843
些	-16844
y	-16845
而	-16846
保	-16847
户	-16848
好	-16849
将	-16850
建	-16851
加	-16852
题	-16853
与	-16854
最	-16855
现	-16856
）	-16857
（	-16858
新	-16859
"	-16860
果	-16861
确	-16862
=	-16863
式	-16864
`	-16865
信	-16866
国	-16867
家	-16868
经	-16869
重	-16870
所	-16871
之	-16872
问	-16873
品	-16874
够	-16875
习	-16876
系	-16877
主	-16878
实	-16879
f	-16880
交	-16881
意	-16882
g	-16883
标	-16884
网	-16885
6	-16886
产	-16887
因	-16888
技	-16889
气	-16890
业	-16891
活	-16892
水	-16893
也	-16894
设	-16895
都	-16896
器	-16897
息	-16898
心	-16899
帮	-16900
开	-16901
公	-16902
务	-16903
色	-16904
创	-16905
制	-16906
x	-16907
点	-16908
你	-16909
本	-16910
统	-16911
变	-16912
内	-16913
年	-16914
得	-16915
件	-16916
着	-16917
者	-16918
语	-16919
客	-16920
电	-16921
影	-16922
此	-16923
然	-16924
合	-16925
包	-16926
持	-16927
目	-16928
智	-16929
术	-16930
输	-16931
长	-16932
b	-16933
感	-16934
A	-16935
决	-16936
小	-16937
比	-16938
天	-16939
字	-16940
全	-16941
相	-16942
情	-16943
型	-16944
8	-16945
美	-16946
利	-16947
具	-16948
后	-16949
当	-16950
形	-16951
T	-16952
源	-16953
9	-16954
结	-16955
减	-16956
特	-16957
7	-16958
例	-16959
食	-16960
效	-16961
外	-16962
少	-16963
模	-16964
无	-16965
处	-16966
从	-16967
服	-16968
球	-16969
序	-16970
流	-16971
单	-16972
增	-16973
平	-16974
“	-16975
位	-16976
”	-16977
列	-16978
社	-16979
响	-16980
I	-16981
事	-16982
给	-16983
词	-16984
_	-16985
总	-16986
求	-16987
放	-16988
根	-16989
述	-16990
两	-16991
部	-16992
句	-16993
快	-16994
界	-16995
运	-16996
非	-16997
资	-16998
质	-16999
代	-17000
每	-17001
测	-17002
么	-17003
括	-17004
C	-17005
S	-17006
容	-17007
导	-17008
员	-17009
素	-17010
w	-17011
名	-17012
起	-17013
受	-17014
组	-17015
明	-17016
但	-17017
正	-17018
环	-17019
里	-17020
存	-17021
由	-17022
改	-17023
预	-17024
？	-17025
被	-17026
区	-17027
示	-17028
三	-17029
安	-17030
优	-17031
别	-17032
值	-17033
收	-17034
展	-17035
引	-17036
+	-17037
选	-17038
指	-17039
取	-17040
手	-17041
写	-17042
世	-17043
任	-17044
想	-17045
风	-17046
线	-17047
适	-17048
强	-17049
回	-17050
接	-17051
格	-17052
前	-17053
及	-17054
速	-17055
很	-17056
排	-17057
期	-17058
健	-17059
支	-17060
还	-17061
P	-17062
她	-17063
v	-17064
立	-17065
构	-17066
节	-17067
找	-17068
就	-17069
教	-17070
让	-17071
图	-17072
车	-17073
场	-17074
日	-17075
备	-17076
策	-17077
带	-17078
析	-17079
管	-17080
准	-17081
料	-17082
清	-17083
说	-17084
步	-17085
观	-17086
简	-17087
造	-17088
该	-17089
道	-17090
境	-17091
样	-17092
'	-17093
元	-17094
己	-17095
空	-17096
义	-17097
基	-17098
传	-17099
市	-17100
身	-17101
康	-17102
何	-17103
议	-17104
许	-17105
温	-17106
功	-17107
注	-17108
那	-17109
且	-17110
择	-17111
言	-17112
价	-17113
态	-17114
达	-17115
各	-17116
领	-17117
什	-17118
科	-17119
验	-17120
站	-17121
论	-17122
k	-17123
识	-17124
|	-17125
推	-17126
次	-17127
描	-17128
获	-17129
护	-17130
去	-17131
乐	-17132
/	-17133
调	-17134
则	-17135
医	-17136
整	-17137
海	-17138
复	-17139
原	-17140
试	-17141
话	-17142
[	-17143
]	-17144
商	-17145
率	-17146
斯	-17147
致	-17148
吸	-17149
易	-17150
便	-17151
断	-17152
深	-17153
象	-17154
完	-17155
政	-17156
极	-17157
只	-17158
音	-17159
项	-17160
望	-17161
历	-17162
知	-17163
片	-17164
请	-17165
L	-17166
病	-17167
直	-17168
金	-17169
始	-17170
看	-17171
先	-17172
光	-17173
向	-17174
第	-17175
做	-17176
广	-17177
积	-17178
米	-17179
费	-17180
较	-17181
视	-17182
划	-17183
研	-17184
续	-17185
战	-17186
月	-17187
口	-17188
司	-17189
查	-17190
D	-17191
集	-17192
首	-17193
B	-17194
味	-17195
未	-17196
满	-17197
置	-17198
域	-17199
维	-17200
联	-17201
R	-17202
索	-17203
络	-17204
约	-17205
疗	-17206
·	-17207
释	-17208
队	-17209
随	-17210
参	-17211
章	-17212
共	-17213
热	-17214
销	-17215
M	-17216
促	-17217
段	-17218
规	-17219
再	-17220
转	-17221
购	-17222
究	-17223
细	-17224
营	-17225
轻	-17226
神	-17227
克	-17228
染	-17229
角	-17230
互	-17231
况	-17232
E	-17233
投	-17234
状	-17235
记	-17236
故	-17237
餐	-17238
反	-17239
太	-17240
树	-17241
育	-17242
险	-17243
布	-17244
林	-17245
济	-17246
爱	-17247
认	-17248
边	-17249
希	-17250
精	-17251
西	-17252
告	-17253
F	-17254
拥	-17255
条	-17256
二	-17257
尔	-17258
低	-17259
软	-17260
案	-17261
欢	-17262
游	-17263
考	-17264
星	-17265
见	-17266
配	-17267
消	-17268
候	-17269
免	-17270
升	-17271
读	-17272
采	-17273
企	-17274
即	-17275
防	-17276
证	-17277
#	-17278
N	-17279
评	-17280
享	-17281
旅	-17282
虑	-17283
思	-17284
没	-17285
仅	-17286
层	-17287
污	-17288
足	-17289
阳	-17290
降	-17291
难	-17292
G	-17293
像	-17294
治	-17295
至	-17296
《	-17297
》	-17298
已	-17299
码	-17300
失	-17301
头	-17302
符	-17303
书	-17304
团	-17305
控	-17306
W	-17307
媒	-17308
储	-17309
含	-17310
喜	-17311
景	-17312
菜	-17313
离	-17314
H	-17315
善	-17316
施	-17317
五	-17318
众	-17319
富	-17320
独	-17321
演	-17322
短	-17323
密	-17324
O	-17325
励	-17326
真	-17327
装	-17328
周	-17329
充	-17330
几	-17331
打	-17332
激	-17333
*	-17334
火	-17335
权	-17336
材	-17337
民	-17338
换	-17339
号	-17340
森	-17341
练	-17342
份	-17343
压	-17344
征	-17345
杂	-17346
编	-17347
际	-17348
限	-17349
买	-17350
照	-17351
织	-17352
称	-17353
略	-17354
训	-17355
围	-17356
均	-17357
监	-17358
骤	-17359
否	-17360
属	-17361
检	-17362
路	-17363
近	-17364
城	-17365
探	-17366
植	-17367
终	-17368
链	-17369
除	-17370
按	-17371
概	-17372
白	-17373
责	-17374
把	-17375
估	-17376
厘	-17377
困	-17378
丽	-17379
亚	-17380
切	-17381
群	-17382
良	-17383
键	-17384
尽	-17385
拟	-17386
远	-17387
马	-17388
势	-17389
块	-17390
室	-17391
律	-17392
门	-17393
页	-17394
严	-17395
声	-17396
山	-17397
张	-17398
松	-17399
画	-17400
蛋	-17401
专	-17402
香	-17403
孩	-17404
巨	-17405
师	-17406
函	-17407
听	-17408
志	-17409
戏	-17410
洁	-17411
英	-17412
讲	-17413
争	-17414
史	-17415
土	-17416
念	-17417
执	-17418
款	-17419
洲	-17420
命	-17421
往	-17422
避	-17423
友	-17424
房	-17425
疾	-17426
绿	-17427
氧	-17428
碳	-17429
移	-17430
职	-17431
负	-17432
脑	-17433
越	-17434
差	-17435
趣	-17436
报	-17437
止	-17438
花	-17439
颜	-17440
兴	-17441
府	-17442
德	-17443
答	-17444
肉	-17445
修	-17446
拉	-17447
操	-17448
女	-17449
益	-17450
哪	-17451
措	-17452
歌	-17453
落	-17454
油	-17455
洋	-17456
篇	-17457
连	-17458
邮	-17459
挑	-17460
觉	-17461
季	-17462
显	-17463
暖	-17464
炼	-17465
牌	-17466
奶	-17467
店	-17468
养	-17469
庭	-17470
南	-17471
售	-17472
干	-17473
突	-17474
缺	-17475
阅	-17476
饮	-17477
台	-17478
尼	-17479
潜	-17480
汽	-17481
错	-17482
锻	-17483
黑	-17484
库	-17485
灵	-17486
讨	-17487
赛	-17488
击	-17489
咖	-17490
王	-17491
鼓	-17492
q	-17493
录	-17494
搜	-17495
J	-17496
十	-17497
协	-17498
士	-17499
归	-17500
票	-17501
草	-17502
静	-17503
！	-17504
典	-17505
塑	-17506
夜	-17507
才	-17508
某	-17509
误	-17510
丰	-17511
令	-17512
冲	-17513
局	-17514
勇	-17515
啡	-17516
微	-17517
核	-17518
犯	-17519
股	-17520
依	-17521
四	-17522
害	-17523
必	-17524
睡	-17525
卡	-17526
浪	-17527
纸	-17528
野	-17529
；	-17530
>	-17531
^	-17532
洗	-17533
牛	-17534
签	-17535
晚	-17536
母	-17537
询	-17538
课	-17539
鲜	-17540
冰	-17541
彩	-17542
谢	-17543
融	-17544
访	-17545
频	-17546
印	-17547
奇	-17548
威	-17549
红	-17550
艺	-17551
皮	-17552
级	-17553
著	-17554
货	-17555
废	-17556
沟	-17557
虚	-17558
鸡	-17559
举	-17560
渐	-17561
粉	-17562
诉	-17563
超	-17564
钟	-17565
晰	-17566
罗	-17567
冷	-17568
患	-17569
欧	-17570
临	-17571
北	-17572
博	-17573
巴	-17574
币	-17575
待	-17576
担	-17577
泛	-17578
石	-17579
稳	-17580
衡	-17581
鸟	-17582
暴	-17583
紧	-17584
罪	-17585
V	-17586
刻	-17587
呼	-17588
底	-17589
损	-17590
猫	-17591
药	-17592
万	-17593
云	-17594
付	-17595
住	-17596
农	-17597
督	-17598
缓	-17599
送	-17600
雨	-17601
木	-17602
燃	-17603
j	-17604
似	-17605
厅	-17606
居	-17607
抱	-17608
添	-17609
笑	-17610
老	-17611
酸	-17612
隐	-17613
靠	-17614
黄	-17615
危	-17616
寻	-17617
死	-17618
竞	-17619
背	-17620
努	-17621
叶	-17622
巧	-17623
板	-17624
波	-17625
盖	-17626
糖	-17627
继	-17628
苹	-17629
辑	-17630
蓝	-17631
走	-17632
办	-17633
尝	-17634
朋	-17635
础	-17636
翻	-17637
诗	-17638
U	-17639
亮	-17640
又	-17641
眠	-17642
胞	-17643
范	-17644
阶	-17645
伦	-17646
—	-17647
假	-17648
宣	-17649
河	-17650
狗	-17651
穿	-17652
荐	-17653
遍	-17654
▓	-17655
亲	-17656
初	-17657
哥	-17658
州	-17659
异	-17660
校	-17661
歉	-17662
焦	-17663
私	-17664
绝	-17665
聊	-17666
乘	-17667
介	-17668
摄	-17669
旨	-17670
烤	-17671
破	-17672
谱	-17673
途	-17674
额	-17675
!	-17676
吃	-17677
坚	-17678
奖	-17679
障	-17680
圾	-17681
垃	-17682
梦	-17683
炒	-17684
般	-17685
详	-17686
银	-17687
顺	-17688
儿	-17689
播	-17690
散	-17691
早	-17692
棒	-17693
派	-17694
混	-17695
班	-17696
透	-17697
陈	-17698
串	-17699
半	-17700
古	-17701
叫	-17702
园	-17703
守	-17704
普	-17705
沙	-17706
牙	-17707
男	-17708
留	-17709
疫	-17710
繁	-17711
触	-17712
财	-17713
军	-17714
判	-17715
华	-17716
吗	-17717
循	-17718
拿	-17719
毒	-17720
症	-17721
盐	-17722
福	-17723
驶	-17724
汇	-17725
申	-17726
籍	-17727
递	-17728
饰	-17729
<	-17730
兰	-17731
双	-17732
哈	-17733
慢	-17734
敢	-17735
涉	-17736
眼	-17737
端	-17738
血	-17739
飞	-17740
{	-17741
伤	-17742
另	-17743
培	-17744
弃	-17745
椒	-17746
痛	-17747
须	-17748
坏	-17749
惯	-17750
杯	-17751
玩	-17752
笔	-17753
缩	-17754
聚	-17755
舒	-17756
诚	-17757
追	-17758
逐	-17759
遵	-17760
闻	-17761
}	-17762
×	-17763
射	-17764
忆	-17765
束	-17766
绘	-17767
绪	-17768
订	-17769
返	-17770
顶	-17771
驾	-17772
愿	-17773
抗	-17774
救	-17775
烈	-17776
败	-17777
z	-17778
休	-17779
冒	-17780
握	-17781
暗	-17782
烧	-17783
省	-17784
肌	-17785
苏	-17786
麦	-17787
东	-17788
仍	-17789
幅	-17790
档	-17791
毛	-17792
航	-17793
豆	-17794
跑	-17795
跟	-17796
轮	-17797
顾	-17798
官	-17799
李	-17800
架	-17801
胁	-17802
迎	-17803
酒	-17804
饭	-17805
Y	-17806
圆	-17807
夏	-17808
杰	-17809
桌	-17810
献	-17811
纳	-17812
综	-17813
胡	-17814
脂	-17815
脚	-17816
蔬	-17817
诊	-17818
X	-17819
偏	-17820
停	-17821
喻	-17822
承	-17823
版	-17824
猎	-17825
番	-17826
绩	-17827
遇	-17828
遗	-17829
鞋	-17830
龙	-17831
K	-17832
丝	-17833
刑	-17834
刺	-17835
剧	-17836
千	-17837
尚	-17838
座	-17839
惠	-17840
液	-17841
熟	-17842
硬	-17843
耗	-17844
茄	-17845
赖	-17846
革	-17847
今	-17848
佳	-17849
侵	-17850
墨	-17851
惊	-17852
枪	-17853
署	-17854
脏	-17855
艾	-17856
藏	-17857
馈	-17858
骑	-17859
%	-17860
址	-17861
坐	-17862
折	-17863
捷	-17864
擎	-17865
漫	-17866
绍	-17867
葱	-17868
锅	-17869
零	-17870
震	-17871
;	-17872
伴	-17873
匙	-17874
固	-17875
尊	-17876
屋	-17877
替	-17878
润	-17879
秀	-17880
贝	-17881
账	-17882
醒	-17883
阿	-17884
顿	-17885
亡	-17886
卫	-17887
察	-17888
恶	-17889
扩	-17890
曲	-17891
父	-17892
盘	-17893
秘	-17894
箱	-17895
莓	-17896
蒜	-17897
警	-17898
贸	-17899
铁	-17900
呈	-17901
拌	-17902
捕	-17903
掌	-17904
攻	-17905
春	-17906
浓	-17907
炎	-17908
碎	-17909
露	-17910
馆	-17911
壮	-17912
峰	-17913
愉	-17914
招	-17915
框	-17916
永	-17917
汤	-17918
纪	-17919
贫	-17920
踪	-17921
退	-17922
Q	-17923
冥	-17924
劳	-17925
堡	-17926
娱	-17927
急	-17928
旋	-17929
村	-17930
殖	-17931
氏	-17932
脱	-17933
蕉	-17934
虽	-17935
谷	-17936
鱼	-17937
冠	-17938
塔	-17939
墙	-17940
抽	-17941
搭	-17942
敏	-17943
栖	-17944
灯	-17945
猩	-17946
览	-17947
谈	-17948
贷	-17949
趋	-17950
迷	-17951
邦	-17952
?	-17953
伐	-17954
倾	-17955
彼	-17956
忠	-17957
汁	-17958
灾	-17959
玛	-17960
糕	-17961
肤	-17962
贡	-17963
雪	-17964
默	-17965
伯	-17966
冬	-17967
匀	-17968
午	-17969
姆	-17970
孤	-17971
尾	-17972
岛	-17973
忙	-17974
挥	-17975
橙	-17976
胜	-17977
谐	-17978
郁	-17979
²	-17980
余	-17981
却	-17982
填	-17983
姓	-17984
幸	-17985
既	-17986
沉	-17987
筑	-17988
肥	-17989
脉	-17990
距	-17991
倒	-17992
匹	-17993
截	-17994
曾	-17995
氛	-17996
浏	-17997
渠	-17998
煮	-17999
甚	-18000
矿	-18001
碍	-18002
萨	-18003
虫	-18004
袋	-18005
诺	-18006
针	-18007
骨	-18008
$	-18009
六	-18010
审	-18011
宽	-18012
弹	-18013
搅	-18014
族	-18015
末	-18016
柔	-18017
田	-18018
疑	-18019
登	-18020
砍	-18021
祝	-18022
茶	-18023
覆	-18024
诸	-18025
院	-18026
驱	-18027
°	-18028
久	-18029
予	-18030
启	-18031
堂	-18032
堵	-18033
壤	-18034
奋	-18035
插	-18036
摘	-18037
朵	-18038
甜	-18039
肺	-18040
逻	-18041
饼	-18042
借	-18043
拓	-18044
拔	-18045
迅	-18046
雅	-18047
鹰	-18048
龄	-18049
副	-18050
唱	-18051
坦	-18052
夫	-18053
宝	-18054
左	-18055
径	-18056
托	-18057
泡	-18058
洛	-18059
涵	-18060
珊	-18061
瓜	-18062
畅	-18063
盛	-18064
童	-18065
粒	-18066
肯	-18067
衣	-18068
镜	-18069
伊	-18070
叉	-18071
塞	-18072
弱	-18073
慧	-18074
抵	-18075
拍	-18076
撰	-18077
旁	-18078
旧	-18079
映	-18080
疲	-18081
矩	-18082
茨	-18083
萄	-18084
葡	-18085
补	-18086
贵	-18087
轴	-18088
载	-18089
钱	-18090
雀	-18091
仪	-18092
允	-18093
净	-18094
寸	-18095
幕	-18096
恐	-18097
恢	-18098
恩	-18099
悦	-18100
摩	-18101
撒	-18102
氢	-18103
礼	-18104
译	-18105
酱	-18106
陆	-18107
魔	-18108
齿	-18109
乏	-18110
伽	-18111
债	-18112
剂	-18113
厚	-18114
右	-18115
埃	-18116
屏	-18117
忘	-18118
忧	-18119
椅	-18120
榄	-18121
橄	-18122
沿	-18123
滑	-18124
漏	-18125
熊	-18126
瑞	-18127
百	-18128
肪	-18129
跳	-18130
辆	-18131
邀	-18132
陷	-18133
骗	-18134
仁	-18135
仔	-18136
咨	-18137
圣	-18138
延	-18139
携	-18140
朗	-18141
杀	-18142
灭	-18143
猪	-18144
碗	-18145
纯	-18146
耐	-18147
舞	-18148
若	-18149
迭	-18150
青	-18151
乎	-18152
凉	-18153
卷	-18154
呢	-18155
哲	-18156
宁	-18157
寒	-18158
幻	-18159
斗	-18160
歧	-18161
洞	-18162
潮	-18163
猴	-18164
纲	-18165
翰	-18166
聘	-18167
肴	-18168
谨	-18169
跃	-18170
迹	-18171
隔	-18172
√	-18173
伞	-18174
刷	-18175
吧	-18176
奏	-18177
奥	-18178
妈	-18179
宗	-18180
抑	-18181
掘	-18182
楚	-18183
湿	-18184
珍	-18185
珠	-18186
盟	-18187
睛	-18188
闭	-18189
阻	-18190
鸣	-18191
冻	-18192
喝	-18193
壳	-18194
庆	-18195
怀	-18196
慎	-18197
拼	-18198
捉	-18199
授	-18200
掉	-18201
泥	-18202
涨	-18203
渴	-18204
烟	-18205
爆	-18206
瑜	-18207
绕	-18208
雇	-18209
颗	-18210
魅	-18211
–	-18212
勒	-18213
唯	-18214
圈	-18215
岁	-18216
帐	-18217
忽	-18218
怕	-18219
撑	-18220
狮	-18221
琪	-18222
禁	-18223
秋	-18224
租	-18225
紫	-18226
莉	-18227
菲	-18228
蝶	-18229
誉	-18230
逆	-18231
邻	-18232
乔	-18233
仰	-18234
仿	-18235
凯	-18236
刀	-18237
删	-18238
央	-18239
封	-18240
尤	-18241
帽	-18242
扰	-18243
抛	-18244
援	-18245
斜	-18246
晒	-18247
暂	-18248
欣	-18249
毅	-18250
溶	-18251
烹	-18252
煎	-18253
磁	-18254
糊	-18255
纽	-18256
胸	-18257
船	-18258
貌	-18259
贴	-18260
践	-18261
逊	-18262
遥	-18263
雄	-18264
韧	-18265
鲁	-18266
亿	-18267
伙	-18268
妙	-18269
宾	-18270
尺	-18271
扣	-18272
昂	-18273
武	-18274
淋	-18275
灌	-18276
狂	-18277
癌	-18278
稀	-18279
篮	-18280
纷	-18281
翅	-18282
脸	-18283
艳	-18284
芝	-18285
虎	-18286
街	-18287
豪	-18288
跨	-18289
辞	-18290
迫	-18291
镇	-18292
附	-18293
雷	-18294
饪	-18295
黎	-18296
册	-18297
刚	-18298
券	-18299
啸	-18300
套	-18301
妇	-18302
岸	-18303
戴	-18304
扎	-18305
敦	-18306
枝	-18307
桃	-18308
横	-18309
泊	-18310
渗	-18311
湖	-18312
澳	-18313
爬	-18314
瓶	-18315
耳	-18316
莎	-18317
萝	-18318
蜜	-18319
袭	-18320
谁	-18321
Z	-18322
\	-18323
丢	-18324
卖	-18325
吉	-18326
夸	-18327
宇	-18328
宜	-18329
川	-18330
庄	-18331
恒	-18332
惧	-18333
扑	-18334
扮	-18335
擦	-18336
桥	-18337
瑟	-18338
税	-18339
竭	-18340
纵	-18341
赋	-18342
辅	-18343
辨	-18344
铺	-18345
阴	-18346
霜	-18347
骼	-18348
麻	-18349
丛	-18350
乡	-18351
乳	-18352
佛	-18353
倍	-18354
剩	-18355
占	-18356
卢	-18357
壁	-18358
奴	-18359
峻	-18360
嵌	-18361
巾	-18362
幽	-18363
役	-18364
徒	-18365
悉	-18366
慨	-18367
拷	-18368
挖	-18369
摇	-18370
敬	-18371
旱	-18372
沸	-18373
泰	-18374
滥	-18375
灰	-18376
狸	-18377
瓦	-18378
窃	-18379
罚	-18380
耀	-18381
耍	-18382
肠	-18383
腊	-18384
莫	-18385
菠	-18386
裂	-18387
谊	-18388
赞	-18389
赢	-18390
迟	-18391
钮	-18392
闪	-18393
鲸	-18394
π	-18395
•	-18396
　	-18397
乱	-18398
俗	-18399
倡	-18400
凡	-18401
剃	-18402
厂	-18403
叙	-18404
吐	-18405
咳	-18406
哺	-18407
嘴	-18408
堆	-18409
奔	-18410
宙	-18411
尖	-18412
扫	-18413
拒	-18414
杆	-18415
杠	-18416
枯	-18417
桶	-18418
棵	-18419
楼	-18420
浅	-18421
漠	-18422
烦	-18423
狱	-18424
猛	-18425
甲	-18426
疏	-18427
疼	-18428
盆	-18429
腿	-18430
芒	-18431
荒	-18432
踏	-18433
迁	-18434
违	-18435
迪	-18436
遭	-18437
颁	-18438
鹉	-18439
鹦	-18440
鼻	-18441
乌	-18442
勃	-18443
卜	-18444
叠	-18445
喱	-18446
嫩	-18447
宪	-18448
寄	-18449
帕	-18450
悲	-18451
押	-18452
昔	-18453
柠	-18454
梨	-18455
檬	-18456
欺	-18457
毕	-18458
洪	-18459
滩	-18460
煤	-18461
爽	-18462
狐	-18463
瑚	-18464
瑰	-18465
碌	-18466
箭	-18467
粗	-18468
纤	-18469
罩	-18470
胀	-18471
腐	-18472
茂	-18473
荣	-18474
蒙	-18475
逃	-18476
铅	-18477
阔	-18478
隶	-18479
霍	-18480
饱	-18481
馅	-18482
馨	-18483
鸭	-18484
≈	-18485
丁	-18486
仙	-18487
伸	-18488
侧	-18489
偶	-18490
唐	-18491
嗽	-18492
夹	-18493
妹	-18494
姜	-18495
怎	-18496
恋	-18497
悬	-18498
慌	-18499
懂	-18500
抹	-18501
摆	-18502
撞	-18503
旦	-18504
杏	-18505
氮	-18506
池	-18507
涌	-18508
淡	-18509
滋	-18510
炉	-18511
甘	-18512
畏	-18513
皇	-18514
礁	-18515
祖	-18516
稿	-18517
笼	-18518
缆	-18519
膜	-18520
艰	-18521
芬	-18522
苦	-18523
荷	-18524
藻	-18525
蝴	-18526
裁	-18527
裤	-18528
裹	-18529
讯	-18530
赏	-18531
逝	-18532
锤	-18533
陌	-18534
颖	-18535
飓	-18536
七	-18537
伟	-18538
兔	-18539
凌	-18540
剥	-18541
厌	-18542
啊	-18543
噪	-18544
垫	-18545
埋	-18546
夺	-18547
委	-18548
尿	-18549
弗	-18550
弦	-18551
怒	-18552
惜	-18553
愤	-18554
慰	-18555
扬	-18556
批	-18557
抓	-18558
拯	-18559
挂	-18560
挤	-18561
棋	-18562
樱	-18563
汉	-18564
渲	-18565
溉	-18566
濒	-18567
狼	-18568
猜	-18569
玉	-18570
窗	-18571
累	-18572
纹	-18573
缘	-18574
聪	-18575
臂	-18576
芦	-18577
莱	-18578
菌	-18579
葛	-18580
蔓	-18581
蜂	-18582
谋	-18583
贯	-18584
轨	-18585
隆	-18586
韵	-18587
÷	-18588
伪	-18589
俱	-18590
俳	-18591
兽	-18592
割	-18593
勤	-18594
喉	-18595
弓	-18596
恤	-18597
慈	-18598
抄	-18599
斑	-18600
昆	-18601
晨	-18602
朱	-18603
梁	-18604
梯	-18605
梵	-18606
殊	-18607
残	-18608
泄	-18609
泌	-18610
熵	-18611
牧	-18612
玫	-18613
瓣	-18614
痕	-18615
盗	-18616
秒	-18617
绽	-18618
胃	-18619
腺	-18620
荡	-18621
蒸	-18622
诈	-18623
豚	-18624
辣	-18625
邪	-18626
醇	-18627
鉴	-18628
锐	-18629
％	-18630
丧	-18631
八	-18632
兹	-18633
凤	-18634
卓	-18635
叹	-18636
吹	-18637
姐	-18638
娜	-18639
宠	-18640
宫	-18641
寓	-18642
岩	-18643
帝	-18644
彻	-18645
徙	-18646
怪	-18647
恰	-18648
拆	-18649
拜	-18650
撤	-18651
曼	-18652
朝	-18653
朴	-18654
梅	-18655
欲	-18656
毁	-18657
沃	-18658
浮	-18659
漂	-18660
燕	-18661
猬	-18662
玻	-18663
矶	-18664
碰	-18665
籽	-18666
肢	-18667
腔	-18668
腰	-18669
膀	-18670
膨	-18671
衫	-18672
赠	-18673
酷	-18674
钢	-18675
阐	-18676
饥	-18677
鳄	-18678
鼠	-18679
倦	-18680
偷	-18681
傅	-18682
凝	-18683
凭	-18684
募	-18685
厨	-18686
垂	-18687
奉	-18688
婚	-18689
孔	-18690
寂	-18691
屿	-18692
席	-18693
床	-18694
御	-18695
忍	-18696
慷	-18697
懈	-18698
杉	-18699
枫	-18700
柯	-18701
柱	-18702
械	-18703
榜	-18704
泼	-18705
泽	-18706
浆	-18707
浴	-18708
浸	-18709
涡	-18710
炭	-18711
犬	-18712
犹	-18713
盈	-18714
碱	-18715
筛	-18716
篝	-18717
篡	-18718
粮	-18719
纠	-18720
羽	-18721
肽	-18722
胆	-18723
芯	-18724
菇	-18725
蓄	-18726
衬	-18727
衰	-18728
谓	-18729
踩	-18730
辛	-18731
辩	-18732
钙	-18733
铃	-18734
锋	-18735
闰	-18736
雕	-18737
雾	-18738
黛	-18739
齐	-18740
~	-18741
京	-18742
伏	-18743
佩	-18744
俄	-18745
削	-18746
劣	-18747
務	-18748
哭	-18749
喘	-18750
喷	-18751
圭	-18752
奈	-18753
姿	-18754
嫌	-18755
宏	-18756
寿	-18757
屈	-18758
崇	-18759
崛	-18760
巢	-18761
弊	-18762
惩	-18763
愈	-18764
揭	-18765
摸	-18766
撼	-18767
擅	-18768
敲	-18769
旷	-18770
昨	-18771
晴	-18772
曝	-18773
柜	-18774
栈	-18775
棕	-18776
橡	-18777
毫	-18778
浇	-18779
涂	-18780
淇	-18781
湛	-18782
滤	-18783
炖	-18784
烂	-18785
烷	-18786
焕	-18787
燥	-18788
爪	-18789
琐	-18790
疯	-18791
盒	-18792
碑	-18793
秩	-18794
穆	-18795
笛	-18796
筒	-18797
篷	-18798
粘	-18799
绚	-18800
缝	-18801
翔	-18802
翩	-18803
肩	-18804
胎	-18805
脆	-18806
腻	-18807
薛	-18808
蚀	-18809
谔	-18810
铝	-18811
阵	-18812
陶	-18813
饿	-18814
@	-18815
△	-18816
丹	-18817
乙	-18818
伍	-18819
偿	-18820
兄	-18821
剪	-18822
君	-18823
吱	-18824
哮	-18825
唤	-18826
喊	-18827
喵	-18828
報	-18829
夕	-18830
媚	-18831
宿	-18832
尘	-18833
届	-18834
崖	-18835
幼	-18836
廉	-18837
廊	-18838
弯	-18839
悔	-18840
悠	-18841
惑	-18842
惨	-18843
扔	-18844
抬	-18845
挚	-18846
挠	-18847
捍	-18848
捐	-18849
敌	-18850
暑	-18851
柄	-18852
梭	-18853
泳	-18854
津	-18855
涯	-18856
渔	-18857
溢	-18858
溯	-18859
烘	-18860
焚	-18861
牢	-18862
瞬	-18863
硕	-18864
磨	-18865
祈	-18866
稍	-18867
筹	-18868
簇	-18869
缠	-18870
翼	-18871
耸	-18872
聆	-18873
胰	-18874
腾	-18875
臭	-18876
茫	-18877
荫	-18878
葫	-18879
蒂	-18880
蕴	-18881
藤	-18882
虹	-18883
蚊	-18884
蛇	-18885
蛙	-18886
蛾	-18887
裔	-18888
褐	-18889
記	-18890
讼	-18891
谜	-18892
豹	-18893
逼	-18894
郊	-18895
酪	-18896
锁	-18897
闲	-18898
陪	-18899
&	-18900
é	-18901
ā	-18902
μ	-18903
丈	-18904
侠	-18905
俯	-18906
刊	-18907
剑	-18908
劲	-18909
劾	-18910
匆	-18911
卸	-18912
厕	-18913
咙	-18914
咬	-18915
哀	-18916
妥	-18917
妨	-18918
宅	-18919
寺	-18920
崽	-18921
廷	-18922
怖	-18923
憧	-18924
憬	-18925
懒	-18926
披	-18927
拖	-18928
拘	-18929
挣	-18930
挽	-18931
搏	-18932
搓	-18933
攀	-18934
斥	-18935
旗	-18936
晶	-18937
栏	-18938
株	-18939
桑	-18940
梳	-18941
歇	-18942
洒	-18943
淀	-18944
淆	-18945
溃	-18946
灶	-18947
狭	-18948
琳	-18949
璃	-18950
畔	-18951
盔	-18952
盾	-18953
矫	-18954
硫	-18955
磅	-18956
稅	-18957
稠	-18958
穷	-18959
竖	-18960
竹	-18961
笋	-18962
簿	-18963
粹	-18964
纺	-18965
绑	-18966
绳	-18967
罐	-18968
罕	-18969
羊	-18970
翱	-18971
肃	-18972
胖	-18973
脊	-18974
腹	-18975
膳	-18976
舍	-18977
萎	-18978
萧	-18979
薄	-18980
蘑	-18981
蜒	-18982
螺	-18983
蠕	-18984
袖	-18985
裙	-18986
讶	-18987
讽	-18988
豫	-18989
赎	-18990
赫	-18991
赶	-18992
跌	-18993
踢	-18994
蹄	-18995
迈	-18996
邃	-18997
酶	-18998
钓	-18999
铜	-19000
隙	-19001
雌	-19002
飘	-19003
鹿	-19004
鼬	-19005
．	-19006
³	-19007
à	-19008
ī	-19009
ǎ	-19010
’	-19011
亦	-19012
仓	-19013
佐	-19014
佣	-19015
俊	-19016
傲	-19017
党	-19018
剖	-19019
卧	-19020
厉	-19021
召	-19022
吁	-19023
吞	-19024
員	-19025
哦	-19026
喙	-19027
嘶	-19028
坛	-19029
壶	-19030
奠	-19031
妆	-19032
妮	-19033
妻	-19034
娘	-19035
孜	-19036
尸	-19037
屑	-19038
崩	-19039
巩	-19040
帖	-19041
庇	-19042
庞	-19043
恨	-19044
恺	-19045
恼	-19046
扁	-19047
扶	-19048
抢	-19049
拨	-19050
挡	-19051
捞	-19052
敛	-19053
斋	-19054
昊	-19055
栓	-19056
梗	-19057
棘	-19058
橘	-19059
毯	-19060
汗	-19061
沛	-19062
沼	-19063
泻	-19064
涤	-19065
淘	-19066
溪	-19067
滚	-19068
滴	-19069
潺	-19070
澈	-19071
焰	-19072
犀	-19073
狡	-19074
狩	-19075
皂	-19076
盲	-19077
矛	-19078
砖	-19079
磷	-19080
祸	-19081
竟	-19082
箔	-19083
粼	-19084
纱	-19085
绵	-19086
缕	-19087
肝	-19088
肿	-19089
腌	-19090
芥	-19091
芳	-19092
苗	-19093
茎	-19094
薯	-19095
虐	-19096
蜿	-19097
蝙	-19098
蝠	-19099
螈	-19100
衷	-19101
裸	-19102
觅	-19103
[...]
