<pad>	0
<unk>	0
<s>	0
</s>	0
<0x00>	0
<0x01>	0
<0x02>	0
<0x03>	0
<0x04>	0
<0x05>	0
<0x06>	0
<0x07>	0
<0x08>	0
<0x09>	0
<0x0A>	0
<0x0B>	0
<0x0C>	0
<0x0D>	0
<0x0E>	0
<0x0F>	0
<0x10>	0
<0x11>	0
<0x12>	0
<0x13>	0
<0x14>	0
<0x15>	0
<0x16>	0
<0x17>	0
<0x18>	0
<0x19>	0
<0x1A>	0
<0x1B>	0
<0x1C>	0
<0x1D>	0
<0x1E>	0
<0x1F>	0
<0x20>	0
<0x21>	0
<0x22>	0
<0x23>	0
<0x24>	0
<0x25>	0
<0x26>	0
<0x27>	0
<0x28>	0
<0x29>	0
<0x2A>	0
<0x2B>	0
<0x2C>	0
<0x2D>	0
<0x2E>	0
<0x2F>	0
<0x30>	0
<0x31>	0
<0x32>	0
<0x33>	0
<0x34>	0
<0x35>	0
<0x36>	0
<0x37>	0
<0x38>	0
<0x39>	0
<0x3A>	0
<0x3B>	0
<0x3C>	0
<0x3D>	0
<0x3E>	0
<0x3F>	0
<0x40>	0
<0x41>	0
<0x42>	0
<0x43>	0
<0x44>	0
<0x45>	0
<0x46>	0
<0x47>	0
<0x48>	0
<0x49>	0
<0x4A>	0
<0x4B>	0
<0x4C>	0
<0x4D>	0
<0x4E>	0
<0x4F>	0
<0x50>	0
<0x51>	0
<0x52>	0
<0x53>	0
<0x54>	0
<0x55>	0
<0x56>	0
<0x57>	0
<0x58>	0
<0x59>	0
<0x5A>	0
<0x5B>	0
<0x5C>	0
<0x5D>	0
<0x5E>	0
<0x5F>	0
<0x60>	0
<0x61>	0
<0x62>	0
<0x63>	0
<0x64>	0
<0x65>	0
<0x66>	0
<0x67>	0
<0x68>	0
<0x69>	0
<0x6A>	0
<0x6B>	0
<0x6C>	0
<0x6D>	0
<0x6E>	0
<0x6F>	0
<0x70>	0
<0x71>	0
<0x72>	0
<0x73>	0
<0x74>	0
<0x75>	0
<0x76>	0
<0x77>	0
<0x78>	0
<0x79>	0
<0x7A>	0
<0x7B>	0
<0x7C>	0
<0x7D>	0
<0x7E>	0
<0x7F>	0
<0x80>	0
<0x81>	0
<0x82>	0
<0x83>	0
<0x84>	0
<0x85>	0
<0x86>	0
<0x87>	0
<0x88>	0
<0x89>	0
<0x8A>	0
<0x8B>	0
<0x8C>	0
<0x8D>	0
<0x8E>	0
<0x8F>	0
<0x90>	0
<0x91>	0
<0x92>	0
<0x93>	0
<0x94>	0
<0x95>	0
<0x96>	0
<0x97>	0
<0x98>	0
<0x99>	0
<0x9A>	0
<0x9B>	0
<0x9C>	0
<0x9D>	0
<0x9E>	0
<0x9F>	0
<0xA0>	0
<0xA1>	0
<0xA2>	0
<0xA3>	0
<0xA4>	0
<0xA5>	0
<0xA6>	0
<0xA7>	0
<0xA8>	0
<0xA9>	0
<0xAA>	0
<0xAB>	0
<0xAC>	0
<0xAD>	0
<0xAE>	0
<0xAF>	0
<0xB0>	0
<0xB1>	0
<0xB2>	0
<0xB3>	0
<0xB4>	0
<0xB5>	0
<0xB6>	0
<0xB7>	0
<0xB8>	0
<0xB9>	0
<0xBA>	0
<0xBB>	0
<0xBC>	0
<0xBD>	0
<0xBE>	0
<0xBF>	0
<0xC0>	0
<0xC1>	0
<0xC2>	0
<0xC3>	0
<0xC4>	0
<0xC5>	0
<0xC6>	0
<0xC7>	0
<0xC8>	0
<0xC9>	0
<0xCA>	0
<0xCB>	0
<0xCC>	0
<0xCD>	0
<0xCE>	0
<0xCF>	0
<0xD0>	0
<0xD1>	0
<0xD2>	0
<0xD3>	0
<0xD4>	0
<0xD5>	0
<0xD6>	0
<0xD7>	0
<0xD8>	0
<0xD9>	0
<0xDA>	0
<0xDB>	0
<0xDC>	0
<0xDD>	0
<0xDE>	0
<0xDF>	0
<0xE0>	0
<0xE1>	0
<0xE2>	0
<0xE3>	0
<0xE4>	0
<0xE5>	0
<0xE6>	0
<0xE7>	0
<0xE8>	0
<0xE9>	0
<0xEA>	0
<0xEB>	0
<0xEC>	0
<0xED>	0
<0xEE>	0
<0xEF>	0
<0xF0>	0
<0xF1>	0
<0xF2>	0
<0xF3>	0
<0xF4>	0
<0xF5>	0
<0xF6>	0
<0xF7>	0
<0xF8>	0
<0xF9>	0
<0xFA>	0
<0xFB>	0
<0xFC>	0
<0xFD>	0
<0xFE>	0
<0xFF>	0
公司	-0
中国	-1
发展	-2
工作	-3
我们	-4
企业	-5
一个	-6
可以	-7
技术	-8
服务	-9
进行	-10
产品	-11
管理	-12
国家	-13
市场	-14
自己	-15
研究	-16
建设	-17
项目	-18
教育	-19
使用	-20
通过	-21
生产	-22
时间	-23
没有	-24
提供	-25
专业	-26
工程	-27
他们	-28
经济	-29
系统	-30
设计	-31
社会	-32
主要	-33
问题	-34
信息	-35
大学	-36
行业	-37
。”	-38
安全	-39
需要	-40
生活	-41
”，	-42
活动	-43
文化	-44
产业	-45
同时	-46
以及	-47
就是	-48
人员	-49
世界	-50
学生	-51
中心	-52
国际	-53
成为	-54
方面	-55
相关	-56
环境	-57
重要	-58
影响	-59
要求	-60
具有	-61
已经	-62
投资	-63
第一	-64
的一	-65
可能	-66
目前	-67
学校	-68
能力	-69
其中	-70
科技	-71
的人	-72
如果	-73
情况	-74
设备	-75
因为	-76
政府	-77
这个	-78
城市	-79
增长	-80
作为	-81
单位	-82
集团	-83
创新	-84
组织	-85
有限	-86
数据	-87
是一	-88
”。	-89
大的	-90
处理	-91
不同	-92
好的	-93
质量	-94
全国	-95
合作	-96
表示	-97
建筑	-98
什么	-99
其他	-100
根据	-101
应用	-102
标准	-103
实现	-104
▁在	-105
人民	-106
治疗	-107
以上	-108
这些	-109
资源	-110
开始	-111
部分	-112
亿元	-113
中的	-114
包括	-115
对于	-116
提高	-117
美国	-118
科学	-119
很多	-120
▁“	-121
有限公司	-122
材料	-123
方式	-124
学习	-125
工业	-126
汽车	-127
人的	-128
健康	-129
也是	-130
患者	-131
所以	-132
er	-133
北京	-134
部门	-135
非常	-136
开发	-137
地区	-138
出现	-139
基础	-140
到了	-141
不断	-142
这样	-143
学院	-144
过程	-145
大家	-146
的是	-147
网络	-148
平台	-149
获得	-150
领域	-151
选择	-152
规定	-153
年的	-154
：“	-155
一些	-156
完成	-157
白癜	-158
能够	-159
%，	-160
白癜风	-161
业务	-162
因此	-163
作用	-164
但是	-165
国内	-166
了解	-167
品牌	-168
发生	-169
一定	-170
全球	-171
自己的	-172
现在	-173
我国	-174
时候	-175
不是	-176
发现	-177
旅游	-178
由于	-179
计划	-180
万元	-181
机构	-182
内容	-183
所有	-184
开展	-185
功能	-186
孩子	-187
增加	-188
需求	-189
in	-190
综合	-191
%。	-192
，“	-193
提升	-194
医院	-195
一步	-196
客户	-197
认为	-198
第二	-199
艺术	-200
有关	-201
on	-202
消费	-203
用户	-204
经营	-205
达到	-206
an	-207
精神	-208
智能	-209
个人	-210
支持	-211
方法	-212
电子	-213
控制	-214
都是	-215
水平	-216
--	-217
），	-218
积极	-219
负责	-220
制造	-221
上海	-222
拥有	-223
发布	-224
结构	-225
今年	-226
交通	-227
采用	-228
▁（	-229
教学	-230
不能	-231
代表	-232
之一	-233
保护	-234
参加	-235
销售	-236
未来	-237
这种	-238
超过	-239
历史	-240
利用	-241
还是	-242
这一	-243
实施	-244
为了	-245
政策	-246
比较	-247
价格	-248
联网	-249
各种	-250
一般	-251
自然	-252
或者	-253
形成	-254
更多	-255
网站	-256
分析	-257
希望	-258
进入	-259
传统	-260
责任	-261
了一	-262
解决	-263
有效	-264
基本	-265
随着	-266
上的	-267
进一步	-268
必须	-269
条件	-270
还有	-271
产生	-272
持续	-273
重点	-274
显示	-275
规划	-276
特别	-277
专家	-278
参与	-279
知识	-280
比赛	-281
人才	-282
能源	-283
申请	-284
不仅	-285
用于	-286
记者	-287
新的	-288
——	-289
教师	-290
而且	-291
关系	-292
收入	-293
之后	-294
系列	-295
报告	-296
ar	-297
存在	-298
这是	-299
成功	-300
来的	-301
会议	-302
疫情	-303
关于	-304
金融	-305
地方	-306
加强	-307
介绍	-308
建立	-309
规模	-310
知道	-311
一直	-312
目标	-313
食品	-314
职业	-315
方案	-316
同比	-317
帮助	-318
全面	-319
体系	-320
结合	-321
继续	-322
成立	-323
之间	-324
人们	-325
委员	-326
导致	-327
如何	-328
价值	-329
医疗	-330
实际	-331
虽然	-332
那么	-333
领导	-334
造成	-335
按照	-336
一起	-337
以下	-338
的发展	-339
直接	-340
生态	-341
分别	-342
注意	-343
研发	-344
酒店	-345
提出	-346
取得	-347
现代	-348
游戏	-349
面积	-350
来说	-351
作品	-352
不会	-353
期间	-354
以来	-355
推进	-356
推动	-357
年来	-358
计算	-359
促进	-360
保持	-361
保障	-362
他的	-363
行为	-364
效果	-365
模式	-366
运动	-367
范围	-368
共同	-369
第三	-370
生物	-371
优势	-372
许多	-373
团队	-374
时代	-375
我们的	-376
任何	-377
en	-378
的时候	-379
下降	-380
疾病	-381
应该	-382
的大	-383
改革	-384
培养	-385
得到	-386
战略	-387
）。	-388
农业	-389
空间	-390
减少	-391
培训	-392
实验	-393
电影	-394
银行	-395
努力	-396
稳定	-397
卫生	-398
执行	-399
性能	-400
表现	-401
事业	-402
坚持	-403
基金	-404
考试	-405
设施	-406
互联网	-407
加工	-408
竞争	-409
手机	-410
▁(	-411
经过	-412
or	-413
结果	-414
联合	-415
甚至	-416
原因	-417
施工	-418
最后	-419
经验	-420
员工	-421
成本	-422
现场	-423
丰富	-424
只有	-425
交流	-426
机械	-427
行政	-428
》，	-429
al	-430
更加	-431
过程中	-432
位于	-433
▁S	-434
决定	-435
音乐	-436
受到	-437
美元	-438
▁C	-439
资金	-440
性的	-441
法律	-442
成绩	-443
。“	-444
严重	-445
一种	-446
两个	-447
朋友	-448
发展的	-449
毕业	-450
容易	-451
交易	-452
一次	-453
的高	-454
日本	-455
核心	-456
制度	-457
环保	-458
优秀	-459
保证	-460
先进	-461
来自	-462
运营	-463
体育	-464
..	-465
家庭	-466
媒体	-467
老师	-468
及时	-469
正在	-470
关注	-471
正式	-472
协会	-473
不过	-474
变化	-475
自动	-476
劳动	-477
公共	-478
阶段	-479
区域	-480
运输	-481
除了	-482
污染	-483
看到	-484
注册	-485
▁据	-486
at	-487
特色	-488
商业	-489
一样	-490
办公	-491
因素	-492
指导	-493
”、	-494
公里	-495
接受	-496
充分	-497
小时	-498
工艺	-499
这里	-500
具体	-501
形式	-502
身体	-503
广泛	-504
并且	-505
检查	-506
检测	-507
长期	-508
运行	-509
有的	-510
降低	-511
无法	-512
做好	-513
分钟	-514
公开	-515
主题	-516
带来	-517
明显	-518
的新	-519
故事	-520
落实	-521
今天	-522
委员会	-523
宣传	-524
措施	-525
细胞	-526
发挥	-527
量的	-528
是在	-529
风险	-530
▁本	-531
才能	-532
基地	-533
起来	-534
平方	-535
年度	-536
完善	-537
打造	-538
此外	-539
满足	-540
规范	-541
资格	-542
化学	-543
建议	-544
出了	-545
关键	-546
越来	-547
物流	-548
调整	-549
越来越	-550
▁A	-551
le	-552
快速	-553
高的	-554
数字	-555
压力	-556
的重要	-557
是否	-558
是一个	-559
开放	-560
创造	-561
喜欢	-562
主任	-563
操作	-564
左右	-565
不要	-566
并不	-567
电视	-568
最终	-569
组成	-570
教授	-571
ic	-572
举办	-573
其实	-574
我的	-575
it	-576
生命	-577
调查	-578
符合	-579
理念	-580
）、	-581
方向	-582
属于	-583
机会	-584
是一种	-585
当地	-586
制作	-587
通知	-588
中央	-589
课程	-590
化的	-591
新闻	-592
任务	-593
儿童	-594
科研	-595
中华	-596
从而	-597
意见	-598
之前	-599
视频	-600
软件	-601
不可	-602
空气	-603
绿色	-604
资产	-605
物质	-606
es	-607
确保	-608
完全	-609
确定	-610
整个	-611
成果	-612
机关	-613
资料	-614
出的	-615
咨询	-616
良好的	-617
特点	-618
也有	-619
联系	-620
▁M	-621
普通	-622
也不	-623
报名	-624
消费者	-625
el	-626
__	-627
深圳	-628
不同的	-629
去年	-630
保险	-631
实践	-632
简单	-633
个月	-634
改变	-635
程度	-636
皮肤	-637
上市	-638
安排	-639
针对	-640
金属	-641
重大	-642
统计	-643
股份	-644
过去	-645
不得	-646
举行	-647
然后	-648
的事	-649
正常	-650
从事	-651
思想	-652
整体	-653
状态	-654
广州	-655
出口	-656
心理	-657
来看	-658
都有	-659
意识	-660
你的	-661
合同	-662
体验	-663
书记	-664
香港	-665
文件	-666
社区	-667
力量	-668
当时	-669
避免	-670
就业	-671
创业	-672
”、“	-673
医学	-674
此次	-675
引起	-676
监督	-677
温度	-678
程序	-679
▁P	-680
就会	-681
真正	-682
的工作	-683
世纪	-684
目的	-685
尤其	-686
全部	-687
重要的	-688
行动	-689
准备	-690
指出	-691
航空	-692
移动	-693
深入	-694
只是	-695
的问题	-696
怎么	-697
群众	-698
理论	-699
十分	-700
进行了	-701
智慧	-702
意义	-703
电池	-704
动力	-705
大型	-706
速度	-707
自身	-708
贸易	-709
广东	-710
考虑	-711
效率	-712
明确	-713
应当	-714
▁《	-715
预计	-716
严格	-717
山东	-718
品质	-719
不少	-720
办法	-721
增强	-722
后的	-723
多个	-724
机制	-725
ro	-726
投入	-727
贡献	-728
这样的	-729
最大	-730
▁一	-731
平均	-732
供应	-733
商品	-734
面对	-735
欧洲	-736
多的	-737
安装	-738
改善	-739
一体	-740
人类	-741
为主	-742
数量	-743
病毒	-744
制定	-745
优质	-746
另外	-747
比如	-748
英国	-749
氧化	-750
展示	-751
文明	-752
最高	-753
升级	-754
每年	-755
党员	-756
平方米	-757
----	-758
各类	-759
的情况	-760
节能	-761
表面	-762
生的	-763
集中	-764
、《	-765
统一	-766
加快	-767
报道	-768
力的	-769
月份	-770
连续	-771
欢迎	-772
如此	-773
时期	-774
电话	-775
加入	-776
资本	-777
成长	-778
将在	-779
合理	-780
采取	-781
学科	-782
内的	-783
人口	-784
相比	-785
公司的	-786
ac	-787
铁路	-788
车辆	-789
财政	-790
)，	-791
推广	-792
食物	-793
利润	-794
道路	-795
技能	-796
农村	-797
干部	-798
多种	-799
他们的	-800
反应	-801
同比增长	-802
特殊	-803
政治	-804
然而	-805
最大的	-806
经理	-807
恢复	-808
居民	-809
同学	-810
相对	-811
无论	-812
民族	-813
维护	-814
董事	-815
岗位	-816
消息	-817
测试	-818
首先	-819
认真	-820
都会	-821
玻璃	-822
评价	-823
有一	-824
症状	-825
原则	-826
感染	-827
成员	-828
博士	-829
费用	-830
高速	-831
浙江	-832
州市	-833
景区	-834
企业的	-835
具备	-836
觉得	-837
is	-838
重庆	-839
购买	-840
分为	-841
困难	-842
每天	-843
监管	-844
公布	-845
感觉	-846
示范	-847
证券	-848
年轻	-849
结束	-850
▁这	-851
也会	-852
四川	-853
广大	-854
工作的	-855
各地	-856
%；	-857
产品的	-858
截至	-859
称为	-860
语言	-861
每个	-862
负责人	-863
半年	-864
经常	-865
方便	-866
一下	-867
吸引	-868
▁第	-869
的影响	-870
营养	-871
季度	-872
有些	-873
适合	-874
主义	-875
重视	-876
商务	-877
▁为	-878
位置	-879
日常	-880
支付	-881
化工	-882
例如	-883
临床	-884
青年	-885
om	-886
它们	-887
逐渐	-888
牛皮	-889
电动	-890
▁T	-891
协议	-892
融合	-893
东西	-894
它的	-895
双方	-896
挑战	-897
江苏	-898
突破	-899
距离	-900
et	-901
学术	-902
认识	-903
不到	-904
大量	-905
下的	-906
牛皮癣	-907
球队	-908
证明	-909
▁我	-910
只要	-911
土地	-912
▁B	-913
大多	-914
机场	-915
》、《	-916
相当	-917
污水	-918
出版	-919
比例	-920
自由	-921
相信	-922
经历	-923
▁从	-924
排名	-925
有机	-926
趋势	-927
的小	-928
最佳	-929
理解	-930
党委	-931
累计	-932
样的	-933
观众	-934
著名	-935
处于	-936
认证	-937
一年	-938
广告	-939
药物	-940
事件	-941
成了	-942
接触	-943
推出	-944
说明	-945
oo	-946
人士	-947
公路	-948
通常	-949
涉及	-950
等方面	-951
用的	-952
计算机	-953
……	-954
南省	-955
大会	-956
法院	-957
新型	-958
中小	-959
有着	-960
高校	-961
公园	-962
当然	-963
亿美元	-964
创作	-965
如今	-966
知名	-967
地产	-968
的话	-969
高度	-970
另一	-971
覆盖	-972
的产品	-973
招生	-974
近年来	-975
大利	-976
节目	-977
先生	-978
本次	-979
机器	-980
▁G	-981
三个	-982
as	-983
太阳	-984
各项	-985
地址	-986
登记	-987
承担	-988
告诉	-989
植物	-990
值得	-991
游客	-992
证书	-993
宣布	-994
给予	-995
在线	-996
的主要	-997
复杂	-998
自主	-999
家长	-1000
扩大	-1001
预防	-1002
下来	-1003
试验	-1004
re	-1005
工具	-1006
依法	-1007
公告	-1008
成都	-1009
德国	-1010
记录	-1011
内部	-1012
现象	-1013
改造	-1014
领先	-1015
者的	-1016
》（	-1017
简称	-1018
探索	-1019
下午	-1020
职工	-1021
发电	-1022
首次	-1023
通信	-1024
电力	-1025
相应	-1026
出来	-1027
医生	-1028
的方式	-1029
推荐	-1030
形象	-1031
素质	-1032
风格	-1033
百分	-1034
万人	-1035
迅速	-1036
哪些	-1037
动物	-1038
冠军	-1039
分享	-1040
设立	-1041
分子	-1042
有所	-1043
类型	-1044
传播	-1045
训练	-1046
il	-1047
治理	-1048
习惯	-1049
那些	-1050
的时间	-1051
▁L	-1052
鼓励	-1053
及其	-1054
发表	-1055
启动	-1056
包装	-1057
女性	-1058
协调	-1059
召开	-1060
先后	-1061
重新	-1062
身份	-1063
驾驶	-1064
营销	-1065
高级	-1066
有人	-1067
来源	-1068
营业	-1069
之间的	-1070
独立	-1071
的企业	-1072
医药	-1073
年代	-1074
队伍	-1075
防控	-1076
少年	-1077
▁根据	-1078
指标	-1079
更是	-1080
罗斯	-1081
塑料	-1082
进步	-1083
不足	-1084
实验室	-1085
仍然	-1086
国务	-1087
。（	-1088
新能源	-1089
考生	-1090
主动	-1091
再次	-1092
正确	-1093
办公室	-1094
，《	-1095
球员	-1096
始终	-1097
垃圾	-1098
ou	-1099
状况	-1100
以后	-1101
日起	-1102
适应	-1103
am	-1104
而是	-1105
文章	-1106
一定要	-1107
人工	-1108
掌握	-1109
配合	-1110
限制	-1111
而言	-1112
的基础	-1113
令人	-1114
面的	-1115
特别是	-1116
人体	-1117
进口	-1118
评估	-1119
在中国	-1120
ch	-1121
连接	-1122
提供了	-1123
强度	-1124
担任	-1125
ion	-1126
几乎	-1127
批准	-1128
▁的	-1129
优化	-1130
当前	-1131
主持	-1132
突出	-1133
招聘	-1134
享受	-1135
等等	-1136
人民币	-1137
有了	-1138
免疫	-1139
▁F	-1140
会上	-1141
财务	-1142
多年	-1143
建成	-1144
良好	-1145
法国	-1146
阅读	-1147
▁D	-1148
真实	-1149
神经	-1150
国务院	-1151
一定的	-1152
办理	-1153
近日	-1154
采购	-1155
”“	-1156
一切	-1157
▁I	-1158
饮食	-1159
共享	-1160
英语	-1161
娱乐	-1162
公益	-1163
学位	-1164
至今	-1165
万吨	-1166
▁R	-1167
更多的	-1168
天然	-1169
做到	-1170
让人	-1171
面临	-1172
赛季	-1173
实力	-1174
也可以	-1175
转型	-1176
追求	-1177
装饰	-1178
作者	-1179
学会	-1180
运用	-1181
俄罗斯	-1182
只能	-1183
基于	-1184
强的	-1185
院校	-1186
保温	-1187
和国	-1188
元素	-1189
性和	-1190
独特	-1191
沟通	-1192
表达	-1193
▁公司	-1194
▁H	-1195
》。	-1196
上午	-1197
发行	-1198
同样	-1199
更好	-1200
主管	-1201
充满	-1202
▁中国	-1203
合格	-1204
设置	-1205
循环	-1206
免费	-1207
校园	-1208
的一个	-1209
现实	-1210
的技术	-1211
必要	-1212
▁我们	-1213
高效	-1214
专利	-1215
第四	-1216
体现	-1217
ol	-1218
的同时	-1219
尽管	-1220
本科	-1221
葡萄	-1222
十二	-1223
厂家	-1224
配套	-1225
申报	-1226
地位	-1227
支出	-1228
致力	-1229
强调	-1230
加大	-1231
电脑	-1232
上述	-1233
ing	-1234
尤其是	-1235
的地方	-1236
年龄	-1237
病例	-1238
自我	-1239
可能会	-1240
▁-	-1241
危险	-1242
常见	-1243
之外	-1244
丰富的	-1245
往往	-1246
每一	-1247
最近	-1248
市场的	-1249
全体	-1250
同期	-1251
引导	-1252
想要	-1253
贷款	-1254
eb	-1255
网上	-1256
毕业生	-1257
上升	-1258
展览	-1259
里的	-1260
印度	-1261
新技术	-1262
法规	-1263
事实	-1264
的生活	-1265
制品	-1266
将会	-1267
所在	-1268
父母	-1269
幸福	-1270
犯罪	-1271
武汉	-1272
布局	-1273
志愿	-1274
的服务	-1275
肯定	-1276
天津	-1277
收集	-1278
了一个	-1279
室内	-1280
足球	-1281
观察	-1282
你们	-1283
全省	-1284
省级	-1285
围绕	-1286
)。	-1287
发病	-1288
日前	-1289
本身	-1290
呈现	-1291
这次	-1292
变得	-1293
石油	-1294
为什么	-1295
使得	-1296
微信	-1297
商标	-1298
低于	-1299
论文	-1300
顺利	-1301
融资	-1302
如下	-1303
公众	-1304
危害	-1305
依据	-1306
理想	-1307
逐步	-1308
高等	-1309
南京	-1310
找到	-1311
离子	-1312
小组	-1313
行业的	-1314
mm	-1315
概念	-1316
考核	-1317
主体	-1318
事故	-1319
机的	-1320
创建	-1321
博物	-1322
新冠	-1323
新增	-1324
韩国	-1325
各个	-1326
强化	-1327
是什么	-1328
环节	-1329
工资	-1330
影片	-1331
色的	-1332
贯彻	-1333
的一种	-1334
品种	-1335
唯一	-1336
完整	-1337
很大	-1338
海外	-1339
白癜风的	-1340
现有	-1341
监测	-1342
文学	-1343
等奖	-1344
并在	-1345
学历	-1346
真的	-1347
装备	-1348
众多	-1349
人在	-1350
全市	-1351
利益	-1352
装置	-1353
方面的	-1354
相同	-1355
业绩	-1356
日至	-1357
最新	-1358
解决方案	-1359
大部分	-1360
大数据	-1361
园区	-1362
特征	-1363
研究生	-1364
共和国	-1365
护理	-1366
曾经	-1367
是指	-1368
美丽	-1369
台湾	-1370
她的	-1371
官方	-1372
会员	-1373
防止	-1374
声明	-1375
认定	-1376
多少	-1377
人数	-1378
利于	-1379
IS	-1380
股份有限公司	-1381
感受	-1382
招标	-1383
股东	-1384
准确	-1385
含有	-1386
蛋白	-1387
一家	-1388
出生	-1389
对象	-1390
这么	-1391
排放	-1392
联赛	-1393
讨论	-1394
心的	-1395
支撑	-1396
市民	-1397
录取	-1398
自治	-1399
委会	-1400
实行	-1401
背景	-1402
多次	-1403
人生	-1404
农民	-1405
标志	-1406
研究院	-1407
手段	-1408
▁N	-1409
手术	-1410
即使	-1411
高端	-1412
的热	-1413
感到	-1414
的好	-1415
上涨	-1416
情绪	-1417
的心	-1418
美术	-1419
违法	-1420
ed	-1421
都在	-1422
人民政府	-1423
大幅	-1424
死亡	-1425
百分点	-1426
专业的	-1427
产权	-1428
快乐	-1429
st	-1430
反映	-1431
领域的	-1432
加上	-1433
邀请	-1434
将于	-1435
意味	-1436
是由	-1437
湖北	-1438
肺炎	-1439
▁E	-1440
刺激	-1441
硕士	-1442
美的	-1443
详细	-1444
原料	-1445
个百分点	-1446
▁新	-1447
废水	-1448
依然	-1449
投标	-1450
几个	-1451
生长	-1452
表演	-1453
伙伴	-1454
大多数	-1455
总经理	-1456
可靠	-1457
的作用	-1458
三年	-1459
工厂	-1460
效益	-1461
就可以	-1462
▁W	-1463
后来	-1464
▁二	-1465
管道	-1466
线上	-1467
预算	-1468
气体	-1469
角度	-1470
渠道	-1471
不再	-1472
生素	-1473
公安	-1474
含量	-1475
安徽	-1476
博物馆	-1477
应急	-1478
成熟	-1479
代理	-1480
房地产	-1481
pp	-1482
版权	-1483
种植	-1484
信息化	-1485
生活中	-1486
整合	-1487
根本	-1488
致力于	-1489
以前	-1490
he	-1491
橡胶	-1492
物联网	-1493
让我们	-1494
国内外	-1495
技术的	-1496
案件	-1497
上半年	-1498
河北	-1499
▁中	-1500
固定	-1501
损失	-1502
福建	-1503
岁的	-1504
物的	-1505
产量	-1506
难以	-1507
面向	-1508
病情	-1509
亚洲	-1510
角色	-1511
▁而	-1512
共有	-1513
仪式	-1514
场所	-1515
总体	-1516
部署	-1517
▁目前	-1518
决赛	-1519
清洁	-1520
▁年	-1521
贫困	-1522
id	-1523
兴趣	-1524
经典	-1525
在于	-1526
面试	-1527
物理	-1528
▁三	-1529
分布	-1530
涂料	-1531
基层	-1532
来到	-1533
中学	-1534
卫星	-1535
力度	-1536
存储	-1537
▁如果	-1538
也在	-1539
会计	-1540
大赛	-1541
我校	-1542
回收	-1543
一路	-1544
下面	-1545
期待	-1546
事情	-1547
其它	-1548
国外	-1549
各大	-1550
包含	-1551
活性	-1552
解释	-1553
寿命	-1554
零售	-1555
引进	-1556
联盟	-1557
房屋	-1558
成分	-1559
消防	-1560
文字	-1561
事项	-1562
年前	-1563
相互	-1564
集体	-1565
工作人员	-1566
做出	-1567
参考	-1568
构成	-1569
遇到	-1570
充电	-1571
感谢	-1572
的要求	-1573
一点	-1574
展开	-1575
拍摄	-1576
指数	-1577
大众	-1578
注重	-1579
至少	-1580
离开	-1581
▁上	-1582
腐蚀	-1583
构建	-1584
学生的	-1585
在这	-1586
教育部	-1587
意味着	-1588
使命	-1589
》《	-1590
专项	-1591
此前	-1592
分类	-1593
子的	-1594
合金	-1595
血管	-1596
药品	-1597
系统的	-1598
专门	-1599
展现	-1600
**	-1601
大力	-1602
清洗	-1603
西安	-1604
一名	-1605
国家级	-1606
总结	-1607
态度	-1608
不锈	-1609
检验	-1610
ter	-1611
对外	-1612
老年	-1613
许可	-1614
小学	-1615
引发	-1616
表明	-1617
仪器	-1618
研究所	-1619
)、	-1620
图书	-1621
地点	-1622
直播	-1623
满意	-1624
更好的	-1625
▁【	-1626
是中国	-1627
LE	-1628
会有	-1629
的前	-1630
提前	-1631
海洋	-1632
定位	-1633
主办	-1634
还要	-1635
流行	-1636
更新	-1637
补充	-1638
董事长	-1639
两种	-1640
不锈钢	-1641
事务	-1642
ad	-1643
乡村	-1644
广场	-1645
人民共和国	-1646
高中	-1647
别人	-1648
基础设施	-1649
二十	-1650
带动	-1651
高质量	-1652
一流	-1653
流程	-1654
的水	-1655
和社会	-1656
深度	-1657
的事情	-1658
____	-1659
天气	-1660
带领	-1661
增速	-1662
时刻	-1663
主要是	-1664
诚信	-1665
很多人	-1666
中华人民共和国	-1667
时的	-1668
年底	-1669
自行	-1670
配置	-1671
金额	-1672
湖南	-1673
▁当	-1674
混合	-1675
信用	-1676
创意	-1677
股票	-1678
水器	-1679
类似	-1680
维生素	-1681
纪念	-1682
一致	-1683
作业	-1684
摄影	-1685
普遍	-1686
组合	-1687
赢得	-1688
办学	-1689
添加	-1690
纤维	-1691
电商	-1692
不良	-1693
苹果	-1694
培育	-1695
复合	-1696
正是	-1697
演员	-1698
数据显示	-1699
于是	-1700
优先	-1701
产能	-1702
印刷	-1703
期的	-1704
有一个	-1705
周边	-1706
提交	-1707
党的	-1708
控股	-1709
显著	-1710
陕西	-1711
授权	-1712
信号	-1713
总是	-1714
吸收	-1715
天的	-1716
拓展	-1717
破坏	-1718
高温	-1719
得到了	-1720
适用于	-1721
人物	-1722
森林	-1723
工程师	-1724
疫情防控	-1725
认可	-1726
十三	-1727
演出	-1728
街道	-1729
养老	-1730
荣誉	-1731
主席	-1732
也就是	-1733
住房	-1734
PP	-1735
就像	-1736
蔬菜	-1737
会在	-1738
革命	-1739
的方法	-1740
ia	-1741
识别	-1742
阳光	-1743
缺乏	-1744
的需求	-1745
似乎	-1746
华为	-1747
意大利	-1748
血压	-1749
长的	-1750
黑色	-1751
的专业	-1752
人力	-1753
道德	-1754
成就	-1755
放在	-1756
轨道	-1757
障碍	-1758
的中	-1759
▁对于	-1760
家的	-1761
集成	-1762
维修	-1763
每一个	-1764
妈妈	-1765
很大的	-1766
ig	-1767
上了	-1768
最好	-1769
测量	-1770
项目的	-1771
地球	-1772
小的	-1773
旅行	-1774
基因	-1775
通讯	-1776
颜色	-1777
ot	-1778
清楚	-1779
院长	-1780
发动	-1781
销量	-1782
名单	-1783
多元	-1784
大大	-1785
度的	-1786
带来的	-1787
自动化	-1788
色彩	-1789
第一次	-1790
随后	-1791
思考	-1792
支部	-1793
休闲	-1794
补贴	-1795
东方	-1796
一代	-1797
在此	-1798
干燥	-1799
并没有	-1800
收购	-1801
所谓	-1802
一位	-1803
芯片	-1804
论坛	-1805
差异	-1806
和谐	-1807
工商	-1808
即可	-1809
名为	-1810
审查	-1811
场比赛	-1812
处罚	-1813
气候	-1814
的情况下	-1815
信心	-1816
诊断	-1817
净化	-1818
几年	-1819
深刻	-1820
北京市	-1821
参观	-1822
终于	-1823
收益	-1824
确认	-1825
山西	-1826
杭州	-1827
确诊	-1828
城镇	-1829
扶贫	-1830
景观	-1831
钢铁	-1832
各级	-1833
不知道	-1834
互动	-1835
应对	-1836
预测	-1837
保健	-1838
切实	-1839
占地	-1840
部件	-1841
孩子们	-1842
的研究	-1843
出行	-1844
引领	-1845
照片	-1846
呼吸	-1847
学者	-1848
一条	-1849
就能	-1850
巨大	-1851
使用的	-1852
可持续	-1853
ay	-1854
寻找	-1855
考察	-1856
！”	-1857
取得了	-1858
的设计	-1859
污水处理	-1860
他在	-1861
是不	-1862
地理	-1863
条例	-1864
线路	-1865
▁随着	-1866
前往	-1867
区的	-1868
患者的	-1869
对此	-1870
当中	-1871
很难	-1872
流动	-1873
作出	-1874
中国的	-1875
奖励	-1876
之中	-1877
成立于	-1878
黄金	-1879
取消	-1880
国有	-1881
竞赛	-1882
us	-1883
数学	-1884
在一起	-1885
投资者	-1886
人工智能	-1887
即将	-1888
理事	-1889
转变	-1890
iv	-1891
of	-1892
梦想	-1893
熟悉	-1894
父亲	-1895
。《	-1896
加速	-1897
更为	-1898
最低	-1899
还可以	-1900
场景	-1901
深化	-1902
体的	-1903
提醒	-1904
ow	-1905
优惠	-1906
星期	-1907
世界上	-1908
较大	-1909
一段	-1910
校长	-1911
荣获	-1912
加坡	-1913
伤害	-1914
俱乐	-1915
会的	-1916
俱乐部	-1917
定的	-1918
上下	-1919
签订	-1920
以上的	-1921
--------	-1922
名字	-1923
规则	-1924
事业单位	-1925
层次	-1926
产业链	-1927
▁作为	-1928
▁此外	-1929
一旦	-1930
制造业	-1931
情况下	-1932
愿意	-1933
癫痫	-1934
密切	-1935
专用	-1936
ur	-1937
等级	-1938
您的	-1939
纷纷	-1940
四个	-1941
声音	-1942
近期	-1943
所有的	-1944
压缩	-1945
租赁	-1946
贵州	-1947
大量的	-1948
以下简称	-1949
▁该	-1950
义务	-1951
审核	-1952
外国	-1953
履行	-1954
母亲	-1955
烈的	-1956
占比	-1957
无线	-1958
的原因	-1959
▁，	-1960
想到	-1961
时尚	-1962
最好的	-1963
高于	-1964
的生产	-1965
透过	-1966
实现了	-1967
un	-1968
采访	-1969
精彩	-1970
是一家	-1971
决策	-1972
都不	-1973
地区的	-1974
有很多	-1975
广东省	-1976
规定的	-1977
出席	-1978
对手	-1979
自治区	-1980
的不	-1981
精准	-1982
适当	-1983
上年	-1984
广西	-1985
执法	-1986
报考	-1987
地铁	-1988
幼儿	-1989
赛事	-1990
居住	-1991
河南	-1992
转化	-1993
不管	-1994
同志	-1995
平衡	-1996
路线	-1997
总部	-1998
接近	-1999
调节	-2000
到达	-2001
协助	-2002
形势	-2003
住宅	-2004
参赛	-2005
日在	-2006
附近	-2007
便利	-2008
BA	-2009
冲击	-2010
多家	-2011
资质	-2012
医师	-2013
江西	-2014
大学生	-2015
定期	-2016
第五	-2017
和其他	-2018
凭借	-2019
%、	-2020
同意	-2021
放弃	-2022
爱情	-2023
丙烯	-2024
优良	-2025
全力	-2026
防治	-2027
地下	-2028
能量	-2029
并不是	-2030
他说	-2031
突然	-2032
净利润	-2033
导演	-2034
高达	-2035
所得	-2036
资讯	-2037
车型	-2038
很好的	-2039
地的	-2040
记忆	-2041
有利于	-2042
相关的	-2043
第一个	-2044
三大	-2045
成的	-2046
纪录	-2047
文物	-2048
青岛	-2049
传承	-2050
高考	-2051
一是	-2052
阳市	-2053
餐饮	-2054
予以	-2055
人为	-2056
空调	-2057
肿瘤	-2058
书法	-2059
则是	-2060
明星	-2061
都能	-2062
应用于	-2063
旅客	-2064
知识产权	-2065
玩家	-2066
老人	-2067
发明	-2068
确实	-2069
社交	-2070
两年	-2071
发布的	-2072
公务	-2073
可见	-2074
航天	-2075
爱的	-2076
网友	-2077
IP	-2078
来了	-2079
城乡	-2080
and	-2081
同学们	-2082
流量	-2083
转移	-2084
日上午	-2085
名称	-2086
一批	-2087
一线	-2088
有效的	-2089
发的	-2090
已有	-2091
ag	-2092
本网站	-2093
杂志	-2094
的主	-2095
一天	-2096
新区	-2097
评审	-2098
的美	-2099
尽量	-2100
长江	-2101
防护	-2102
竞争力	-2103
校区	-2104
的使用	-2105
直到	-2106
通道	-2107
那个	-2108
变成	-2109
转换	-2110
下了	-2111
意思	-2112
战争	-2113
权利	-2114
立即	-2115
舞台	-2116
可以在	-2117
师生	-2118
开启	-2119
版本	-2120
范围内	-2121
东南	-2122
设有	-2123
或许	-2124
新加坡	-2125
股权	-2126
ir	-2127
代码	-2128
失去	-2129
策略	-2130
试点	-2131
▁但	-2132
功率	-2133
家具	-2134
机遇	-2135
LED	-2136
建造	-2137
获得了	-2138
一带	-2139
▁O	-2140
乙烯	-2141
利亚	-2142
新兴	-2143
用人	-2144
维持	-2145
编辑	-2146
飞机	-2147
▁J	-2148
中有	-2149
就要	-2150
很快	-2151
永远	-2152
出台	-2153
城区	-2154
宝宝	-2155
驱动	-2156
协同	-2157
总额	-2158
▁与	-2159
到底	-2160
佛教	-2161
对方	-2162
进展	-2163
问题的	-2164
▁有	-2165
▁大	-2166
一个人	-2167
奥运	-2168
高铁	-2169
个性	-2170
截止	-2171
某些	-2172
绝对	-2173
阿里	-2174
食用	-2175
提出了	-2176
也将	-2177
电器	-2178
较高	-2179
安全生产	-2180
CE	-2181
十年	-2182
可是	-2183
称号	-2184
一级	-2185
思维	-2186
舒适	-2187
到的	-2188
动作	-2189
巨大的	-2190
允许	-2191
回到	-2192
官网	-2193
名的	-2194
com	-2195
形成了	-2196
关心	-2197
可以说	-2198
病人	-2199
西部	-2200
改进	-2201
机器人	-2202
不错	-2203
监控	-2204
经济发展	-2205
律师	-2206
无人	-2207
也要	-2208
委托	-2209
主管部门	-2210
动态	-2211
发达	-2212
家人	-2213
都要	-2214
优点	-2215
之路	-2216
和服务	-2217
的市场	-2218
停止	-2219
在这里	-2220
典型	-2221
承诺	-2222
调研	-2223
的治疗	-2224
公交	-2225
回复	-2226
月底	-2227
第一时间	-2228
获取	-2229
im	-2230
冠状	-2231
周期	-2232
热情	-2233
脱贫	-2234
搜索	-2235
权益	-2236
选手	-2237
专题	-2238
而在	-2239
以为	-2240
开拓	-2241
生存	-2242
讲述	-2243
青春	-2244
他人	-2245
服装	-2246
风景	-2247
全年	-2248
腾讯	-2249
万平方米	-2250
浓度	-2251
职责	-2252
二是	-2253
图片	-2254
广播	-2255
一系列	-2256
专注	-2257
脂肪	-2258
较为	-2259
电气	-2260
纳入	-2261
孩子的	-2262
判断	-2263
早期	-2264
特性	-2265
▁今年	-2266
已成为	-2267
村民	-2268
还在	-2269
ent	-2270
一场	-2271
积累	-2272
os	-2273
氛围	-2274
实际上	-2275
打印	-2276
胜利	-2277
产业发展	-2278
造型	-2279
供应商	-2280
▁K	-2281
也许	-2282
大师	-2283
效应	-2284
视觉	-2285
分别为	-2286
山东省	-2287
红色	-2288
购物	-2289
产生的	-2290
就在	-2291
观点	-2292
内外	-2293
用品	-2294
种类	-2295
营造	-2296
电信	-2297
侵犯	-2298
周围	-2299
适用	-2300
传感	-2301
感情	-2302
生产的	-2303
同比下降	-2304
ation	-2305
修改	-2306
公示	-2307
印象	-2308
团体	-2309
还会	-2310
或是	-2311
旗下	-2312
首席	-2313
PS	-2314
av	-2315
国民	-2316
多项	-2317
用水	-2318
传递	-2319
晚上	-2320
模型	-2321
评选	-2322
青少年	-2323
营收	-2324
无论是	-2325
性质	-2326
▁第二	-2327
司法	-2328
日的	-2329
装修	-2330
也能	-2331
合成	-2332
用来	-2333
英雄	-2334
身边	-2335
间的	-2336
传统的	-2337
日下午	-2338
群体	-2339
谢谢	-2340
加热	-2341
是个	-2342
是最	-2343
规格	-2344
透露	-2345
保留	-2346
平时	-2347
混凝	-2348
紧张	-2349
菩萨	-2350
三角	-2351
器的	-2352
当年	-2353
里面	-2354
依托	-2355
下载	-2356
并非	-2357
白色	-2358
著作	-2359
会长	-2360
发放	-2361
原理	-2362
润滑	-2363
而不	-2364
页面	-2365
有可能	-2366
周年	-2367
天下	-2368
本人	-2369
西亚	-2370
水果	-2371
看来	-2372
每个人	-2373
的故事	-2374
人力资源	-2375
钢管	-2376
足够	-2377
出发	-2378
危机	-2379
大约	-2380
市委	-2381
行的	-2382
再生	-2383
口罩	-2384
所需	-2385
遗传	-2386
东北	-2387
体检	-2388
大陆	-2389
宗旨	-2390
情感	-2391
轻松	-2392
如果你	-2393
古代	-2394
异常	-2395
编制	-2396
输送	-2397
？”	-2398
的基础上	-2399
做了	-2400
访问	-2401
生态环境	-2402
健身	-2403
承包	-2404
率为	-2405
辐射	-2406
错误	-2407
白癜风患者	-2408
厦门	-2409
指挥	-2410
用车	-2411
看看	-2412
补助	-2413
建设的	-2414
▁V	-2415
外观	-2416
加盟	-2417
号线	-2418
走向	-2419
....	-2420
养殖	-2421
国家的	-2422
服务的	-2423
的环境	-2424
助力	-2425
电路	-2426
违反	-2427
邮箱	-2428
现代化	-2429
本站	-2430
至于	-2431
节约	-2432
多年的	-2433
儿子	-2434
土壤	-2435
多样	-2436
审批	-2437
教练	-2438
部长	-2439
预期	-2440
▁他	-2441
让我	-2442
活动的	-2443
日期	-2444
日报	-2445
第十	-2446
CO	-2447
带着	-2448
出现了	-2449
中医	-2450
攻坚	-2451
输入	-2452
UR	-2453
疫苗	-2454
纽约	-2455
▁为了	-2456
副主任	-2457
市政府	-2458
另一方面	-2459
下滑	-2460
总局	-2461
查询	-2462
电机	-2463
货币	-2464
隔离	-2465
的管理	-2466
分离	-2467
动画	-2468
家居	-2469
有时	-2470
的历史	-2471
百姓	-2472
新能源汽车	-2473
树立	-2474
水利	-2475
）；	-2476
很好	-2477
国家和	-2478
厂商	-2479
打开	-2480
云南	-2481
尝试	-2482
影视	-2483
说的	-2484
辅助	-2485
禁止	-2486
秘书	-2487
等地	-2488
纺织	-2489
饮料	-2490
发出	-2491
团结	-2492
还能	-2493
建立了	-2494
康复	-2495
发动机	-2496
的精神	-2497
的规定	-2498
助于	-2499
部位	-2500
产品质量	-2501
新冠肺炎	-2502
但在	-2503
锻炼	-2504
激光	-2505
▁由于	-2506
定制	-2507
苏州	-2508
有哪些	-2509
余人	-2510
定义	-2511
西南	-2512
的能力	-2513
”（	-2514
其次	-2515
二级	-2516
授予	-2517
春节	-2518
四川省	-2519
舞蹈	-2520
日子	-2521
病的	-2522
NA	-2523
ap	-2524
两人	-2525
传输	-2526
聚丙烯	-2527
咖啡	-2528
斯特	-2529
是以	-2530
硬件	-2531
展会	-2532
总裁	-2533
车站	-2534
ut	-2535
担心	-2536
翻译	-2537
严重的	-2538
成为了	-2539
▁对	-2540
那里	-2541
也没有	-2542
相应的	-2543
延长	-2544
由此	-2545
血液	-2546
奋斗	-2547
管理局	-2548
班牙	-2549
售后	-2550
西班牙	-2551
收录	-2552
释放	-2553
课题	-2554
的相关	-2555
力和	-2556
地震	-2557
ISO	-2558
科技创新	-2559
绿化	-2560
▁自	-2561
输出	-2562
顾客	-2563
和平	-2564
消化	-2565
现金	-2566
各国	-2567
师范	-2568
彻底	-2569
温暖	-2570
眼睛	-2571
被告	-2572
有什么	-2573
中间	-2574
数的	-2575
精品	-2576
生活的	-2577
人大	-2578
保存	-2579
收到	-2580
收获	-2581
带来了	-2582
上市公司	-2583
各自	-2584
我们在	-2585
小编	-2586
损害	-2587
随时	-2588
全新	-2589
浙江省	-2590
也可	-2591
园林	-2592
白斑	-2593
规律	-2594
配备	-2595
是因为	-2596
这也是	-2597
nd	-2598
运作	-2599
智能化	-2600
一份	-2601
前景	-2602
密度	-2603
方位	-2604
无疑	-2605
通用	-2606
工作中	-2607
独特的	-2608
意外	-2609
昆明	-2610
期限	-2611
法人	-2612
不好	-2613
人群	-2614
同步	-2615
糖尿	-2616
过滤	-2617
分泌	-2618
文化的	-2619
不但	-2620
健全	-2621
发言	-2622
案例	-2623
民间	-2624
经费	-2625
这位	-2626
常见的	-2627
休息	-2628
虚拟	-2629
身上	-2630
更好地	-2631
档案	-2632
电缆	-2633
把握	-2634
是有	-2635
细节	-2636
的基本	-2637
人才培养	-2638
从业	-2639
共计	-2640
过的	-2641
长时间	-2642
今后	-2643
否则	-2644
车的	-2645
退休	-2646
完成了	-2647
人文	-2648
比亚	-2649
观看	-2650
队的	-2651
冠状病毒	-2652
IT	-2653
们的	-2654
分配	-2655
合法	-2656
长沙	-2657
ul	-2658
专科	-2659
五年	-2660
原来	-2661
响应	-2662
研讨	-2663
完美	-2664
提供的	-2665
奉献	-2666
整理	-2667
日益	-2668
不超过	-2669
很容易	-2670
厚的	-2671
容量	-2672
将其	-2673
常常	-2674
引擎	-2675
毫米	-2676
酰胺	-2677
多年来	-2678
坚定	-2679
本地	-2680
物品	-2681
电源	-2682
颗粒	-2683
不用	-2684
消除	-2685
事实上	-2686
之下	-2687
厘米	-2688
少数	-2689
常规	-2690
想象	-2691
才是	-2692
融入	-2693
课堂	-2694
河南省	-2695
的一些	-2696
都可以	-2697
整改	-2698
研制	-2699
银屑	-2700
餐厅	-2701
设备的	-2702
发作	-2703
先进的	-2704
▁以	-2705
收费	-2706
涵盖	-2707
澳大利	-2708
挖掘	-2709
法定	-2710
清晰	-2711
透明	-2712
为您	-2713
货物	-2714
中文	-2715
照明	-2716
财富	-2717
澳大利亚	-2718
IC	-2719
大气	-2720
女儿	-2721
煤炭	-2722
爱心	-2723
飞行	-2724
为客户	-2725
初心	-2726
走进	-2727
起到	-2728
录制	-2729
子公司	-2730
服务业	-2731
初步	-2732
水的	-2733
消耗	-2734
江苏省	-2735
人民法院	-2736
科技有限公司	-2737
普及	-2738
被称为	-2739
、“	-2740
当天	-2741
美好	-2742
尊重	-2743
思路	-2744
新疆	-2745
遵守	-2746
的内容	-2747
的应用	-2748
科学家	-2749
税务	-2750
起了	-2751
就有	-2752
气温	-2753
学校的	-2754
用人单位	-2755
出去	-2756
物资	-2757
读书	-2758
真正的	-2759
每次	-2760
面前	-2761
标准化	-2762
高新技术	-2763
URL	-2764
手续	-2765
三分	-2766
入选	-2767
超级	-2768
在这个	-2769
申请人	-2770
科学院	-2771
救援	-2772
有序	-2773
怎样	-2774
用途	-2775
缓解	-2776
充分发挥	-2777
加拿	-2778
新建	-2779
盈利	-2780
资助	-2781
达成	-2782
传染	-2783
区别	-2784
同一	-2785
机组	-2786
句话	-2787
很有	-2788
污泥	-2789
上海市	-2790
导师	-2791
斯坦	-2792
是对	-2793
最为	-2794
欣赏	-2795
是非常	-2796
公民	-2797
密封	-2798
战斗	-2799
明白	-2800
财产	-2801
郑州	-2802
部的	-2803
鉴定	-2804
相结合	-2805
▁北京	-2806
兄弟	-2807
冬季	-2808
灵活	-2809
ook	-2810
出来的	-2811
▁四	-2812
辅导	-2813
非法	-2814
混凝土	-2815
热水器	-2816
该公司	-2817
研究中心	-2818
女子	-2819
想法	-2820
格局	-2821
诉讼	-2822
不了	-2823
尚未	-2824
燃料	-2825
增加了	-2826
AA	-2827
ab	-2828
下去	-2829
原本	-2830
大小	-2831
灾害	-2832
观念	-2833
都市	-2834
产值	-2835
体制	-2836
发射	-2837
微博	-2838
树脂	-2839
各位	-2840
披露	-2841
隐患	-2842
图书馆	-2843
的中国	-2844
▁[	-2845
在家	-2846
ob	-2847
不知	-2848
em	-2849
业内	-2850
慢慢	-2851
描述	-2852
蒙古	-2853
太阳能	-2854
千万	-2855
的学生	-2856
实用	-2857
接待	-2858
生涯	-2859
缴纳	-2860
获奖	-2861
卓越	-2862
哪里	-2863
消毒	-2864
重组	-2865
▁通过	-2866
ec	-2867
也就	-2868
依靠	-2869
男子	-2870
诸多	-2871
运动员	-2872
这就是	-2873
合作伙伴	-2874
终端	-2875
尼亚	-2876
情形	-2877
签约	-2878
参加了	-2879
建筑面积	-2880
不够	-2881
旨在	-2882
代谢	-2883
开工	-2884
电站	-2885
哲学	-2886
小区	-2887
治愈	-2888
途径	-2889
队员	-2890
济南	-2891
风机	-2892
合并	-2893
毕竟	-2894
管理体系	-2895
市政	-2896
延伸	-2897
民众	-2898
物业	-2899
遗产	-2900
提高了	-2901
==	-2902
合物	-2903
的关键	-2904
贯彻落实	-2905
留学	-2906
通报	-2907
一方面	-2908
传感器	-2909
组织的	-2910
大道	-2911
期刊	-2912
男性	-2913
约为	-2914
...	-2915
党支部	-2916
的信息	-2917
有关部门	-2918
▁李	-2919
画面	-2920
评为	-2921
th	-2922
及以上	-2923
的第一	-2924
合适	-2925
电子商务	-2926
交换	-2927
评论	-2928
较低	-2929
实体	-2930
专业技术	-2931
GB	-2932
两次	-2933
成年	-2934
更换	-2935
激励	-2936
着力	-2937
以外	-2938
内心	-2939
冷却	-2940
小说	-2941
提示	-2942
证据	-2943
城市的	-2944
发育	-2945
地质	-2946
度假	-2947
陶瓷	-2948
强大的	-2949
DP	-2950
担当	-2951
尽快	-2952
讲解	-2953
为一体	-2954
糖尿病	-2955
公平	-2956
巴黎	-2957
最多	-2958
活力	-2959
管理的	-2960
▁饰	-2961
尺寸	-2962
更有	-2963
让你	-2964
同时也	-2965
修复	-2966
处置	-2967
成交	-2968
此时	-2969
万辆	-2970
国的	-2971
境外	-2972
季节	-2973
局长	-2974
新生	-2975
烘干	-2976
还将	-2977
验收	-2978
，”	-2979
ers	-2980
全方位	-2981
经济社会	-2982
od	-2983
最早	-2984
激发	-2985
紧急	-2986
它是	-2987
携手	-2988
看着	-2989
超越	-2990
选用	-2991
陆续	-2992
另一个	-2993
此同时	-2994
南方	-2995
各界	-2996
户外	-2997
回答	-2998
对其	-2999
水质	-3000
越南	-3001
一体化	-3002
ri	-3003
刚刚	-3004
新时代	-3005
临时	-3006
干净	-3007
配件	-3008
的价格	-3009
而不是	-3010
实在	-3011
对接	-3012
替代	-3013
监察	-3014
说法	-3015
AR	-3016
我市	-3017
秉承	-3018
落地	-3019
读者	-3020
标准的	-3021
反复	-3022
对比	-3023
顾问	-3024
宗教	-3025
策划	-3026
高压	-3027
▁近日	-3028
前的	-3029
地面	-3030
▁虽然	-3031
加重	-3032
境内	-3033
攻击	-3034
统筹	-3035
重量	-3036
微生物	-3037
AC	-3038
PC	-3039
。　	-3040
下列	-3041
妇女	-3042
权威	-3043
签署	-3044
给了	-3045
财经	-3046
▁本次	-3047
在全国	-3048
探讨	-3049
英文	-3050
首批	-3051
气象	-3052
龙头	-3053
了解到	-3054
技术和	-3055
身份证	-3056
达到了	-3057
刑事	-3058
生产线	-3059
婴儿	-3060
山区	-3061
必然	-3062
指定	-3063
日电	-3064
集团有限公司	-3065
um	-3066
做的	-3067
很少	-3068
很高	-3069
性格	-3070
成效	-3071
农产品	-3072
发起	-3073
味道	-3074
材质	-3075
的质量	-3076
▁据了解	-3077
做法	-3078
慈善	-3079
视为	-3080
不久	-3081
订单	-3082
的目标	-3083
交通运输	-3084
十八	-3085
开幕	-3086
今日	-3087
千瓦	-3088
博览	-3089
慢性	-3090
无意	-3091
紧密	-3092
进程	-3093
举措	-3094
均匀	-3095
失败	-3096
职称	-3097
记得	-3098
艺术家	-3099
的过程中	-3100
聚丙烯酰胺	-3101
年级	-3102
的机会	-3103
ID	-3104
亏损	-3105
夏季	-3106
家电	-3107
应聘	-3108
搭建	-3109
等待	-3110
精心	-3111
志愿者	-3112
现在的	-3113
越来越多	-3114
增值	-3115
不需要	-3116
社会主义	-3117
ST	-3118
吸附	-3119
正规	-3120
和技术	-3121
一带一路	-3122
住宿	-3123
停车	-3124
层面	-3125
重复	-3126
万美元	-3127
加拿大	-3128
天然气	-3129
的安全	-3130
十四	-3131
疾病的	-3132
▁王	-3133
西北	-3134
迎来	-3135
镜头	-3136
院士	-3137
税收	-3138
讲座	-3139
理由	-3140
矛盾	-3141
ell	-3142
办事	-3143
景点	-3144
月的	-3145
水泥	-3146
云计算	-3147
有助于	-3148
集团公司	-3149
无限	-3150
更高	-3151
辽宁	-3152
难度	-3153
条件的	-3154
模块	-3155
等领域	-3156
人和	-3157
受理	-3158
年初	-3159
立足	-3160
关闭	-3161
爆发	-3162
西方	-3163
▁of	-3164
信任	-3165
形态	-3166
转载	-3167
ce	-3168
变更	-3169
可能是	-3170
抑制	-3171
副书记	-3172
数字化	-3173
拒绝	-3174
播放	-3175
有害	-3176
浏览	-3177
站在	-3178
og	-3179
供给	-3180
巴西	-3181
违规	-3182
的东西	-3183
的数据	-3184
较高的	-3185
高速公路	-3186
欧元	-3187
要素	-3188
高峰	-3189
ard	-3190
影响力	-3191
我们要	-3192
东部	-3193
利率	-3194
合肥	-3195
期内	-3196
演唱	-3197
去除	-3198
回忆	-3199
国产	-3200
液体	-3201
细菌	-3202
能力和	-3203
份额	-3204
式的	-3205
非洲	-3206
的经营	-3207
运营商	-3208
修订	-3209
四大	-3210
水中	-3211
纪律	-3212
全世界	-3213
教育的	-3214
材料的	-3215
劳动合同	-3216
▁U	-3217
减轻	-3218
创始	-3219
教材	-3220
桥梁	-3221
百度	-3222
答案	-3223
蛋白质	-3224
上面	-3225
威胁	-3226
扎实	-3227
粉丝	-3228
航班	-3229
留下	-3230
的首	-3231
秘密	-3232
而成	-3233
自觉	-3234
共产	-3235
引入	-3236
打击	-3237
提到	-3238
残疾	-3239
组建	-3240
绩效	-3241
通风	-3242
在校	-3243
电网	-3244
花园	-3245
为此	-3246
宁波	-3247
潜力	-3248
的外	-3249
场地	-3250
内涵	-3251
十一	-3252
开设	-3253
每日	-3254
秩序	-3255
难题	-3256
出现在	-3257
将继续	-3258
的综合	-3259
St	-3260
理工	-3261
篮球	-3262
▁t	-3263
以往	-3264
回报	-3265
总统	-3266
板块	-3267
心里	-3268
省市	-3269
负担	-3270
网络安全	-3271
公斤	-3272
打破	-3273
框架	-3274
著名的	-3275
便是	-3276
场的	-3277
差距	-3278
歌曲	-3279
那样	-3280
公司在	-3281
明显的	-3282
主演	-3283
屏幕	-3284
点击	-3285
焊接	-3286
用地	-3287
讲话	-3288
的原则	-3289
设计师	-3290
视频网站	-3291
不开	-3292
多数	-3293
记载	-3294
有点	-3295
期货	-3296
现状	-3297
协作	-3298
备案	-3299
客观	-3300
模拟	-3301
附件	-3302
▁据悉	-3303
高血压	-3304
依赖	-3305
太多	-3306
要注意	-3307
oc	-3308
凝聚	-3309
因而	-3310
填写	-3311
市场上	-3312
的关系	-3313
乘坐	-3314
体会	-3315
工人	-3316
第六	-3317
重的	-3318
劳动者	-3319
去年同期	-3320
有限责任	-3321
光伏	-3322
女孩	-3323
▁不过	-3324
▁第三	-3325
初中	-3326
区块	-3327
命运	-3328
企业和	-3329
OS	-3330
喜爱	-3331
宇宙	-3332
实训	-3333
甘肃	-3334
不一样	-3335
人员的	-3336
ie	-3337
十九	-3338
十五	-3339
补偿	-3340
高职	-3341
的世界	-3342
的通知	-3343
导体	-3344
更大	-3345
精度	-3346
节省	-3347
附属	-3348
接下来	-3349
用户的	-3350
银屑病	-3351
小型	-3352
来信	-3353
这也	-3354
这部	-3355
深圳市	-3356
程度上	-3357
等问题	-3358
▁近年来	-3359
营业收入	-3360
写作	-3361
口腔	-3362
心中	-3363
热爱	-3364
龙江	-3365
▁除了	-3366
交易所	-3367
年轻人	-3368
恒大	-3369
活跃	-3370
轴承	-3371
在美国	-3372
政府信息	-3373
不忘	-3374
并将	-3375
某某	-3376
罗马	-3377
齐全	-3378
的过程	-3379
互相	-3380
太平	-3381
显得	-3382
一边	-3383
one	-3384
确诊病例	-3385
老板	-3386
聚焦	-3387
首都	-3388
为大家	-3389
开发区	-3390
乘客	-3391
开通	-3392
我想	-3393
深受	-3394
党建	-3395
功效	-3396
损伤	-3397
整治	-3398
欧盟	-3399
客户的	-3400
比赛中	-3401
不如	-3402
出租	-3403
防腐	-3404
制造商	-3405
这款	-3406
骨干	-3407
年以来	-3408
两位	-3409
优异	-3410
处的	-3411
大桥	-3412
极大	-3413
过了	-3414
未来的	-3415
电视台	-3416
的效果	-3417
仅仅	-3418
可达	-3419
最具	-3420
有力	-3421
纳税	-3422
获悉	-3423
饰演	-3424
供应链	-3425
的选择	-3426
设计的	-3427
我们可以	-3428
食品安全	-3429
op	-3430
▁你	-3431
均为	-3432
失业	-3433
澳门	-3434
基金会	-3435
信息技术	-3436
作家	-3437
到来	-3438
十六	-3439
民主	-3440
粮食	-3441
货运	-3442
魅力	-3443
依照	-3444
人们的	-3445
轨道交通	-3446
印发	-3447
发性	-3448
日晚	-3449
肌肉	-3450
万人次	-3451
分公司	-3452
转型升级	-3453
上一	-3454
女士	-3455
爱好	-3456
专辑	-3457
关节	-3458
婚姻	-3459
导向	-3460
常务	-3461
建材	-3462
护栏	-3463
售后服务	-3464
东京	-3465
痛苦	-3466
聚氨	-3467
诞生	-3468
发布了	-3469
不易	-3470
人事	-3471
分散	-3472
回归	-3473
大于	-3474
率先	-3475
这项	-3476
大悲	-3477
病因	-3478
车间	-3479
▁声明	-3480
介绍了	-3481
感受到	-3482
黑色素	-3483
环境保护	-3484
ok	-3485
学家	-3486
待遇	-3487
特定	-3488
路上	-3489
简单的	-3490
三星	-3491
便捷	-3492
立方	-3493
笔试	-3494
警察	-3495
ill	-3496
年开始	-3497
重要的是	-3498
学员	-3499
强大	-3500
的食物	-3501
零部件	-3502
Ch	-3503
MA	-3504
▁d	-3505
学期	-3506
民营	-3507
看出	-3508
进而	-3509
▁但是	-3510
的建设	-3511
收藏	-3512
传媒	-3513
房间	-3514
认知	-3515
两大	-3516
弘扬	-3517
当代	-3518
持有	-3519
燃烧	-3520
更大的	-3521
聚氨酯	-3522
三是	-3523
二次	-3524
反馈	-3525
方的	-3526
民生	-3527
环比	-3528
局部	-3529
聚集	-3530
的文化	-3531
福建省	-3532
ev	-3533
十大	-3534
发送	-3535
大脑	-3536
身心	-3537
许可证	-3538
主导	-3539
形状	-3540
祖国	-3541
线下	-3542
遭遇	-3543
▁美国	-3544
稳定性	-3545
党委书记	-3546
一项	-3547
分解	-3548
创立	-3549
我院	-3550
搭配	-3551
海南	-3552
美食	-3553
和发展	-3554
造成的	-3555
农药	-3556
总监	-3557
要有	-3558
。(	-3559
圆满	-3560
侵犯了	-3561
废气	-3562
浪费	-3563
还没有	-3564
▁张	-3565
债券	-3566
参数	-3567
好评	-3568
自信	-3569
我公司	-3570
中药	-3571
接收	-3572
早在	-3573
渗透	-3574
球迷	-3575
遵循	-3576
及相关	-3577
等相关	-3578
有关规定	-3579
可在	-3580
复工	-3581
审计	-3582
座谈	-3583
显然	-3584
港口	-3585
解放	-3586
不仅仅	-3587
我们将	-3588
社会的	-3589
我们将在	-3590
不在	-3591
邮件	-3592
才会	-3593
承受	-3594
检察	-3595
班子	-3596
篮板	-3597
请求	-3598
价值观	-3599
基础上	-3600
▁和	-3601
主场	-3602
后续	-3603
清华	-3604
考古	-3605
轮胎	-3606
web	-3607
的特点	-3608
等多种	-3609
电动汽车	-3610
争取	-3611
夏天	-3612
爸爸	-3613
世界杯	-3614
乃至	-3615
妻子	-3616
抓住	-3617
能在	-3618
水平的	-3619
列车	-3620
原创	-3621
回家	-3622
学金	-3623
客车	-3624
寻求	-3625
情节	-3626
扶持	-3627
温馨	-3628
全程	-3629
军事	-3630
同事	-3631
淘汰	-3632
究竟	-3633
视野	-3634
优秀的	-3635
幼儿园	-3636
已经成为	-3637
判决	-3638
占据	-3639
多名	-3640
强制	-3641
敏感	-3642
方针	-3643
有限责任公司	-3644
人均	-3645
背后	-3646
赔偿	-3647
总投资	-3648
不论	-3649
台北	-3650
延续	-3651
支援	-3652
生成	-3653
的光	-3654
这类	-3655
防疫	-3656
健康的	-3657
占地面积	-3658
作风	-3659
回应	-3660
线的	-3661
冶金	-3662
新鲜	-3663
过度	-3664
过敏	-3665
于一体	-3666
较大的	-3667
PE	-3668
之处	-3669
多人	-3670
美观	-3671
为主题	-3672
AI	-3673
山水	-3674
技巧	-3675
火灾	-3676
一直在	-3677
在内的	-3678
处理与	-3679
ne	-3680
也很	-3681
器械	-3682
复印	-3683
大概	-3684
她们	-3685
表彰	-3686
辉煌	-3687
ity	-3688
▁同时	-3689
智能手机	-3690
体内	-3691
本土	-3692
采集	-3693
全新的	-3694
上有	-3695
会展	-3696
实时	-3697
省份	-3698
贵的	-3699
一行	-3700
助攻	-3701
图像	-3702
成人	-3703
结束后	-3704
为人	-3705
交付	-3706
彼此	-3707
超市	-3708
法律法规	-3709
为止	-3710
主流	-3711
参展	-3712
带头	-3713
相似	-3714
这一点	-3715
以此	-3716
使其	-3717
在一	-3718
半导体	-3719
实地	-3720
批评	-3721
电压	-3722
石墨	-3723
gle	-3724
黑龙江	-3725
不多	-3726
传奇	-3727
疼痛	-3728
象征	-3729
账户	-3730
隧道	-3731
主角	-3732
书面	-3733
人都	-3734
承办	-3735
演讲	-3736
▁记者	-3737
中医药	-3738
只提供	-3739
乡镇	-3740
债务	-3741
原始	-3742
平稳	-3743
成型	-3744
百年	-3745
进球	-3746
的形式	-3747
第三方	-3748
美丽的	-3749
自身的	-3750
NG	-3751
SA	-3752
上帝	-3753
创办	-3754
家族	-3755
平安	-3756
昨天	-3757
科学技术	-3758
有望	-3759
班级	-3760
防范	-3761
的行为	-3762
全县	-3763
扩展	-3764
可持续发展	-3765
影像	-3766
得以	-3767
后期	-3768
对话	-3769
执业	-3770
能否	-3771
电视剧	-3772
较强的	-3773
储备	-3774
实习	-3775
ak	-3776
个体	-3777
机电	-3778
移民	-3779
马来	-3780
时间为	-3781
的变化	-3782
借助	-3783
态势	-3784
湿地	-3785
他们在	-3786
以便	-3787
奖项	-3788
捐赠	-3789
比重	-3790
职务	-3791
职能	-3792
万亿元	-3793
在北京	-3794
的核心	-3795
进出口	-3796
”）	-3797
低温	-3798
心情	-3799
语文	-3800
顶级	-3801
▁In	-3802
的合作	-3803
销售额	-3804
均系	-3805
大批	-3806
心脏	-3807
配送	-3808
长城	-3809
活动中	-3810
皮肤病	-3811
件事	-3812
分的	-3813
单元	-3814
司机	-3815
承认	-3816
神秘	-3817
将成为	-3818
乐观	-3819
列入	-3820
变革	-3821
落后	-3822
陷入	-3823
湖北省	-3824
▁是	-3825
用药	-3826
看见	-3827
福利	-3828
比上年	-3829
ov	-3830
以免	-3831
奠定	-3832
客运	-3833
理财	-3834
党组织	-3835
葡萄酒	-3836
听到	-3837
工会	-3838
文艺	-3839
查看	-3840
癌症	-3841
请给	-3842
远程	-3843
企业在	-3844
发生了	-3845
新型冠状病毒	-3846
共建	-3847
消失	-3848
誉为	-3849
▁另外	-3850
一张	-3851
仪表	-3852
动车	-3853
型号	-3854
女人	-3855
戏剧	-3856
反而	-3857
政务	-3858
经销	-3859
要在	-3860
的社会	-3861
钢结构	-3862
招商	-3863
歌手	-3864
波动	-3865
GDP	-3866
收集于	-3867
五金	-3868
后果	-3869
无数	-3870
目录	-3871
解除	-3872
公务员	-3873
看起来	-3874
高度重视	-3875
▁m	-3876
一座	-3877
体积	-3878
贵司	-3879
今年的	-3880
的感觉	-3881
并不提供	-3882
相关资源	-3883
▁此次	-3884
不得不	-3885
创始人	-3886
国际化	-3887
在国内	-3888
大规模	-3889
的人生	-3890
若本站	-3891
可以通过	-3892
邮箱地址	-3893
作物	-3894
幅度	-3895
接着	-3896
斯拉	-3897
种子	-3898
正确的	-3899
参与录制	-3900
影片资源	-3901
侵犯了贵司	-3902
影片资源存储	-3903
ub	-3904
▁月	-3905
单一	-3906
大连	-3907
山市	-3908
纪委	-3909
诱发	-3910
钢板	-3911
产业的	-3912
出版社	-3913
时间内	-3914
是我们	-3915
都没有	-3916
若本站收录	-3917
侵犯了贵司版权	-3918
我们将在第一时间	-3919
无意侵犯了贵司版权	-3920
VC	-3921
祝福	-3922
art	-3923
在全球	-3924
条件下	-3925
并不提供影片资源存储	-3926
if	-3927
取代	-3928
溶剂	-3929
绘画	-3930
秘书长	-3931
使用寿命	-3932
ER	-3933
节日	-3934
品牌的	-3935
开展了	-3936
河北省	-3937
各大视频网站	-3938
厂房	-3939
去了	-3940
嘉宾	-3941
地上	-3942
外界	-3943
房子	-3944
这两	-3945
▁以上	-3946
联合国	-3947
▁小	-3948
估计	-3949
我在	-3950
时光	-3951
等多	-3952
色列	-3953
超声	-3954
是不是	-3955
经济的	-3956
页面服务	-3957
”；	-3958
供水	-3959
吉林	-3960
振兴	-3961
月至	-3962
机床	-3963
米的	-3964
▁上传	-3965
均系收集于	-3966
也不参与录制	-3967
邮箱地址来信	-3968
均系收集于各大视频网站	-3969
如有	-3970
将是	-3971
燃气	-3972
画家	-3973
▁今天	-3974
▁现在	-3975
大悲咒	-3976
工作者	-3977
回复谢谢	-3978
本网站只提供	-3979
不变	-3980
之际	-3981
争议	-3982
故障	-3983
民宿	-3984
中心的	-3985
湖南省	-3986
监督管理	-3987
处理与回复谢谢	-3988
请给邮箱地址来信	-3989
我们将在第一时间处理与回复谢谢	-3990
克服	-3991
受益	-3992
流通	-3993
游乐	-3994
诊疗	-3995
逻辑	-3996
及其他	-3997
受欢迎	-3998
oogle	-3999
相关资源均系收集于各大视频网站	-4000
传说	-4001
依旧	-4002
局面	-4003
继承	-4004
里斯	-4005
中共	-4006
生动	-4007
练习	-4008
可能性	-4009
大家都	-4010
快速发展	-4011
劳务	-4012
携带	-4013
放松	-4014
照顾	-4015
生育	-4016
电流	-4017
百万	-4018
科目	-4019
的大型	-4020
业的	-4021
扩散	-4022
月初	-4023
清理	-4024
的天	-4025
防水	-4026
之所以	-4027
安徽省	-4028
金融机构	-4029
▁五	-4030
我省	-4031
液压	-4032
游泳	-4033
里程	-4034
建设项目	-4035
教育教学	-4036
ra	-4037
侵权	-4038
减速	-4039
前期	-4040
前来	-4041
地说	-4042
结婚	-4043
二氧化	-4044
数据库	-4045
人心	-4046
南部	-4047
排水	-4048
硬度	-4049
践行	-4050
和管理	-4051
的朋友	-4052
In	-4053
ik	-4054
湿度	-4055
▁第一	-4056
器件	-4057
有趣	-4058
睡眠	-4059
若干	-4060
行驶	-4061
ind	-4062
ine	-4063
主要有	-4064
CA	-4065
为例	-4066
仔细	-4067
剧院	-4068
基督	-4069
广阔	-4070
当事	-4071
架构	-4072
精细	-4073
转让	-4074
ang	-4075
污染物	-4076
一片	-4077
上线	-4078
业界	-4079
伟大	-4080
公元	-4081
到位	-4082
标签	-4083
为核心	-4084
复苏	-4085
本书	-4086
的全	-4087
系数	-4088
这对	-4089
区块链	-4090
等工作	-4091
▁X	-4092
并未	-4093
木材	-4094
别的	-4095
无需	-4096
跨越	-4097
▁St	-4098
等的	-4099
简介	-4100
低碳	-4101
充足	-4102
克斯	-4103
验证	-4104
相当于	-4105
平方公里	-4106
县级	-4107
旋转	-4108
明的	-4109
模具	-4110
海拔	-4111
一等奖	-4112
的一部分	-4113
体重	-4114
北方	-4115
占有	-4116
巴巴	-4117
感动	-4118
温室	-4119
的三	-4120
内蒙古	-4121
助理	-4122
指南	-4123
登录	-4124
精密	-4125
的功能	-4126
不断提高	-4127
享有	-4128
伦敦	-4129
最初	-4130
未能	-4131
缩短	-4132
吸引了	-4133
引起的	-4134
师范大学	-4135
京东	-4136
保养	-4137
外部	-4138
富有	-4139
泰国	-4140
衣服	-4141
起点	-4142
▁所以	-4143
对待	-4144
开心	-4145
步行	-4146
观光	-4147
的结果	-4148
赢得了	-4149
iP	-4150
区内	-4151
导航	-4152
扮演	-4153
注入	-4154
生理	-4155
工程技术	-4156
高质量发展	-4157
▁高	-4158
不想	-4159
付出	-4160
入口	-4161
化妆	-4162
处分	-4163
弹性	-4164
紫外	-4165
缺陷	-4166
老年人	-4167
一轮	-4168
强烈	-4169
民航	-4170
牢记	-4171
物料	-4172
合理的	-4173
的国家	-4174
的目的	-4175
下跌	-4176
初期	-4177
在本	-4178
无缝	-4179
步伐	-4180
泡沫	-4181
这就	-4182
▁首先	-4183
为中国	-4184
的城市	-4185
传统文化	-4186
人次	-4187
前进	-4188
茶叶	-4189
黄河	-4190
历史上	-4191
的表现	-4192
管理和	-4193
相关部门	-4194
领导小组	-4195
上级	-4196
入学	-4197
地处	-4198
某种	-4199
网页	-4200
豪华	-4201
必要的	-4202
新材料	-4203
不动	-4204
人与	-4205
合伙	-4206
合资	-4207
带有	-4208
并对	-4209
暂时	-4210
真空	-4211
过于	-4212
进取	-4213
app	-4214
产业化	-4215
是我国	-4216
这是一个	-4217
℃，	-4218
发改	-4219
坚决	-4220
好像	-4221
感应	-4222
气氛	-4223
罚款	-4224
▁国家	-4225
一次性	-4226
二等奖	-4227
马来西亚	-4228
CT	-4229
为何	-4230
全身	-4231
封闭	-4232
庆祝	-4233
派出	-4234
职位	-4235
这场	-4236
锅炉	-4237
基本上	-4238
应该是	-4239
的发生	-4240
美好的	-4241
兴奋	-4242
分会	-4243
的风	-4244
▁截至	-4245
一个月	-4246
下一步	-4247
了中国	-4248
复印件	-4249
的成绩	-4250
广泛应用于	-4251
增幅	-4252
大厦	-4253
总量	-4254
贝尔	-4255
▁学校	-4256
▁这个	-4257
奥运会	-4258
建筑物	-4259
等方式	-4260
中小企业	-4261
决心	-4262
前沿	-4263
拉斯	-4264
搅拌	-4265
散热	-4266
未经	-4267
见证	-4268
的支持	-4269
从来	-4270
疗法	-4271
语音	-4272
不仅是	-4273
分别是	-4274
医学院	-4275
研究员	-4276
组成部分	-4277
一支	-4278
互联	-4279
号码	-4280
原材料	-4281
白癜风医院	-4282
信念	-4283
好了	-4284
常态	-4285
并于	-4286
新华	-4287
能耗	-4288
钢材	-4289
ess	-4290
之日起	-4291
等行业	-4292
五个	-4293
在大	-4294
复兴	-4295
子女	-4296
巨头	-4297
快的	-4298
类的	-4299
进攻	-4300
阿尔	-4301
完整的	-4302
受伤	-4303
坚实	-4304
对应	-4305
放入	-4306
本质	-4307
的长	-4308
科普	-4309
竞技	-4310
专注于	-4311
云南省	-4312
大学的	-4313
考虑到	-4314
若本站收录的	-4315
丈夫	-4316
出售	-4317
制药	-4318
接到	-4319
明天	-4320
明年	-4321
步骤	-4322
武器	-4323
沈阳	-4324
直径	-4325
完善的	-4326
最高的	-4327
铝合金	-4328
三十	-4329
交叉	-4330
每月	-4331
源于	-4332
男女	-4333
让他	-4334
证实	-4335
频道	-4336
技术创新	-4337
----------------	-4338
UV	-4339
亚太	-4340
你会	-4341
公寓	-4342
共赢	-4343
可谓	-4344
复制	-4345
扩张	-4346
星级	-4347
港澳	-4348
热门	-4349
用电	-4350
▁关于	-4351
与其他	-4352
以色列	-4353
要求的	-4354
脱贫攻坚	-4355
具有良好的	-4356
》(	-4357
一同	-4358
举报	-4359
出资	-4360
期望	-4361
涉嫌	-4362
连锁	-4363
化合物	-4364
年中国	-4365
最重要的	-4366
▁由	-4367
制成	-4368
样品	-4369
激烈	-4370
第七	-4371
远远	-4372
公众号	-4373
发展和	-4374
合计	-4375
哈尔	-4376
密集	-4377
排查	-4378
遗址	-4379
ate	-4380
ort	-4381
你可以	-4382
文化和	-4383
注册资本	-4384
身体健康	-4385
中超	-4386
储存	-4387
拍卖	-4388
设定	-4389
的患者	-4390
ebook	-4391
其余	-4392
心灵	-4393
涨幅	-4394
激素	-4395
退出	-4396
活性炭	-4397
还需要	-4398
投产	-4399
日内	-4400
日制	-4401
民办	-4402
推出了	-4403
班主任	-4404
经历了	-4405
介质	-4406
化剂	-4407
单独	-4408
反对	-4409
本文	-4410
纠纷	-4411
起重	-4412
较多	-4413
▁然而	-4414
不可能	-4415
与中国	-4416
事务所	-4417
时代的	-4418
需要的	-4419
职业教育	-4420
从小	-4421
兰州	-4422
开关	-4423
房产	-4424
解读	-4425
部队	-4426
为基础	-4427
的标准	-4428
给大家	-4429
背景下	-4430
服务中心	-4431
ta	-4432
固体	-4433
地图	-4434
将以	-4435
火箭	-4436
空中	-4437
素养	-4438
蒸汽	-4439
进度	-4440
频率	-4441
马克	-4442
发布会	-4443
财政部	-4444
up	-4445
剧情	-4446
北部	-4447
年在	-4448
沉淀	-4449
长安	-4450
能力的	-4451
信誉	-4452
师资	-4453
快递	-4454
投诉	-4455
窗口	-4456
缴费	-4457
我们就	-4458
实际情况	-4459
好处	-4460
废弃	-4461
数十	-4462
水电	-4463
爆炸	-4464
监会	-4465
矿山	-4466
颁发	-4467
与此同时	-4468
主营	-4469
坐落	-4470
枢纽	-4471
民警	-4472
登陆	-4473
节奏	-4474
▁Ch	-4475
微企业	-4476
我觉得	-4477
有效地	-4478
安置	-4479
承载	-4480
担保	-4481
聘用	-4482
十三五	-4483
的学习	-4484
家里	-4485
市级	-4486
帮扶	-4487
批发	-4488
苏宁	-4489
退役	-4490
的人员	-4491
的经济	-4492
制冷	-4493
图案	-4494
库存	-4495
普查	-4496
江南	-4497
为企业	-4498
不太	-4499
将来	-4500
无锡	-4501
溶解	-4502
门窗	-4503
CP	-4504
不起	-4505
仓储	-4506
又有	-4507
石化	-4508
面上	-4509
广州市	-4510
史上	-4511
家乡	-4512
开学	-4513
约定	-4514
说话	-4515
著作权	-4516
陕西省	-4517
优越	-4518
拿到	-4519
曾在	-4520
繁荣	-4521
也不会	-4522
成功的	-4523
环境的	-4524
冲突	-4525
小镇	-4526
年内	-4527
算法	-4528
荷兰	-4529
什么是	-4530
立方米	-4531
被评为	-4532
重庆市	-4533
AM	-4534
书画	-4535
每周	-4536
测定	-4537
海上	-4538
直流	-4539
纳米	-4540
缺点	-4541
船舶	-4542
世界的	-4543
压缩机	-4544
少的	-4545
改编	-4546
潜在	-4547
管理办法	-4548
ax	-4549
上网	-4550
有多	-4551
注明	-4552
热量	-4553
电磁	-4554
的那	-4555
节点	-4556
有机会	-4557
水处理	-4558
的健康	-4559
不含	-4560
商会	-4561
边缘	-4562
的现象	-4563
类型的	-4564
医疗器械	-4565
为客户提供	-4566
从未	-4567
出国	-4568
多了	-4569
早上	-4570
瑞士	-4571
阀门	-4572
产生了	-4573
一段时间	-4574
之地	-4575
几天	-4576
搭载	-4577
灭火	-4578
稳步	-4579
在一个	-4580
采用了	-4581
研究人员	-4582
▁s	-4583
为准	-4584
古老	-4585
后者	-4586
推行	-4587
文旅	-4588
标识	-4589
模范	-4590
联动	-4591
辖市	-4592
ack	-4593
IM	-4594
便宜	-4595
务实	-4596
好好	-4597
强劲	-4598
试图	-4599
预警	-4600
或其他	-4601
的比例	-4602
中等	-4603
征求	-4604
早已	-4605
路径	-4606
马上	-4607
加强对	-4608
各部门	-4609
的项目	-4610
Al	-4611
与其	-4612
中外	-4613
但他	-4614
几十	-4615
动脉	-4616
圆形	-4617
报警	-4618
清单	-4619
的作品	-4620
的态度	-4621
主要用于	-4622
三级	-4623
位居	-4624
国资	-4625
文献	-4626
本届	-4627
火车	-4628
短期	-4629
）：	-4630
不断的	-4631
所得税	-4632
的优势	-4633
给我们	-4634
一生	-4635
关爱	-4636
干扰	-4637
年起	-4638
高等教育	-4639
渐渐	-4640
溶液	-4641
分析师	-4642
该项目	-4643
acebook	-4644
三种	-4645
亮相	-4646
古典	-4647
子宫	-4648
▁最后	-4649
体现了	-4650
受到了	-4651
服务器	-4652
创新创业	-4653
年上半年	-4654
改革开放	-4655
生产企业	-4656
管理工作	-4657
关怀	-4658
切削	-4659
告知	-4660
我是	-4661
损坏	-4662
特种	-4663
积分	-4664
载体	-4665
运转	-4666
APP	-4667
▁因此	-4668
不低于	-4669
存在的	-4670
不住	-4671
大战	-4672
手表	-4673
重症	-4674
限于	-4675
值得一	-4676
越来越多的	-4677
NE	-4678
全民	-4679
孕妇	-4680
心态	-4681
患有	-4682
萝卜	-4683
黄色	-4684
的人才	-4685
也就是说	-4686
一期	-4687
倡导	-4688
击败	-4689
函数	-4690
真诚	-4691
的其他	-4692
建筑工程	-4693
入境	-4694
前后	-4695
复发	-4696
水性	-4697
爱国	-4698
预约	-4699
首个	-4700
的高度	-4701
生产经营	-4702
SC	-4703
东风	-4704
商家	-4705
回来	-4706
我就	-4707
汇报	-4708
科院	-4709
适宜	-4710
颁奖	-4711
复杂的	-4712
告诉记者	-4713
当下	-4714
摩擦	-4715
▁因为	-4716
届中国	-4717
二手	-4718
传达	-4719
所属	-4720
抓好	-4721
涂层	-4722
演奏	-4723
的花	-4724
签证	-4725
股价	-4726
都很	-4727
附加	-4728
新产品	-4729
________	-4730
▁不	-4731
一人	-4732
亲自	-4733
柴油	-4734
用作	-4735
％，	-4736
自行车	-4737
TO	-4738
变形	-4739
抵达	-4740
数控	-4741
比分	-4742
病变	-4743
相继	-4744
装机	-4745
要想	-4746
风电	-4747
项目建设	-4748
MP	-4749
万个	-4750
减肥	-4751
收取	-4752
结论	-4753
防火	-4754
亮点	-4755
会对	-4756
供电	-4757
分数	-4758
希腊	-4759
平面	-4760
忽视	-4761
投票	-4762
联邦	-4763
警方	-4764
青睐	-4765
▁其实	-4766
发生在	-4767
更高的	-4768
一度	-4769
增多	-4770
市长	-4771
废物	-4772
星座	-4773
林业	-4774
作了	-4775
外资	-4776
悠久	-4777
早日	-4778
留在	-4779
米兰	-4780
发生的	-4781
增加值	-4782
强烈的	-4783
的一切	-4784
等多个	-4785
高新技术企业	-4786
ct	-4787
容器	-4788
并发	-4789
开了	-4790
极为	-4791
相机	-4792
老化	-4793
草原	-4794
在使用	-4795
的国际	-4796
不忘初心	-4797
中华民族	-4798
军人	-4799
历程	-4800
夫妻	-4801
快捷	-4802
摄入	-4803
是从	-4804
疲劳	-4805
给我	-4806
负荷	-4807
成立了	-4808
副总经理	-4809
公正	-4810
内地	-4811
家政	-4812
年间	-4813
认同	-4814
镀锌	-4815
领取	-4816
了很多	-4817
大奖	-4818
试管	-4819
话题	-4820
远离	-4821
门店	-4822
之一的	-4823
和中国	-4824
是为了	-4825
学的	-4826
战胜	-4827
放心	-4828
正如	-4829
防守	-4830
极大的	-4831
董事会	-4832
市场需求	-4833
为期	-4834
分辨	-4835
噪音	-4836
在新	-4837
不断地	-4838
标志着	-4839
的所有	-4840
的风险	-4841
葡萄牙	-4842
被誉为	-4843
▁周	-4844
养生	-4845
前三	-4846
回顾	-4847
水分	-4848
煤矿	-4849
算是	-4850
选举	-4851
优质的	-4852
高品质	-4853
战略合作	-4854
五大	-4855
变动	-4856
App	-4857
举办的	-4858
信息的	-4859
最后一	-4860
毕业于	-4861
特斯拉	-4862
疫情影响	-4863
域名	-4864
将为	-4865
建于	-4866
男孩	-4867
突发	-4868
尽可能	-4869
特殊的	-4870
直辖市	-4871
养成	-4872
换热	-4873
竣工	-4874
返回	-4875
再加上	-4876
离不开	-4877
组成的	-4878
经销商	-4879
小于	-4880
票房	-4881
考验	-4882
企业家	-4883
润滑油	-4884
特色的	-4885
十七	-4886
场上	-4887
奖金	-4888
硫酸	-4889
粉末	-4890
给人	-4891
聚合	-4892
上班	-4893
不受	-4894
不大	-4895
中山	-4896
悬浮	-4897
教室	-4898
这座	-4899
博览会	-4900
hone	-4901
其中包括	-4902
工程建设	-4903
社会责任	-4904
假期	-4905
原件	-4906
售价	-4907
排除	-4908
是我	-4909
瞬间	-4910
追究	-4911
重建	-4912
链接	-4913
▁这是	-4914
在我国	-4915
添加剂	-4916
较好的	-4917
US	-4918
县委	-4919
征收	-4920
成品	-4921
本来	-4922
次数	-4923
种种	-4924
耐磨	-4925
风光	-4926
全日制	-4927
科学研究	-4928
ee	-4929
厚度	-4930
坚守	-4931
怀孕	-4932
接口	-4933
生意	-4934
界面	-4935
相反	-4936
阿拉	-4937
所谓的	-4938
推出的	-4939
残疾人	-4940
ip	-4941
商场	-4942
大专	-4943
懂得	-4944
这时	-4945
一部分	-4946
看到了	-4947
过去的	-4948
人民群众	-4949
乐园	-4950
众生	-4951
同行	-4952
性强	-4953
漂亮	-4954
调解	-4955
门口	-4956
让他们	-4957
又称	-4958
天地	-4959
感恩	-4960
曝光	-4961
生日	-4962
立法	-4963
展示了	-4964
时间的	-4965
两者	-4966
仿佛	-4967
典礼	-4968
力争	-4969
原子	-4970
年至	-4971
矿石	-4972
神奇	-4973
立体	-4974
选拔	-4975
除此	-4976
雄厚	-4977
The	-4978
单位的	-4979
工作室	-4980
解决了	-4981
世界各地	-4982
又是	-4983
地域	-4984
水库	-4985
观赏	-4986
赋予	-4987
过来	-4988
道的	-4989
频繁	-4990
马拉	-4991
小程序	-4992
降低了	-4993
阿里巴巴	-4994
我会	-4995
河流	-4996
用心	-4997
艰难	-4998
教育局	-4999
注意的是	-5000
DA	-5001
主机	-5002
位列	-5003
作文	-5004
利的	-5005
埃及	-5006
已被	-5007
永久	-5008
深的	-5009
玉米	-5010
的多	-5011
联络	-5012
致的	-5013
ark	-5014
业务的	-5015
公布的	-5016
控制系统	-5017
不见	-5018
从此	-5019
善于	-5020
小心	-5021
当今	-5022
据悉	-5023
敬业	-5024
是要	-5025
每一位	-5026
经济学	-5027
▁b	-5028
业主	-5029
加油	-5030
华人	-5031
国土	-5032
派遣	-5033
澳洲	-5034
竟然	-5035
第八	-5036
精力	-5037
造价	-5038
稳定的	-5039
超声波	-5040
▁此	-5041
听取	-5042
年后	-5043
珍惜	-5044
行星	-5045
过多	-5046
遗憾	-5047
东南亚	-5048
那就是	-5049
cm	-5050
出一	-5051
执照	-5052
样子	-5053
焦虑	-5054
硬化	-5055
▁这些	-5056
净水器	-5057
当事人	-5058
耐腐蚀	-5059
例子	-5060
南北	-5061
塑造	-5062
对我	-5063
探测	-5064
服用	-5065
▁地址	-5066
创造了	-5067
多元化	-5068
安全的	-5069
年以上	-5070
▁f	-5071
凤凰	-5072
功夫	-5073
围棋	-5074
当日	-5075
性好	-5076
是很	-5077
igh	-5078
未成年	-5079
全国各地	-5080
管理人员	-5081
EC	-5082
▁人	-5083
一周	-5084
单纯	-5085
古城	-5086
慰问	-5087
月中	-5088
不合格	-5089
的一次	-5090
城乡建设	-5091
上映	-5092
东莞	-5093
加以	-5094
商店	-5095
大楼	-5096
微量	-5097
皇帝	-5098
结算	-5099
装配	-5100
跟踪	-5101
青海	-5102
会出现	-5103
仅为	-5104
再度	-5105
就读	-5106
灵魂	-5107
电线	-5108
中小学	-5109
免疫力	-5110
条规定	-5111
目前的	-5112
严谨	-5113
中所	-5114
宏观	-5115
客房	-5116
宿舍	-5117
忘记	-5118
总值	-5119
格兰	-5120
私人	-5121
身为	-5122
和生活	-5123
总承包	-5124
书籍	-5125
体质	-5126
县城	-5127
姓名	-5128
欢乐	-5129
男人	-5130
说是	-5131
我认为	-5132
朋友们	-5133
的一项	-5134
中部	-5135
仓库	-5136
修行	-5137
如同	-5138
激情	-5139
规章	-5140
走出	-5141
不符合	-5142
家企业	-5143
第二次	-5144
中级	-5145
小米	-5146
投放	-5147
改为	-5148
教堂	-5149
流水	-5150
环氧	-5151
疑问	-5152
西藏	-5153
门票	-5154
一定会	-5155
中国人	-5156
形成的	-5157
AT	-5158
PM	-5159
▁天	-5160
▁金	-5161
价比	-5162
假日	-5163
关联	-5164
尼斯	-5165
标题	-5166
的可	-5167
的老	-5168
笔者	-5169
预订	-5170
区政府	-5171
的力量	-5172
经济社会发展	-5173
▁陈	-5174
也为	-5175
他是	-5176
出色	-5177
勇于	-5178
南宁	-5179
官员	-5180
家用	-5181
播出	-5182
格式	-5183
电解	-5184
美洲	-5185
长度	-5186
阵容	-5187
会导致	-5188
所在地	-5189
通过了	-5190
经济效益	-5191
这个问题	-5192
ex	-5193
上去	-5194
不予	-5195
之旅	-5196
促使	-5197
国防	-5198
暂停	-5199
约翰	-5200
谷歌	-5201
跟着	-5202
还可	-5203
为中心	-5204
出现的	-5205
单位和	-5206
显示屏	-5207
中国人民	-5208
行业发展	-5209
历经	-5210
市区	-5211
并与	-5212
得知	-5213
报导	-5214
有色	-5215
来讲	-5216
板材	-5217
类别	-5218
菲律	-5219
询问	-5220
的就是	-5221
采访时	-5222
前列	-5223
北斗	-5224
督促	-5225
码头	-5226
这段	-5227
农民工	-5228
办公厅	-5229
新一代	-5230
目的是	-5231
菲律宾	-5232
为本	-5233
却是	-5234
壮大	-5235
春天	-5236
秋季	-5237
▁上海	-5238
举行的	-5239
原因是	-5240
发改委	-5241
的公司	-5242
国家和地区	-5243
仍有	-5244
单车	-5245
均衡	-5246
的海	-5247
等人	-5248
装箱	-5249
ong	-5250
办事处	-5251
变成了	-5252
干细胞	-5253
▁华	-5254
信赖	-5255
凌晨	-5256
只需	-5257
援助	-5258
缓慢	-5259
艰苦	-5260
的投资	-5261
自动驾驶	-5262
相关负责人	-5263
一部	-5264
与会	-5265
先锋	-5266
切割	-5267
哪个	-5268
巴士	-5269
肥胖	-5270
零件	-5271
▁当然	-5272
的理念	-5273
SO	-5274
不孕	-5275
听说	-5276
在中	-5277
在职	-5278
外交	-5279
巩固	-5280
平凡	-5281
报价	-5282
提取	-5283
潮流	-5284
而出	-5285
迎接	-5286
一季度	-5287
是可以	-5288
的专家	-5289
iz	-5290
’，	-5291
不懈	-5292
入围	-5293
打算	-5294
拼搏	-5295
皇家	-5296
真是	-5297
走访	-5298
那种	-5299
长春	-5300
饭店	-5301
来看看	-5302
自然科学	-5303
余名	-5304
备受	-5305
级的	-5306
绝缘	-5307
警告	-5308
转向	-5309
本赛季	-5310
的活动	-5311
PL	-5312
传动	-5313
国企	-5314
开业	-5315
征集	-5316
恶性	-5317
沿海	-5318
看法	-5319
膨胀	-5320
son	-5321
▁尽管	-5322
我们会	-5323
有没有	-5324
生产和	-5325
生命的	-5326
一日	-5327
仅有	-5328
内在	-5329
前行	-5330
契机	-5331
提起	-5332
焦点	-5333
长达	-5334
饲料	-5335
内分泌	-5336
发现了	-5337
增值税	-5338
建设和	-5339
提出的	-5340
比亚迪	-5341
的艺术	-5342
有一定的	-5343
TC	-5344
事宜	-5345
多吃	-5346
富含	-5347
微软	-5348
携程	-5349
了一种	-5350
会影响	-5351
使用者	-5352
的教育	-5353
各项工作	-5354
没有任何	-5355
BS	-5356
乐趣	-5357
余额	-5358
匹配	-5359
向上	-5360
实质	-5361
既有	-5362
沿线	-5363
熟练	-5364
负面	-5365
发展规划	-5366
信托	-5367
像是	-5368
外的	-5369
外科	-5370
姆斯	-5371
对抗	-5372
当你	-5373
排行	-5374
杰出	-5375
氨酸	-5376
英超	-5377
辛苦	-5378
随之	-5379
：《	-5380
公安局	-5381
国家队	-5382
报记者	-5383
由中国	-5384
紫外线	-5385
国际机场	-5386
科技大学	-5387
TV	-5388
ng	-5389
下游	-5390
动员	-5391
卫视	-5392
垂直	-5393
常识	-5394
暴露	-5395
说道	-5396
金山	-5397
阻燃	-5398
下半年	-5399
别人的	-5400
已经在	-5401
ew	-5402
不及	-5403
抵抗	-5404
板的	-5405
现任	-5406
给你	-5407
调控	-5408
领军	-5409
ord	-5410
没想到	-5411
让自己	-5412
集装箱	-5413
公安机关	-5414
五一	-5415
仍在	-5416
口碑	-5417
玩具	-5418
顺序	-5419
高层	-5420
▁经过	-5421
下来的	-5422
太平洋	-5423
等特点	-5424
美国的	-5425
BC	-5426
▁刘	-5427
即便	-5428
害怕	-5429
护士	-5430
湾区	-5431
虚假	-5432
麻烦	-5433
％。	-5434
奖学金	-5435
性价比	-5436
的状态	-5437
资源的	-5438
发展战略	-5439
▁她	-5440
下一	-5441
两国	-5442
从中	-5443
代替	-5444
均可	-5445
而来	-5446
通行	-5447
道理	-5448
相同的	-5449
pt	-5450
严肃	-5451
便于	-5452
减排	-5453
制的	-5454
均有	-5455
宝马	-5456
届时	-5457
工地	-5458
得分	-5459
现已	-5460
监理	-5461
金刚	-5462
是目前	-5463
充分利用	-5464
上传	-5465
出场	-5466
在其	-5467
将对	-5468
度和	-5469
扫描	-5470
量为	-5471
雕刻	-5472
NBA	-5473
▁一个	-5474
可根据	-5475
的前提	-5476
职业技术	-5477
仲裁	-5478
准则	-5479
原告	-5480
友好	-5481
大队	-5482
德里	-5483
有个	-5484
耐心	-5485
防汛	-5486
PVC	-5487
社会各界	-5488
CC	-5489
ox	-5490
▁总	-5491
困扰	-5492
外出	-5493
布置	-5494
负债	-5495
题材	-5496
最新的	-5497
机动车	-5498
不宜	-5499
中最	-5500
在我	-5501
市值	-5502
批次	-5503
裁判	-5504
个小时	-5505
投标人	-5506
管理系统	-5507
▁马	-5508
亚马	-5509
守护	-5510
就不	-5511
急性	-5512
我也	-5513
校友	-5514
毫无	-5515
激动	-5516
管控	-5517
随意	-5518
all	-5519
坚持以	-5520
表现为	-5521
Google	-5522
了对	-5523
人人	-5524
债权	-5525
周末	-5526
将军	-5527
指示	-5528
春季	-5529
的有	-5530
省委	-5531
终身	-5532
美容	-5533
较好	-5534
这家	-5535
ran	-5536
化学品	-5537
来源于	-5538
的部分	-5539
聚乙烯	-5540
不断提升	-5541
io	-5542
▁前	-5543
上课	-5544
专线	-5545
人社	-5546
学费	-5547
彰显	-5548
惊喜	-5549
民事	-5550
氨基	-5551
法治	-5552
灯光	-5553
的名	-5554
社保	-5555
租金	-5556
者和	-5557
耶稣	-5558
遍布	-5559
值得一提	-5560
▁黄	-5561
元的	-5562
得了	-5563
春秋	-5564
极其	-5565
的最	-5566
And	-5567
感兴趣	-5568
能够在	-5569
清华大学	-5570
入住	-5571
全区	-5572
带血	-5573
并购	-5574
情怀	-5575
挂牌	-5576
烦恼	-5577
的两	-5578
可靠性	-5579
的概念	-5580
贫困户	-5581
这是一	-5582
进行的	-5583
经济增长	-5584
信仰	-5585
发扬	-5586
报送	-5587
杀菌	-5588
气质	-5589
还原	-5590
集团的	-5591
除此之外	-5592
不当	-5593
亲子	-5594
出院	-5595
啤酒	-5596
岩石	-5597
斯卡	-5598
无机	-5599
暴雨	-5600
渴望	-5601
等于	-5602
花卉	-5603
降雨	-5604
保证金	-5605
员工的	-5606
本公司	-5607
的增长	-5608
公共服务	-5609
ue	-5610
下车	-5611
作战	-5612
动漫	-5613
化和	-5614
半场	-5615
型材	-5616
本着	-5617
精英	-5618
试用	-5619
跨境	-5620
门槛	-5621
伟大的	-5622
做出了	-5623
同样的	-5624
建筑业	-5625
政策的	-5626
的空间	-5627
目的地	-5628
省政府	-5629
研讨会	-5630
科学与	-5631
医疗机构	-5632
的重要性	-5633
也被	-5634
回落	-5635
场合	-5636
已在	-5637
开创	-5638
患上	-5639
现将	-5640
球场	-5641
长大	-5642
随机	-5643
ian	-5644
传染病	-5645
旅游业	-5646
电动车	-5647
社会保障	-5648
不停	-5649
发酵	-5650
周岁	-5651
和华	-5652
士尼	-5653
太空	-5654
孔子	-5655
家中	-5656
机体	-5657
牺牲	-5658
见到	-5659
▁其中	-5660
或者是	-5661
迪士尼	-5662
高新区	-5663
牛皮癣的	-5664
▁、	-5665
严峻	-5666
出血	-5667
协商	-5668
外商	-5669
天空	-5670
岁月	-5671
主持人	-5672
可分为	-5673
安全性	-5674
广泛的	-5675
选择了	-5676
房地产开发	-5677
CD	-5678
ha	-5679
之为	-5680
列为	-5681
发热	-5682
取决	-5683
号召	-5684
填报	-5685
珠海	-5686
副院长	-5687
心理学	-5688
指导下	-5689
积极参与	-5690
行业协会	-5691
共识	-5692
参会	-5693
总理	-5694
摆脱	-5695
摘要	-5696
民国	-5697
清水	-5698
热带	-5699
热点	-5700
牵头	-5701
组长	-5702
网址	-5703
三等奖	-5704
不管是	-5705
当时的	-5706
老师的	-5707
高科技	-5708
一款	-5709
不出	-5710
优美	-5711
可用	-5712
增大	-5713
年末	-5714
接入	-5715
摩托	-5716
斯科	-5717
旗舰	-5718
栽培	-5719
片区	-5720
皇马	-5721
缺少	-5722
这份	-5723
遭受	-5724
降幅	-5725
积极的	-5726
ib	-5727
ud	-5728
▁要	-5729
元件	-5730
分工	-5731
删除	-5732
命中	-5733
审美	-5734
徒刑	-5735
欧美	-5736
浪漫	-5737
用了	-5738
疗效	-5739
的总	-5740
精确	-5741
营运	-5742
亚马逊	-5743
新冠肺炎疫情	-5744
厨房	-5745
友谊	-5746
呼吁	-5747
坐在	-5748
展出	-5749
曼联	-5750
私募	-5751
穿越	-5752
笔记	-5753
落户	-5754
雕塑	-5755
ist	-5756
为代表	-5757
主要的	-5758
是通过	-5759
联合会	-5760
足够的	-5761
集中在	-5762
▁Pro	-5763
职业技能	-5764
试管婴儿	-5765
进一步加强	-5766
RO	-5767
▁请	-5768
中西	-5769
主人	-5770
以其	-5771
吃饭	-5772
各方	-5773
困境	-5774
漫画	-5775
进了	-5776
取决于	-5777
有一些	-5778
的不同	-5779
的主题	-5780
II	-5781
丝绸	-5782
名人	-5783
海关	-5784
的双	-5785
高兴	-5786
est	-5787
个人的	-5788
提升了	-5789
石墨烯	-5790
等因素	-5791
脐带血	-5792
硕士学位	-5793
自然资源	-5794
▁p	-5795
任职	-5796
基建	-5797
市的	-5798
年被	-5799
蓝色	-5800
陌生	-5801
必须要	-5802
意识到	-5803
有时候	-5804
的比赛	-5805
消费者的	-5806
iPhone	-5807
政府信息公开	-5808
农历	-5809
发掘	-5810
国安	-5811
气息	-5812
洛杉	-5813
集合	-5814
our	-5815
▁那么	-5816
产业园	-5817
在未来	-5818
主要包括	-5819
党员干部	-5820
和社会保障	-5821
事物	-5822
全长	-5823
受访	-5824
土耳	-5825
孵化	-5826
安静	-5827
层的	-5828
差别	-5829
我要	-5830
诗人	-5831
陪伴	-5832
专业化	-5833
在上海	-5834
的一年	-5835
认为是	-5836
造成了	-5837
领先的	-5838
值得一提的是	-5839
QQ	-5840
ey	-5841
▁可	-5842
医护	-5843
博会	-5844
器材	-5845
导热	-5846
将有	-5847
崛起	-5848
方可	-5849
理性	-5850
航线	-5851
质疑	-5852
”，“	-5853
内容的	-5854
合适的	-5855
和企业	-5856
型企业	-5857
大家的	-5858
的各种	-5859
规范化	-5860
▁c	-5861
助推	-5862
升高	-5863
处处	-5864
每位	-5865
试剂	-5866
那时	-5867
饮水	-5868
不确定	-5869
也不是	-5870
人为本	-5871
土耳其	-5872
洛杉矶	-5873
综合性	-5874
勇敢	-5875
叫做	-5876
器官	-5877
噪声	-5878
回升	-5879
客场	-5880
廉政	-5881
正当	-5882
紧紧	-5883
解答	-5884
化妆品	-5885
常用的	-5886
的孩子	-5887
先行	-5888
平板	-5889
眼前	-5890
穿着	-5891
走了	-5892
造纸	-5893
邮政	-5894
wit	-5895
一直是	-5896
最多的	-5897
为其	-5898
主力	-5899
任意	-5900
好友	-5901
水位	-5902
点的	-5903
集群	-5904
▁第四	-5905
的速度	-5906
程度的	-5907
业内人士	-5908
固定资产	-5909
万亩	-5910
各省	-5911
审理	-5912
擅长	-5913
有益	-5914
民政	-5915
级别	-5916
博士后	-5917
取得的	-5918
对中国	-5919
江西省	-5920
爱好者	-5921
玻璃钢	-5922
统计局	-5923
博士学位	-5924
依次	-5925
关税	-5926
医用	-5927
多彩	-5928
大街	-5929
强国	-5930
按时	-5931
涉案	-5932
的手	-5933
看似	-5934
肠道	-5935
臭氧	-5936
螺旋	-5937
行程	-5938
谈判	-5939
足以	-5940
长远	-5941
副会长	-5942
副总裁	-5943
如果您	-5944
的建筑	-5945
部门的	-5946
从业人员	-5947
工程项目	-5948
xx	-5949
书写	-5950
他还	-5951
刑法	-5952
参照	-5953
少女	-5954
恐怖	-5955
榜单	-5956
疑似	-5957
经贸	-5958
过渡	-5959
但由于	-5960
哈尔滨	-5961
大自然	-5962
政府的	-5963
▁白癜风	-5964
城市建设	-5965
Fi	-5966
不上	-5967
伊朗	-5968
同年	-5969
室外	-5970
工信	-5971
怀疑	-5972
房价	-5973
指引	-5974
炎症	-5975
在国际	-5976
在接受	-5977
很高的	-5978
技术与	-5979
有力的	-5980
许多人	-5981
ry	-5982
▁经	-5983
一半	-5984
也让	-5985
光明	-5986
冷凝	-5987
减免	-5988
几种	-5989
制备	-5990
常委	-5991
幸运	-5992
救助	-5993
教研	-5994
既然	-5995
热烈	-5996
矩阵	-5997
调试	-5998
谨慎	-5999
边的	-6000
）》	-6001
激烈的	-6002
违法行为	-6003
日常生活中	-6004
%;	-6005
▁近	-6006
将被	-6007
拨款	-6008
摄像	-6009
服饰	-6010
破产	-6011
纪检	-6012
视力	-6013
责令	-6014
逾期	-6015
▁按照	-6016
劳动力	-6017
将达到	-6018
是国家	-6019
期徒刑	-6020
的战略	-6021
====	-6022
科技进步	-6023
营业执照	-6024
ff	-6025
倾向	-6026
初级	-6027
后勤	-6028
味的	-6029
必需	-6030
法官	-6031
清除	-6032
诗歌	-6033
ive	-6034
都需要	-6035
音菩萨	-6036
成立以来	-6037
一只	-6038
中原	-6039
感冒	-6040
无效	-6041
时机	-6042
每人	-6043
气的	-6044
监护	-6045
▁如今	-6046
完美的	-6047
机构的	-6048
的时代	-6049
设备和	-6050
人民医院	-6051
国家标准	-6052
节能环保	-6053
领导班子	-6054
‍‍	-6055
不利	-6056
原油	-6057
在地	-6058
审判	-6059
审议	-6060
忽略	-6061
标的	-6062
西红	-6063
默默	-6064
与发展	-6065
功能的	-6066
在我们	-6067
就开始	-6068
更容易	-6069
毕业后	-6070
设计和	-6071
VR	-6072
▁六	-6073
位的	-6074
工伤	-6075
平等	-6076
曲线	-6077
条款	-6078
流感	-6079
滴滴	-6080
生效	-6081
隔音	-6082
高清	-6083
CEO	-6084
怎样的	-6085
转化为	-6086
微量元素	-6087
志愿服务	-6088
智能家居	-6089
荣誉称号	-6090
▁Z	-6091
▁如	-6092
借鉴	-6093
出演	-6094
功德	-6095
千米	-6096
救灾	-6097
约束	-6098
蓬勃	-6099
静电	-6100
也不能	-6101
国资委	-6102
已经有	-6103
数据的	-6104
环境中	-6105
的用户	-6106
二氧化碳	-6107
公共卫生	-6108
综合素质	-6109
光纤	-6110
加州	-6111
北美	-6112
台风	-6113
家园	-6114
年限	-6115
应在	-6116
水准	-6117
洗涤	-6118
烈士	-6119
眼镜	-6120
；（	-6121
▁我国	-6122
合作的	-6123
展览会	-6124
总面积	-6125
所以在	-6126
执行官	-6127
目前已	-6128
知识和	-6129
蓄电池	-6130
▁日	-6131
一套	-6132
分支	-6133
制动	-6134
周五	-6135
嫌疑	-6136
总数	-6137
栏杆	-6138
的地	-6139
的确	-6140
会议室	-6141
出色的	-6142
胡萝卜	-6143
能力强	-6144
应用程序	-6145
文化旅游	-6146
》、	-6147
一件	-6148
和高	-6149
城的	-6150
对阵	-6151
小孩	-6152
开采	-6153
抑郁	-6154
持股	-6155
政协	-6156
终止	-6157
有机物	-6158
一方	-6159
业态	-6160
十几	-6161
固醇	-6162
在了	-6163
大门	-6164
已于	-6165
意愿	-6166
挑选	-6167
洽谈	-6168
调动	-6169
购置	-6170
较小	-6171
阻止	-6172
青山	-6173
和国家	-6174
等情况	-6175
重金属	-6176
主题教育	-6177
再生能源	-6178
市场份额	-6179
文化遗产	-6180
EM	-6181
个别	-6182
争夺	-6183
他对	-6184
加班	-6185
和新	-6186
易于	-6187
编号	-6188
送到	-6189
门户	-6190
西红柿	-6191
航空公司	-6192
TA	-6193
不容	-6194
书中	-6195
喷涂	-6196
多么	-6197
央视	-6198
头部	-6199
我和	-6200
是为	-6201
编程	-6202
见面	-6203
钢琴	-6204
ace	-6205
合作社	-6206
组委会	-6207
――	-6208
公立	-6209
情的	-6210
省内	-6211
神的	-6212
考证	-6213
至关	-6214
发病率	-6215
对人体	-6216
并通过	-6217
治疗的	-6218
的具体	-6219
让学生	-6220
roid	-6221
组织实施	-6222
军队	-6223
加密	-6224
医务	-6225
头的	-6226
小鹏	-6227
常用	-6228
教科	-6229
水上	-6230
洗衣	-6231
溃疡	-6232
界的	-6233
直至	-6234
给他	-6235
财报	-6236
齿轮	-6237
以下的	-6238
的传统	-6239
系统中	-6240
领导干部	-6241
▁答	-6242
东盟	-6243
修正	-6244
千年	-6245
增添	-6246
多多	-6247
得益	-6248
施行	-6249
的车	-6250
移植	-6251
自贡	-6252
致富	-6253
色素	-6254
降解	-6255
唯一的	-6256
心血管	-6257
用户提供	-6258
微信公众号	-6259
??	-6260
之美	-6261
反射	-6262
家庄	-6263
总支	-6264
数百	-6265
权力	-6266
短短	-6267
线条	-6268
编写	-6269
自愿	-6270
▁会议	-6271
减少了	-6272
这两个	-6273
农业农村	-6274
医疗卫生	-6275
政府采购	-6276
绿色建筑	-6277
IN	-6278
ep	-6279
不适	-6280
体温	-6281
光谱	-6282
公顷	-6283
创伤	-6284
在外	-6285
总会	-6286
电梯	-6287
看了	-6288
风雨	-6289
为我们	-6290
以来的	-6291
学习的	-6292
山西省	-6293
按规定	-6294
的日子	-6295
的研发	-6296
超过了	-6297
职业生涯	-6298
规模以上	-6299
首席执行官	-6300
km	-6301
交往	-6302
京津	-6303
化解	-6304
向前	-6305
大使	-6306
小康	-6307
某个	-6308
查处	-6309
物体	-6310
用量	-6311
贯穿	-6312
页第	-6313
服务于	-6314
组成员	-6315
▁南	-6316
▁说	-6317
光学	-6318
出于	-6319
四季	-6320
我不	-6321
梳理	-6322
氯化	-6323
水管	-6324
水量	-6325
碰撞	-6326
福州	-6327
站式	-6328
而已	-6329
视角	-6330
诠释	-6331
其中的	-6332
需求的	-6333
▁and	-6334
严格按照	-6335
XX	-6336
上看	-6337
人对	-6338
保罗	-6339
坚强	-6340
属性	-6341
白云	-6342
也非常	-6343
十二五	-6344
和工作	-6345
奠定了	-6346
饮用水	-6347
建设工程	-6348
生产基地	-6349
重要作用	-6350
se	-6351
两侧	-6352
侵害	-6353
做事	-6354
出具	-6355
十字	-6356
华夏	-6357
原有	-6358
处在	-6359
外语	-6360
录用	-6361
患病	-6362
日讯	-6363
有毒	-6364
此后	-6365
牛奶	-6366
线索	-6367
薄膜	-6368
顶尖	-6369
一开始	-6370
副校长	-6371
找到了	-6372
注意到	-6373
老百姓	-6374
电子信息	-6375
互通	-6376
公积	-6377
加剧	-6378
医治	-6379
在他	-6380
演绎	-6381
生于	-6382
编码	-6383
衔接	-6384
谈到	-6385
资深	-6386
会计师	-6387
的品牌	-6388
的角度	-6389
高水平	-6390
交通大学	-6391
卡车	-6392
效力	-6393
百合	-6394
至上	-6395
血糖	-6396
首届	-6397
鲜明	-6398
ant	-6399
ber	-6400
个性化	-6401
制定了	-6402
副主席	-6403
并发症	-6404
有许多	-6405
作为一个	-6406
▁Y	-6407
入驻	-6408
型的	-6409
多位	-6410
恐惧	-6411
昨日	-6412
流传	-6413
荧光	-6414
雇主	-6415
饮用	-6416
人生的	-6417
教育厅	-6418
没有人	-6419
的位置	-6420
称之为	-6421
环境污染	-6422
命令	-6423
太原	-6424
学业	-6425
宾馆	-6426
拉克	-6427
放大	-6428
立项	-6429
致辞	-6430
适量	-6431
开发的	-6432
工作经验	-6433
之上	-6434
亿吨	-6435
佩戴	-6436
区分	-6437
占总	-6438
特朗	-6439
短信	-6440
要把	-6441
are	-6442
ore	-6443
个国家	-6444
优良的	-6445
促进了	-6446
是一位	-6447
有些人	-6448
的需要	-6449
美术馆	-6450
市场监管	-6451
压器	-6452
年纪	-6453
愿景	-6454
撰写	-6455
注射	-6456
礼物	-6457
花费	-6458
赚钱	-6459
错过	-6460
个城市	-6461
喜欢的	-6462
的价值	-6463
什么样的	-6464
截至目前	-6465
SS	-6466
oh	-6467
▁将	-6468
上游	-6469
上演	-6470
丽的	-6471
二期	-6472
净水	-6473
夜间	-6474
学子	-6475
带给	-6476
形容	-6477
所长	-6478
教会	-6479
热的	-6480
甲醛	-6481
蒸发	-6482
迄今	-6483
高档	-6484
所需的	-6485
国民经济	-6486
指导意见	-6487
管理制度	-6488
人间	-6489
会使	-6490
公主	-6491
冬天	-6492
山的	-6493
第九	-6494
联通	-6495
举办了	-6496
就已经	-6497
总决赛	-6498
据了解	-6499
▁就	-6500
三次	-6501
主张	-6502
人选	-6503
太湖	-6504
放置	-6505
整车	-6506
繁殖	-6507
不少于	-6508
的出现	-6509
的教学	-6510
行业中	-6511
qu	-6512
一颗	-6513
不应	-6514
两家	-6515
减灾	-6516
别墅	-6517
剧中	-6518
勇气	-6519
变速	-6520
国足	-6521
在该	-6522
境界	-6523
得多	-6524
念佛	-6525
排列	-6526
暂行	-6527
暴力	-6528
核准	-6529
核电	-6530
正面	-6531
用房	-6532
畅销	-6533
空白	-6534
过后	-6535
隐藏	-6536
很多的	-6537
我国的	-6538
来自于	-6539
的一致	-6540
的重点	-6541
篇文章	-6542
让孩子	-6543
了自己的	-6544
客户提供	-6545
服务平台	-6546
管理部门	-6547
系列产品	-6548
党委副书记	-6549
AD	-6550
▁原	-6551
但我	-6552
力学	-6553
喜剧	-6554
国王	-6555
失信	-6556
拨打	-6557
来临	-6558
热线	-6559
见的	-6560
追溯	-6561
就没有	-6562
是国内	-6563
的成功	-6564
▁the	-6565
安全隐患	-6566
科技成果	-6567
CR	-6568
外贸	-6569
实业	-6570
尔特	-6571
师傅	-6572
故意	-6573
欧冠	-6574
法的	-6575
洛阳	-6576
牙齿	-6577
环球	-6578
脱水	-6579
脱离	-6580
记住	-6581
调度	-6582
per	-6583
▁新华	-6584
了一些	-6585
充电桩	-6586
希望能	-6587
患者在	-6588
等各种	-6589
剩余	-6590
区委	-6591
品的	-6592
姑娘	-6593
忠诚	-6594
授课	-6595
知的	-6596
自来	-6597
观世	-6598
闸蟹	-6599
他表示	-6600
充满了	-6601
工业和	-6602
认识到	-6603
进入了	-6604
一般来说	-6605
合法权益	-6606
实施方案	-6607
技术人员	-6608
牢记使命	-6609
专业委员会	-6610
再到	-6611
几率	-6612
可爱	-6613
哈哈	-6614
定价	-6615
展望	-6616
并为	-6617
手中	-6618
轿车	-6619
严格的	-6620
为主要	-6621
怎么样	-6622
的了解	-6623
健康发展	-6624
操作系统	-6625
上报	-6626
五十	-6627
人性	-6628
以内	-6629
孤独	-6630
弥陀	-6631
担忧	-6632
沙漠	-6633
目光	-6634
野生	-6635
预案	-6636
个项目	-6637
伴随着	-6638
第二个	-6639
发布会上	-6640
理工大学	-6641
高等学校	-6642
之时	-6643
但不	-6644
农户	-6645
冷冻	-6646
同类	-6647
商用	-6648
国立	-6649
居家	-6650
帝国	-6651
愿望	-6652
撤销	-6653
斗争	-6654
油画	-6655
离心	-6656
行走	-6657
身高	-6658
较少	-6659
途中	-6660
处理器	-6661
年全国	-6662
排行榜	-6663
都知道	-6664
日常生活	-6665
一道	-6666
中型	-6667
优雅	-6668
住在	-6669
凸显	-6670
和大	-6671
地板	-6672
拍照	-6673
新城	-6674
盲目	-6675
转会	-6676
创新的	-6677
原来的	-6678
自主研发	-6679
ge	-6680
两天	-6681
中美	-6682
之心	-6683
动能	-6684
勤奋	-6685
大棚	-6686
完毕	-6687
意志	-6688
管网	-6689
隐私	-6690
震撼	-6691
公布了	-6692
利用率	-6693
怎么办	-6694
检察院	-6695
演唱会	-6696
理事会	-6697
的创新	-6698
的责任	-6699
第一批	-6700
了一系列	-6701
如果没有	-6702
人力资源和社会保障	-6703
"，	-6704
OC	-6705
分校	-6706
图形	-6707
外伤	-6708
布斯	-6709
年产	-6710
彩票	-6711
拆迁	-6712
新高	-6713
温泉	-6714
片的	-6715
用工	-6716
舒服	-6717
逐年	-6718
风情	-6719
▁企业	-6720
个工作	-6721
明确了	-6722
是如何	-6723
特朗普	-6724
长三角	-6725
智能制造	-6726
职业资格	-6727
这样才能	-6728
队伍建设	-6729
▁万	-6730
交互	-6731
入了	-6732
制约	-6733
周一	-6734
时段	-6735
牢固	-6736
上世纪	-6737
人们对	-6738
共产党	-6739
副教授	-6740
的不断	-6741
发达国家	-6742
可以说是	-6743
组织开展	-6744
一号	-6745
不必	-6746
中午	-6747
去做	-6748
因子	-6749
巴塞	-6750
晶体	-6751
流域	-6752
疯狂	-6753
科室	-6754
综艺	-6755
育人	-6756
遭到	-6757
鉴于	-6758
发言人	-6759
呈现出	-6760
带领下	-6761
的热情	-6762
ight	-6763
MW	-6764
SP	-6765
之家	-6766
做大	-6767
双向	-6768
应届	-6769
手工	-6770
最有	-6771
除外	-6772
ice	-6773
▁Sp	-6774
与管理	-6775
个月的	-6776
公积金	-6777
出租车	-6778
第二季	-6779
企业发展	-6780
注意事项	-6781
集成电路	-6782
中国科学院	-6783
uc	-6784
不敢	-6785
之内	-6786
候选	-6787
墨西	-6788
子里	-6789
感和	-6790
承接	-6791
深深	-6792
滑雪	-6793
等到	-6794
色谱	-6795
英寸	-6796
观测	-6797
试行	-6798
隔热	-6799
ure	-6800
开始了	-6801
教职工	-6802
的人们	-6803
的消息	-6804
质量和	-6805
适当的	-6806
面临的	-6807
产业结构	-6808
过程中的	-6809
这意味着	-6810
mg	-6811
万名	-6812
不对	-6813
不止	-6814
像素	-6815
冒险	-6816
即时	-6817
因其	-6818
威尔	-6819
客人	-6820
战士	-6821
收缩	-6822
海报	-6823
爷爷	-6824
生殖	-6825
聪明	-6826
自律	-6827
起步	-6828
达标	-6829
都将	-6830
队长	-6831
ont	-6832
ows	-6833
主办的	-6834
县政府	-6835
可以用	-6836
墨西哥	-6837
影响到	-6838
贵州省	-6839
走出去	-6840
生产厂家	-6841
硕士研究生	-6842
保密	-6843
前提	-6844
名义	-6845
垄断	-6846
寒冷	-6847
巡视	-6848
平原	-6849
并以	-6850
抗疫	-6851
拿下	-6852
汇聚	-6853
海军	-6854
百强	-6855
短暂	-6856
解析	-6857
为目标	-6858
是比较	-6859
企业管理	-6860
小微企业	-6861
基础设施建设	-6862
▁。	-6863
三位	-6864
中东	-6865
偶像	-6866
十足	-6867
同等	-6868
哥哥	-6869
夺得	-6870
尤为	-6871
游览	-6872
猪肉	-6873
般的	-6874
较快	-6875
辖区	-6876
▁日前	-6877
价值的	-6878
平台的	-6879
是一名	-6880
la	-6881
两名	-6882
中毒	-6883
产物	-6884
修养	-6885
做得	-6886
党组	-6887
华东	-6888
墙体	-6889
太大	-6890
将从	-6891
恶劣	-6892
描绘	-6893
搬迁	-6894
数额	-6895
极限	-6896
涌现	-6897
点评	-6898
白酒	-6899
督导	-6900
走到	-6901
配电	-6902
阳性	-6903
风貌	-6904
首位	-6905
了一场	-6906
展现了	-6907
积极性	-6908
设计与	-6909
主营业务	-6910
绝大多数	-6911
行政部门	-6912
▁”	-6913
▁九	-6914
万台	-6915
丧失	-6916
乐施	-6917
借款	-6918
后面	-6919
圣经	-6920
学前	-6921
家属	-6922
屋顶	-6923
开花	-6924
性别	-6925
红外	-6926
经纪	-6927
评定	-6928
大湾区	-6929
现有的	-6930
类专业	-6931
起重机	-6932
这里的	-6933
乐团	-6934
付费	-6935
但却	-6936
合唱	-6937
奥迪	-6938
存款	-6939
对照	-6940
巴萨	-6941
极具	-6942
絮凝	-6943
辈子	-6944
her	-6945
万元的	-6946
下一个	-6947
各单位	-6948
和支持	-6949
月中旬	-6950
欧洲杯	-6951
消费品	-6952
留学生	-6953
迎来了	-6954
高分子	-6955
▁事实上	-6956
广播电视	-6957
等方面的	-6958
节能减排	-6959
ma	-6960
上诉	-6961
为你	-6962
划分	-6963
前面	-6964
十余	-6965
失望	-6966
定点	-6967
客服	-6968
异议	-6969
彼得	-6970
此类	-6971
水和	-6972
的无	-6973
社团	-6974
细分	-6975
路段	-6976
都被	-6977
黑暗	-6978
ick	-6979
不容易	-6980
在今年	-6981
届全国	-6982
研究和	-6983
这一切	-6984
动力电池	-6985
北京时间	-6986
历史文化	-6987
地方政府	-6988
工程机械	-6989
个省	-6990
人气	-6991
合约	-6992
廉洁	-6993
批复	-6994
拉开	-6995
放射	-6996
放缓	-6997
新年	-6998
更快	-6999
构造	-7000
永恒	-7001
间接	-7002
隆重	-7003
农作物	-7004
改变了	-7005
有一种	-7006
科学的	-7007
胆固醇	-7008
通过对	-7009
不仅仅是	-7010
发明专利	-7011
快速增长	-7012
污染防治	-7013
行政处罚	-7014
的经营理念	-7015
一对	-7016
下属	-7017
人格	-7018
供热	-7019
免税	-7020
南昌	-7021
卡尔	-7022
学士	-7023
宽带	-7024
局限	-7025
性地	-7026
招收	-7027
持久	-7028
概率	-7029
灾难	-7030
衡量	-7031
运河	-7032
集聚	-7033
高通	-7034
可用于	-7035
商务部	-7036
在这种	-7037
培训班	-7038
很强的	-7039
改革的	-7040
有一天	-7041
市场规模	-7042
民营企业	-7043
清洁能源	-7044
]。	-7045
一台	-7046
中介	-7047
乐器	-7048
保安	-7049
华南	-7050
双眼	-7051
受害	-7052
后卫	-7053
大地	-7054
常年	-7055
意向	-7056
是用	-7057
民俗	-7058
确立	-7059
磷酸	-7060
细致	-7061
美团	-7062
越多	-7063
这条	-7064
预告	-7065
鸡蛋	-7066
也需要	-7067
全社会	-7068
另一种	-7069
客户端	-7070
形式的	-7071
有一定	-7072
每年的	-7073
水资源	-7074
火车站	-7075
可以根据	-7076
征求意见	-7077
旅游景区	-7078
的重要组成部分	-7079
%-	-7080
ss	-7081
光滑	-7082
光电	-7083
受损	-7084
善良	-7085
四年	-7086
布鲁	-7087
平米	-7088
扩建	-7089
拉动	-7090
无比	-7091
校企	-7092
白天	-7093
福田	-7094
筹备	-7095
远的	-7096
酒精	-7097
DNA	-7098
出生于	-7099
给自己	-7100
创新发展	-7101
国际贸易	-7102
地理位置	-7103
工程施工	-7104
疫情期间	-7105
▁用	-7106
值班	-7107
含义	-7108
商贸	-7109
时至	-7110
景色	-7111
民用	-7112
沿着	-7113
洪水	-7114
淘宝	-7115
玫瑰	-7116
理学	-7117
矿业	-7118
聊天	-7119
脚步	-7120
递交	-7121
遴选	-7122
ash	-7123
中含有	-7124
公司将	-7125
只需要	-7126
各样的	-7127
理事长	-7128
的一大	-7129
社会保险	-7130
空气净化	-7131
龙头企业	-7132
中秋	-7133
也没	-7134
倡议	-7135
全校	-7136
向往	-7137
团委	-7138
地块	-7139
增收	-7140
她说	-7141
执导	-7142
指令	-7143
捐款	-7144
提名	-7145
榜样	-7146
法学	-7147
海域	-7148
石头	-7149
转速	-7150
近视	-7151
高原	-7152
ect	-7153
日开始	-7154
的处理	-7155
自己在	-7156
阿拉伯	-7157
面临着	-7158
始终坚持	-7159
中标	-7160
党政	-7161
内存	-7162
剧场	-7163
去世	-7164
奇迹	-7165
学分	-7166
弥补	-7167
智力	-7168
更能	-7169
求职	-7170
灵感	-7171
相连	-7172
色泽	-7173
衰老	-7174
长久	-7175
限度	-7176
▁——	-7177
增强了	-7178
成都市	-7179
我们对	-7180
是一款	-7181
甚至是	-7182
的思想	-7183
的整体	-7184
等产品	-7185
了解一下	-7186
有期徒刑	-7187
这样一个	-7188
上月	-7189
伴有	-7190
卵巢	-7191
名列	-7192
微笑	-7193
盛顿	-7194
礼仪	-7195
统治	-7196
账号	-7197
违纪	-7198
铸造	-7199
man	-7200
科大学	-7201
通讯员	-7202
马克思	-7203
可以看到	-7204
同时也是	-7205
市场竞争	-7206
法定代表	-7207
二人	-7208
介入	-7209
包容	-7210
多万	-7211
成语	-7212
户口	-7213
章程	-7214
符号	-7215
管的	-7216
饱和	-7217
axy	-7218
会产生	-7219
千瓦时	-7220
如果是	-7221
实践中	-7222
国有企业	-7223
alaxy	-7224
:“	-7225
一一	-7226
会被	-7227
低的	-7228
区间	-7229
大厅	-7230
延期	-7231
把它	-7232
抗体	-7233
无所	-7234
核算	-7235
激活	-7236
热泵	-7237
轻易	-7238
面貌	-7239
停车场	-7240
全球化	-7241
向社会	-7242
学生在	-7243
段时间	-7244
的意思	-7245
一直以来	-7246
专业知识	-7247
养老保险	-7248
销售收入	-7249
ug	-7250
▁它	-7251
克兰	-7252
复产	-7253
外形	-7254
得出	-7255
报酬	-7256
推介	-7257
晚会	-7258
洗净	-7259
相处	-7260
紊乱	-7261
网讯	-7262
跟随	-7263
追踪	-7264
ech	-7265
副作用	-7266
座谈会	-7267
正常的	-7268
工程学院	-7269
污水处理厂	-7270
他也	-7271
她在	-7272
姐妹	-7273
姿态	-7274
无关	-7275
核实	-7276
毫不	-7277
演艺	-7278
纳斯	-7279
获批	-7280
钢筋	-7281
音频	-7282
ood	-7283
但是在	-7284
关注的	-7285
其他的	-7286
带头人	-7287
开发和	-7288
换热器	-7289
是怎么	-7290
外商投资	-7291
文物保护	-7292
金融服务	-7293
企事业单位	-7294
AS	-7295
▁那	-7296
众所	-7297
宜宾	-7298
有利	-7299
朝阳	-7300
柔软	-7301
根廷	-7302
漏洞	-7303
畅通	-7304
累积	-7305
网点	-7306
美联	-7307
范畴	-7308
足协	-7309
较强	-7310
SUV	-7311
int	-7312
人类的	-7313
可通过	-7314
影响的	-7315
阿根廷	-7316
更重要的是	-7317
TE	-7318
信贷	-7319
前所	-7320
势头	-7321
容积	-7322
岁时	-7323
彩色	-7324
海岸	-7325
烹饪	-7326
的女	-7327
的爱	-7328
组件	-7329
队友	-7330
它们的	-7331
主要从事	-7332
特别是在	-7333
示范基地	-7334
牛皮癣患者	-7335
Sc	-7336
▁其	-7337
不高	-7338
人造	-7339
储能	-7340
可控	-7341
地带	-7342
建的	-7343
当初	-7344
德育	-7345
房企	-7346
时空	-7347
检疫	-7348
水体	-7349
真人	-7350
立刻	-7351
为国家	-7352
为广大	-7353
坐落于	-7354
率达到	-7355
的有效	-7356
可再生能源	-7357
质量管理体系	-7358
亲切	-7359
利物	-7360
只会	-7361
大国	-7362
完工	-7363
导弹	-7364
影院	-7365
海口	-7366
潮湿	-7367
科创	-7368
结晶	-7369
绿地	-7370
ics	-7371
工信部	-7372
教师的	-7373
教育和	-7374
是否有	-7375
创新能力	-7376
发电机组	-7377
我们需要	-7378
证券交易所	-7379
进一步提高	-7380
Facebook	-7381
sh	-7382
二维	-7383
做起	-7384
力求	-7385
压机	-7386
又一	-7387
填料	-7388
失调	-7389
平常	-7390
年版	-7391
序列	-7392
手法	-7393
抗击	-7394
推迟	-7395
既是	-7396
梅西	-7397
湖人	-7398
致使	-7399
金牌	-7400
难得	-7401
靠近	-7402
ina	-7403
▁国际	-7404
副局长	-7405
宣传部	-7406
年轻的	-7407
的新型	-7408
非常的	-7409
投资基金	-7410
kg	-7411
会同	-7412
但这	-7413
入党	-7414
出门	-7415
到处	-7416
增进	-7417
大事	-7418
头痛	-7419
将与	-7420
直属	-7421
诈骗	-7422
邮编	-7423
一样的	-7424
博士生	-7425
的新闻	-7426
真实的	-7427
证监会	-7428
以人为本	-7429
加快推进	-7430
技术研发	-7431
一层	-7432
全文	-7433
利息	-7434
和对	-7435
天堂	-7436
对该	-7437
幽默	-7438
新颖	-7439
更具	-7440
测绘	-7441
筛选	-7442
计量	-7443
▁他们	-7444
乘用车	-7445
党中央	-7446
关系的	-7447
利物浦	-7448
存在着	-7449
就是要	-7450
引起了	-7451
无人机	-7452
环境下	-7453
计划的	-7454
近几年	-7455
可以帮助	-7456
等一系列	-7457
解决问题	-7458
互补	-7459
出水	-7460
剂的	-7461
助学	-7462
密码	-7463
本网	-7464
清新	-7465
热水	-7466
率的	-7467
登上	-7468
这首	-7469
阐述	-7470
雅思	-7471
之后的	-7472
体现在	-7473
使用了	-7474
时期的	-7475
的人物	-7476
铁矿石	-7477
可以看出	-7478
co	-7479
▁"	-7480
▁您	-7481
做强	-7482
口味	-7483
召回	-7484
奶茶	-7485
数码	-7486
春运	-7487
是大	-7488
村庄	-7489
汇总	-7490
独家	-7491
环卫	-7492
部级	-7493
为自己	-7494
历史的	-7495
增长了	-7496
学院的	-7497
导致的	-7498
旗下的	-7499
真的是	-7500
等功能	-7501
详细的	-7502
电子产品	-7503
值得注意的是	-7504
书的	-7505
使人	-7506
冷链	-7507
分开	-7508
加深	-7509
厕所	-7510
合一	-7511
塞尔	-7512
尔顿	-7513
店铺	-7514
恶化	-7515
想起	-7516
样本	-7517
精湛	-7518
越高	-7519
还没	-7520
配音	-7521
闻名	-7522
一般的	-7523
呼吸道	-7524
天津市	-7525
对自己	-7526
废弃物	-7527
我们也	-7528
有关的	-7529
生物学	-7530
让大家	-7531
阿弥陀	-7532
乡村振兴	-7533
的可能性	-7534
IF	-7535
eg	-7536
。[	-7537
不安	-7538
之以	-7539
其在	-7540
出自	-7541
分管	-7542
变频	-7543
启发	-7544
意的	-7545
户籍	-7546
报到	-7547
着手	-7548
红木	-7549
纸质	-7550
缩小	-7551
耐用	-7552
腺癌	-7553
英镑	-7554
评分	-7555
诚实	-7556
近年	-7557
领袖	-7558
ust	-7559
事业部	-7560
众所周	-7561
会造成	-7562
多媒体	-7563
小小的	-7564
环境和	-7565
的良好	-7566
马拉松	-7567
招标文件	-7568
环境影响	-7569
indows	-7570
▁Q	-7571
▁七	-7572
另行	-7573
度过	-7574
牛肉	-7575
精子	-7576
贵阳	-7577
趣味	-7578
路口	-7579
通车	-7580
具体的	-7581
吸引力	-7582
大闸蟹	-7583
性疾病	-7584
的决定	-7585
讲述了	-7586
上年同期	-7587
卫生健康	-7588
燃料电池	-7589
Sp	-7590
▁杨	-7591
与之	-7592
住了	-7593
口感	-7594
和小	-7595
唐代	-7596
救治	-7597
月经	-7598
有权	-7599
洁净	-7600
津贴	-7601
编剧	-7602
议题	-7603
越大	-7604
违约	-7605
ens	-7606
专家组	-7607
今天的	-7608
全面的	-7609
始建于	-7610
普通话	-7611
要加强	-7612
▁如果你	-7613
信息系统	-7614
公开招聘	-7615
纪检监察	-7616
万户	-7617
不满	-7618
人之	-7619
可行	-7620
已达	-7621
开车	-7622
杂质	-7623
肌肤	-7624
衍生	-7625
详见	-7626
车道	-7627
除尘	-7628
决定了	-7629
在一定	-7630
失去了	-7631
学生们	-7632
影响了	-7633
新中国	-7634
的好处	-7635
的考生	-7636
细胞的	-7637
高性能	-7638
保温材料	-7639
商业模式	-7640
新冠病毒	-7641
生活方式	-7642
Hz	-7643
▁西	-7644
专职	-7645
全资	-7646
另有	-7647
大方	-7648
夫妇	-7649
无毒	-7650
武术	-7651
流失	-7652
稳健	-7653
选购	-7654
不动产	-7655
本科生	-7656
深刻的	-7657
的声音	-7658
等部门	-7659
表现出	-7660
起到了	-7661
AP	-7662
六个	-7663
准入	-7664
好转	-7665
就被	-7666
干预	-7667
教务	-7668
敢于	-7669
正义	-7670
肺癌	-7671
会议上	-7672
受访者	-7673
各方面	-7674
多功能	-7675
得益于	-7676
更名为	-7677
理想的	-7678
的症状	-7679
知名度	-7680
耶和华	-7681
高素质	-7682
okia	-7683
少数民族	-7684
的前提下	-7685
资本市场	-7686
资格审查	-7687
进一步提升	-7688
Ar	-7689
EN	-7690
一句	-7691
一心	-7692
万亿	-7693
就诊	-7694
平静	-7695
权的	-7696
树木	-7697
水源	-7698
法制	-7699
热闹	-7700
留言	-7701
神话	-7702
离婚	-7703
简化	-7704
管制	-7705
讲究	-7706
因为它	-7707
工业化	-7708
是一件	-7709
比如说	-7710
公司拥有	-7711
废水处理	-7712
技术服务	-7713
文化和旅游	-7714
自然科学基金	-7715
▁安	-7716
又能	-7717
声誉	-7718
尔夫	-7719
栏目	-7720
要么	-7721
该校	-7722
铸铁	-7723
食堂	-7724
ile	-7725
ner	-7726
▁Ar	-7727
公里的	-7728
可以让	-7729
对我们	-7730
成立的	-7731
排名第	-7732
百分之	-7733
先进单位	-7734
合作关系	-7735
物业管理	-7736
职业技术学院	-7737
”(	-7738
产学	-7739
射手	-7740
广电	-7741
技艺	-7742
日元	-7743
极端	-7744
柔性	-7745
清明	-7746
百货	-7747
绍兴	-7748
起诉	-7749
为导向	-7750
学习和	-7751
常委会	-7752
开幕式	-7753
当我们	-7754
的平台	-7755
的音乐	-7756
行为的	-7757
发展改革	-7758
国家重点	-7759
这种情况	-7760
观世音菩萨	-7761
SD	-7762
▁l	-7763
一块	-7764
不然	-7765
人家	-7766
低压	-7767
台阶	-7768
头发	-7769
得很	-7770
才有	-7771
振动	-7772
接种	-7773
次的	-7774
看好	-7775
福音	-7776
细腻	-7777
而非	-7778
评级	-7779
金钱	-7780
降温	-7781
一站式	-7782
当地的	-7783
所有人	-7784
是一项	-7785
是世界	-7786
的最佳	-7787
示范区	-7788
突出的	-7789
身体的	-7790
义务教育	-7791
移动互联网	-7792
Android	-7793
AG	-7794
▁各	-7795
。"	-7796
一百	-7797
万余	-7798
书院	-7799
买卖	-7800
假如	-7801
奇怪	-7802
宠物	-7803
导游	-7804
年均	-7805
排出	-7806
票价	-7807
网民	-7808
苗木	-7809
赛中	-7810
也比较	-7811
在哪里	-7812
郑州市	-7813
世界一流	-7814
当地时间	-7815
未成年人	-7816
ET	-7817
会给	-7818
变为	-7819
司马	-7820
宝石	-7821
就算	-7822
成套	-7823
时报	-7824
是谁	-7825
活泼	-7826
生死	-7827
病虫	-7828
登场	-7829
直观	-7830
自豪	-7831
证件	-7832
预备	-7833
……”	-7834
▁本文	-7835
一个个	-7836
一起来	-7837
为公司	-7838
京津冀	-7839
和国际	-7840
就需要	-7841
控制器	-7842
新一轮	-7843
海内外	-7844
生物质	-7845
阶段的	-7846
颁发的	-7847
▁新华社	-7848
思想政治	-7849
治疗白癜风	-7850
──	-7851
一辆	-7852
临沂	-7853
付款	-7854
储罐	-7855
刀具	-7856
剧本	-7857
发泡	-7858
宁夏	-7859
安市	-7860
州的	-7861
拿出	-7862
早餐	-7863
暑期	-7864
正好	-7865
比特	-7866
生化	-7867
电能	-7868
的身	-7869
着重	-7870
进去	-7871
重型	-7872
锦标	-7873
降至	-7874
ava	-7875
医生的	-7876
效率高	-7877
是全球	-7878
留下了	-7879
中国特色	-7880
有关事项	-7881
法律责任	-7882
科学发展	-7883
亿元人民币	-7884
不育	-7885
严禁	-7886
双手	-7887
吉祥	-7888
员的	-7889
支柱	-7890
显现	-7891
有过	-7892
盛会	-7893
自学	-7894
触摸	-7895
话说	-7896
走上	-7897
超出	-7898
跑道	-7899
防御	-7900
ast	-7901
总成绩	-7902
派出所	-7903
研究的	-7904
行业内	-7905
医科大学	-7906
商业银行	-7907
安全管理	-7908
规章制度	-7909
重要的作用	-7910
专业技术人员	-7911
AN	-7912
ix	-7913
但也	-7914
冰箱	-7915
分行	-7916
加固	-7917
基站	-7918
堪称	-7919
张家	-7920
油脂	-7921
游玩	-7922
禁区	-7923
细则	-7924
行车	-7925
那是	-7926
高管	-7927
人才的	-7928
关键词	-7929
发挥了	-7930
如果不	-7931
日消息	-7932
时间和	-7933
注意力	-7934
的存在	-7935
积累了	-7936
经营者	-7937
以及其他	-7938
监督检查	-7939
第一季度	-7940
资产管理	-7941
ly	-7942
万家	-7943
交警	-7944
人身	-7945
养护	-7946
分局	-7947
在内	-7948
定向	-7949
工委	-7950
开辟	-7951
抢险	-7952
提问	-7953
枸杞	-7954
石灰	-7955
立案	-7956
约合	-7957
跨国	-7958
过剩	-7959
颁布	-7960
题目	-7961
饮酒	-7962
为重点	-7963
举行了	-7964
典型的	-7965
城镇化	-7966
并提供	-7967
新媒体	-7968
癫痫病	-7969
的大小	-7970
的材料	-7971
线城市	-7972
自来水	-7973
詹姆斯	-7974
领导下	-7975
工程专业	-7976
机械设备	-7977
电子邮件	-7978
一群	-7979
也都	-7980
共创	-7981
兴起	-7982
勘察	-7983
印尼	-7984
新老	-7985
标杆	-7986
毒性	-7987
法兰	-7988
真相	-7989
答复	-7990
自助	-7991
首发	-7992
麒麟	-7993
不同于	-7994
亿欧元	-7995
做一个	-7996
党总支	-7997
很重要	-7998
成熟的	-7999
日正式	-8000
的心态	-8001
的政策	-8002
粤港澳	-8003
道路上	-8004
体系建设	-8005
大力发展	-8006
工程设计	-8007
社交媒体	-8008
Cl	-8009
▁水	-8010
▁白	-8011
万物	-8012
中专	-8013
交所	-8014
住院	-8015
公用	-8016
兼职	-8017
势力	-8018
历时	-8019
去看	-8020
发力	-8021
咳嗽	-8022
国庆	-8023
大致	-8024
工件	-8025
并向	-8026
战绩	-8027
油漆	-8028
温和	-8029
率达	-8030
生猪	-8031
病症	-8032
监委	-8033
纠正	-8034
而又	-8035
观音	-8036
ass	-8037
▁去年	-8038
▁最近	-8039
他认为	-8040
和生产	-8041
庞大的	-8042
来进行	-8043
流动性	-8044
的家庭	-8045
的最大	-8046
的角色	-8047
发展成为	-8048
影响力的	-8049
治疗方法	-8050
温馨提示	-8051
规划设计	-8052
"。	-8053
MV	-8054
上门	-8055
为一	-8056
乐队	-8057
加盖	-8058
各式	-8059
唯有	-8060
恋爱	-8061
据说	-8062
日后	-8063
流畅	-8064
诉求	-8065
走在	-8066
送达	-8067
饱满	-8068
为主的	-8069
几个月	-8070
制作的	-8071
成本低	-8072
生活在	-8073
真实性	-8074
等活动	-8075
通知书	-8076
企业文化	-8077
生产总值	-8078
行动计划	-8079
监督管理局	-8080
ED	-8081
中断	-8082
交给	-8083
几点	-8084
前瞻	-8085
前锋	-8086
合力	-8087
妇科	-8088
尔多	-8089
工序	-8090
年到	-8091
应力	-8092
期为	-8093
模仿	-8094
气管	-8095
玩法	-8096
站点	-8097
耳机	-8098
股市	-8099
脸上	-8100
营利	-8101
论证	-8102
铁艺	-8103
面部	-8104
三个月	-8105
不错的	-8106
保证了	-8107
服务和	-8108
物质的	-8109
的游戏	-8110
的生命	-8111
第一季	-8112
起来的	-8113
尤其是在	-8114
法定代表人	-8115
万达	-8116
之称	-8117
功耗	-8118
多为	-8119
夺冠	-8120
守法	-8121
定于	-8122
尔的	-8123
废旧	-8124
强势	-8125
当作	-8126
战场	-8127
拆除	-8128
掉了	-8129
播种	-8130
模糊	-8131
比利	-8132
浓郁	-8133
照射	-8134
电竞	-8135
端午	-8136
脱颖	-8137
还未	-8138
酸盐	-8139
全自动	-8140
等优点	-8141
为您提供	-8142
智慧城市	-8143
浙江大学	-8144
佛山	-8145
修建	-8146
分成	-8147
可惜	-8148
名牌	-8149
天文	-8150
字母	-8151
实务	-8152
少量	-8153
感知	-8154
拥堵	-8155
旅程	-8156
本市	-8157
源头	-8158
甲基	-8159
红茶	-8160
路面	-8161
辣椒	-8162
还不	-8163
鲁能	-8164
麦克	-8165
▁产品	-8166
▁针对	-8167
公开发	-8168
原则上	-8169
在这一	-8170
纪念馆	-8171
希望大家	-8172
空气质量	-8173
EL	-8174
促销	-8175
募集	-8176
和中	-8177
幕墙	-8178
无奈	-8179
是将	-8180
来电	-8181
满了	-8182
焚烧	-8183
相较	-8184
着的	-8185
精益	-8186
详情	-8187
说过	-8188
踏实	-8189
返校	-8190
进修	-8191
防灾	-8192
▁主要	-8193
公交车	-8194
在过去	-8195
奥斯卡	-8196
我相信	-8197
提供商	-8198
服务商	-8199
让更多	-8200
今年以来	-8201
众所周知	-8202
没有什么	-8203
电线电缆	-8204
黑龙江省	-8205
三维	-8206
例外	-8207
出让	-8208
出货	-8209
前者	-8210
合规	-8211
天天	-8212
开源	-8213
掌声	-8214
数为	-8215
斯的	-8216
景象	-8217
灵芝	-8218
瑞典	-8219
磨损	-8220
草坪	-8221
赛后	-8222
转子	-8223
通告	-8224
首要	-8225
Pro	-8226
嫌疑人	-8227
家协会	-8228
的开发	-8229
速度快	-8230
北京大学	-8231
非常重要	-8232
中之	-8233
仍是	-8234
余家	-8235
典范	-8236
华侨	-8237
反思	-8238
名校	-8239
吸烟	-8240
套餐	-8241
容纳	-8242
就医	-8243
常住	-8244
必将	-8245
我很	-8246
查阅	-8247
滨海	-8248
眼光	-8249
睡觉	-8250
矿产	-8251
破碎	-8252
简历	-8253
约有	-8254
蓝天	-8255
被迫	-8256
量化	-8257
▁全国	-8258
作出了	-8259
和使用	-8260
已经是	-8261
控制在	-8262
不断发展	-8263
搜索引擎	-8264
社会科学	-8265
竞争对手	-8266
”：	-8267
两岸	-8268
之道	-8269
叶片	-8270
命名	-8271
堵塞	-8272
妥善	-8273
年中	-8274
引人	-8275
排在	-8276
机型	-8277
构件	-8278
每股	-8279
泄露	-8280
珍贵	-8281
的抗	-8282
线性	-8283
聆听	-8284
苏联	-8285
被动	-8286
西洋	-8287
调味	-8288
这将	-8289
配方	-8290
ich	-8291
ire	-8292
变压器	-8293
古老的	-8294
每一次	-8295
氨基酸	-8296
的个人	-8297
管委会	-8298
运动会	-8299
风景区	-8300
媒体报道	-8301
》）	-8302
之初	-8303
写的	-8304
四氟	-8305
夜晚	-8306
天主	-8307
孢子	-8308
宫颈	-8309
所能	-8310
攻关	-8311
机能	-8312
球的	-8313
立场	-8314
航运	-8315
良性	-8316
艺人	-8317
西兰	-8318
走过	-8319
锁定	-8320
阻碍	-8321
陪同	-8322
静脉	-8323
做什么	-8324
十二条	-8325
商品房	-8326
工程的	-8327
浏览器	-8328
海南省	-8329
丝绸之路	-8330
中国企业	-8331
工作报告	-8332
每个人都	-8333
▁再	-8334
▁红	-8335
十条	-8336
帷幕	-8337
形的	-8338
手的	-8339
无力	-8340
法师	-8341
燃油	-8342
脱落	-8343
那就	-8344
在学校	-8345
增长的	-8346
小朋友	-8347
左右的	-8348
差不多	-8349
的结构	-8350
记者从	-8351
首先要	-8352
中国市场	-8353
复工复产	-8354
失业保险	-8355
实际行动	-8356
建立健全	-8357
研究成果	-8358
职业学院	-8359
资格考试	-8360
BO	-8361
MI	-8362
▁注	-8363
一大	-8364
不等	-8365
中海	-8366
其后	-8367
半岛	-8368
各有	-8369
局的	-8370
核酸	-8371
电阻	-8372
百科	-8373
篇章	-8374
终点	-8375
自从	-8376
让她	-8377
队在	-8378
▁Sh	-8379
前所未	-8380
就是在	-8381
水平和	-8382
认定为	-8383
共同努力	-8384
工业企业	-8385
文化艺术	-8386
核心技术	-8387
生态文明	-8388
进行治疗	-8389
长期以来	-8390
一如	-8391
一所	-8392
一把	-8393
上周	-8394
内科	-8395
和水	-8396
喷雾	-8397
实事	-8398
宽度	-8399
尔斯	-8400
尼奥	-8401
建有	-8402
感悟	-8403
本期	-8404
机等	-8405
残留	-8406
税率	-8407
答辩	-8408
管材	-8409
要以	-8410
诸如	-8411
风味	-8412
风暴	-8413
：（	-8414
ies	-8415
ram	-8416
▁学院	-8417
了许多	-8418
已完成	-8419
市场化	-8420
普通的	-8421
耐高温	-8422
官方网站	-8423
生产工艺	-8424
sp	-8425
产销	-8426
代价	-8427
冷藏	-8428
失误	-8429
宁市	-8430
情报	-8431
情景	-8432
拓宽	-8433
民法	-8434
消泡	-8435
混乱	-8436
签字	-8437
聘请	-8438
舆论	-8439
节的	-8440
若是	-8441
荣耀	-8442
袭击	-8443
首家	-8444
▁很多	-8445
一个是	-8446
之前的	-8447
体育场	-8448
很可能	-8449
把自己	-8450
是全国	-8451
来到了	-8452
的名字	-8453
的数量	-8454
的网络	-8455
不仅可以	-8456
电热水器	-8457
职业学校	-8458
一看	-8459
伴随	-8460
你要	-8461
充实	-8462
化石	-8463
口径	-8464
回头	-8465
学年	-8466
导电	-8467
并有	-8468
患儿	-8469
气势	-8470
河道	-8471
泄漏	-8472
脉冲	-8473
草案	-8474
被人	-8475
边界	-8476
▁面对	-8477
不会有	-8478
亿元的	-8479
保持着	-8480
减速机	-8481
它可以	-8482
年我国	-8483
第二大	-8484
结构的	-8485
专业从事	-8486
党建工作	-8487
建筑设计	-8488
▁阿	-8489
两条	-8490
仅供	-8491
公章	-8492
六大	-8493
分级	-8494
城堡	-8495
外包	-8496
大胆	-8497
底线	-8498
权限	-8499
深厚	-8500
的古	-8501
礼品	-8502
股本	-8503
预报	-8504
香味	-8505
不存在	-8506
我们不	-8507
明确的	-8508
武汉市	-8509
健康管理	-8510
咨询服务	-8511
行政执法	-8512
核心竞争力	-8513
▁现	-8514
不幸	-8515
不清	-8516
主编	-8517
估值	-8518
冲压	-8519
反弹	-8520
周转	-8521
妹妹	-8522
并无	-8523
幻想	-8524
提及	-8525
数位	-8526
杰克	-8527
液晶	-8528
爵士	-8529
跌幅	-8530
骄傲	-8531
）（	-8532
▁会上	-8533
▁日本	-8534
全过程	-8535
华盛顿	-8536
和应用	-8537
外国语	-8538
的因素	-8539
组织部	-8540
****	-8541
就是一个	-8542
文化产业	-8543
马克思主义	-8544
........	-8545
▁到	-8546
▁最	-8547
不服	-8548
事迹	-8549
几何	-8550
升温	-8551
可怕	-8552
启用	-8553
告别	-8554
宝贵	-8555
我对	-8556
扑克	-8557
拥抱	-8558
教导	-8559
整齐	-8560
朝鲜	-8561
标记	-8562
江市	-8563
瀑布	-8564
犹如	-8565
珠宝	-8566
祝贺	-8567
秉持	-8568
竭诚	-8569
简洁	-8570
褐色	-8571
谋划	-8572
车主	-8573
车程	-8574
银河	-8575
雷达	-8576
一年的	-8577
中科院	-8578
可以从	-8579
归属于	-8580
必须在	-8581
第二天	-8582
美联储	-8583
及以上学历	-8584
witter	-8585
HS	-8586
oy	-8587
一经	-8588
上学	-8589
不便	-8590
催化	-8591
后再	-8592
宣讲	-8593
往来	-8594
或缺	-8595
报表	-8596
文中	-8597
核查	-8598
灿烂	-8599
爱你	-8600
版的	-8601
的重	-8602
续航	-8603
芝麻	-8604
货车	-8605
这件	-8606
量大	-8607
ien	-8608
也成为	-8609
了一份	-8610
介绍说	-8611
发现的	-8612
增长率	-8613
常态化	-8614
平台上	-8615
比赛的	-8616
的业务	-8617
附近的	-8618
中国经济	-8619
也越来越	-8620
医护人员	-8621
研发中心	-8622
▁北京时间	-8623
Un	-8624
亮的	-8625
偶然	-8626
去的	-8627
变的	-8628
四十	-8629
场面	-8630
城际	-8631
它在	-8632
弯曲	-8633
新网	-8634
时装	-8635
最快	-8636
歌声	-8637
江湖	-8638
溶于	-8639
特尔	-8640
电厂	-8641
真理	-8642
车展	-8643
遇见	-8644
门诊	-8645
面粉	-8646
▁其次	-8647
分辨率	-8648
十三条	-8649
病虫害	-8650
的人群	-8651
相对于	-8652
高效的	-8653
tern	-8654
数据中心	-8655
的综合性	-8656
酒店集团	-8657
▁与此同时	-8658
MS	-8659
TS	-8660
℃。	-8661
▁·	-8662
▁国	-8663
农场	-8664
冰雪	-8665
哥伦	-8666
四级	-8667
将近	-8668
山县	-8669
巡回	-8670
往返	-8671
打通	-8672
投稿	-8673
挤压	-8674
效能	-8675
物种	-8676
端的	-8677
索尼	-8678
组的	-8679
职场	-8680
能为	-8681
蛋糕	-8682
质的	-8683
贫血	-8684
较差	-8685
风力	-8686
个篮板	-8687
公告称	-8688
在日本	-8689
大幅度	-8690
投资的	-8691
的电影	-8692
目标是	-8693
石家庄	-8694
空压机	-8695
组织和	-8696
而成的	-8697
节假日	-8698
▁Com	-8699
发展趋势	-8700
工业园区	-8701
有色金属	-8702
+”	-8703
▁受	-8704
一无	-8705
住建	-8706
制剂	-8707
地形	-8708
弟子	-8709
手册	-8710
扭矩	-8711
报纸	-8712
放宽	-8713
旋律	-8714
既往	-8715
海鲜	-8716
淀粉	-8717
温柔	-8718
火锅	-8719
皮损	-8720
简便	-8721
蔓延	-8722
赞助	-8723
辛辣	-8724
适时	-8725
遥感	-8726
飞船	-8727
ear	-8728
了一批	-8729
产品和	-8730
以确保	-8731
建筑的	-8732
日报道	-8733
是由于	-8734
的温度	-8735
研究会	-8736
中国移动	-8737
临床试验	-8738
变得更加	-8739
接下来的	-8740
新兴产业	-8741
无人驾驶	-8742
生活中的	-8743
ux	-8744
下旬	-8745
佛陀	-8746
假设	-8747
华北	-8748
发售	-8749
外墙	-8750
多方	-8751
奋进	-8752
工匠	-8753
年和	-8754
战术	-8755
抱怨	-8756
持平	-8757
无可	-8758
晋级	-8759
果实	-8760
气味	-8761
畜牧	-8762
紧凑	-8763
胚胎	-8764
难免	-8765
作品的	-8766
同时还	-8767
因此在	-8768
应用的	-8769
建成后	-8770
总资产	-8771
所说的	-8772
摩托车	-8773
政策和	-8774
的意义	-8775
结束了	-8776
共产党员	-8777
市场营销	-8778
经营管理	-8779
工业和信息化	-8780
HD	-8781
下设	-8782
乔治	-8783
偶尔	-8784
全场	-8785
出土	-8786
华的	-8787
口岸	-8788
否认	-8789
品味	-8790
喜悦	-8791
塑胶	-8792
天使	-8793
存放	-8794
当选	-8795
必备	-8796
报讯	-8797
早就	-8798
曝气	-8799
狮子	-8800
现行	-8801
看待	-8802
着眼	-8803
粉尘	-8804
经开	-8805
结局	-8806
羽毛	-8807
耐热	-8808
轻轻	-8809
过硬	-8810
一般在	-8811
准考证	-8812
如果有	-8813
满意度	-8814
等内容	-8815
结构性	-8816
被执行	-8817
辅导员	-8818
音乐会	-8819
不一样的	-8820
总部位于	-8821
有很大的	-8822
竞争力的	-8823
职业道德	-8824
一共	-8825
从高	-8826
务工	-8827
发光	-8828
吸管	-8829
填补	-8830
宪法	-8831
弟弟	-8832
恐怕	-8833
抗震	-8834
料的	-8835
本校	-8836
杆菌	-8837
活塞	-8838
短板	-8839
精致	-8840
至此	-8841
说到	-8842
轮机	-8843
过往	-8844
速率	-8845
雨水	-8846
高出	-8847
ork	-8848
了解了	-8849
医学会	-8850
和建议	-8851
在网上	-8852
完成的	-8853
市中心	-8854
的美好	-8855
第二届	-8856
等症状	-8857
获得的	-8858
高强度	-8859
了解更多	-8860
对自己的	-8861
成为中国	-8862
工作领导小组	-8863
不时	-8864
丰田	-8865
余项	-8866
党风	-8867
减弱	-8868
勇士	-8869
好奇	-8870
就可	-8871
打工	-8872
摄氏	-8873
斯基	-8874
本月	-8875
治安	-8876
王子	-8877
网膜	-8878
联手	-8879
肠胃	-8880
要点	-8881
角落	-8882
评议	-8883
车企	-8884
难点	-8885
▁活动	-8886
也开始	-8887
供给侧	-8888
完成后	-8889
必不可	-8890
正规的	-8891
的意见	-8892
系统和	-8893
艺术的	-8894
▁为什么	-8895
每个人的	-8896
脱颖而出	-8897
发展改革委	-8898
HO	-8899
之年	-8900
到期	-8901
动症	-8902
可供	-8903
同仁	-8904
年是	-8905
录音	-8906
很小	-8907
打进	-8908
提倡	-8909
支配	-8910
收窄	-8911
真心	-8912
网球	-8913
转为	-8914
与国际	-8915
公元前	-8916
分之一	-8917
副部长	-8918
十年代	-8919
在国家	-8920
本专业	-8921
汽车的	-8922
精神和	-8923
老师们	-8924
脂肪酸	-8925
还是要	-8926
为一体的	-8927
开工建设	-8928
上汽	-8929
中场	-8930
你在	-8931
保守	-8932
出道	-8933
包裹	-8934
土木	-8935
总计	-8936
或不	-8937
无穷	-8938
本周	-8939
某一	-8940
汉族	-8941
泰山	-8942
的原	-8943
督查	-8944
过高	-8945
��	-8946
参与者	-8947
巴塞罗	-8948
抗氧化	-8949
甘肃省	-8950
站下车	-8951
纳税人	-8952
者优先	-8953
被告人	-8954
过滤器	-8955
选择的	-8956
严格执行	-8957
作为一种	-8958
职业院校	-8959
具有一定的	-8960
ES	-8961
nt	-8962
不已	-8963
中方	-8964
之乡	-8965
也曾	-8966
决议	-8967
区和	-8968
名额	-8969
在建	-8970
地亚	-8971
少吃	-8972
居然	-8973
展厅	-8974
染色	-8975
步入	-8976
烟花	-8977
独具	-8978
眼科	-8979
祭祀	-8980
聘任	-8981
脆弱	-8982
诊治	-8983
迫切	-8984
陈述	-8985
面板	-8986
act	-8987
下面就	-8988
与我们	-8989
也是一	-8990
保持在	-8991
全覆盖	-8992
医院的	-8993
命名为	-8994
心中的	-8995
意义的	-8996
所以说	-8997
涉及到	-8998
规模的	-8999
长期的	-9000
我们应该	-9001
食品药品	-9002
进一步完善	-9003
LO	-9004
TP	-9005
▁海	-9006
三天	-9007
于此	-9008
作曲	-9009
兼顾	-9010
名师	-9011
品尝	-9012
就此	-9013
很久	-9014
愉快	-9015
择优	-9016
救护	-9017
无害	-9018
最小	-9019
沙特	-9020
火星	-9021
灾区	-9022
瓶颈	-9023
相遇	-9024
自贸	-9025
薄弱	-9026
走势	-9027
辛勤	-9028
首创	-9029
”——	-9030
▁还有	-9031
与服务	-9032
也可能	-9033
保温管	-9034
开放的	-9035
指的是	-9036
这件事	-9037
公共交通	-9038
心理健康	-9039
科研成果	-9040
积极开展	-9041
DC	-9042
主打	-9043
儿女	-9044
全会	-9045
公历	-9046
写道	-9047
升降	-9048
南山	-9049
央行	-9050
孕育	-9051
宁静	-9052
师德	-9053
急需	-9054
改正	-9055
新车	-9056
更改	-9057
村的	-9058
深耕	-9059
演练	-9060
田径	-9061
稀释	-9062
而被	-9063
膳食	-9064
节气	-9065
萎缩	-9066
表决	-9067
首选	-9068
▁广州	-9069
为契机	-9070
产品有	-9071
加大对	-9072
合伙人	-9073
找不到	-9074
的功效	-9075
矿物质	-9076
等服务	-9077
什么时候	-9078
医疗服务	-9079
成为一个	-9080
政府部门	-9081
相关规定	-9082
ivers	-9083
%）	-9084
一来	-9085
不懂	-9086
不明	-9087
之作	-9088
二者	-9089
命题	-9090
四是	-9091
奶奶	-9092
对他	-9093
引用	-9094
海峡	-9095
运送	-9096
风采	-9097
end	-9098
为社会	-9099
分布式	-9100
多样化	-9101
的经验	-9102
的设备	-9103
英格兰	-9104
规模化	-9105
产业集群	-9106
关键技术	-9107
实现营业收入	-9108
IO	-9109
~~	-9110
▁吴	-9111
一时	-9112
不一	-9113
众人	-9114
冲洗	-9115
凭证	-9116
化疗	-9117
医保	-9118
各行	-9119
微波	-9120
替补	-9121
欲望	-9122
法庭	-9123
破裂	-9124
糟糕	-9125
缺失	-9126
质检	-9127
运算	-9128
首尔	-9129
不稳定	-9130
与合作	-9131
公司与	-9132
和文化	-9133
工作站	-9134
最后的	-9135
理论和	-9136
的方向	-9137
第一家	-9138
广泛应用	-9139
研究发现	-9140
人大常委会	-9141
发展有限公司	-9142
Bl	-9143
ah	-9144
一汽	-9145
一身	-9146
壁画	-9147
头脑	-9148
对称	-9149
度高	-9150
开办	-9151
开支	-9152
感慨	-9153
愤怒	-9154
战的	-9155
所述	-9156
拯救	-9157
收支	-9158
改建	-9159
政法	-9160
文本	-9161
月在	-9162
柏林	-9163
桂园	-9164
海水	-9165
的山	-9166
笑容	-9167
管线	-9168
约占	-9169
行使	-9170
酸性	-9171
防爆	-9172
SCI	-9173
▁一般	-9174
▁如何	-9175
主要由	-9176
制成的	-9177
原有的	-9178
发展到	-9179
在那里	-9180
感觉到	-9181
是没有	-9182
的事实	-9183
的趋势	-9184
省部级	-9185
知识的	-9186
这句话	-9187
锦标赛	-9188
▁据介绍	-9189
很大程度上	-9190
供暖	-9191
四周	-9192
安慰	-9193
平行	-9194
找出	-9195
抽查	-9196
故乡	-9197
有意	-9198
楼宇	-9199
汉语	-9200
矿物	-9201
移送	-9202
管辖	-9203
自在	-9204
致敬	-9205
街头	-9206
贯通	-9207
越好	-9208
院所	-9209
▁香港	-9210
万千瓦	-9211
内心的	-9212
创建于	-9213
加入了	-9214
同一个	-9215
威尼斯	-9216
开发者	-9217
支球队	-9218
有必要	-9219
特有的	-9220
万元以上	-9221
投入使用	-9222
新冠疫情	-9223
最大限度	-9224
现代化的	-9225
纷纷表示	-9226
Wh	-9227
一律	-9228
一本	-9229
主帅	-9230
他就	-9231
何时	-9232
光泽	-9233
公约	-9234
公认	-9235
剂量	-9236
南海	-9237
名叫	-9238
器和	-9239
国道	-9240
基准	-9241
姐姐	-9242
尽早	-9243
忙碌	-9244
恐龙	-9245
收视	-9246
敦煌	-9247
整洁	-9248
更要	-9249
汽油	-9250
演技	-9251
的路	-9252
监狱	-9253
起伏	-9254
起源	-9255
轻型	-9256
迁移	-9257
ier	-9258
▁这一	-9259
万欧元	-9260
两个人	-9261
分布在	-9262
又一次	-9263
的自然	-9264
的高速	-9265
等诸多	-9266
网站上	-9267
辽宁省	-9268
驾驶员	-9269
优惠政策	-9270
具有重要	-9271
广泛用于	-9272
管理中心	-9273
▁/	-9274
与人	-9275
严厉	-9276
中期	-9277
中铁	-9278
产地	-9279
从严	-9280
他和	-9281
优于	-9282
但其	-9283
借贷	-9284
倾斜	-9285
几次	-9286
北海	-9287
唱片	-9288
士兵	-9289
排队	-9290
机票	-9291
甲级	-9292
监局	-9293
稿件	-9294
表格	-9295
谈论	-9296
进军	-9297
▁随后	-9298
两个月	-9299
半小时	-9300
卫生部	-9301
可以将	-9302
数量的	-9303
时间里	-9304
犯罪的	-9305
电动机	-9306
知名的	-9307
离退休	-9308
空气中	-9309
等专业	-9310
等形式	-9311
等项目	-9312
精彩的	-9313
设立了	-9314
不可或缺	-9315
全产业链	-9316
县级以上	-9317
学前教育	-9318
实践活动	-9319
将进一步	-9320
报告显示	-9321
相关专业	-9322
范围内的	-9323
会场	-9324
内膜	-9325
军工	-9326
农机	-9327
劳工	-9328
化物	-9329
听力	-9330
多达	-9331
对口	-9332
峰会	-9333
布莱	-9334
年报	-9335
想像	-9336
扣除	-9337
执教	-9338
故宫	-9339
最美	-9340
月球	-9341
服从	-9342
机身	-9343
水务	-9344
水泵	-9345
深处	-9346
火爆	-9347
看得	-9348
童年	-9349
繁忙	-9350
评委	-9351
豆腐	-9352
进食	-9353
食材	-9354
；“	-9355
了自己	-9356
从而使	-9357
才能够	-9358
的努力	-9359
的心情	-9360
的说法	-9361
西安市	-9362
都非常	-9363
需要在	-9364
不断完善	-9365
公务用车	-9366
实施意见	-9367
已经开始	-9368
资料显示	-9369
Sh	-9370
下发	-9371
不愿	-9372
中和	-9373
人脸	-9374
动手	-9375
卡通	-9376
吃的	-9377
和非	-9378
并能	-9379
底部	-9380
换乘	-9381
浸泡	-9382
美景	-9383
连胜	-9384
金字	-9385
钢丝	-9386
▁山东	-9387
充分的	-9388
力支持	-9389
参与了	-9390
各行各	-9391
就这样	-9392
并且在	-9393
应聘者	-9394
旅行社	-9395
有人说	-9396
碧桂园	-9397
精神的	-9398
莫斯科	-9399
严重影响	-9400
巴塞罗那	-9401
这个时候	-9402
白癜风的治疗	-9403
粤港澳大湾区	-9404
▁等	-9405
不妨	-9406
两项	-9407
主观	-9408
供需	-9409
判处	-9410
到大	-9411
实名	-9412
展区	-9413
底蕴	-9414
念诵	-9415
放下	-9416
时常	-9417
术后	-9418
格外	-9419
次于	-9420
沉积	-9421
牵引	-9422
王某	-9423
痕迹	-9424
称赞	-9425
素材	-9426
胎儿	-9427
跨界	-9428
这与	-9429
金奖	-9430
金的	-9431
和完善	-9432
和治疗	-9433
处理的	-9434
强度高	-9435
感染者	-9436
是一部	-9437
的行业	-9438
等信息	-9439
纪录片	-9440
给予了	-9441
自然的	-9442
人大代表	-9443
公共预算	-9444
医学观察	-9445
是世界上	-9446
注册资金	-9447
深度融合	-9448
短时间内	-9449
药物治疗	-9450
工业互联网	-9451
ml	-9452
一九	-9453
保卫	-9454
南通	-9455
卫健	-9456
天后	-9457
带宽	-9458
帮忙	-9459
年第	-9460
戏曲	-9461
旺盛	-9462
王国	-9463
纲要	-9464
组装	-9465
而生	-9466
联轴	-9467
能让	-9468
落在	-9469
警示	-9470
输卵	-9471
过大	-9472
音响	-9473
▁至于	-9474
▁项目	-9475
和安全	-9476
和相关	-9477
性能好	-9478
昆明市	-9479
等多项	-9480
试验区	-9481
还包括	-9482
酒店的	-9483
以上学历	-9484
客户需求	-9485
希望通过	-9486
BR	-9487
PR	-9488
SM	-9489
cn	-9490
两地	-9491
之余	-9492
交汇	-9493
伦理	-9494
你是	-9495
共青	-9496
冬奥	-9497
分销	-9498
券商	-9499
占用	-9500
在前	-9501
大类	-9502
安心	-9503
完备	-9504
密的	-9505
总站	-9506
攀升	-9507
早晨	-9508
花生	-9509
药剂	-9510
诗词	-9511
▁位于	-9512
▁这种	-9513
占有率	-9514
大家在	-9515
安全和	-9516
有的人	-9517
特点是	-9518
的性能	-9519
短视频	-9520
股东的	-9521
获得者	-9522
内容包括	-9523
HT	-9524
▁全	-9525
务必	-9526
北路	-9527
和不	-9528
四种	-9529
土工	-9530
女神	-9531
很长	-9532
慈悲	-9533
战役	-9534
挪威	-9535
教训	-9536
时长	-9537
朝着	-9538
流体	-9539
满满	-9540
澎湃	-9541
灯会	-9542
的非	-9543
粘度	-9544
莱坞	-9545
迎战	-9546
阿森	-9547
降水	-9548
颠覆	-9549
鼓舞	-9550
▁Al	-9551
与社会	-9552
他们对	-9553
只不过	-9554
打电话	-9555
时间长	-9556
脑血管	-9557
视网膜	-9558
银行业	-9559
税务总局	-9560
黑色素细胞	-9561
三人	-9562
下调	-9563
创下	-9564
台上	-9565
固化	-9566
始于	-9567
客厅	-9568
急救	-9569
托管	-9570
拘留	-9571
旁边	-9572
死了	-9573
留意	-9574
看完	-9575
简直	-9576
精美	-9577
精选	-9578
聚会	-9579
花的	-9580
近代	-9581
选项	-9582
配有	-9583
重工	-9584
问责	-9585
ohn	-9586
。”“	-9587
先生的	-9588
十九大	-9589
叙利亚	-9590
基本的	-9591
工作和	-9592
已经被	-9593
指挥部	-9594
的销售	-9595
等国家	-9596
腐蚀性	-9597
里面的	-9598
也是一个	-9599
光伏发电	-9600
招生计划	-9601
生产能力	-9602
突出贡献	-9603
存在的问题	-9604
总建筑面积	-9605
经济发展的	-9606
IA	-9607
VD	-9608
一面	-9609
万多	-9610
下达	-9611
不怕	-9612
体能	-9613
出游	-9614
分红	-9615
到低	-9616
刹车	-9617
品德	-9618
品类	-9619
回国	-9620
团员	-9621
圣诞	-9622
在与	-9623
外表	-9624
巧妙	-9625
年会	-9626
开门	-9627
得上	-9628
手指	-9629
掀起	-9630
摆放	-9631
日趋	-9632
期满	-9633
查找	-9634
橄榄	-9635
泉州	-9636
源自	-9637
生机	-9638
石材	-9639
而上	-9640
跑步	-9641
路的	-9642
迈进	-9643
酸钙	-9644
ern	-9645
与应用	-9646
中国家	-9647
众多的	-9648
克里斯	-9649
在进行	-9650
在香港	-9651
将持续	-9652
应有的	-9653
标准和	-9654
氧化物	-9655
特别的	-9656
独立的	-9657
第一款	-9658
聚合物	-9659
输卵管	-9660
都是一	-9661
于一体的	-9662
决策部署	-9663
绿色环保	-9664
航空航天	-9665
具有较强的	-9666
PA	-9667
一夜	-9668
不佳	-9669
乒乓	-9670
你就	-9671
回去	-9672
增效	-9673
外卖	-9674
媒介	-9675
实的	-9676
当我	-9677
必定	-9678
最长	-9679
杜绝	-9680
浓缩	-9681
烟台	-9682
热心	-9683
行人	-9684
警惕	-9685
连结	-9686
部落	-9687
酸碱	-9688
）”	-9689
▁此前	-9690
保护区	-9691
办公楼	-9692
大面积	-9693
存在于	-9694
族自治	-9695
看到的	-9696
要及时	-9697
马德里	-9698
历史悠久	-9699
垃圾分类	-9700
是一家集	-9701
自主创新	-9702
这些问题	-9703
行业的发展	-9704
Galaxy	-9705
行政主管部门	-9706
Ad	-9707
ld	-9708
ui	-9709
三家	-9710
不堪	-9711
世代	-9712
世间	-9713
但它	-9714
低价	-9715
克尔	-9716
制订	-9717
各县	-9718
地利	-9719
外援	-9720
少了	-9721
尴尬	-9722
层层	-9723
州区	-9724
快船	-9725
投身	-9726
护照	-9727
改性	-9728
时有	-9729
普惠	-9730
月饼	-9731
王朝	-9732
甲状	-9733
的内	-9734
监事	-9735
能效	-9736
行情	-9737
西甲	-9738
逆转	-9739
阻力	-9740
ert	-9741
——“	-9742
▁第五	-9743
其主要	-9744
创业者	-9745
可靠的	-9746
宁波市	-9747
对企业	-9748
年全球	-9749
感染的	-9750
我们有	-9751
挖掘机	-9752
给他们	-9753
背后的	-9754
销售的	-9755
不仅如此	-9756
净利润为	-9757
学士学位	-9758
教育事业	-9759
有所帮助	-9760
第二季度	-9761
还有一个	-9762
三项	-9763
个多	-9764
先天	-9765
入手	-9766
冷静	-9767
却不	-9768
名家	-9769
场均	-9770
外汇	-9771
女排	-9772
尔德	-9773
山脉	-9774
悬挂	-9775
扬州	-9776
拿着	-9777
接地	-9778
改良	-9779
歌词	-9780
汇率	-9781
没能	-9782
灌溉	-9783
牡丹	-9784
赠送	-9785
转动	-9786
鲁迅	-9787
Mic	-9788
▁例如	-9789
不仅要	-9790
仅次于	-9791
冷凝器	-9792
发电机	-9793
召开了	-9794
并进行	-9795
建立起	-9796
开发商	-9797
是美国	-9798
氧化铝	-9799
目前在	-9800
经营的	-9801
能不能	-9802
该如何	-9803
这样做	-9804
金额为	-9805
零售额	-9806
高标准	-9807
▁我们的	-9808
丰富多彩	-9809
工作会议	-9810
无缝钢管	-9811
计划生育	-9812
通知如下	-9813
TF	-9814
▁无	-9815
专案	-9816
九龙	-9817
买家	-9818
光荣	-9819
华润	-9820
又要	-9821
在上	-9822
坚固	-9823
大米	-9824
寓意	-9825
寻常	-9826
将由	-9827
延迟	-9828
快三	-9829
手游	-9830
校外	-9831
毗邻	-9832
汉字	-9833
田园	-9834
略有	-9835
相传	-9836
租车	-9837
秸秆	-9838
花了	-9839
获胜	-9840
薪酬	-9841
造就	-9842
部委	-9843
韧性	-9844
Mar	-9845
▁对此	-9846
各自的	-9847
和创新	-9848
太多的	-9849
推动了	-9850
新模式	-9851
本办法	-9852
极大地	-9853
笔记本	-9854
经济体	-9855
非常好	-9856
亿千瓦时	-9857
复合材料	-9858
密切接触	-9859
私募基金	-9860
行政机关	-9861
今年上半年	-9862
三国	-9863
乘车	-9864
从不	-9865
以赴	-9866
兼容	-9867
古镇	-9868
坦言	-9869
基数	-9870
实效	-9871
宣告	-9872
山大	-9873
所致	-9874
手动	-9875
支架	-9876
本案	-9877
模板	-9878
水产	-9879
油田	-9880
湖泊	-9881
湿润	-9882
短缺	-9883
破解	-9884
社科	-9885
福特	-9886
维亚	-9887
肝脏	-9888
表情	-9889
要比	-9890
调理	-9891
谈话	-9892
转发	-9893
酒庄	-9894
雷锋	-9895
顺应	-9896
风云	-9897
产学研	-9898
人们在	-9899
代表着	-9900
半决赛	-9901
技术及	-9902
摄像头	-9903
有多少	-9904
本单位	-9905
济南市	-9906
游戏的	-9907
科技部	-9908
纯电动	-9909
综合征	-9910
党风廉政	-9911
制造企业	-9912
可能导致	-9913
技术应用	-9914
有害物质	-9915
正在进行	-9916
管理条例	-9917
财政拨款	-9918
固定资产投资	-9919
Cr	-9920
az	-9921
pe	-9922
▁因	-9923
▁长	-9924
▁）	-9925
一届	-9926
产教	-9927
兴建	-9928
单片	-9929
县的	-9930
受灾	-9931
大同	-9932
天猫	-9933
子和	-9934
学问	-9935
并可	-9936
庞大	-9937
或有	-9938
数值	-9939
是你	-9940
武装	-9941
生源	-9942
电量	-9943
病学	-9944
穿过	-9945
红利	-9946
织物	-9947
终结	-9948
绿豆	-9949
行李	-9950
见习	-9951
间隔	-9952
除去	-9953
香气	-9954
高新	-9955
age	-9956
不喜欢	-9957
主办方	-9958
人民网	-9959
并获得	-9960
朋友圈	-9961
本身的	-9962
的一面	-9963
这时候	-9964
为代表的	-9965
年的发展	-9966
建筑施工	-9967
情况进行	-9968
联系电话	-9969
退役军人	-9970
高等院校	-9971
FC	-9972
▁–	-9973
▁林	-9974
一处	-9975
业余	-9976
东路	-9977
事先	-9978
大兴	-9979
好事	-9980
巡查	-9981
庭院	-9982
愉悦	-9983
我说	-9984
所示	-9985
是集	-9986
村里	-9987
比起	-9988
汇集	-9989
沉浸	-9990
浪潮	-9991
清热	-9992
灵敏	-9993
空军	-9994
网易	-9995
背面	-9996
营商	-9997
路易	-9998
边境	-9999
这名	-10000
阳县	-10001
一般为	-10002
催化剂	-10003
和产品	-10004
家庭的	-10005
得到的	-10006
战略性	-10007
无疑是	-10008
机构和	-10009
正处于	-10010
特定的	-10011
第一位	-10012
网络的	-10013
临床医学	-10014
先进水平	-10015
全力以赴	-10016
发生变化	-10017
可以选择	-10018
投标文件	-10019
还有很多	-10020
有限公司成立于	-10021
▁图	-10022
一分	-10023
下方	-10024
了吗	-10025
以致	-10026
会让	-10027
全天	-10028
内置	-10029
初审	-10030
又名	-10031
哪儿	-10032
威廉	-10033
季后	-10034
富力	-10035
当局	-10036
抓紧	-10037
拉伸	-10038
排气	-10039
接连	-10040
棋牌	-10041
淋巴	-10042
科幻	-10043
红旗	-10044
考评	-10045
落到	-10046
达尔	-10047
量子	-10048
铺设	-10049
骨骼	-10050
ink	-10051
▁Pl	-10052
▁一是	-10053
价格为	-10054
但如果	-10055
使用时	-10056
区域内	-10057
十一条	-10058
在世界	-10059
很高兴	-10060
日凌晨	-10061
有两个	-10062
的保护	-10063
的关注	-10064
的资金	-10065
给孩子	-10066
介绍一下	-10067
全面发展	-10068
哥伦比亚	-10069
对外开放	-10070
文化交流	-10071
生物医药	-10072
目前为止	-10073
经营范围	-10074
被认为是	-10075
重点项目	-10076
人民检察院	-10077
住房公积金	-10078
▁Nokia	-10079
一般公共预算	-10080
离子聚丙烯酰胺	-10081
PD	-10082
du	-10083
上来	-10084
之人	-10085
之星	-10086
代言	-10087
俗称	-10088
停留	-10089
兵团	-10090
写字	-10091
刊物	-10092
厉害	-10093
哪怕	-10094
尊敬	-10095
开出	-10096
恶意	-10097
按钮	-10098
擅自	-10099
敬请	-10100
暑假	-10101
泉水	-10102
灯具	-10103
用在	-10104
的后	-10105
的白	-10106
直升	-10107
耐火	-10108
茅台	-10109
车载	-10110
迅猛	-10111
造血	-10112
遍及	-10113
雷诺	-10114
und	-10115
以满足	-10116
关节炎	-10117
商用车	-10118
在工作	-10119
小时内	-10120
有不少	-10121
热处理	-10122
经典的	-10123
经开区	-10124
联轴器	-10125
过去了	-10126
这么多	-10127
市场主体	-10128
第四季度	-10129
经济技术	-10130
之间的关系	-10131
ational	-10132
af	-10133
▁多	-10134
▁每	-10135
一幅	-10136
之情	-10137
了他	-10138
伊斯	-10139
保有	-10140
加之	-10141
北极	-10142
千里	-10143
单项	-10144
商机	-10145
奢侈	-10146
屏障	-10147
干事	-10148
应有	-10149
得名	-10150
性与	-10151
普洱	-10152
月起	-10153
期盼	-10154
测评	-10155
深远	-10156
火山	-10157
直线	-10158
穿戴	-10159
管家	-10160
艰辛	-10161
莲花	-10162
赛的	-10163
这张	-10164
▁世界	-10165
▁未来	-10166
产品在	-10167
到现在	-10168
同时在	-10169
因为我	-10170
应注意	-10171
收入的	-10172
然后再	-10173
珠三角	-10174
电影节	-10175
经济和	-10176
被视为	-10177
回收利用	-10178
技术中心	-10179
是我们的	-10180
生态系统	-10181
第三季度	-10182
部分地区	-10183
工作的通知	-10184
EE	-10185
IB	-10186
一举	-10187
一番	-10188
一类	-10189
与时	-10190
之战	-10191
事后	-10192
借此	-10193
全线	-10194
农田	-10195
冶炼	-10196
切除	-10197
刷新	-10198
古人	-10199
复审	-10200
大卫	-10201
客流	-10202
探究	-10203
推向	-10204
文创	-10205
晚期	-10206
特质	-10207
结核	-10208
而后	-10209
西门	-10210
要做	-10211
选取	-10212
酸钠	-10213
非凡	-10214
ial	-10215
ite	-10216
min	-10217
old	-10218
”。“	-10219
▁Un	-10220
也表示	-10221
你知道	-10222
几年来	-10223
双眼皮	-10224
在他的	-10225
在这些	-10226
大会上	-10227
女性的	-10228
对公司	-10229
意识和	-10230
据统计	-10231
支付宝	-10232
烘干机	-10233
的一份	-10234
相色谱	-10235
规划和	-10236
集团在	-10237
中国国际	-10238
可以直接	-10239
结合起来	-10240
GO	-10241
▁若	-10242
一千	-10243
减退	-10244
吃了	-10245
处女	-10246
子孙	-10247
岛屿	-10248
庄严	-10249
忘了	-10250
日产	-10251
时要	-10252
清代	-10253
特区	-10254
硬质	-10255
空运	-10256
纵横	-10257
绽放	-10258
网红	-10259
肉类	-10260
脾胃	-10261
衰退	-10262
规程	-10263
进来	-10264
量和	-10265
非遗	-10266
马斯	-10267
高潮	-10268
ler	-10269
▁当前	-10270
中西医	-10271
了一条	-10272
总产值	-10273
比特币	-10274
的重大	-10275
管理等	-10276
高层次	-10277
先进集体	-10278
发展方向	-10279
积极探索	-10280
自主知识产权	-10281
PG	-10282
▁n	-10283
▁罗	-10284
一声	-10285
世的	-10286
两会	-10287
之意	-10288
们在	-10289
切尔	-10290
大局	-10291
实物	-10292
建华	-10293
技师	-10294
挫折	-10295
揭示	-10296
日均	-10297
楼梯	-10298
流入	-10299
港元	-10300
灰尘	-10301
站的	-10302
自闭	-10303
让您	-10304
贴近	-10305
进化	-10306
酒吧	-10307
防锈	-10308
oft	-10309
ost	-10310
rom	-10311
▁来自	-10312
万公里	-10313
公司以	-10314
其他人	-10315
发生后	-10316
新华社	-10317
服务等	-10318
申请表	-10319
第一名	-10320
而且还	-10321
遇到了	-10322
项目部	-10323
会展中心	-10324
保险公司	-10325
因为他们	-10326
建筑装饰	-10327
我们必须	-10328
文化创意	-10329
疾病预防	-10330
直接影响	-10331
考试成绩	-10332
被执行人	-10333
高职院校	-10334
中国共产党	-10335
管理有限公司	-10336
Wi	-10337
pH	-10338
▁双	-10339
▁朱	-10340
。）	-10341
为之	-10342
了几	-10343
伤口	-10344
初始	-10345
南非	-10346
名录	-10347
周六	-10348
开朗	-10349
归属	-10350
征地	-10351
总分	-10352
才华	-10353
无私	-10354
沙发	-10355
沥青	-10356
治好	-10357
洗手	-10358
特拉	-10359
玉石	-10360
甲苯	-10361
病原	-10362
瞄准	-10363
经文	-10364
编译	-10365
美学	-10366
设在	-10367
踊跃	-10368
间断	-10369
难忘	-10370
额外	-10371
马力	-10372
骁龙	-10373
ett	-10374
▁重庆	-10375
下降了	-10376
了一次	-10377
人员在	-10378
做到了	-10379
刺激性	-10380
反映了	-10381
发展中	-10382
变速箱	-10383
想不到	-10384
我们都	-10385
技术在	-10386
的权利	-10387
的模式	-10388
空间的	-10389
系列的	-10390
综合体	-10391
而且在	-10392
而来的	-10393
设立的	-10394
ment	-10395
olog	-10396
互联互通	-10397
学术交流	-10398
继续教育	-10399
博士生导师	-10400
MO	-10401
▁g	-10402
下行	-10403
二的	-10404
佛法	-10405
做人	-10406
剩下	-10407
北大	-10408
叠加	-10409
名词	-10410
定律	-10411
小龙	-10412
巴斯	-10413
悲伤	-10414
战国	-10415
执着	-10416
抖音	-10417
日军	-10418
村镇	-10419
构筑	-10420
渔业	-10421
点燃	-10422
起草	-10423
车身	-10424
运载	-10425
造船	-10426
随便	-10427
随即	-10428
麻醉	-10429
▁专家	-10430
化管理	-10431
打破了	-10432
报告中	-10433
效果好	-10434
的收入	-10435
的旅游	-10436
的理解	-10437
短期内	-10438
聚四氟	-10439
不断增加	-10440
可以使用	-10441
境外输入	-10442
气候变化	-10443
生产设备	-10444
互联网金融	-10445
PH	-10446
▁于	-10447
下称	-10448
云端	-10449
光照	-10450
华经	-10451
君子	-10452
城管	-10453
太极	-10454
字体	-10455
官兵	-10456
尤文	-10457
展位	-10458
带的	-10459
开阔	-10460
当成	-10461
我司	-10462
打赢	-10463
批量	-10464
抓手	-10465
无一	-10466
智库	-10467
独自	-10468
电台	-10469
的他	-10470
维尔	-10471
萨斯	-10472
迈向	-10473
门的	-10474
不论是	-10475
创造出	-10476
和专业	-10477
因为在	-10478
团队的	-10479
我希望	-10480
报道称	-10481
水中的	-10482
深厚的	-10483
看上去	-10484
类似的	-10485
设置了	-10486
里程碑	-10487
附加值	-10488
非常有	-10489
用自己的	-10490
网上报名	-10491
至关重要	-10492
万里	-10493
不下	-10494
为先	-10495
书店	-10496
侦查	-10497
停产	-10498
农家	-10499
十佳	-10500
厂区	-10501
只好	-10502
商户	-10503
嘉兴	-10504
塔尔	-10505
声器	-10506
太子	-10507
往年	-10508
拉萨	-10509
明代	-10510
榜首	-10511
涂装	-10512
爱尔	-10513
率领	-10514
玩耍	-10515
答题	-10516
能使	-10517
苦难	-10518
蓝牙	-10519
说了	-10520
陈列	-10521
颈部	-10522
题为	-10523
饲养	-10524
主要为	-10525
二维码	-10526
克斯坦	-10527
出台了	-10528
和他的	-10529
我们是	-10530
期间的	-10531
杭州市	-10532
的条件	-10533
第三次	-10534
网站的	-10535
一个人的	-10536
劳务派遣	-10537
医务人员	-10538
建设单位	-10539
心理咨询	-10540
深入开展	-10541
获得国家	-10542
财务管理	-10543
高级职称	-10544
产品和服务	-10545
委员会委员	-10546
iversity	-10547
AB	-10548
CN	-10549
LG	-10550
▁&	-10551
不胜	-10552
世人	-10553
个县	-10554
二代	-10555
保税	-10556
咱们	-10557
学籍	-10558
定时	-10559
放假	-10560
时速	-10561
机房	-10562
档次	-10563
检修	-10564
测算	-10565
特长	-10566
率高	-10567
留守	-10568
白皮	-10569
的单	-10570
祝愿	-10571
耐久	-10572
自有	-10573
讲师	-10574
赞美	-10575
超大	-10576
迹象	-10577
那一	-10578
除非	-10579
骑行	-10580
▁成都	-10581
▁这次	-10582
一定是	-10583
乌克兰	-10584
会不会	-10585
住房和	-10586
候选人	-10587
吉林省	-10588
喜爱的	-10589
型人才	-10590
多样的	-10591
家公司	-10592
小时的	-10593
局局长	-10594
很好地	-10595
正能量	-10596
理论与	-10597
的压力	-10598
的未来	-10599
都是在	-10600
信息安全	-10601
同比分别	-10602
商业秘密	-10603
在生活中	-10604
大学英语	-10605
工艺美术	-10606
建筑材料	-10607
现代农业	-10608
行业标准	-10609
领先地位	-10610
oT	-10611
一首	-10612
三亚	-10613
不息	-10614
中考	-10615
全美	-10616
典雅	-10617
处长	-10618
大海	-10619
奖杯	-10620
女生	-10621
安德	-10622
对症	-10623
已是	-10624
平整	-10625
摄取	-10626
步道	-10627
气动	-10628
油烟	-10629
注定	-10630
电镀	-10631
看过	-10632
细化	-10633
老公	-10634
角逐	-10635
议员	-10636
赛区	-10637
赞誉	-10638
运维	-10639
颜料	-10640
鲜艳	-10641
ote	-10642
为他们	-10643
全国的	-10644
公司和	-10645
创作的	-10646
和学生	-10647
国内的	-10648
宝贵的	-10649
并不能	-10650
开启了	-10651
打造的	-10652
水电站	-10653
独一无	-10654
乡村旅游	-10655
交通事故	-10656
先进技术	-10657
全体员工	-10658
出席会议	-10659
研究机构	-10660
积极推进	-10661
课堂教学	-10662
防灾减灾	-10663
党支部书记	-10664
市人民政府	-10665
新闻发布会	-10666
ai	-10667
▁w	-10668
不绝	-10669
举例	-10670
交界	-10671
克力	-10672
克拉	-10673
克的	-10674
出战	-10675
出身	-10676
动机	-10677
华中	-10678
哈佛	-10679
并由	-10680
排序	-10681
接头	-10682
校内	-10683
桃花	-10684
水土	-10685
潜能	-10686
火炬	-10687
的神	-10688
皮革	-10689
芳香	-10690
议会	-10691
访谈	-10692
近平	-10693
采摘	-10694
飞速	-10695
驰名	-10696
骨髓	-10697
黑洞	-10698
ris	-10699
中国队	-10700
主演的	-10701
了不少	-10702
却没有	-10703
就不会	-10704
市场中	-10705
是一次	-10706
确定的	-10707
说明书	-10708
不得低于	-10709
从来没有	-10710
可以达到	-10711
家政服务	-10712
工业协会	-10713
技术支持	-10714
联系方式	-10715
虚拟现实	-10716
万科	-10717
三号	-10718
不让	-10719
也对	-10720
伯特	-10721
减持	-10722
剖析	-10723
口服	-10724
填充	-10725
婚礼	-10726
庭审	-10727
建国	-10728
得更	-10729
抢救	-10730
抵押	-10731
斯顿	-10732
歧视	-10733
氏体	-10734
法和	-10735
特效	-10736
狗狗	-10737
玉雕	-10738
环绕	-10739
红军	-10740
美味	-10741
讯息	-10742
购票	-10743
转入	-10744
铝板	-10745
领跑	-10746
IPO	-10747
中表示	-10748
也无法	-10749
以后的	-10750
优美的	-10751
体会到	-10752
助学金	-10753
病人的	-10754
的介绍	-10755
福州市	-10756
这两种	-10757
中央企业	-10758
产教融合	-10759
参加会议	-10760
技术水平	-10761
的时间内	-10762
购物中心	-10763
金融科技	-10764
空气净化器	-10765
)》	-10766
EV	-10767
FO	-10768
▁+	-10769
一组	-10770
交谈	-10771
佛罗	-10772
借由	-10773
分割	-10774
化肥	-10775
即是	-10776
奥林	-10777
巅峰	-10778
暗示	-10779
水箱	-10780
求精	-10781
油的	-10782
特许	-10783
知情	-10784
精华	-10785
赋能	-10786
重启	-10787
阳澄	-10788
难道	-10789
预定	-10790
erv	-10791
▁二是	-10792
▁使用	-10793
▁大家	-10794
上下游	-10795
习近平	-10796
仪式上	-10797
低成本	-10798
十四条	-10799
和美国	-10800
在校生	-10801
垃圾桶	-10802
情况的	-10803
无疑问	-10804
质量的	-10805
运动的	-10806
交通便利	-10807
告诉我们	-10808
实训基地	-10809
排放标准	-10810
教育工作	-10811
石油化工	-10812
系统集成	-10813
高速铁路	-10814
▁以上就是	-10815
业有限公司	-10816
的一个重要	-10817
DR	-10818
之都	-10819
乙醇	-10820
他会	-10821
会儿	-10822
体力	-10823
俱进	-10824
分化	-10825
切换	-10826
厨师	-10827
双重	-10828
增至	-10829
已久	-10830
庆典	-10831
彩灯	-10832
得主	-10833
微型	-10834
惊讶	-10835
成像	-10836
我局	-10837
或在	-10838
所说	-10839
描写	-10840
提琴	-10841
日照	-10842
星星	-10843
犹豫	-10844
粘合	-10845
胜地	-10846
腹泻	-10847
膜的	-10848
行列	-10849
裁决	-10850
贵族	-10851
起着	-10852
跳舞	-10853
载人	-10854
里皮	-10855
长效	-10856
震惊	-10857
预售	-10858
马尔	-10859
鲜花	-10860
一流的	-10861
为学生	-10862
元器件	-10863
分析和	-10864
可以使	-10865
将通过	-10866
新基建	-10867
月开始	-10868
消泡剂	-10869
电影的	-10870
调整为	-10871
资格证	-10872
铝型材	-10873
领导者	-10874
风格的	-10875
也是一种	-10876
分支机构	-10877
医疗保险	-10878
受欢迎的	-10879
工业大学	-10880
废气处理	-10881
很多人都	-10882
或者其他	-10883
理工学院	-10884
自由贸易	-10885
这些都是	-10886
交通运输部	-10887
基层党组织	-10888
PU	-10889
yn	-10890
▁东	-10891
中信	-10892
互利	-10893
亚特	-10894
做为	-10895
农林	-10896
协定	-10897
南美	-10898
变迁	-10899
回馈	-10900
团的	-10901
快手	-10902
急剧	-10903
意为	-10904
打包	-10905
提案	-10906
散文	-10907
新品	-10908
横向	-10909
江淮	-10910
渤海	-10911
玛丽	-10912
电极	-10913
画的	-10914
称作	-10915
粉碎	-10916
纯粹	-10917
缺席	-10918
肥料	-10919
航站	-10920
血脂	-10921
轻微	-10922
造福	-10923
重返	-10924
问卷	-10925
风吹	-10926
食欲	-10927
ond	-10928
上面的	-10929
不愿意	-10930
为宗旨	-10931
准确的	-10932
去年的	-10933
发电量	-10934
就必须	-10935
得不到	-10936
构成了	-10937
熟悉的	-10938
甲状腺	-10939
所带来的	-10940
推广应用	-10941
毫无疑问	-10942
科技企业	-10943
国家统计局	-10944
▁曾	-10945
上港	-10946
出厂	-10947
千元	-10948
厌氧	-10949
后台	-10950
周二	-10951
回避	-10952
外面	-10953
多久	-10954
天赋	-10955
实惠	-10956
局势	-10957
年华	-10958
感的	-10959
护航	-10960
有线	-10961
歌舞	-10962
生气	-10963
童话	-10964
美化	-10965
革新	-10966
---	-10967
ool	-10968
下面的	-10969
不适合	-10970
世纪的	-10971
中发现	-10972
人民的	-10973
共青团	-10974
和环境	-10975
好莱坞	-10976
导致了	-10977
很简单	-10978
情况和	-10979
接受了	-10980
标志性	-10981
行政区	-10982
都不会	-10983
一如既往	-10984
创新中心	-10985
千万不要	-10986
基金经理	-10987
校企合作	-10988
突发事件	-10989
融合发展	-10990
可持续发展的	-10991
);	-10992
▁i	-10993
▁②	-10994
专人	-10995
临近	-10996
交响	-10997
低调	-10998
党章	-10999
列表	-11000
吸取	-11001
园艺	-11002
在不	-11003
地在	-11004
天才	-11005
太太	-11006
央企	-11007
嫦娥	-11008
康熙	-11009
是与	-11010
爱护	-11011
疏松	-11012
眼中	-11013
立德	-11014
筹集	-11015
纸张	-11016
脚踏	-11017
自古	-11018
超标	-11019
邻近	-11020
里有	-11021
限定	-11022
面包	-11023
风湿	-11024
风的	-11025
专门的	-11026
出席了	-11027
区域的	-11028
召开的	-11029
娃哈哈	-11030
工程院	-11031
根本上	-11032
生产商	-11033
的一生	-11034
的想法	-11035
的话题	-11036
签订了	-11037
请联系	-11038
国际市场	-11039
小鹏汽车	-11040
研究报告	-11041
研究表明	-11042
颁奖典礼	-11043
饮食习惯	-11044
聚四氟乙烯	-11045
Co	-11046
▁h	-11047
▁个	-11048
八大	-11049
公职	-11050
南路	-11051
周四	-11052
外壳	-11053
安县	-11054
宜昌	-11055
工期	-11056
总共	-11057
抱着	-11058
收盘	-11059
无偿	-11060
最受	-11061
本片	-11062
潜艇	-11063
球星	-11064
盛大	-11065
相邻	-11066
碱性	-11067
素有	-11068
给出	-11069
花开	-11070
被害	-11071
诊所	-11072
赛程	-11073
趋于	-11074
部和	-11075
重卡	-11076
anc	-11077
▁工业	-11078
主要以	-11079
也不要	-11080
名学生	-11081
工作组	-11082
性能和	-11083
比例为	-11084
满意的	-11085
的危险	-11086
联系人	-11087
表达了	-11088
诺贝尔	-11089
阳澄湖	-11090
阿森纳	-11091
产品设计	-11092
招标代理	-11093
服务机构	-11094
神经系统	-11095
紧紧围绕	-11096
PO	-11097
三点	-11098
余篇	-11099
入侵	-11100
公式	-11101
剂和	-11102
发文	-11103
和他	-11104
外地	-11105
天线	-11106
年获	-11107
意甲	-11108
折扣	-11109
改制	-11110
放电	-11111
既能	-11112
最强	-11113
杀人	-11114
果汁	-11115
核桃	-11116
桂林	-11117
理科	-11118
男篮	-11119
维度	-11120
落下	-11121
血清	-11122
该国	-11123
走廊	-11124
远销	-11125
量身	-11126
链条	-11127
餐具	-11128
鼻炎	-11129
ron	-11130
ung	-11131
不利于	-11132
仍然是	-11133
使我们	-11134
副市长	-11135
南京市	-11136
在社会	-11137
建筑师	-11138
总数的	-11139
比利时	-11140
的做法	-11141
离开了	-11142
英特尔	-11143
试剂盒	-11144
中国电信	-11145
代表大会	-11146
准备工作	-11147
团队合作	-11148
子宫内膜	-11149
改革发展	-11150
社会组织	-11151
积极响应	-11152
结果显示	-11153
资格证书	-11154
跨境电商	-11155
高质量的	-11156
CS	-11157
SH	-11158
▁正	-11159
一口	-11160
不像	-11161
丝网	-11162
乙肝	-11163
亲属	-11164
使之	-11165
再现	-11166
冲动	-11167
减小	-11168
变换	-11169
均在	-11170
奋力	-11171
干旱	-11172
并被	-11173
序幕	-11174
异味	-11175
想着	-11176
抽象	-11177
整顿	-11178
方形	-11179
日渐	-11180
洋溢	-11181
电工	-11182
盆地	-11183
石英	-11184
自驾	-11185
葫芦	-11186
质地	-11187
辞职	-11188
遵义	-11189
限量	-11190
（[	-11191
下一代	-11192
为实现	-11193
使用权	-11194
其次是	-11195
可爱的	-11196
在家里	-11197
大家对	-11198
我知道	-11199
深加工	-11200
现阶段	-11201
的女性	-11202
的认识	-11203
直升机	-11204
等单位	-11205
等各类	-11206
ital	-11207
充分肯定	-11208
免疫系统	-11209
刑事责任	-11210
建设工作	-11211
暂行办法	-11212
科研院所	-11213
综合利用	-11214
绿色发展	-11215
前所未有的	-11216
中国特色社会主义	-11217
”！	-11218
一二	-11219
一手	-11220
一股	-11221
一贯	-11222
专属	-11223
中年	-11224
之力	-11225
乌鲁	-11226
也好	-11227
亦可	-11228
元旦	-11229
公办	-11230
几百	-11231
印制	-11232
历代	-11233
反击	-11234
名誉	-11235
吞吐	-11236
在高	-11237
履职	-11238
带队	-11239
廊坊	-11240
得好	-11241
或多	-11242
扎根	-11243
时效	-11244
是的	-11245
格尔	-11246
浩特	-11247
珠江	-11248
盛典	-11249
相差	-11250
知晓	-11251
老旧	-11252
胶合	-11253
获利	-11254
说不	-11255
说起	-11256
ach	-11257
中心和	-11258
中的一	-11259
其中有	-11260
分享了	-11261
岁以下	-11262
是一座	-11263
有针对	-11264
材料和	-11265
来实现	-11266
的游客	-11267
研究与	-11268
这不是	-11269
隶属于	-11270
▁Sch	-11271
产品研发	-11272
亿美元的	-11273
力量雄厚	-11274
报告期内	-11275
数据分析	-11276
湿地公园	-11277
由此可见	-11278
精准扶贫	-11279
绝大部分	-11280
配套设施	-11281
需要注意	-11282
产业发展的	-11283
产业的发展	-11284
各种各样的	-11285
住房城乡建设	-11286
国家自然科学基金	-11287
”？	-11288
▁后	-11289
一杯	-11290
一至	-11291
三四	-11292
不负	-11293
为己	-11294
乡贤	-11295
云集	-11296
产区	-11297
但对	-11298
做过	-11299
升学	-11300
在华	-11301
声称	-11302
奋战	-11303
就把	-11304
座位	-11305
德勒	-11306
收官	-11307
椎间	-11308
热能	-11309
的上	-11310
的书	-11311
的开	-11312
的金	-11313
矫正	-11314
破门	-11315
福德	-11316
程式	-11317
绘制	-11318
绿水	-11319
绿茶	-11320
网约	-11321
美人	-11322
进出	-11323
退还	-11324
预制	-11325
饮品	-11326
骑士	-11327
***	-11328
les	-11329
▁in	-11330
▁酒店	-11331
体系的	-11332
发表了	-11333
可能的	-11334
因为他	-11335
在欧洲	-11336
大健康	-11337
支持和	-11338
极高的	-11339
的味道	-11340
的特殊	-11341
等业务	-11342
要坚持	-11343
见附件	-11344
需求量	-11345
不得超过	-11346
与时俱进	-11347
为主题的	-11348
感受到了	-11349
这是一种	-11350
的工作人员	-11351
采访时表示	-11352
集团董事长	-11353
最高人民法院	-11354
疫情防控工作	-11355
住房和城乡建设	-11356
丢失	-11357
中也	-11358
中空	-11359
伤亡	-11360
低迷	-11361
全家	-11362
削减	-11363
前十	-11364
基亚	-11365
失眠	-11366
安居	-11367
对新	-11368
年金	-11369
底盘	-11370
很强	-11371
打了	-11372
拉丁	-11373
搭档	-11374
数千	-11375
是经	-11376
李某	-11377
极致	-11378
用餐	-11379
行销	-11380
身材	-11381
较长	-11382
送给	-11383
VOC	-11384
ton	-11385
不允许	-11386
价格的	-11387
凝聚力	-11388
十六条	-11389
在生产	-11390
年前的	-11391
投入到	-11392
母公司	-11393
涵盖了	-11394
的营养	-11395
看不到	-11396
稳定剂	-11397
自闭症	-11398
责任感	-11399
阶段性	-11400
非物质	-11401
不可避免	-11402
专业生产	-11403
价格上涨	-11404
场比赛中	-11405
工作效率	-11406
工程造价	-11407
治疗效果	-11408
经营活动	-11409
调查显示	-11410
一起来看看	-11411
国家发改委	-11412
au	-11413
▁八	-11414
▁徐	-11415
▁问	-11416
亚军	-11417
亦有	-11418
仿真	-11419
供货	-11420
光线	-11421
六年	-11422
印染	-11423
参保	-11424
及早	-11425
塑性	-11426
壮观	-11427
奔驰	-11428
小麦	-11429
心动	-11430
总之	-11431
散发	-11432
时节	-11433
明珠	-11434
晋升	-11435
木齐	-11436
氧气	-11437
汗水	-11438
物价	-11439
种族	-11440
繁多	-11441
维奇	-11442
自杀	-11443
设想	-11444
误解	-11445
转运	-11446
还需	-11447
这在	-11448
邻居	-11449
额定	-11450
ock	-11451
▁具体	-11452
▁没有	-11453
享受到	-11454
信息和	-11455
净资产	-11456
准备好	-11457
厦门市	-11458
告诉你	-11459
增加到	-11460
岗位上	-11461
形势下	-11462
总公司	-11463
投资人	-11464
次助攻	-11465
统一的	-11466
网络上	-11467
近距离	-11468
还具有	-11469
这本书	-11470
不断创新	-11471
乌鲁木齐	-11472
工业生产	-11473
市场经济	-11474
正式启动	-11475
竞争优势	-11476
还有一些	-11477
这个世界	-11478
金融危机	-11479
使用寿命长	-11480
Fl	-11481
一向	-11482
三一	-11483
中说	-11484
中路	-11485
京沪	-11486
亲密	-11487
任命	-11488
余个	-11489
切入	-11490
双创	-11491
复习	-11492
字符	-11493
宽松	-11494
布拉	-11495
异性	-11496
指纹	-11497
损耗	-11498
本会	-11499
检索	-11500
模组	-11501
欧阳	-11502
此项	-11503
海底	-11504
滥用	-11505
狭窄	-11506
畸形	-11507
直达	-11508
相近	-11509
秋天	-11510
竞买	-11511
耳朵	-11512
腹部	-11513
萤幕	-11514
见解	-11515
该剧	-11516
铁道	-11517
风口	-11518
卫健委	-11519
即使是	-11520
只有在	-11521
可实现	-11522
在整个	-11523
多少钱	-11524
小时候	-11525
月下旬	-11526
比较好	-11527
消息称	-11528
而对于	-11529
舞台上	-11530
只是一个	-11531
国际合作	-11532
教育培训	-11533
相关工作	-11534
营商环境	-11535
语言文字	-11536
附属医院	-11537
的主要原因	-11538
符合条件的	-11539
Windows	-11540
CM	-11541
业者	-11542
人是	-11543
价的	-11544
内有	-11545
单体	-11546
可观	-11547
台中	-11548
同名	-11549
吸入	-11550
因地	-11551
导入	-11552
封面	-11553
小儿	-11554
尼尔	-11555
带到	-11556
干线	-11557
捕捉	-11558
捷运	-11559
搜集	-11560
显微	-11561
本职	-11562
根源	-11563
概括	-11564
殊荣	-11565
水稻	-11566
沉默	-11567
点点	-11568
的发	-11569
硬币	-11570
粗糙	-11571
素的	-11572
美金	-11573
耕地	-11574
螺栓	-11575
要从	-11576
见过	-11577
该项	-11578
误差	-11579
负载	-11580
货架	-11581
车上	-11582
运会	-11583
限额	-11584
▁de	-11585
▁这里	-11586
以提高	-11587
对学生	-11588
年增长	-11589
您可以	-11590
新闻网	-11591
是一些	-11592
没什么	-11593
的知识	-11594
目标的	-11595
等重点	-11596
管理者	-11597
经验和	-11598
而这些	-11599
装配式	-11600
要知道	-11601
解放军	-11602
重大的	-11603
锂电池	-11604
问题是	-11605
项目和	-11606
领导人	-11607
中国大陆	-11608
任何一个	-11609
信息服务	-11610
创新驱动	-11611
办公用房	-11612
工业设计	-11613
优质的服务	-11614
全资子公司	-11615
核心价值观	-11616
毕业生就业	-11617
科技股份有限公司	-11618
▁①	-11619
上半	-11620
不禁	-11621
主播	-11622
产后	-11623
价为	-11624
低下	-11625
克莱	-11626
全景	-11627
分和	-11628
加拉	-11629
区位	-11630
单板	-11631
回合	-11632
大火	-11633
守信	-11634
安防	-11635
定为	-11636
实木	-11637
小事	-11638
开标	-11639
或将	-11640
按摩	-11641
料理	-11642
无处	-11643
有大	-11644
淡水	-11645
清醒	-11646
珍珠	-11647
繁华	-11648
致病	-11649
节水	-11650
赛场	-11651
路桥	-11652
辩论	-11653
追逐	-11654
送上	-11655
遗迹	-11656
重心	-11657
锦赛	-11658
骨折	-11659
黏膜	-11660
ans	-11661
log	-11662
一辈子	-11663
乐施会	-11664
但对于	-11665
依然是	-11666
其实是	-11667
可以是	-11668
小学生	-11669
展现出	-11670
希望对	-11671
招投标	-11672
的土地	-11673
的成本	-11674
资源和	-11675
转变为	-11676
较多的	-11677
这一次	-11678
陈代谢	-11679
事业发展	-11680
地质灾害	-11681
干部职工	-11682
所以我们	-11683
治愈出院	-11684
物流服务	-11685
目前已经	-11686
纪委监委	-11687
血液循环	-11688
质量管理	-11689
这是因为	-11690
国务院关于	-11691
▁Facebook	-11692
ph	-11693
▁v	-11694
▁爱	-11695
▁老	-11696
不全	-11697
不难	-11698
两类	-11699
云顶	-11700
传真	-11701
公募	-11702
共鸣	-11703
其间	-11704
分裂	-11705
县域	-11706
台币	-11707
哪种	-11708
商城	-11709
在对	-11710
大纲	-11711
实战	-11712
峰值	-11713
心肌	-11714
忍受	-11715
打下	-11716
换代	-11717
推理	-11718
搬运	-11719
支队	-11720
浦东	-11721
演示	-11722
热火	-11723
签名	-11724
维斯	-11725
身处	-11726
都可	-11727
长寿	-11728
降临	-11729
BIM	-11730
▁比如	-11731
不应该	-11732
事业的	-11733
从一个	-11734
决定的	-11735
刚开始	-11736
各地区	-11737
在治疗	-11738
在设计	-11739
座的人	-11740
心脏病	-11741
投融资	-11742
月以来	-11743
注册的	-11744
现金流	-11745
的样子	-11746
的颜色	-11747
科技的	-11748
级以上	-11749
经验的	-11750
采用的	-11751
长沙市	-11752
专科医院	-11753
免疫功能	-11754
合作协议	-11755
同比增加	-11756
生活习惯	-11757
知名品牌	-11758
身心健康	-11759
野生动物	-11760
项目管理	-11761
DB	-11762
IV	-11763
▁市	-11764
▁除	-11765
万股	-11766
三菱	-11767
两周	-11768
了我	-11769
互助	-11770
他将	-11771
全局	-11772
刊登	-11773
刻苦	-11774
前身	-11775
南瓜	-11776
呕吐	-11777
品位	-11778
喝酒	-11779
地将	-11780
夫人	-11781
夯实	-11782
奇妙	-11783
审定	-11784
就连	-11785
山上	-11786
年份	-11787
当场	-11788
手臂	-11789
打出	-11790
敌人	-11791
数目	-11792
未必	-11793
机动	-11794
沃尔	-11795
涡轮	-11796
滋味	-11797
点球	-11798
烟草	-11799
瘙痒	-11800
登山	-11801
的家	-11802
碎片	-11803
祷告	-11804
筹划	-11805
缓冲	-11806
罗拉	-11807
置于	-11808
考量	-11809
花钱	-11810
西路	-11811
财税	-11812
赞同	-11813
迷你	-11814
阴影	-11815
顺畅	-11816
顽固	-11817
Web	-11818
▁所有	-11819
▁近期	-11820
三季度	-11821
不清楚	-11822
但我们	-11823
作用的	-11824
儿童的	-11825
制造的	-11826
是一场	-11827
是企业	-11828
更加的	-11829
有任何	-11830
满足了	-11831
电视机	-11832
的高级	-11833
等技术	-11834
航站楼	-11835
范围的	-11836
这对于	-11837
都不能	-11838
不确定性	-11839
中的应用	-11840
发表论文	-11841
Apple	-11842
工业和信息化部	-11843
▁主	-11844
不尽	-11845
东区	-11846
中航	-11847
入职	-11848
口号	-11849
同胞	-11850
周三	-11851
回购	-11852
地表	-11853
场馆	-11854
富豪	-11855
广汽	-11856
座的	-11857
引资	-11858
星球	-11859
格里	-11860
段的	-11861
犯规	-11862
现货	-11863
答应	-11864
致命	-11865
衰竭	-11866
装载	-11867
贫穷	-11868
路灯	-11869
门前	-11870
ime	-11871
ish	-11872
▁上述	-11873
▁邮编	-11874
与世界	-11875
与技术	-11876
中药材	-11877
为我国	-11878
人口的	-11879
他指出	-11880
工业园	-11881
日起至	-11882
有能力	-11883
氯化铝	-11884
的地区	-11885
第三届	-11886
絮凝剂	-11887
表面的	-11888
身上的	-11889
那么多	-11890
都不是	-11891
ript	-11892
▁我公司	-11893
一个新的	-11894
个人信息	-11895
公共资源	-11896
所需要的	-11897
线上线下	-11898
觉得自己	-11899
越来越高	-11900
道路运输	-11901
中西医结合	-11902
律师事务所	-11903
最重要的是	-11904
重点实验室	-11905
Twitter	-11906
LA	-11907
TD	-11908
▁时	-11909
下沉	-11910
代号	-11911
便会	-11912
便秘	-11913
保利	-11914
倒入	-11915
做成	-11916
却在	-11917
叙述	-11918
后悔	-11919
向好	-11920
坐标	-11921
坚信	-11922
巨人	-11923
底层	-11924
建模	-11925
得的	-11926
感叹	-11927
抗日	-11928
搭乘	-11929
月亮	-11930
水域	-11931
永不	-11932
消灭	-11933
点和	-11934
烟气	-11935
猜测	-11936
率和	-11937
球奖	-11938
琉璃	-11939
的红	-11940
私立	-11941
稍微	-11942
简约	-11943
简要	-11944
老婆	-11945
自强	-11946
解毒	-11947
言语	-11948
重温	-11949
重重	-11950
阶级	-11951
高山	-11952
会增加	-11953
体育局	-11954
困难的	-11955
多利亚	-11956
新东方	-11957
星期五	-11958
比较大	-11959
游戏中	-11960
的特性	-11961
设备及	-11962
还是在	-11963
配备了	-11964
项目中	-11965
共同发展	-11966
各行各业	-11967
大力推进	-11968
应急预案	-11969
森林公园	-11970
精益求精	-11971
越来越大	-11972
铁艺栏杆	-11973
的大力支持	-11974
食品添加剂	-11975
七年	-11976
公关	-11977
匈牙	-11978
协力	-11979
吃苦	-11980
地标	-11981
大人	-11982
太过	-11983
宝贝	-11984
小巴	-11985
拜仁	-11986
换手	-11987
晨报	-11988
残酷	-11989
清算	-11990
澄清	-11991
片中	-11992
病理	-11993
研修	-11994
精髓	-11995
缺口	-11996
肠癌	-11997
裁定	-11998
超高	-11999
这块	-12000
采暖	-12001
锌钢	-12002
队以	-12003
院的	-12004
领略	-12005
额度	-12006
USB	-12007
▁Fl	-12008
▁作者	-12009
他们会	-12010
作出的	-12011
制度的	-12012
参观了	-12013
及其它	-12014
可行性	-12015
告诉我	-12016
家长们	-12017
打造成	-12018
是人类	-12019
的动力	-12020
的局面	-12021
节目中	-12022
苏州市	-12023
诺基亚	-12024
责任心	-12025
转移到	-12026
过多的	-12027
金字塔	-12028
▁The	-12029
交易中心	-12030
保健食品	-12031
全面提升	-12032
共享单车	-12033
副秘书长	-12034
国土资源	-12035
培养学生	-12036
大幅提升	-12037
建设用地	-12038
科研机构	-12039
继续保持	-12040
行政法规	-12041
征求意见稿	-12042
犯罪嫌疑人	-12043
的一致好评	-12044
非常重要的	-12045
%～	-12046
Ex	-12047
··	-12048
”)	-12049
一审	-12050
上百	-12051
乾隆	-12052
产出	-12053
传送	-12054
你能	-12055
保管	-12056
光源	-12057
兼具	-12058
初创	-12059
匈奴	-12060
卡拉	-12061
却又	-12062
发炎	-12063
吉他	-12064
备用	-12065
失踪	-12066
奔跑	-12067
射门	-12068
山地	-12069
护肤	-12070
押金	-12071
操控	-12072
时许	-12073
曾是	-12074
有无	-12075
杀死	-12076
梦幻	-12077
波兰	-12078
清晨	-12079
用手	-12080
的本	-12081
科比	-12082
羡慕	-12083
自家	-12084
药师	-12085
通往	-12086
阳历	-12087
靠着	-12088
频频	-12089
eng	-12090
▁Ex	-12091
▁Th	-12092
不完全	-12093
也因此	-12094
二季度	-12095
代表性	-12096
任何人	-12097
十五条	-12098
发生器	-12099
媒体的	-12100
已超过	-12101
技术上	-12102
显示出	-12103
有很大	-12104
流水线	-12105
的理想	-12106
表现在	-12107
领导和	-12108
全球经济	-12109
农业生产	-12110
民办学校	-12111
管理水平	-12112
污水处理设备	-12113
集团股份有限公司	-12114
An	-12115
Mo	-12116
RE	-12117
ps	-12118
▁会	-12119
中南	-12120
传导	-12121
便可	-12122
信访	-12123
分明	-12124
加哥	-12125
博客	-12126
县长	-12127
古今	-12128
夸张	-12129
契约	-12130
宫殿	-12131
封装	-12132
岭南	-12133
巴基	-12134
得起	-12135
想想	-12136
无形	-12137
检出	-12138
油价	-12139
洛克	-12140
火焰	-12141
热度	-12142
牌照	-12143
独资	-12144
白的	-12145
盛宴	-12146
眼神	-12147
砥砺	-12148
米尔	-12149
而这	-12150
肩负	-12151
腐败	-12152
致癌	-12153
试卷	-12154
购房	-12155
起初	-12156
酒业	-12157
长征	-12158
颜值	-12159
鸟类	-12160
▁Re	-12161
▁距离	-12162
三分球	-12163
中长期	-12164
他人的	-12165
他们是	-12166
公司已	-12167
再一次	-12168
切尔西	-12169
创业板	-12170
基督徒	-12171
如果说	-12172
娱乐圈	-12173
应及时	-12174
按要求	-12175
控制的	-12176
摄影师	-12177
摄氏度	-12178
方式的	-12179
最重要	-12180
的任务	-12181
的平均	-12182
的组织	-12183
芝加哥	-12184
部门和	-12185
roup	-12186
党委委员	-12187
其中一个	-12188
卫星导航	-12189
技术开发	-12190
技能大赛	-12191
施工现场	-12192
最后一个	-12193
混合动力	-12194
电商平台	-12195
相关信息	-12196
资源优势	-12197
!”	-12198
▁◆	-12199
▁被	-12200
一阵	-12201
个案	-12202
习俗	-12203
二年	-12204
交替	-12205
保值	-12206
切成	-12207
则为	-12208
剂等	-12209
单个	-12210
受众	-12211
可视	-12212
回事	-12213
外星	-12214
大豆	-12215
如是	-12216
子上	-12217
宜居	-12218
寺庙	-12219
巨星	-12220
心得	-12221
惊艳	-12222
我有	-12223
报刊	-12224
招牌	-12225
揭牌	-12226
文档	-12227
新人	-12228
无缘	-12229
更强	-12230
柠檬	-12231
浓厚	-12232
火花	-12233
用到	-12234
老鼠	-12235
西瓜	-12236
赶到	-12237
邮票	-12238
都没	-12239
金斯	-12240
门将	-12241
LNG	-12242
▁可以	-12243
▁英国	-12244
以达到	-12245
债权人	-12246
全球的	-12247
农业部	-12248
奥林匹	-12249
季后赛	-12250
收益率	-12251
朋友的	-12252
的人文	-12253
的对象	-12254
相适应	-12255
要根据	-12256
观众的	-12257
财政局	-12258
高尔夫	-12259
鲜明的	-12260
仪器仪表	-12261
数字经济	-12262
财经大学	-12263
单位和个人	-12264
坚实的基础	-12265
]）	-12266
ky	-12267
三峡	-12268
不行	-12269
不限	-12270
临界	-12271
人际	-12272
传出	-12273
伺服	-12274
但从	-12275
倾听	-12276
入门	-12277
几位	-12278
出品	-12279
制片	-12280
发烧	-12281
可口	-12282
名胜	-12283
宇航	-12284
宋代	-12285
富士	-12286
小小	-12287
小额	-12288
建档	-12289
开除	-12290
强力	-12291
新浪	-12292
月任	-12293
有声	-12294
期权	-12295
未知	-12296
此事	-12297
现身	-12298
皮炎	-12299
移交	-12300
简章	-12301
经的	-12302
脑海	-12303
艾滋	-12304
视听	-12305
计时	-12306
诱惑	-12307
诸葛	-12308
近百	-12309
这笔	-12310
配偶	-12311
错了	-12312
马云	-12313
高尚	-12314
▁无论	-12315
几年的	-12316
分钟后	-12317
十七条	-12318
变化的	-12319
向上的	-12320
奥地利	-12321
开展的	-12322
总收入	-12323
掌握了	-12324
毛利率	-12325
的一天	-12326
的人数	-12327
的品质	-12328
类似于	-12329
规模和	-12330
领导的	-12331
高精度	-12332
ower	-12333
▁App	-12334
▁中新网	-12335
专项资金	-12336
体制改革	-12337
作为一名	-12338
养老服务	-12339
发现自己	-12340
强有力的	-12341
提供一个	-12342
的一系列	-12343
综合实力	-12344
运营管理	-12345
IG	-12346
▁亚	-12347
▁美	-12348
为他	-12349
保鲜	-12350
剥离	-12351
勘探	-12352
可为	-12353
和我	-12354
回暖	-12355
国人	-12356
在你	-12357
在那	-12358
夏日	-12359
头条	-12360
如其	-12361
完了	-12362
定量	-12363
家事	-12364
就越	-12365
展馆	-12366
应以	-12367
开封	-12368
徒步	-12369
惊人	-12370
技工	-12371
掌控	-12372
教职	-12373
既要	-12374
明朝	-12375
景气	-12376
来访	-12377
消极	-12378
温差	-12379
点半	-12380
现今	-12381
省会	-12382
眼里	-12383
罕见	-12384
胃肠	-12385
茶树	-12386
赶紧	-12387
足迹	-12388
跻身	-12389
车内	-12390
这片	-12391
防线	-12392
VID	-12393
lex	-12394
不好的	-12395
二手车	-12396
关系到	-12397
准确性	-12398
创造力	-12399
在公司	-12400
将根据	-12401
年全年	-12402
当年的	-12403
成长为	-12404
持有的	-12405
收到了	-12406
教科书	-12407
是根据	-12408
的同学	-12409
都具有	-12410
从根本上	-12411
信息公开	-12412
全面建成	-12413
前三季度	-12414
受到影响	-12415
实施办法	-12416
服务质量	-12417
核酸检测	-12418
盈利能力	-12419
签约仪式	-12420
技术的发展	-12421
经济开发区	-12422
设备有限公司	-12423
========	-12424
▁★	-12425
上腺	-12426
亿人	-12427
作的	-12428
侧面	-12429
八达	-12430
军团	-12431
决胜	-12432
制宜	-12433
对本	-12434
川藏	-12435
左侧	-12436
应邀	-12437
感激	-12438
抢占	-12439
招募	-12440
是他	-12441
比喻	-12442
淋漓	-12443
灰色	-12444
烧结	-12445
生病	-12446
疑难	-12447
眼球	-12448
着色	-12449
耕耘	-12450
联运	-12451
这让	-12452
那天	-12453
长约	-12454
长途	-12455
门市	-12456
AAA	-12457
COD	-12458
IoT	-12459
ana	-12460
▁深圳	-12461
不仅能	-12462
不少人	-12463
也能够	-12464
会引起	-12465
余万元	-12466
创造性	-12467
制作人	-12468
卡塔尔	-12469
只是在	-12470
合格的	-12471
对他们	-12472
工程系	-12473
无症状	-12474
月份的	-12475
的一家	-12476
等各个	-12477
肾上腺	-12478
要认真	-12479
试用期	-12480
达不到	-12481
都已经	-12482
lect	-12483
不断扩大	-12484
家用电器	-12485
帮助我们	-12486
我们希望	-12487
汽车行业	-12488
生产成本	-12489
生态旅游	-12490
的受访者	-12491
相关企业	-12492
中小微企业	-12493
发展的重要	-12494
应届毕业生	-12495
的使用寿命	-12496
Br	-12497
NO	-12498
不去	-12499
两队	-12500
丹麦	-12501
乌镇	-12502
五月	-12503
交货	-12504
仍未	-12505
传授	-12506
元年	-12507
军民	-12508
出产	-12509
副总	-12510
华丽	-12511
反响	-12512
受邀	-12513
吉利	-12514
名片	-12515
呼和	-12516
和你	-12517
增白	-12518
外来	-12519
大理	-12520
如期	-12521
富裕	-12522
将达	-12523
应变	-12524
弱势	-12525
打入	-12526
抗战	-12527
提炼	-12528
支行	-12529
放到	-12530
明了	-12531
是无	-12532
歌唱	-12533
温州	-12534
瑜伽	-12535
瓷器	-12536
用法	-12537
粘膜	-12538
纽带	-12539
老龄	-12540
酿造	-12541
采矿	-12542
麻疹	-12543
Car	-12544
ams	-12545
ath	-12546
iel	-12547
ley	-12548
mer	-12549
▁Cl	-12550
中西部	-12551
为了让	-12552
代理人	-12553
做出的	-12554
出生的	-12555
已达到	-12556
抵抗力	-12557
提高到	-12558
星期六	-12559
椎间盘	-12560
污染的	-12561
的形成	-12562
的心理	-12563
经历过	-12564
▁Man	-12565
▁for	-12566
仅供参考	-12567
从而达到	-12568
在我们的	-12569
安全可靠	-12570
工商行政	-12571
应聘人员	-12572
总体规划	-12573
消防安全	-12574
物流企业	-12575
经济损失	-12576
万元人民币	-12577
......	-12578
会计师事务所	-12579
OH	-12580
pl	-12581
▁▲	-12582
三期	-12583
不吃	-12584
专场	-12585
两款	-12586
全镇	-12587
写下	-12588
号的	-12589
和尚	-12590
四位	-12591
圣灵	-12592
实处	-12593
应收	-12594
心思	-12595
忽然	-12596
慎重	-12597
教书	-12598
整套	-12599
文人	-12600
断裂	-12601
明亮	-12602
机油	-12603
栖息	-12604
此刻	-12605
江区	-12606
沿途	-12607
注塑	-12608
液化	-12609
演变	-12610
玩笑	-12611
用以	-12612
申花	-12613
统战	-12614
脚下	-12615
薪资	-12616
轨迹	-12617
过得	-12618
过量	-12619
逃避	-12620
露出	-12621
顶部	-12622
首饰	-12623
高低	-12624
ros	-12625
▁而且	-12626
一下子	-12627
一对一	-12628
不再是	-12629
与美国	-12630
些什么	-12631
人心的	-12632
优异的	-12633
制定的	-12634
参与到	-12635
又一个	-12636
在不同	-12637
实力的	-12638
对这些	-12639
开放式	-12640
所在的	-12641
教务处	-12642
的优秀	-12643
的儿子	-12644
第一大	-12645
等地的	-12646
给出了	-12647
群众的	-12648
主体责任	-12649
实施细则	-12650
应用领域	-12651
经济运行	-12652
道路交通	-12653
个人所得税	-12654
汽车零部件	-12655
▁值得一提的是	-12656
经济技术开发区	-12657
中被	-12658
也从	-12659
传球	-12660
其所	-12661
分组	-12662
利好	-12663
卧室	-12664
厂的	-12665
取胜	-12666
司长	-12667
周到	-12668
图纸	-12669
对你	-12670
小幅	-12671
嵌入	-12672
异地	-12673
征程	-12674
性及	-12675
总的	-12676
情人	-12677
新春	-12678
日和	-12679
星光	-12680
期末	-12681
来回	-12682
武帝	-12683
法案	-12684
海滩	-12685
满分	-12686
潍坊	-12687
的王	-12688
税款	-12689
而知	-12690
耐寒	-12691
肚子	-12692
药理	-12693
西湖	-12694
言论	-12695
说服	-12696
阴阳	-12697
首页	-12698
黄山	-12699
TOP	-12700
ins	-12701
▁配音	-12702
不可以	-12703
中全会	-12704
体育馆	-12705
保持了	-12706
共同体	-12707
内容和	-12708
在现场	-12709
多年前	-12710
帮助下	-12711
惊人的	-12712
抗生素	-12713
政府和	-12714
的一点	-12715
的优点	-12716
的商业	-12717
的时刻	-12718
计划在	-12719
中共中央	-12720
交通工具	-12721
几乎没有	-12722
团队成员	-12723
巴基斯坦	-12724
我们已经	-12725
招商引资	-12726
本科专业	-12727
空气中的	-12728
蓬勃发展	-12729
证明材料	-12730
门户网站	-12731
驰名商标	-12732
密切接触者	-12733
科学发展观	-12734
▁值得注意的是	-12735
%~	-12736
%（	-12737
Th	-12738
▁●	-12739
会是	-12740
便民	-12741
储量	-12742
午餐	-12743
协办	-12744
原文	-12745
取暖	-12746
夏令	-12747
大有	-12748
如实	-12749
宏伟	-12750
宜兰	-12751
实干	-12752
尽力	-12753
尽责	-12754
并列	-12755
床上	-12756
恰恰	-12757
悲剧	-12758
手持	-12759
投档	-12760
提质	-12761
散步	-12762
文体	-12763
无不	-12764
易燃	-12765
木质	-12766
样式	-12767
楼盘	-12768
气泡	-12769
永续	-12770
没收	-12771
活着	-12772
深情	-12773
热电	-12774
照护	-12775
爱上	-12776
真菌	-12777
硫化	-12778
禁忌	-12779
西斯	-12780
要将	-12781
赛道	-12782
郊野	-12783
金银	-12784
领悟	-12785
飞跃	-12786
魔法	-12787
鱼类	-12788
ide	-12789
▁成交	-12790
▁摘要	-12791
▁每天	-12792
不一致	-12793
中使用	-12794
为原料	-12795
产品及	-12796
人死亡	-12797
体系和	-12798
保护和	-12799
匈牙利	-12800
各行业	-12801
命中率	-12802
外国人	-12803
大剧院	-12804
并不会	-12805
我们所	-12806
日期间	-12807
有兴趣	-12808
氯乙烯	-12809
生产力	-12810
的人口	-12811
的有关	-12812
的消费	-12813
确定了	-12814
管理层	-12815
证明了	-12816
专业人士	-12817
信息共享	-12818
另行通知	-12819
国家安全	-12820
截止时间	-12821
有良好的	-12822
澎湃新闻	-12823
综合治理	-12824
股东大会	-12825
自主品牌	-12826
违法犯罪	-12827
房地产市场	-12828
国务院办公厅	-12829
投资有限公司	-12830
人力资源社会保障	-12831
▁下	-12832
之城	-12833
乐于	-12834
买了	-12835
今晚	-12836
以防	-12837
伯格	-12838
估算	-12839
体彩	-12840
充沛	-12841
八年	-12842
又在	-12843
图画	-12844
基部	-12845
堆积	-12846
填埋	-12847
增资	-12848
外在	-12849
头上	-12850
女王	-12851
宾客	-12852
异的	-12853
敏锐	-12854
敬老	-12855
月末	-12856
有余	-12857
樱花	-12858
欢喜	-12859
水温	-12860
江县	-12861
湘潭	-12862
电感	-12863
管件	-12864
缩写	-12865
网的	-12866
自卑	-12867
表述	-12868
适度	-12869
逐一	-12870
金华	-12871
问候	-12872
闲置	-12873
阶层	-12874
青铜	-12875
首相	-12876
马达	-12877
与企业	-12878
乳制品	-12879
你们的	-12880
保健品	-12881
内部的	-12882
占据了	-12883
吞吐量	-12884
和精神	-12885
多样性	-12886
是需要	-12887
的范围	-12888
的运动	-12889
的高端	-12890
记忆力	-12891
这一天	-12892
高技术	-12893
下列情形	-12894
工作任务	-12895
平均气温	-12896
系列活动	-12897
结构调整	-12898
金属材料	-12899
非常好的	-12900
中国人民银行	-12901
技术有限公司	-12902
非物质文化遗产	-12903
LC	-12904
▁按	-12905
▁赵	-12906
▁龙	-12907
》》	-12908
上也	-12909
中性	-12910
为民	-12911
五四	-12912
农商	-12913
出境	-12914
占领	-12915
变质	-12916
唱歌	-12917
增设	-12918
外媒	-12919
妊娠	-12920
开的	-12921
恶心	-12922
惠民	-12923
意图	-12924
折磨	-12925
文书	-12926
旺季	-12927
昂贵	-12928
曾任	-12929
清澈	-12930
热血	-12931
眼的	-12932
碳水	-12933
纯净	-12934
细心	-12935
胶囊	-12936
英尺	-12937
菊花	-12938
要用	-12939
评比	-12940
里达	-12941
面料	-12942
CPU	-12943
ank	-12944
ivo	-12945
▁研究	-12946
▁而在	-12947
些时候	-12948
人体的	-12949
以至于	-12950
俗话说	-12951
切削液	-12952
可直接	-12953
多万元	-12954
实施了	-12955
差异化	-12956
年获得	-12957
强企业	-12958
教师节	-12959
是多少	-12960
本项目	-12961
流行的	-12962
的人工	-12963
的热量	-12964
的美国	-12965
确定为	-12966
不孕不育	-12967
专家学者	-12968
优质服务	-12969
全体党员	-12970
品牌形象	-12971
国内市场	-12972
常住人口	-12973
政策措施	-12974
教育活动	-12975
疑似病例	-12976
监管部门	-12977
主要集中在	-12978
年第一季度	-12979
比上年同期	-12980
规模最大的	-12981
FA	-12982
ww	-12983
▁*	-12984
▁凡	-12985
▁北	-12986
》；	-12987
值为	-12988
假冒	-12989
入场	-12990
到场	-12991
动的	-12992
周日	-12993
喝茶	-12994
器等	-12995
外籍	-12996
安区	-12997
山顶	-12998
常州	-12999
年期	-13000
并用	-13001
店的	-13002
很低	-13003
所学	-13004
抽签	-13005
排卵	-13006
时应	-13007
机车	-13008
柯洁	-13009
根基	-13010
格林	-13011
沙滩	-13012
油气	-13013
牢牢	-13014
申诉	-13015
皇后	-13016
组团	-13017
聚苯	-13018
蕴含	-13019
蚂蚁	-13020
衣物	-13021
豆瓣	-13022
赛前	-13023
路由	-13024
镜子	-13025
防卫	-13026
零食	-13027
韭菜	-13028
高手	-13029
黑素	-13030
▁现代	-13031
乒乓球	-13032
二十四	-13033
会议由	-13034
充足的	-13035
共同的	-13036
创立于	-13037
如今的	-13038
尼西亚	-13039
工艺品	-13040
年底前	-13041
意义上	-13042
普通人	-13043
热镀锌	-13044
球队的	-13045
皮肤的	-13046
碳纤维	-13047
采取了	-13048
预处理	-13049
‍‍‍‍	-13050
人员进行	-13051
公共场所	-13052
卫生组织	-13053
因地制宜	-13054
园林绿化	-13055
尽量避免	-13056
控股股东	-13057
提供服务	-13058
政协委员	-13059
教学成果	-13060
星级酒店	-13061
机械工业	-13062
环比增长	-13063
知名企业	-13064
管理机构	-13065
战略合作协议	-13066
归属于上市公司	-13067
BD	-13068
CH	-13069
▁)	-13070
一丝	-13071
万的	-13072
三层	-13073
上榜	-13074
不做	-13075
不相	-13076
举动	-13077
二号	-13078
以南	-13079
低廉	-13080
余年	-13081
全员	-13082
农夫	-13083
净土	-13084
初次	-13085
口语	-13086
可使	-13087
叶子	-13088
国籍	-13089
埃尔	-13090
大宗	-13091
头晕	-13092
存量	-13093
归纳	-13094
德斯	-13095
悟空	-13096
房地	-13097
接力	-13098
整形	-13099
新药	-13100
日光	-13101
普门	-13102
机理	-13103
条第	-13104
水解	-13105
沙龙	-13106
法则	-13107
波罗	-13108
瓦尔	-13109
痴呆	-13110
简易	-13111
紧跟	-13112
自营	-13113
装卸	-13114
贮存	-13115
遥控	-13116
钻石	-13117
钻研	-13118
降价	-13119
集结	-13120
雾霾	-13121
香料	-13122
▁三是	-13123
不属于	-13124
了这个	-13125
固化剂	-13126
实用性	-13127
成员国	-13128
提供给	-13129
条件和	-13130
模块化	-13131
比较多	-13132
法华经	-13133
漫长的	-13134
的宗旨	-13135
的照片	-13136
第一部	-13137
羽毛球	-13138
舒适的	-13139
要做好	-13140
软硬件	-13141
青海省	-13142
inux	-13143
体系认证	-13144
党组成员	-13145
公司产品	-13146
奥林匹克	-13147
学科建设	-13148
教学质量	-13149
更多的是	-13150
有不同的	-13151
经营理念	-13152
维多利亚	-13153
还有什么	-13154
这件事情	-13155
银屑病的	-13156
大家都知道	-13157
经济的发展	-13158
国家和地区的	-13159
EO	-13160
Re	-13161
▁好	-13162
一篇	-13163
上千	-13164
下同	-13165
丝路	-13166
中风	-13167
之首	-13168
乏力	-13169
亦是	-13170
偏方	-13171
党内	-13172
冲刺	-13173
前茅	-13174
势必	-13175
发票	-13176
可燃	-13177
可选	-13178
各区	-13179
地貌	-13180
备战	-13181
复旦	-13182
字的	-13183
展台	-13184
年为	-13185
年里	-13186
应付	-13187
得天	-13188
恒温	-13189
惩罚	-13190
承建	-13191
月光	-13192
机和	-13193
柔和	-13194
棉花	-13195
款式	-13196
没人	-13197
浙大	-13198
熬夜	-13199
研判	-13200
磋商	-13201
端正	-13202
筛查	-13203
自理	-13204
药业	-13205
落的	-13206
要多	-13207
要对	-13208
请在	-13209
足联	-13210
轻重	-13211
阻塞	-13212
高雄	-13213
，（	-13214
enn	-13215
▁负责	-13216
一般是	-13217
两部分	-13218
从中国	-13219
但随着	-13220
台北市	-13221
地进行	-13222
如何在	-13223
工作时	-13224
拼多多	-13225
挥发性	-13226
比较高	-13227
男主角	-13228
的办学	-13229
的大量	-13230
的法律	-13231
的真实	-13232
等离子	-13233
胶合板	-13234
ical	-13235
专业人才	-13236
产业基地	-13237
健康安全	-13238
只有一个	-13239
可以实现	-13240
安全事故	-13241
工伤保险	-13242
平方米的	-13243
建筑节能	-13244
技能人才	-13245
教育资源	-13246
本次活动	-13247
水平考试	-13248
游乐设备	-13249
爱国主义	-13250
生活垃圾	-13251
相比之下	-13252
管理学院	-13253
规划建设	-13254
为用户提供	-13255
工程总承包	-13256
白癜风治疗	-13257
上限	-13258
不符	-13259
不被	-13260
丽莎	-13261
之大	-13262
兼并	-13263
凭着	-13264
剧烈	-13265
四肢	-13266
寂寞	-13267
富贵	-13268
尼克	-13269
应试	-13270
座椅	-13271
开场	-13272
思议	-13273
惠州	-13274
想过	-13275
所用	-13276
打好	-13277
打磨	-13278
抗原	-13279
有用	-13280
橡塑	-13281
潇湘	-13282
片段	-13283
疗程	-13284
病房	-13285
磁场	-13286
缅甸	-13287
美德	-13288
耐候	-13289
能与	-13290
腾飞	-13291
色调	-13292
蓝图	-13293
调制	-13294
起飞	-13295
路边	-13296
轮的	-13297
还应	-13298
邮寄	-13299
铭记	-13300
露天	-13301
马丁	-13302
ann	-13303
org	-13304
▁他说	-13305
一个小	-13306
不只是	-13307
以及对	-13308
凯尔特	-13309
分别在	-13310
创新型	-13311
，	-13312
的	-13313
。	-13314
▁	-13315
、	-13316
0	-13317
一	-13318
1	-13319
是	-13320
在	-13321
有	-13322
2	-13323
人	-13324
中	-13325
为	-13326
不	-13327
和	-13328
了	-13329
大	-13330
业	-13331
国	-13332
年	-13333
生	-13334
学	-13335
以	-13336
发	-13337
“	-13338
”	-13339
用	-13340
上	-13341
会	-13342
工	-13343
能	-13344
个	-13345
时	-13346
作	-13347
要	-13348
成	-13349
行	-13350
3	-13351
于	-13352
公	-13353
5	-13354
这	-13355
到	-13356
家	-13357
我	-13358
对	-13359
来	-13360
出	-13361
产	-13362
地	-13363
可	-13364
高	-13365
理	-13366
多	-13367
等	-13368
分	-13369
新	-13370
.	-13371
市	-13372
9	-13373
全	-13374
动	-13375
进	-13376
们	-13377
4	-13378
方	-13379
化	-13380
经	-13381
与	-13382
日	-13383
8	-13384
自	-13385
合	-13386
过	-13387
现	-13388
体	-13389
力	-13390
品	-13391
6	-13392
机	-13393
下	-13394
实	-13395
月	-13396
同	-13397
后	-13398
展	-13399
：	-13400
也	-13401
开	-13402
建	-13403
设	-13404
他	-13405
部	-13406
电	-13407
面	-13408
）	-13409
7	-13410
性	-13411
（	-13412
及	-13413
定	-13414
本	-13415
主	-13416
其	-13417
务	-13418
加	-13419
长	-13420
就	-13421
之	-13422
法	-13423
e	-13424
重	-13425
通	-13426
度	-13427
心	-13428
而	-13429
者	-13430
水	-13431
资	-13432
关	-13433
区	-13434
前	-13435
场	-13436
提	-13437
司	-13438
得	-13439
制	-13440
将	-13441
量	-13442
内	-13443
所	-13444
子	-13445
物	-13446
a	-13447
好	-13448
管	-13449
技	-13450
目	-13451
应	-13452
教	-13453
文	-13454
最	-13455
位	-13456
保	-13457
如	-13458
间	-13459
事	-13460
程	-13461
员	-13462
术	-13463
计	-13464
都	-13465
小	-13466
比	-13467
o	-13468
；	-13469
期	-13470
相	-13471
外	-13472
入	-13473
科	-13474
天	-13475
并	-13476
系	-13477
种	-13478
i	-13479
第	-13480
名	-13481
表	-13482
金	-13483
数	-13484
》	-13485
网	-13486
《	-13487
因	-13488
车	-13489
信	-13490
情	-13491
更	-13492
点	-13493
企	-13494
安	-13495
平	-13496
元	-13497
专	-13498
从	-13499
三	-13500
n	-13501
美	-13502
当	-13503
质	-13504
活	-13505
次	-13506
说	-13507
利	-13508
民	-13509
院	-13510
还	-13511
基	-13512
-	-13513
道	-13514
式	-13515
特	-13516
r	-13517
使	-13518
项	-13519
明	-13520
此	-13521
意	-13522
服	-13523
各	-13524
政	-13525
代	-13526
无	-13527
或	-13528
着	-13529
常	-13530
据	-13531
研	-13532
规	-13533
然	-13534
增	-13535
但	-13536
很	-13537
标	-13538
万	-13539
起	-13540
风	-13541
果	-13542
%	-13543
创	-13544
里	-13545
统	-13546
正	-13547
由	-13548
强	-13549
持	-13550
造	-13551
件	-13552
运	-13553
处	-13554
交	-13555
商	-13556
报	-13557
校	-13558
已	-13559
t	-13560
级	-13561
组	-13562
解	-13563
路	-13564
集	-13565
些	-13566
至	-13567
求	-13568
具	-13569
海	-13570
结	-13571
需	-13572
手	-13573
单	-13574
育	-13575
病	-13576
立	-13577
导	-13578
二	-13579
流	-13580
气	-13581
接	-13582
总	-13583
收	-13584
线	-13585
任	-13586
达	-13587
传	-13588
型	-13589
医	-13590
西	-13591
看	-13592
联	-13593
省	-13594
城	-13595
被	-13596
示	-13597
A	-13598
门	-13599
题	-13600
球	-13601
受	-13602
l	-13603
广	-13604
格	-13605
环	-13606
色	-13607
原	-13608
向	-13609
南	-13610
师	-13611
影	-13612
C	-13613
供	-13614
源	-13615
东	-13616
料	-13617
备	-13618
)	-13619
社	-13620
你	-13621
共	-13622
效	-13623
感	-13624
(	-13625
山	-13626
去	-13627
团	-13628
s	-13629
两	-13630
治	-13631
营	-13632
知	-13633
S	-13634
身	-13635
北	-13636
类	-13637
样	-13638
做	-13639
十	-13640
台	-13641
优	-13642
世	-13643
考	-13644
证	-13645
价	-13646
领	-13647
赛	-13648
推	-13649
先	-13650
变	-13651
投	-13652
问	-13653
白	-13654
没	-13655
口	-13656
器	-13657
节	-13658
形	-13659
准	-13660
施	-13661
书	-13662
调	-13663
户	-13664
P	-13665
认	-13666
游	-13667
办	-13668
改	-13669
让	-13670
息	-13671
完	-13672
选	-13673
布	-13674
少	-13675
每	-13676
队	-13677
究	-13678
么	-13679
己	-13680
想	-13681
带	-13682
别	-13683
际	-13684
费	-13685
参	-13686
取	-13687
界	-13688
较	-13689
热	-13690
直	-13691
今	-13692
精	-13693
支	-13694
记	-13695
只	-13696
放	-13697
构	-13698
空	-13699
指	-13700
该	-13701
华	-13702
客	-13703
限	-13704
防	-13705
整	-13706
注	-13707
四	-13708
近	-13709
光	-13710
条	-13711
观	-13712
视	-13713
那	-13714
老	-13715
深	-13716
步	-13717
局	-13718
包	-13719
境	-13720
非	-13721
装	-13722
站	-13723
复	-13724
试	-13725
消	-13726
回	-13727
m	-13728
确	-13729
战	-13730
给	-13731
委	-13732
验	-13733
斯	-13734
续	-13735
乐	-13736
亿	-13737
功	-13738
才	-13739
低	-13740
速	-13741
济	-13742
率	-13743
容	-13744
州	-13745
c	-13746
疗	-13747
转	-13748
它	-13749
助	-13750
打	-13751
食	-13752
材	-13753
号	-13754
？	-13755
护	-13756
决	-13757
易	-13758
职	-13759
获	-13760
快	-13761
积	-13762
升	-13763
超	-13764
I	-13765
首	-13766
T	-13767
约	-13768
M	-13769
素	-13770
告	-13771
未	-13772
神	-13773
引	-13774
称	-13775
真	-13776
划	-13777
查	-13778
模	-13779
米	-13780
控	-13781
采	-13782
头	-13783
清	-13784
权	-13785
议	-13786
根	-13787
责	-13788
农	-13789
值	-13790
越	-13791
D	-13792
域	-13793
u	-13794
态	-13795
请	-13796
响	-13797
G	-13798
案	-13799
见	-13800
艺	-13801
预	-13802
养	-13803
历	-13804
识	-13805
极	-13806
显	-13807
五	-13808
周	-13809
花	-13810
论	-13811
德	-13812
始	-13813
排	-13814
江	-13815
温	-13816
士	-13817
E	-13818
范	-13819
d	-13820
京	-13821
例	-13822
致	-13823
再	-13824
爱	-13825
B	-13826
况	-13827
片	-13828
测	-13829
众	-13830
健	-13831
党	-13832
房	-13833
销	-13834
习	-13835
配	-13836
马	-13837
断	-13838
协	-13839
且	-13840
股	-13841
足	-13842
园	-13843
尔	-13844
！	-13845
列	-13846
存	-13847
评	-13848
—	-13849
h	-13850
女	-13851
压	-13852
则	-13853
何	-13854
检	-13855
维	-13856
降	-13857
亚	-13858
景	-13859
除	-13860
药	-13861
演	-13862
把	-13863
县	-13864
难	-13865
照	-13866
干	-13867
织	-13868
字	-13869
智	-13870
患	-13871
随	-13872
府	-13873
康	-13874
反	-13875
势	-13876
牌	-13877
状	-13878
必	-13879
份	-13880
又	-13881
石	-13882
村	-13883
离	-13884
均	-13885
监	-13886
满	-13887
适	-13888
旅	-13889
p	-13890
段	-13891
O	-13892
属	-13893
油	-13894
g	-13895
室	-13896
星	-13897
奖	-13898
她	-13899
几	-13900
融	-13901
音	-13902
克	-13903
仅	-13904
百	-13905
L	-13906
张	-13907
即	-13908
细	-13909
阳	-13910
置	-13911
便	-13912
算	-13913
汽	-13914
负	-13915
命	-13916
核	-13917
售	-13918
图	-13919
话	-13920
义	-13921
培	-13922
王	-13923
板	-13924
落	-13925
连	-13926
英	-13927
太	-13928
承	-13929
军	-13930
思	-13931
R	-13932
儿	-13933
层	-13934
依	-13935
许	-13936
益	-13937
拉	-13938
语	-13939
严	-13940
青	-13941
望	-13942
筑	-13943
按	-13944
举	-13945
充	-13946
N	-13947
林	-13948
铁	-13949
季	-13950
酒	-13951
围	-13952
减	-13953
象	-13954
什	-13955
河	-13956
款	-13957
店	-13958
互	-13959
走	-13960
险	-13961
住	-13962
皮	-13963
善	-13964
候	-13965
切	-13966
往	-13967
够	-13968
修	-13969
史	-13970
钢	-13971
红	-13972
念	-13973
终	-13974
策	-13975
免	-13976
土	-13977
普	-13978
微	-13979
良	-13980
括	-13981
失	-13982
疫	-13983
声	-13984
卫	-13985
双	-13986
含	-13987
航	-13988
言	-13989
录	-13990
批	-13991
争	-13992
购	-13993
富	-13994
坚	-13995
古	-13996
血	-13997
友	-13998
居	-13999
厂	-14000
初	-14001
财	-14002
博	-14003
班	-14004
火	-14005
群	-14006
版	-14007
像	-14008
密	-14009
远	-14010
黄	-14011
输	-14012
画	-14013
志	-14014
课	-14015
印	-14016
福	-14017
络	-14018
孩	-14019
y	-14020
律	-14021
兴	-14022
故	-14023
占	-14024
龙	-14025
纪	-14026
招	-14027
申	-14028
择	-14029
简	-14030
半	-14031
审	-14032
早	-14033
巴	-14034
b	-14035
角	-14036
边	-14037
湖	-14038
余	-14039
云	-14040
F	-14041
罗	-14042
额	-14043
银	-14044
轻	-14045
础	-14046
染	-14047
聚	-14048
执	-14049
觉	-14050
害	-14051
副	-14052
底	-14053
H	-14054
训	-14055
镇	-14056
剂	-14057
座	-14058
k	-14059
;	-14060
V	-14061
吸	-14062
介	-14063
综	-14064
癜	-14065
须	-14066
讲	-14067
补	-14068
剧	-14069
止	-14070
宝	-14071
污	-14072
担	-14073
继	-14074
临	-14075
读	-14076
欢	-14077
宣	-14078
希	-14079
拥	-14080
独	-14081
香	-14082
:	-14083
乡	-14084
竞	-14085
送	-14086
稳	-14087
编	-14088
/	-14089
突	-14090
尽	-14091
·	-14092
却	-14093
眼	-14094
略	-14095
破	-14096
留	-14097
港	-14098
味	-14099
般	-14100
李	-14101
纳	-14102
激	-14103
喜	-14104
写	-14105
欧	-14106
播	-14107
戏	-14108
症	-14109
另	-14110
绿	-14111
障	-14112
春	-14113
享	-14114
卡	-14115
千	-14116
绩	-14117
六	-14118
革	-14119
端	-14120
帮	-14121
冠	-14122
官	-14123
税	-14124
苏	-14125
亲	-14126
劳	-14127
木	-14128
货	-14129
曾	-14130
丰	-14131
馆	-14132
促	-14133
岁	-14134
换	-14135
载	-14136
移	-14137
洲	-14138
析	-14139
吃	-14140
授	-14141
抗	-14142
频	-14143
某	-14144
阿	-14145
您	-14146
波	-14147
毒	-14148
黑	-14149
序	-14150
待	-14151
击	-14152
兰	-14153
酸	-14154
伤	-14155
净	-14156
差	-14157
飞	-14158
短	-14159
征	-14160
异	-14161
秀	-14162
届	-14163
树	-14164
尼	-14165
彩	-14166
U	-14167
虽	-14168
愿	-14169
察	-14170
票	-14171
软	-14172
轮	-14173
买	-14174
饮	-14175
族	-14176
听	-14177
紧	-14178
佛	-14179
损	-14180
冷	-14181
著	-14182
W	-14183
疾	-14184
v	-14185
绍	-14186
索	-14187
庭	-14188
楼	-14189
液	-14190
男	-14191
仍	-14192
找	-14193
武	-14194
令	-14195
套	-14196
茶	-14197
章	-14198
固	-14199
毕	-14200
否	-14201
母	-14202
付	-14203
牛	-14204
登	-14205
八	-14206
奇	-14207
胜	-14208
典	-14209
歌	-14210
述	-14211
汉	-14212
宁	-14213
予	-14214
困	-14215
w	-14216
警	-14217
庆	-14218
遇	-14219
刻	-14220
停	-14221
f	-14222
贵	-14223
讯	-14224
危	-14225
钟	-14226
奥	-14227
逐	-14228
幅	-14229
谢	-14230
媒	-14231
献	-14232
死	-14233
晚	-14234
荣	-14235
闻	-14236
迎	-14237
绝	-14238
缺	-14239
诉	-14240
托	-14241
射	-14242
仪	-14243
探	-14244
挥	-14245
盖	-14246
K	-14247
脑	-14248
假	-14249
润	-14250
氧	-14251
植	-14252
曲	-14253
七	-14254
附	-14255
守	-14256
签	-14257
左	-14258
练	-14259
"	-14260
耐	-14261
九	-14262
饰	-14263
追	-14264
?	-14265
午	-14266
阶	-14267
械	-14268
册	-14269
右	-14270
透	-14271
甚	-14272
陈	-14273
久	-14274
辆	-14275
威	-14276
针	-14277
哪	-14278
川	-14279
督	-14280
急	-14281
佳	-14282
延	-14283
废	-14284
矿	-14285
块	-14286
扩	-14287
…	-14288
桥	-14289
草	-14290
启	-14291
储	-14292
退	-14293
童	-14294
似	-14295
杂	-14296
雨	-14297
厅	-14298
餐	-14299
炎	-14300
询	-14301
永	-14302
呢	-14303
脱	-14304
贸	-14305
丽	-14306
库	-14307
夫	-14308
若	-14309
努	-14310
靠	-14311
床	-14312
塑	-14313
诊	-14314
措	-14315
跟	-14316
巨	-14317
顺	-14318
洗	-14319
操	-14320
池	-14321
灵	-14322
粉	-14323
错	-14324
码	-14325
访	-14326
沙	-14327
街	-14328
菜	-14329
摄	-14330
拿	-14331
谈	-14332
零	-14333
救	-14334
背	-14335
松	-14336
订	-14337
链	-14338
席	-14339
叶	-14340
冲	-14341
朋	-14342
攻	-14343
夏	-14344
泛	-14345
+	-14346
刚	-14347
累	-14348
贫	-14349
玩	-14350
借	-14351
聘	-14352
励	-14353
避	-14354
散	-14355
键	-14356
盘	-14357
符	-14358
违	-14359
岛	-14360
硬	-14361
诚	-14362
熟	-14363
肉	-14364
顶	-14365
截	-14366
遗	-14367
藏	-14368
央	-14369
拍	-14370
岗	-14371
露	-14372
判	-14373
距	-14374
笔	-14375
怎	-14376
尚	-14377
胶	-14378
刘	-14379
币	-14380
宜	-14381
胞	-14382
田	-14383
亮	-14384
钱	-14385
顾	-14386
休	-14387
乎	-14388
架	-14389
涉	-14390
_	-14391
舞	-14392
渐	-14393
堂	-14394
厚	-14395
X	-14396
x	-14397
烈	-14398
盛	-14399
膜	-14400
陆	-14401
燃	-14402
雷	-14403
滑	-14404
甲	-14405
苦	-14406
触	-14407
尤	-14408
父	-14409
箱	-14410
览	-14411
盟	-14412
派	-14413
犯	-14414
灾	-14415
J	-14416
吨	-14417
疑	-14418
圣	-14419
鲜	-14420
答	-14421
罪	-14422
践	-14423
静	-14424
宗	-14425
肤	-14426
哈	-14427
梦	-14428
释	-14429
券	-14430
缩	-14431
归	-14432
慢	-14433
痛	-14434
夜	-14435
船	-14436
灯	-14437
租	-14438
封	-14439
讨	-14440
洋	-14441
址	-14442
誉	-14443
湾	-14444
玉	-14445
迪	-14446
伴	-14447
斗	-14448
峰	-14449
虑	-14450
混	-14451
礼	-14452
吉	-14453
朝	-14454
洁	-14455
既	-14456
幕	-14457
骨	-14458
丝	-14459
纸	-14460
湿	-14461
乘	-14462
慧	-14463
词	-14464
诗	-14465
涂	-14466
怀	-14467
宽	-14468
隔	-14469
牙	-14470
贡	-14471
齐	-14472
糖	-14473
悉	-14474
趣	-14475
鱼	-14476
圆	-14477
吗	-14478
贴	-14479
概	-14480
*	-14481
森	-14482
束	-14483
泰	-14484
邮	-14485
卖	-14486
坐	-14487
惠	-14488
途	-14489
鼓	-14490
穿	-14491
幸	-14492
汇	-14493
杯	-14494
挑	-14495
档	-14496
菌	-14497
呈	-14498
诺	-14499
杨	-14500
毛	-14501
纷	-14502
[	-14503
]	-14504
估	-14505
寻	-14506
雄	-14507
径	-14508
咨	-14509
末	-14510
雪	-14511
召	-14512
铝	-14513
圳	-14514
拟	-14515
津	-14516
旧	-14517
涨	-14518
塔	-14519
扬	-14520
　	-14521
屋	-14522
煤	-14523
跨	-14524
禁	-14525
!	-14526
秋	-14527
肥	-14528
握	-14529
萨	-14530
凝	-14531
吧	-14532
秘	-14533
缓	-14534
雅	-14535
脂	-14536
抓	-14537
掌	-14538
澳	-14539
趋	-14540
烟	-14541
董	-14542
宫	-14543
唱	-14544
旗	-14545
阵	-14546
赢	-14547
韩	-14548
杀	-14549
倍	-14550
妈	-14551
扶	-14552
伟	-14553
署	-14554
伦	-14555
殊	-14556
冬	-14557
呼	-14558
蓝	-14559
瑞	-14560
沉	-14561
页	-14562
罚	-14563
耗	-14564
私	-14565
腐	-14566
虚	-14567
兵	-14568
驾	-14569
暖	-14570
爆	-14571
拓	-14572
瓦	-14573
脚	-14574
彻	-14575
沿	-14576
鲁	-14577
刺	-14578
映	-14579
沟	-14580
迷	-14581
恶	-14582
浙	-14583
阅	-14584
纯	-14585
坏	-14586
援	-14587
野	-14588
蛋	-14589
龄	-14590
碳	-14591
衣	-14592
跑	-14593
笑	-14594
奋	-14595
贷	-14596
搭	-14597
叫	-14598
塞	-14599
繁	-14600
贯	-14601
勇	-14602
亦	-14603
冰	-14604
庄	-14605
误	-14606
墙	-14607
篇	-14608
伊	-14609
遍	-14610
．	-14611
癌	-14612
裁	-14613
洛	-14614
镜	-14615
驶	-14616
z	-14617
宾	-14618
阻	-14619
覆	-14620
浓	-14621
侵	-14622
句	-14623
暴	-14624
侧	-14625
烯	-14626
震	-14627
皇	-14628
泥	-14629
谷	-14630
寿	-14631
婚	-14632
磨	-14633
倒	-14634
屏	-14635
玻	-14636
循	-14637
恩	-14638
债	-14639
璃	-14640
哥	-14641
’	-14642
俄	-14643
潮	-14644
肺	-14645
刑	-14646
梅	-14647
绕	-14648
伙	-14649
恢	-14650
潜	-14651
隐	-14652
泡	-14653
弱	-14654
闭	-14655
唐	-14656
妇	-14657
迅	-14658
圈	-14659
孔	-14660
兼	-14661
缘	-14662
败	-14663
Q	-14664
宿	-14665
杰	-14666
烧	-14667
肯	-14668
盐	-14669
惊	-14670
苗	-14671
摩	-14672
卷	-14673
详	-14674
敬	-14675
浪	-14676
乙	-14677
折	-14678
焦	-14679
顿	-14680
弹	-14681
梁	-14682
翻	-14683
衡	-14684
辅	-14685
恒	-14686
弃	-14687
辑	-14688
溶	-14689
填	-14690
伍	-14691
漫	-14692
偏	-14693
墨	-14694
蒙	-14695
帝	-14696
敏	-14697
℃	-14698
递	-14699
窗	-14700
轨	-14701
凡	-14702
勤	-14703
唯	-14704
癣	-14705
耳	-14706
振	-14707
胡	-14708
‘	-14709
坡	-14710
亡	-14711
宇	-14712
刷	-14713
毫	-14714
筹	-14715
邀	-14716
嘉	-14717
颜	-14718
惯	-14719
朗	-14720
贝	-14721
铜	-14722
郑	-14723
刊	-14724
楚	-14725
吴	-14726
篮	-14727
】	-14728
忘	-14729
豪	-14730
【	-14731
～	-14732
孙	-14733
缴	-14734
竟	-14735
榜	-14736
粒	-14737
珠	-14738
~	-14739
坛	-14740
凭	-14741
醒	-14742
莱	-14743
丹	-14744
残	-14745
暂	-14746
诸	-14747
轴	-14748
携	-14749
炼	-14750
添	-14751
荐	-14752
乱	-14753
脉	-14754
赞	-14755
谓	-14756
迹	-14757
替	-14758
泉	-14759
鉴	-14760
甘	-14761
抽	-14762
阴	-14763
麻	-14764
腾	-14765
幼	-14766
捷	-14767
孕	-14768
猪	-14769
谁	-14770
赏	-14771
喷	-14772
洪	-14773
栏	-14774
寒	-14775
弟	-14776
掉	-14777
遵	-14778
胃	-14779
尊	-14780
迁	-14781
扎	-14782
伯	-14783
返	-14784
祖	-14785
颗	-14786
籍	-14787
怕	-14788
挂	-14789
乌	-14790
紫	-14791
旨	-14792
戴	-14793
祝	-14794
硕	-14795
曼	-14796
豆	-14797
舒	-14798
饭	-14799
乳	-14800
昌	-14801
娱	-14802
岸	-14803
纤	-14804
愈	-14805
莫	-14806
闲	-14807
辛	-14808
Y	-14809
奶	-14810
姆	-14811
默	-14812
偿	-14813
涵	-14814
晶	-14815
斑	-14816
隆	-14817
宏	-14818
遭	-14819
岩	-14820
尘	-14821
麦	-14822
凯	-14823
徽	-14824
账	-14825
锋	-14826
垃	-14827
姓	-14828
忆	-14829
仁	-14830
氨	-14831
圾	-14832
赵	-14833
丁	-14834
洞	-14835
荷	-14836
抢	-14837
悲	-14838
淡	-14839
绘	-14840
灭	-14841
乏	-14842
橡	-14843
锈	-14844
滤	-14845
肠	-14846
殖	-14847
蚀	-14848
抵	-14849
驻	-14850
辉	-14851
％	-14852
描	-14853
胎	-14854
雕	-14855
宋	-14856
葡	-14857
杆	-14858
译	-14859
坦	-14860
肿	-14861
勒	-14862
旦	-14863
粘	-14864
横	-14865
磁	-14866
亩	-14867
巧	-14868
徐	-14869
畅	-14870
纽	-14871
芯	-14872
谱	-14873
壁	-14874
氏	-14875
肌	-14876
壮	-14877
羊	-14878
跌	-14879
俱	-14880
搜	-14881
绪	-14882
脸	-14883
朱	-14884
俗	-14885
鸡	-14886
浮	-14887
尾	-14888
珍	-14889
拔	-14890
炭	-14891
喝	-14892
渠	-14893
薄	-14894
萄	-14895
炉	-14896
撑	-14897
舍	-14898
晓	-14899
=	-14900
裂	-14901
厦	-14902
陶	-14903
灰	-14904
旋	-14905
睡	-14906
碍	-14907
杭	-14908
刀	-14909
Z	-14910
夺	-14911
驱	-14912
泽	-14913
瘤	-14914
扣	-14915
晨	-14916
仓	-14917
寺	-14918
履	-14919
昆	-14920
泵	-14921
井	-14922
埃	-14923
伏	-14924
徒	-14925
伸	-14926
跃	-14927
颁	-14928
尿	-14929
丙	-14930
柔	-14931
辖	-14932
陷	-14933
菲	-14934
拜	-14935
琴	-14936
陕	-14937
奏	-14938
棋	-14939
锅	-14940
稿	-14941
暗	-14942
尖	-14943
秦	-14944
敢	-14945
奉	-14946
宅	-14947
慈	-14948
欣	-14949
蒸	-14950
恐	-14951
肝	-14952
摆	-14953
虫	-14954
跳	-14955
蔬	-14956
汤	-14957
柱	-14958
拼	-14959
巡	-14960
铺	-14961
寸	-14962
迈	-14963
赖	-14964
锁	-14965
尺	-14966
桃	-14967
氛	-14968
牢	-14969
艾	-14970
瓷	-14971
廉	-14972
佩	-14973
剑	-14974
捐	-14975
粮	-14976
偶	-14977
尝	-14978
腔	-14979
倾	-14980
懂	-14981
杜	-14982
燥	-14983
盈	-14984
黎	-14985
挖	-14986
甜	-14987
卓	-14988
仿	-14989
谋	-14990
虎	-14991
漏	-14992
貌	-14993
悬	-14994
忠	-14995
抱	-14996
君	-14997
滴	-14998
瓶	-14999
脏	-15000
欲	-15001
秒	-15002
迫	-15003
晋	-15004
忙	-15005
掘	-15006
爸	-15007
凉	-15008
竹	-15009
妻	-15010
瓜	-15011
硅	-15012
胺	-15013
纹	-15014
抑	-15015
谐	-15016
扰	-15017
赶	-15018
阀	-15019
扫	-15020
卵	-15021
螺	-15022
邦	-15023
溪	-15024
鸟	-15025
插	-15026
妙	-15027
魔	-15028
滨	-15029
腹	-15030
彼	-15031
疆	-15032
乃	-15033
苹	-15034
碎	-15035
艰	-15036
函	-15037
堡	-15038
锦	-15039
邻	-15040
蒂	-15041
拆	-15042
耶	-15043
冻	-15044
逆	-15045
缝	-15046
冒	-15047
焊	-15048
劲	-15049
仙	-15050
忧	-15051
鼻	-15052
郁	-15053
齿	-15054
旁	-15055
罩	-15056
役	-15057
雾	-15058
纵	-15059
沈	-15060
踏	-15061
梯	-15062
崇	-15063
阔	-15064
忽	-15065
迟	-15066
薪	-15067
怪	-15068
诱	-15069
沃	-15070
胆	-15071
募	-15072
兄	-15073
剩	-15074
屑	-15075
酯	-15076
婴	-15077
牵	-15078
牧	-15079
肃	-15080
醇	-15081
皆	-15082
拨	-15083
姐	-15084
揭	-15085
玛	-15086
昨	-15087
锌	-15088
幻	-15089
硫	-15090
亏	-15091
癫	-15092
哲	-15093
恋	-15094
烦	-15095
氢	-15096
痫	-15097
锡	-15098
凤	-15099
允	-15100
疏	-15101
祥	-15102
壳	-15103
弗	-15104
妹	-15105
秉	-15106
弘	-15107
啊	-15108
衰	-15109
斤	-15110
缆	-15111
猫	-15112
纺	-15113
赠	-15114
披	-15115
辞	-15116
莲	-15117
砂	-15118
渗	-15119
锻	-15120
拒	-15121
乔	-15122
彰	-15123
铸	-15124
摘	-15125
赋	-15126
狂	-15127
辽	-15128
赁	-15129
渡	-15130
漆	-15131
诵	-15132
镀	-15133
冶	-15134
寄	-15135
诞	-15136
厨	-15137
陪	-15138
浦	-15139
逃	-15140
削	-15141
赴	-15142
鹏	-15143
淘	-15144
碑	-15145
壤	-15146
奔	-15147
氯	-15148
稀	-15149
颈	-15150
桂	-15151
菩	-15152
腺	-15153
仔	-15154
罐	-15155
陵	-15156
枝	-15157
粗	-15158
坊	-15159
蓄	-15160
骑	-15161
闪	-15162
旺	-15163
柳	-15164
擦	-15165
柏	-15166
框	-15167
卢	-15168
敌	-15169
霍	-15170
砖	-15171
纠	-15172
蟹	-15173
倡	-15174
帕	-15175
咖	-15176
桌	-15177
踪	-15178
遥	-15179
泳	-15180
灌	-15181
岭	-15182
浆	-15183
淀	-15184
臭	-15185
盾	-15186
袋	-15187
契	-15188
惜	-15189
贤	-15190
饱	-15191
悟	-15192
狗	-15193
炸	-15194
芳	-15195
堆	-15196
悦	-15197
敦	-15198
浩	-15199
烘	-15200
埋	-15201
辨	-15202
芝	-15203
苯	-15204
耕	-15205
孤	-15206
j	-15207
弥	-15208
郭	-15209
眠	-15210
割	-15211
爷	-15212
嫌	-15213
碱	-15214
矩	-15215
桑	-15216
搬	-15217
忍	-15218
撞	-15219
睛	-15220
滚	-15221
钙	-15222
囊	-15223
摇	-15224
肪	-15225
辈	-15226
拖	-15227
叉	-15228
辐	-15229
暑	-15230
聊	-15231
酰	-15232
厘	-15233
涯	-15234
噪	-15235
泌	-15236
漂	-15237
耀	-15238
谨	-15239
赫	-15240
辣	-15241
曹	-15242
棒	-15243
凌	-15244
氟	-15245
咒	-15246
腰	-15247
淮	-15248
疼	-15249
疲	-15250
匀	-15251
滋	-15252
吹	-15253
湘	-15254
番	-15255
赔	-15256
廊	-15257
悠	-15258
柜	-15259
浅	-15260
挤	-15261
祭	-15262
慎	-15263
�	-15264
肾	-15265
蹈	-15266
暨	-15267
奈	-15268
摸	-15269
寓	-15270
毁	-15271
碰	-15272
泄	-15273
伐	-15274
慰	-15275
逊	-15276
鞋	-15277
袭	-15278
舰	-15279
辩	-15280
艳	-15281
俊	-15282
弯	-15283
寨	-15284
昂	-15285
钻	-15286
兹	-15287
汁	-15288
晰	-15289
庙	-15290
堵	-15291
棚	-15292
犹	-15293
×	-15294
啡	-15295
柴	-15296
稍	-15297
垂	-15298
骗	-15299
吊	-15300
－	-15301
穷	-15302
浸	-15303
汗	-15304
颖	-15305
逾	-15306
桶	-15307
煌	-15308
魅	-15309
贺	-15310
馈	-15311
朴	-15312
擎	-15313
嘴	-15314
盒	-15315
盗	-15316
栋	-15317
催	-15318
〔	-15319
鼠	-15320
〕	-15321
匹	-15322
帅	-15323
恰	-15324
闸	-15325
搞	-15326
胀	-15327
―	-15328
涌	-15329
赤	-15330
妆	-15331
仲	-15332
吐	-15333
娜	-15334
撤	-15335
胸	-15336
酷	-15337
鬼	-15338
锐	-15339
棉	-15340
丘	-15341
夹	-15342
廷	-15343
０	-15344
墓	-15345
荡	-15346
仰	-15347
曝	-15348
捕	-15349
浏	-15350
姜	-15351
戒	-15352
烂	-15353
颇	-15354
讼	-15355
鸣	-15356
陀	-15357
劣	-15358
魂	-15359
殿	-15360
押	-15361
馨	-15362
晒	-15363
碧	-15364
坪	-15365
朵	-15366
姿	-15367
魏	-15368
驰	-15369
株	-15370
猛	-15371
坝	-15372
塘	-15373
扭	-15374
串	-15375
娃	-15376
勃	-15377
燕	-15378
箭	-15379
兽	-15380
剪	-15381
磷	-15382
肩	-15383
奠	-15384
丧	-15385
筒	-15386
鸿	-15387
幽	-15388
闹	-15389
霸	-15390
腿	-15391
淋	-15392
胁	-15393
赚	-15394
矛	-15395
纲	-15396
丈	-15397
峡	-15398
御	-15399
拌	-15400
柯	-15401
蜜	-15402
雇	-15403
１	-15404
滩	-15405
芽	-15406
盲	-15407
孟	-15408
彭	-15409
栽	-15410
盆	-15411
肖	-15412
绵	-15413
渔	-15414
粤	-15415
叠	-15416
扮	-15417
旬	-15418
勘	-15419
庞	-15420
q	-15421
斜	-15422
莉	-15423
搏	-15424
舟	-15425
芬	-15426
#	-15427
翼	-15428
扑	-15429
浴	-15430
攀	-15431
炒	-15432
忌	-15433
枪	-15434
爽	-15435
邓	-15436
挺	-15437
沫	-15438
侨	-15439
煮	-15440
筛	-15441
谊	-15442
'	-15443
娘	-15444
弄	-15445
窄	-15446
郎	-15447
莎	-15448
阁	-15449
泪	-15450
荒	-15451
饼	-15452
秩	-15453
宙	-15454
鼎	-15455
亭	-15456
擅	-15457
桩	-15458
胖	-15459
酶	-15460
氮	-15461
泊	-15462
姻	-15463
臂	-15464
枢	-15465
孝	-15466
岳	-15467
°	-15468
沪	-15469
逻	-15470
欠	-15471
偷	-15472
怒	-15473
韵	-15474
韦	-15475
竭	-15476
蜂	-15477
屈	-15478
羽	-15479
逢	-15480
•	-15481
&	-15482
挡	-15483
熊	-15484
抛	-15485
钠	-15486
侠	-15487
伪	-15488
卧	-15489
溢	-15490
饲	-15491
堪	-15492
醉	-15493
涛	-15494
卜	-15495
骤	-15496
婆	-15497
糕	-15498
叙	-15499
妥	-15500
２	-15501
汰	-15502
─	-15503
隧	-15504
熔	-15505
茂	-15506
蔡	-15507
艇	-15508
烤	-15509
痕	-15510
叹	-15511
酬	-15512
鹿	-15513
懈	-15514
鑫	-15515
脾	-15516
腊	-15517
慕	-15518
臣	-15519
垫	-15520
槽	-15521
惑	-15522
傅	-15523
怨	-15524
撒	-15525
丢	-15526
脆	-15527
茨	-15528
拳	-15529
搅	-15530
渴	-15531
兆	-15532
衔	-15533
杉	-15534
漠	-15535
姑	-15536
戈	-15537
畜	-15538
郊	-15539
坑	-15540
潭	-15541
宴	-15542
枚	-15543
筋	-15544
衷	-15545
毅	-15546
铭	-15547
滞	-15548
瞬	-15549
穆	-15550
厉	-15551
帆	-15552
逸	-15553
夕	-15554
翔	-15555
抚	-15556
洒	-15557
稻	-15558
蕴	-15559
侯	-15560
厌	-15561
啦	-15562
凸	-15563
遣	-15564
飘	-15565
聪	-15566
虹	-15567
贾	-15568
侦	-15569
髓	-15570
翰	-15571
巢	-15572
袁	-15573
汛	-15574
韧	-15575
萝	-15576
禅	-15577
溃	-15578
卸	-15579
惧	-15580
@	-15581
衍	-15582
匠	-15583
儒	-15584
狮	-15585
炮	-15586
糊	-15587
酿	-15588
肢	-15589
霞	-15590
陌	-15591
茅	-15592
蓬	-15593
鸭	-15594
猎	-15595
酱	-15596
椒	-15597
锂	-15598
冯	-15599
删	-15600
嫩	-15601
犬	-15602
咸	-15603
曰	-15604
裕	-15605
恼	-15606
瘦	-15607
愉	-15608
宪	-15609
椅	-15610
洽	-15611
膨	-15612
巩	-15613
旱	-15614
衬	-15615
哭	-15616
丛	-15617
椎	-15618
疯	-15619
帽	-15620
腻	-15621
斌	-15622
爬	-15623
狼	-15624
拘	-15625
喻	-15626
眉	-15627
傲	-15628
佐	-15629
吾	-15630
琳	-15631
宠	-15632
黏	-15633
疹	-15634
鹰	-15635
舶	-15636
／	-15637
袖	-15638
歇	-15639
翠	-15640
脊	-15641
峻	-15642
狱	-15643
遮	-15644
缸	-15645
逼	-15646
铅	-15647
撰	-15648
澄	-15649
巷	-15650
垢	-15651
憾	-15652
芒	-15653
溯	-15654
悔	-15655
脐	-15656
誓	-15657
诈	-15658
猜	-15659
隙	-15660
昭	-15661
绳	-15662
梨	-15663
葱	-15664
霉	-15665
湛	-15666
玄	-15667
吕	-15668
烹	-15669
遂	-15670
弦	-15671
竣	-15672
菱	-15673
畏	-15674
吞	-15675
碗	-15676
旭	-15677
冈	-15678
抹	-15679
渣	-15680
醛	-15681
菊	-15682
藤	-15683
熙	-15684
蛇	-15685
酚	-15686
狐	-15687
葛	-15688
屡	-15689
渝	-15690
睐	-15691
葬	-15692
顽	-15693
牲	-15694
酵	-15695
潘	-15696
苍	-15697
莞	-15698
逝	-15699
姚	-15700
抄	-15701
奴	-15702
窑	-15703
萧	-15704
阐	-15705
叔	-15706
梳	-15707
欺	-15708
咽	-15709
>	-15710
巾	-15711
罕	-15712
呆	-15713
惨	-15714
窝	-15715
舌	-15716
冀	-15717
昏	-15718
穴	-15719
霜	-15720
惩	-15721
瓣	-15722
辟	-15723
隶	-15724
仇	-15725
歧	-15726
沧	-15727
艘	-15728
禽	-15729
敲	-15730
唤	-15731
芦	-15732
杏	-15733
虾	-15734
兑	-15735
柿	-15736
咳	-15737
盼	-15738
鹤	-15739
勿	-15740
茎	-15741
晴	-15742
涤	-15743
笼	-15744
郡	-15745
凰	-15746
劝	-15747
摊	-15748
卉	-15749
夸	-15750
赐	-15751
硝	-15752
恨	-15753
邪	-15754
甸	-15755
痒	-15756
踢	-15757
纱	-15758
膏	-15759
→	-15760
・	-15761
玲	-15762
喊	-15763
祈	-15764
舱	-15765
奢	-15766
祸	-15767
爵	-15768
狭	-15769
绸	-15770
詹	-15771
轩	-15772
孵	-15773
浇	-15774
剥	-15775
扇	-15776
麟	-15777
悄	-15778
‍	-15779
瑰	-15780
絮	-15781
厕	-15782
荧	-15783
靖	-15784
掩	-15785
啤	-15786
豫	-15787
刹	-15788
猴	-15789
绎	-15790
妨	-15791
	-15792
堤	-15793
捧	-15794
轰	-15795
轿	-15796
辰	-15797
骄	-15798
枣	-15799
烷	-15800
喉	-15801
沸	-15802
灿	-15803
吁	-15804
磊	-15805
〈	-15806
斥	-15807
瞻	-15808
挪	-15809
谭	-15810
闷	-15811
矶	-15812
糟	-15813
蒋	-15814
铃	-15815
槛	-15816
苑	-15817
茄	-15818
〉	-15819
挫	-15820
稣	-15821
贪	-15822
泼	-15823
翁	-15824
劫	-15825
抬	-15826
痴	-15827
驳	-15828
兔	-15829
荆	-15830
萌	-15831
褐	-15832
а	-15833
卑	-15834
牺	-15835
肚	-15836
谣	-15837
垒	-15838
尸	-15839
扁	-15840
窦	-15841
茫	-15842
顷	-15843
颠	-15844
勾	-15845
抖	-15846
阜	-15847
妮	-15848
丸	-15849
崛	-15850
愤	-15851
躁	-15852
剖	-15853
熬	-15854
瑟	-15855
凑	-15856
寂	-15857
栓	-15858
栖	-15859
紊	-15860
萍	-15861
刮	-15862
哦	-15863
蕾	-15864
鹅	-15865
	-15866
怖	-15867
撼	-15868
嫁	-15869
宰	-15870
嵌	-15871
邵	-15872
​	-15873
夯	-15874
晕	-15875
缅	-15876
凶	-15877
帐	-15878
捉	-15879
缠	-15880
薛	-15881
枯	-15882
桐	-15883
绑	-15884
罢	-15885
蜡	-15886
匈	-15887
哀	-15888
酮	-15889
愁	-15890
橙	-15891
裔	-15892
醋	-15893
谦	-15894
墅	-15895
慨	-15896
疡	-15897
诠	-15898
滥	-15899
钛	-15900
坎	-15901
崔	-15902
胚	-15903
坤	-15904
咬	-15905
и	-15906
塌	-15907
浑	-15908
瘾	-15909
怡	-15910
涡	-15911
琼	-15912
汕	-15913
彦	-15914
泻	-15915
帘	-15916
庸	-15917
樱	-15918
沂	-15919
狠	-15920
迄	-15921
é	-15922
舆	-15923
鄂	-15924
襄	-15925
栗	-15926
о	-15927
乒	-15928
勉	-15929
鳞	-15930
伽	-15931
睿	-15932
畔	-15933
㎡	-15934
萎	-15935
谅	-15936
呀	-15937
潇	-15938
埔	-15939
夷	-15940
渊	-15941
撕	-15942
汪	-15943
纬	-15944
崩	-15945
磅	-15946
僧	-15947
揽	-15948
斩	-15949
孢	-15950
裹	-15951
闯	-15952
匆	-15953
卿	-15954
窃	-15955
５	-15956
焚	-15957
蛮	-15958
鲍	-15959
３	-15960
垄	-15961
澜	-15962
轧	-15963
$	-15964
с	-15965
●	-15966
惟	-15967
瀑	-15968
谜	-15969
蔓	-15970
<	-15971
厄	-15972
弧	-15973
–	-15974
帖	-15975
煎	-15976
	-15977
亨	-15978
	-15979
勋	-15980
掀	-15981
梭	-15982
畴	-15983
	-15984
栅	-15985
祀	-15986
贮	-15987
昔	-15988
薇	-15989
玫	-15990
	-15991
瑜	-15992
丑	-15993
凹	-15994
粥	-15995
敞	-15996
绒	-15997
	-15998
呵	-15999
梗	-16000
藻	-16001
霾	-16002
伞	-16003
杞	-16004
棵	-16005
碌	-16006
闽	-16007
颂	-16008
屿	-16009
柄	-16010
枫	-16011
蜀	-16012
蝶	-16013
辱	-16014
钥	-16015
镑	-16016
	-16017
挣	-16018
①	-16019
愧	-16020
珊	-16021
祷	-16022
锤	-16023
粹	-16024
遴	-16025
俩	-16026
沥	-16027
雀	-16028
屠	-16029
麒	-16030
迦	-16031
	-16032
仑	-16033
恭	-16034
蒜	-16035
躲	-16036
	-16037
	-16038
喀	-16039
彬	-16040
沛	-16041
镍	-16042
龟	-16043
喂	-16044
挚	-16045
焕	-16046
迭	-16047
饪	-16048
崖	-16049
聆	-16050
贞	-16051
贩	-16052
	-16053
②	-16054
僵	-16055
弊	-16056
腕	-16057
蔽	-16058
裙	-16059
挽	-16060
瑶	-16061
镁	-16062
乾	-16063
泸	-16064
骂	-16065
н	-16066
竖	-16067
钩	-16068
厢	-16069
膀	-16070
膳	-16071
耍	-16072
菇	-16073
饿	-16074
坠	-16075
帷	-16076
＋	-16077
捞	-16078
	-16079
侣	-16080
尹	-16081
拾	-16082
毗	-16083
仗	-16084
灶	-16085
瞩	-16086
	-16087
琪	-16088
蓉	-16089
薯	-16090
骏	-16091
棕	-16092
弓	-16093
戚	-16094
敷	-16095
樊	-16096
钉	-16097
	-16098
慌	-16099
绣	-16100
妖	-16101
崭	-16102
摔	-16103
钓	-16104
肆	-16105
烃	-16106
筝	-16107
赣	-16108
倪	-16109
壶	-16110
旷	-16111
枸	-16112
榨	-16113
沾	-16114
砍	-16115
钦	-16116
‧	-16117
嗽	-16118
孜	-16119
斋	-16120
蔚	-16121
叛	-16122
呕	-16123
焰	-16124
稠	-16125
蚁	-16126
躺	-16127
颅	-16128
黔	-16129
炫	-16130
矫	-16131
脓	-16132
荫	-16133
裸	-16134
巅	-16135
胰	-16136
邢	-16137
洱	-16138
趁	-16139
４	-16140
咱	-16141
梵	-16142
疮	-16143
祂	-16144
е	-16145
娇	-16146
娟	-16147
肇	-16148
奎	-16149
漳	-16150
秆	-16151
羡	-16152
坞	-16153
娥	-16154
缔	-16155
莹	-16156
	-16157
羞	-16158
逛	-16159
愚	-16160
铬	-16161
	-16162
★	-16163
吵	-16164
涅	-16165
榄	-16166
殷	-16167
歉	-16168
烫	-16169
蕉	-16170
宵	-16171
滇	-16172
畸	-16173
赌	-16174
邹	-16175
钮	-16176
吓	-16177
拦	-16178
榆	-16179
渤	-16180
饶	-16181
佣	-16182
嘱	-16183
甫	-16184
魄	-16185
﻿	-16186
甄	-16187
芙	-16188
拯	-16189
拱	-16190
橘	-16191
澎	-16192
牡	-16193
膝	-16194
匙	-16195
汝	-16196
|	-16197
р	-16198
晖	-16199
毯	-16200
禄	-16201
т	-16202
钾	-16203
吻	-16204
睹	-16205
砌	-16206
婷	-16207
楠	-16208
骁	-16209
骚	-16210
唇	-16211
疱	-16212
裤	-16213
贿	-16214
怜	-16215
檀	-16216
驴	-16217
	-16218
皱	-16219
俭	-16220
侍	-16221
氰	-16222
绽	-16223
翅	-16224
萤	-16225
酪	-16226
雁	-16227
刃	-16228
廖	-16229
豹	-16230
趟	-16231
佑	-16232
倦	-16233
矣	-16234
砺	-16235
霆	-16236
懒	-16237
虐	-16238
嗜	-16239
粪	-16240
莓	-16241
	-16242
傍	-16243
汀	-16244
涩	-16245
仕	-16246
棘	-16247
邱	-16248
鞭	-16249
喘	-16250
幢	-16251
盯	-16252
苛	-16253
釉	-16254
湃	-16255
踩	-16256
屯	-16257
熏	-16258
杠	-16259
芜	-16260
匪	-16261
堰	-16262
尬	-16263
楷	-16264
皂	-16265
秸	-16266
虞	-16267
讽	-16268
霖	-16269
μ	-16270
俯	-16271
惕	-16272
扳	-16273
籽	-16274
③	-16275
卤	-16276
寡	-16277
恳	-16278
珀	-16279
矮	-16280
飙	-16281
兢	-16282
簿	-16283
锣	-16284
锰	-16285
乓	-16286
扔	-16287
晃	-16288
橄	-16289
瞄	-16290
姨	-16291
宛	-16292
溉	-16293
痰	-16294
祠	-16295
窟	-16296
靶	-16297
尴	-16298
沼	-16299
琐	-16300
禧	-16301
６	-16302
稽	-16303
绞	-16304
铲	-16305
墩	-16306
壹	-16307
婉	-16308
狄	-16309
疤	-16310
\	-16311
剔	-16312
抒	-16313
炬	-16314
笋	-16315
糙	-16316
萃	-16317
贬	-16318
钝	-16319
侈	-16320
椰	-16321
浊	-16322
↑	-16323
喇	-16324
磋	-16325
缀	-16326
骼	-16327
伺	-16328
冕	-16329
涝	-16330
渭	-16331
祛	-16332
酥	-16333
卒	-16334
拭	-16335
牟	-16336
篆	-16337
к	-16338
妄	-16339
淳	-16340
葫	-16341
踊	-16342
吟	-16343
砸	-16344
耿	-16345
蒲	-16346
鞍	-16347
喧	-16348
梓	-16349
秤	-16350
讶	-16351
颤	-16352
恪	-16353
椭	-16354
雌	-16355
９	-16356
汞	-16357
瘫	-16358
锯	-16359
饥	-16360
`	-16361
砥	-16362
祁	-16363
佼	-16364
哺	-16365
粽	-16366
蚕	-16367
潍	-16368
谎	-16369
崎	-16370
漓	-16371
醚	-16372
枕	-16373
澈	-16374
糯	-16375
袍	-16376
锥	-16377
嘛	-16378
芭	-16379
韶	-16380
亢	-16381
帜	-16382
昼	-16383
耘	-16384
咀	-16385
啥	-16386
嘲	-16387
彤	-16388
淹	-16389
邑	-16390
黛	-16391
◆	-16392
嫦	-16393
峪	-16394
昊	-16395
碟	-16396
娅	-16397
媚	-16398
琉	-16399
璧	-16400
脖	-16401
赎	-16402
酋	-16403
仆	-16404
叮	-16405
澡	-16406
遏	-16407
７	-16408
柠	-16409
檬	-16410
爪	-16411
硒	-16412
穗	-16413
篷	-16414
辜	-16415
韭	-16416
咪	-16417
拐	-16418
摧	-16419
葵	-16420
８	-16421
傻	-16422
蚊	-16423
庚	-16424
诫	-16425
馏	-16426
≤	-16427
巫	-16428
濒	-16429
靓	-16430
▲	-16431
の	-16432
奕	-16433
廓	-16434
惹	-16435
栈	-16436
淤	-16437
绚	-16438
﹐	-16439
柬	-16440
舜	-16441
馅	-16442
汶	-16443
隋	-16444
匿	-16445
禾	-16446
庐	-16447
棱	-16448
荔	-16449
哨	-16450
溜	-16451
瘙	-16452
в	-16453
冥	-16454
勺	-16455
坯	-16456
巍	-16457
怠	-16458
沦	-16459
淑	-16460
耻	-16461
靡	-16462
娄	-16463
寞	-16464
耽	-16465
′	-16466
昧	-16467
洼	-16468
瞒	-16469
禹	-16470
簧	-16471
跻	-16472
躯	-16473
嫂	-16474
挨	-16475
掺	-16476
嚼	-16477
骆	-16478
沐	-16479
炙	-16480
甩	-16481
埠	-16482
麓	-16483
Ⅱ	-16484
亟	-16485
恤	-16486
衫	-16487
诀	-16488
饺	-16489
○	-16490
僻	-16491
尧	-16492
灼	-16493
茜	-16494
妊	-16495
姬	-16496
弈	-16497
沁	-16498
蚂	-16499
蹄	-16500
扯	-16501
渍	-16502
腌	-16503
＂	-16504
汲	-16505
淄	-16506
窥	-16507
笛	-16508
霄	-16509
槟	-16510
涟	-16511
纶	-16512
肴	-16513
奸	-16514
楞	-16515
卦	-16516
娠	-16517
暇	-16518
泾	-16519
肋	-16520
±	-16521
挛	-16522
捏	-16523
棠	-16524
盎	-16525
眷	-16526
缚	-16527
芹	-16528
莅	-16529
镖	-16530
圩	-16531
妃	-16532
恕	-16533
揉	-16534
觅	-16535
β	-16536
忱	-16537
敛	-16538
灸	-16539
痘	-16540
褪	-16541
ー	-16542
墟	-16543
孚	-16544
沮	-16545
蔗	-16546
豁	-16547
贼	-16548
邨	-16549
鸥	-16550
丞	-16551
圭	-16552
挠	-16553
虔	-16554
嗅	-16555
捡	-16556
滕	-16557
腥	-16558
蝉	-16559
蹲	-16560
咏	-16561
寥	-16562
惰	-16563
曦	-16564
栩	-16565
槐	-16566
缕	-16567
闫	-16568
堕	-16569
惫	-16570
桓	-16571
钼	-16572
驿	-16573
冤	-16574
歪	-16575
潢	-16576
睾	-16577
笨	-16578
缮	-16579
酌	-16580
☆	-16581
峨	-16582
扛	-16583
泣	-16584
瘀	-16585
稚	-16586
笃	-16587
翘	-16588
雯	-16589
碘	-16590
羲	-16591
④	-16592
渲	-16593
瘟	-16594
郝	-16595
镶	-16596
陇	-16597
颌	-16598
嗓	-16599
暮	-16600
铵	-16601
陋	-16602
嚣	-16603
琦	-16604
矢	-16605
蛛	-16606
俞	-16607
盏	-16608
肽	-16609
茵	-16610
®	-16611
α	-16612
喔	-16613
岂	-16614
捣	-16615
楂	-16616
缤	-16617
菠	-16618
哑	-16619
媳	-16620
悍	-16621
掏	-16622
晤	-16623
淇	-16624
瑚	-16625
羟	-16626
翡	-16627
锚	-16628
倚	-16629
斐	-16630
桔	-16631
绛	-16632
荟	-16633
蝴	-16634
蹦	-16635
逮	-16636
鸦	-16637
冉	-16638
炖	-16639
璨	-16640
陡	-16641
苔	-16642
荨	-16643
蝎	-16644
譬	-16645
辊	-16646
颐	-16647
倘	-16648
咐	-16649
坷	-16650
垦	-16651
岚	-16652
掠	-16653
朔	-16654
朽	-16655
炳	-16656
疣	-16657
蕊	-16658
 	-16659
兜	-16660
屹	-16661
拢	-16662
琅	-16663
琢	-16664
璀	-16665
皖	-16666
菅	-16667
藉	-16668
雏	-16669
靴	-16670
驼	-16671
柚	-16672
痪	-16673
钰	-16674
≥	-16675
佬	-16676
凿	-16677
匮	-16678
寝	-16679
蛙	-16680
钨	-16681
阮	-16682
尉	-16683
桦	-16684
琶	-16685
侃	-16686
樟	-16687
猕	-16688
祎	-16689
哮	-16690
淫	-16691
窘	-16692
乞	-16693
凳	-16694
哆	-16695
坟	-16696
庵	-16697
棍	-16698
犀	-16699
玮	-16700
硼	-16701
礁	-16702
蚌	-16703
啸	-16704
烛	-16705
罹	-16706
翩	-16707
∶	-16708
乖	-16709
呐	-16710
噬	-16711
溺	-16712
煲	-16713
玺	-16714
翟	-16715
胱	-16716
莴	-16717
裴	-16718
豚	-16719
逗	-16720
钞	-16721
雍	-16722
岐	-16723
彝	-16724
悼	-16725
猿	-16726
轼	-16727
鲤	-16728
叭	-16729
吋	-16730
檐	-16731
淬	-16732
焙	-16733
秃	-16734
蜗	-16735
嘎	-16736
娶	-16737
榴	-16738
沱	-16739
焉	-16740
睦	-16741
馥	-16742
魁	-16743
鳌	-16744
­	-16745
咤	-16746
晟	-16747
町	-16748
瞰	-16749
簇	-16750
耸	-16751
á	-16752
弛	-16753
毋	-16754
眩	-16755
诡	-16756
姊	-16757
扒	-16758
攒	-16759
熄	-16760
睁	-16761
邯	-16762
釜	-16763
鞠	-16764
й	-16765
淆	-16766
竿	-16767
糜	-16768
阪	-16769
［	-16770
^	-16771
л	-16772
凋	-16773
嘘	-16774
捆	-16775
搁	-16776
眺	-16777
箔	-16778
郸	-16779
］	-16780
■	-16781
兮	-16782
嵩	-16783
戎	-16784
 	-16785
ン	-16786
慷	-16787
曙	-16788
痹	-16789
蝇	-16790
螃	-16791
钳	-16792
嬉	-16793
抉	-16794
捍	-16795
昱	-16796
杖	-16797
柑	-16798
榕	-16799
汹	-16800
瀚	-16801
腱	-16802
д	-16803
哇	-16804
哩	-16805
妍	-16806
桨	-16807
瑕	-16808
舅	-16809
÷	-16810
◎	-16811
潼	-16812
绥	-16813
羯	-16814
肘	-16815
苇	-16816
藩	-16817
蘑	-16818
阎	-16819
＞	-16820
м	-16821
‰	-16822
娴	-16823
徊	-16824
徙	-16825
戳	-16826
拣	-16827
橱	-16828
烁	-16829
聋	-16830
菁	-16831
谍	-16832
刨	-16833
坂	-16834
屁	-16835
徘	-16836
渺	-16837
绊	-16838
吏	-16839
悯	-16840
昕	-16841
晾	-16842
梧	-16843
皓	-16844
绷	-16845
腋	-16846
芥	-16847
蠕	-16848
衢	-16849
酝	-16850
镉	-16851
闵	-16852
匾	-16853
圃	-16854
垮	-16855
熠	-16856
瞧	-16857
筷	-16858
藕	-16859
驯	-16860
鹭	-16861
掷	-16862
斧	-16863
淌	-16864
炽	-16865
璋	-16866
稼	-16867
蠢	-16868
鞘	-16869
驭	-16870
佰	-16871
峥	-16872
恍	-16873
揣	-16874
殡	-16875
沽	-16876
痉	-16877
荼	-16878
铂	-16879
龚	-16880
倩	-16881
厥	-16882
峭	-16883
憩	-16884
瑙	-16885
砝	-16886
羁	-16887
苟	-16888
铣	-16889
髦	-16890
＜	-16891
у	-16892
Ⅰ	-16893
侥	-16894
宕	-16895
拂	-16896
砷	-16897
耦	-16898
臀	-16899
臻	-16900
躬	-16901
钧	-16902
俘	-16903
僚	-16904
庶	-16905
溅	-16906
磺	-16907
秽	-16908
蜕	-16909
贰	-16910
飓	-16911
哗	-16912
媲	-16913
悚	-16914
羹	-16915
苣	-16916
菏	-16917
趾	-16918
鸽	-16919
™	-16920
哉	-16921
妒	-16922
嫉	-16923
廿	-16924
摹	-16925
睑	-16926
碾	-16927
襟	-16928
＝	-16929
凄	-16930
憬	-16931
歼	-16932
溴	-16933
缭	-16934
芋	-16935
苞	-16936
衅	-16937
辍	-16938
鲸	-16939
拙	-16940
磕	-16941
跪	-16942
闺	-16943
阱	-16944
鲨	-16945
佟	-16946
噩	-16947
囚	-16948
峦	-16949
拇	-16950
滔	-16951
爹	-16952
眸	-16953
绮	-16954
觑	-16955
讳	-16956
邂	-16957
邃	-16958
í	-16959
亥	-16960
懿	-16961
湄	-16962
窖	-16963
聂	-16964
蜘	-16965
蝠	-16966
俨	-16967
惶	-16968
汾	-16969
漾	-16970
烊	-16971
禀	-16972
诣	-16973
逅	-16974
锵	-16975
è	-16976
侗	-16977
唾	-16978
憧	-16979
搓	-16980
撇	-16981
梢	-16982
烙	-16983
犁	-16984
玥	-16985
祉	-16986
俏	-16987
呎	-16988
啰	-16989
斛	-16990
涕	-16991
烽	-16992
琵	-16993
礴	-16994
纂	-16995
缉	-16996
腑	-16997
莽	-16998
蒿	-16999
鳍	-17000
吼	-17001
恺	-17002
眨	-17003
膺	-17004
梆	-17005
炜	-17006
煜	-17007
狸	-17008
珑	-17009
璐	-17010
皈	-17011
窍	-17012
乍	-17013
暧	-17014
眶	-17015
矾	-17016
莘	-17017
诏	-17018
跋	-17019
遐	-17020
叁	-17021
娩	-17022
岑	-17023
岔	-17024
幂	-17025
忻	-17026
怯	-17027
敖	-17028
绅	-17029
芸	-17030
酉	-17031
帧	-17032
庇	-17033
札	-17034
殴	-17035
绰	-17036
辗	-17037
铮	-17038
铿	-17039
︰	-17040
※	-17041
媛	-17042
潺	-17043
睫	-17044
窒	-17045
粟	-17046
蕃	-17047
蜿	-17048
钴	-17049
龈	-17050
⋯	-17051
侮	-17052
垣	-17053
悖	-17054
扼	-17055
挝	-17056
漱	-17057
煞	-17058
皋	-17059
芍	-17060
苷	-17061
谛	-17062
赦	-17063
迥	-17064
劈	-17065
哔	-17066
猩	-17067
袜	-17068
锭	-17069
₂	-17070
勐	-17071
呦	-17072
晦	-17073
痊	-17074
蜒	-17075
蝙	-17076
褒	-17077
﹑	-17078
}	-17079
ó	-17080
匡	-17081
娓	-17082
帼	-17083
沅	-17084
濮	-17085
璇	-17086
皿	-17087
瞳	-17088
绢	-17089
薰	-17090
吩	-17091
摒	-17092
棺	-17093
泓	-17094
甬	-17095
窜	-17096
翌	-17097
茸	-17098
茹	-17099
荤	-17100
萼	-17101
谴	-17102
哄	-17103
岱	-17104
彗	-17105
彪	-17106
旌	-17107
涿	-17108
漩	-17109
脯	-17110
螅	-17111
锆	-17112
Ⅲ	-17113
⑤	-17114
寇	-17115
忏	-17116
惬	-17117
擂	-17118
盔	-17119
羌	-17120
趴	-17121
婧	-17122
恬	-17123
悸	-17124
栾	-17125
琥	-17126
篡	-17127
钡	-17128
{	-17129
г	-17130
ы	-17131
伶	-17132
坍	-17133
枉	-17134
疵	-17135
舵	-17136
茉	-17137
莺	-17138
辄	-17139
丨	-17140
侪	-17141
嗣	-17142
斓	-17143
禺	-17144
苓	-17145
葆	-17146
踵	-17147
迸	-17148
邸	-17149
忡	-17150
渚	-17151
漪	-17152
犊	-17153
瞪	-17154
黯	-17155
я	-17156
ス	-17157
俑	-17158
嚏	-17159
壑	-17160
慑	-17161
晏	-17162
浚	-17163
濠	-17164
痤	-17165
祺	-17166
缪	-17167
肛	-17168
莆	-17169
蕙	-17170
铎	-17171
❤	-17172
い	-17173
イ	-17174
寅	-17175
戛	-17176
曳	-17177
泗	-17178
辙	-17179
阖	-17180
￥	-17181
屐	-17182
栀	-17183
祯	-17184
笙	-17185
荃	-17186
鹃	-17187
〇	-17188
姗	-17189
姥	-17190
榔	-17191
袱	-17192
诲	-17193
谤	-17194
Ｐ	-17195
п	-17196
丫	-17197
俐	-17198
唑	-17199
嗯	-17200
孰	-17201
揪	-17202
搐	-17203
椿	-17204
殉	-17205
濑	-17206
矗	-17207
磐	-17208
穹	-17209
赂	-17210
钚	-17211
饵	-17212
ь	-17213
侄	-17214
啃	-17215
拷	-17216
殆	-17217
茁	-17218
贱	-17219
闰	-17220
阑	-17221
颓	-17222
◠	-17223
嘻	-17224
寮	-17225
挟	-17226
掖	-17227
桁	-17228
歹	-17229
瀛	-17230
烨	-17231
篱	-17232
纾	-17233
钵	-17234
锾	-17235
镂	-17236
隅	-17237
颊	-17238
à	-17239
з	-17240
囱	-17241
榈	-17242
槃	-17243
沓	-17244
狩	-17245
脲	-17246
苻	-17247
谬	-17248
逍	-17249
酣	-17250
骋	-17251
Φ	-17252
″	-17253
婿	-17254
峙	-17255
朦	-17256
楔	-17257
渥	-17258
焖	-17259
疟	-17260
瞎	-17261
虏	-17262
褶	-17263
诬	-17264
酗	-17265
³	-17266
‎	-17267
る	-17268
凛	-17269
怅	-17270
拧	-17271
掐	-17272
撬	-17273
狡	-17274
秧	-17275
荚	-17276
薏	-17277
袂	-17278
谙	-17279
踝	-17280
阙	-17281
＆	-17282
 	-17283
兖	-17284
搪	-17285
淖	-17286
猝	-17287
睢	-17288
羧	-17289
胧	-17290
荀	-17291
谧	-17292
陂	-17293
隘	-17294
馒	-17295
Ｏ	-17296
偕	-17297
喃	-17298
岷	-17299
幺	-17300
扉	-17301
擒	-17302
涪	-17303
渎	-17304
滁	-17305
疚	-17306
砼	-17307
茧	-17308
蜃	-17309
鹈	-17310
鹊	-17311
鹕	-17312
²	-17313
啮	-17314
妞	-17315
惭	-17316
拽	-17317
攘	-17318
曜	-17319
玖	-17320
竺	-17321
茗	-17322
萱	-17323
蓓	-17324
谏	-17325
赃	-17326
雹	-17327
靳	-17328
麾	-17329
龋	-17330
﹔	-17331
､	-17332
刁	-17333
卯	-17334
厝	-17335
唔	-17336
囤	-17337
垛	-17338
寐	-17339
愣	-17340
掳	-17341
栉	-17342
桅	-17343
棣	-17344
簸	-17345
蘸	-17346
咧	-17347
哼	-17348
妓	-17349
戊	-17350
琛	-17351
羔	-17352
翎	-17353
膊	-17354
鄙	-17355
骇	-17356
鲫	-17357
ル	-17358
侏	-17359
冗	-17360
剃	-17361
喆	-17362
埤	-17363
婪	-17364
惚	-17365
懦	-17366
涎	-17367
涧	-17368
炯	-17369
燎	-17370
砾	-17371
筐	-17372
粱	-17373
胳	-17374
蛾	-17375
覃	-17376
鄞	-17377
霓	-17378
Ｃ	-17379
б	-17380
匝	-17381
咎	-17382
嘶	-17383
戟	-17384
榭	-17385
榻	-17386
漯	-17387
焯	-17388
痢	-17389
绯	-17390
膛	-17391
芷	-17392
蛀	-17393
蛰	-17394
辕	-17395
钗	-17396
铨	-17397
Ⅳ	-17398
ア	-17399
仃	-17400
咫	-17401
嗨	-17402
壬	-17403
孽	-17404
昙	-17405
瓴	-17406
缜	-17407
胥	-17408
臼	-17409
蔼	-17410
螨	-17411
诅	-17412
蹭	-17413
陨	-17414
颍	-17415
驹	-17416
骸	-17417
鳄	-17418
ク	-17419
兀	-17420
喱	-17421
娲	-17422
岖	-17423
幌	-17424
憎	-17425
楹	-17426
毡	-17427
洙	-17428
湍	-17429
盂	-17430
蚝	-17431
郫	-17432
郴	-17433
铀	-17434
阆	-17435
阈	-17436
φ	-17437
た	-17438
剁	-17439
咕	-17440
夭	-17441
妾	-17442
屉	-17443
惺	-17444
慜	-17445
桧	-17446
槌	-17447
沌	-17448
涓	-17449
疸	-17450
瘠	-17451
茱	-17452
葩	-17453
裘	-17454
诟	-17455
邬	-17456
颧	-17457
‏	-17458
な	-17459
叨	-17460
哟	-17461
宦	-17462
岌	-17463
崂	-17464
惋	-17465
懵	-17466
旖	-17467
氦	-17468
狈	-17469
皑	-17470
胭	-17471
蠡	-17472
诙	-17473
豌	-17474
赘	-17475
遨	-17476
铢	-17477
铰	-17478
隽	-17479
霁	-17480
韬	-17481
黝	-17482
ü	-17483
に	-17484
倭	-17485
傣	-17486
厮	-17487
啪	-17488
溥	-17489
煽	-17490
燊	-17491
痞	-17492
籁	-17493
蝗	-17494
螯	-17495
诽	-17496
谕	-17497
蹴	-17498
迩	-17499
｜	-17500
↓	-17501
☘	-17502
➖	-17503
吡	-17504
咋	-17505
咯	-17506
宸	-17507
嵘	-17508
徉	-17509
榛	-17510
浠	-17511
濡	-17512
灞	-17513
炊	-17514
烩	-17515
狙	-17516
纫	-17517
罄	-17518
腈	-17519
腓	-17520
芪	-17521
萦	-17522
藿	-17523
袅	-17524
踞	-17525
Ｄ	-17526
ト	-17527
嘟	-17528
岫	-17529
徜	-17530
戮	-17531
熹	-17532
瘩	-17533
霏	-17534
鬓	-17535
年	-17536
﹕	-17537
Ｓ	-17538
ā	-17539
Р	-17540
と	-17541
唏	-17542
嗡	-17543
嫣	-17544
帚	-17545
憋	-17546
搔	-17547
旎	-17548
汐	-17549
淼	-17550
煅	-17551
珂	-17552
瑛	-17553
疙	-17554
痔	-17555
翱	-17556
脍	-17557
蛳	-17558
袤	-17559
谚	-17560
谥	-17561
蹊	-17562
郧	-17563
骅	-17564
ì	-17565
σ	-17566
ω	-17567
◇	-17568
う	-17569
仟	-17570
咙	-17571
娑	-17572
憨	-17573
柘	-17574
浒	-17575
燔	-17576
笠	-17577
篝	-17578
粕	-17579
粼	-17580
荠	-17581
蔻	-17582
诛	-17583
邕	-17584
Ｖ	-17585
ö	-17586
⑥	-17587
を	-17588
ッ	-17589
叩	-17590
呛	-17591
嘅	-17592
惮	-17593
扦	-17594
掰	-17595
榷	-17596
涸	-17597
砚	-17598
纣	-17599
蔑	-17600
褥	-17601
迂	-17602
闾	-17603
狀	-17604
ñ	-17605
ل	-17606
ラ	-17607
仄	-17608
吝	-17609
啼	-17610
喹	-17611
嘈	-17612
寰	-17613
彷	-17614
栎	-17615
潞	-17616
烬	-17617
瓮	-17618
箴	-17619
缨	-17620
腮	-17621
芃	-17622
讷	-17623
跤	-17624
轶	-17625
△	-17626
剿	-17627
呜	-17628
嘹	-17629
噱	-17630
姝	-17631
姣	-17632
弼	-17633
浔	-17634
犷	-17635
珥	-17636
璞	-17637
疖	-17638
疽	-17639
癖	-17640
祐	-17641
缎	-17642
臊	-17643
荞	-17644
蛟	-17645
螂	-17646
衙	-17647
贻	-17648
邳	-17649
钊	-17650
钒	-17651
隍	-17652
饕	-17653
麸	-17654
Ｔ	-17655
Ｘ	-17656
 	-17657
佢	-17658
俺	-17659
啾	-17660
喵	-17661
奂	-17662
徨	-17663
撮	-17664
攸	-17665
昵	-17666
枷	-17667
桉	-17668
桢	-17669
毂	-17670
瑾	-17671
瓯	-17672
甙	-17673
芮	-17674
藓	-17675
蛊	-17676
裱	-17677
裳	-17678
辫	-17679
迢	-17680
遁	-17681
郜	-17682
鄱	-17683
飒	-17684
鸳	-17685
»	-17686
ч	-17687
َ	-17688
カ	-17689
亵	-17690
咔	-17691
噶	-17692
垠	-17693
徇	-17694
戍	-17695
拈	-17696
枭	-17697
毓	-17698
沭	-17699
泞	-17700
涣	-17701
溧	-17702
猾	-17703
珲	-17704
矸	-17705
箫	-17706
缙	-17707
羚	-17708
耒	-17709
茬	-17710
蔷	-17711
诿	-17712
谆	-17713
谟	-17714
赈	-17715
郏	-17716
钣	-17717
铆	-17718
镌	-17719
镭	-17720
鹌	-17721
ａ	-17722
γ	-17723
і	-17724
が	-17725
し	-17726
で	-17727
ら	-17728
ん	-17729
丶	-17730
匣	-17731
坳	-17732
恃	-17733
懊	-17734
拗	-17735
斟	-17736
淞	-17737
炅	-17738
疝	-17739
痿	-17740
筏	-17741
箨	-17742
诧	-17743
谞	-17744
馁	-17745
骶	-17746
鲲	-17747
鸠	-17748
鸯	-17749
ｅ	-17750
コ	-17751
マ	-17752
侬	-17753
匍	-17754
吱	-17755
囿	-17756
夙	-17757
奘	-17758
帛	-17759
擞	-17760
湮	-17761
畲	-17762
睇	-17763
稷	-17764
脘	-17765
萜	-17766
蜚	-17767
诘	-17768
鄢	-17769
铛	-17770
锑	-17771
镐	-17772
闱	-17773
霹	-17774
髻	-17775
參	-17776
か	-17777
タ	-17778
ロ	-17779
亘	-17780
倔	-17781
呋	-17782
唠	-17783
唢	-17784
啉	-17785
啶	-17786
嚷	-17787
囧	-17788
婕	-17789
嵊	-17790
嶂	-17791
敕	-17792
泯	-17793
砻	-17794
糠	-17795
翊	-17796
裨	-17797
诋	-17798
赟	-17799
跆	-17800
逞	-17801
钽	-17802
镰	-17803
雳	-17804
馋	-17805
鳃	-17806
鹑	-17807
鹦	-17808
Ａ	-17809
В	-17810
シ	-17811
リ	-17812
丐	-17813
冼	-17814
匐	-17815
哎	-17816
哒	-17817
唉	-17818
宥	-17819
岘	-17820
戌	-17821
拮	-17822
捂	-17823
洵	-17824
浉	-17825
淅	-17826
澹	-17827
珞	-17828
痣	-17829
秭	-17830
糅	-17831
绫	-17832
缇	-17833
艮	-17834
萘	-17835
蛤	-17836
锲	-17837
陛	-17838
鹉	-17839
ｒ	-17840
𫖯	-17841
λ	-17842
К	-17843
Н	-17844
Т	-17845
す	-17846
佚	-17847
偃	-17848
偈	-17849
咚	-17850
嗔	-17851
嘿	-17852
堿	-17853
恣	-17854
掬	-17855
擀	-17856
氪	-17857
潦	-17858
煦	-17859
砰	-17860
胤	-17861
褚	-17862
赡	-17863
骥	-17864
ō	-17865
δ	-17866
ц	-17867
ا	-17868
は	-17869
レ	-17870
巳	-17871
撸	-17872
晗	-17873
歙	-17874
毙	-17875
炔	-17876
猖	-17877
碁	-17878
粳	-17879
缦	-17880
羿	-17881
耙	-17882
苜	-17883
蓦	-17884
蘖	-17885
豉	-17886
阡	-17887
髋	-17888
鲢	-17889
А	-17890
М	-17891
П	-17892
✨	-17893
丕	-17894
伫	-17895
俪	-17896
儋	-17897
屎	-17898
惆	-17899
愫	-17900
抨	-17901
拴	-17902
挹	-17903
榉	-17904
殃	-17905
氩	-17906
臆	-17907
芡	-17908
苋	-17909
苴	-17910
茯	-17911
荪	-17912
菀	-17913
蜓	-17914
蝌	-17915
讹	-17916
酐	-17917
Ｑ	-17918
ｉ	-17919
С	-17920
₃	-17921
♥	-17922
咆	-17923
咲	-17924
嗒	-17925
囍	-17926
圜	-17927
奄	-17928
孳	-17929
峇	-17930
悴	-17931
犍	-17932
玑	-17933
琮	-17934
瓢	-17935
瘁	-17936
瘢	-17937
睒	-17938
睬	-17939
睽	-17940
瞿	-17941
筠	-17942
膦	-17943
莠	-17944
蓿	-17945
藐	-17946
讥	-17947
迤	-17948
铌	-17949
锄	-17950
陲	-17951
飨	-17952
饯	-17953
饽	-17954
Ｇ	-17955
	-17956
Х	-17957
х	-17958
↔	-17959
⑦	-17960
▼	-17961
さ	-17962
ジ	-17963
㎝	-17964
伎	-17965
佗	-17966
俸	-17967
叡	-17968
垭	-17969
崧	-17970
弋	-17971
徕	-17972
憔	-17973
拎	-17974
搀	-17975
擘	-17976
旻	-17977
椁	-17978
毽	-17979
汨	-17980
汴	-17981
浜	-17982
淦	-17983
甥	-17984
矜	-17985
祟	-17986
箍	-17987
箕	-17988
脷	-17989
芾	-17990
莒	-17991
蛎	-17992
蜻	-17993
蝮	-17994
蟠	-17995
谩	-17996
蹬	-17997
遒	-17998
锶	-17999
雉	-18000
骛	-18001
鲳	-18002
龛	-18003
＊	-18004
Ｉ	-18005
Ｌ	-18006
م	-18007
⊙	-18008
⑴	-18009
ミ	-18010
冢	-18011
呗	-18012
呱	-18013
嗑	-18014
噜	-18015
墒	-18016
壕	-18017
尕	-18018
恙	-18019
悫	-18020
捺	-18021
撷	-18022
桀	-18023
樽	-18024
氤	-18025
氲	-18026
湳	-18027
焱	-18028
玷	-18029
璜	-18030
皎	-18031
皙	-18032
砭	-18033
碉	-18034
祇	-18035
罡	-18036
肮	-18037
葚	-18038
蕨	-18039
貂	-18040
鏖	-18041
铠	-18042
镯	-18043
鞣	-18044
饨	-18045
馄	-18046
馍	-18047
驮	-18048
骊	-18049
葉	-18050
﹝	-18051
﹞	-18052
Ｂ	-18053
ô	-18054
Ⅴ	-18055
←	-18056
⑵	-18057
て	-18058
れ	-18059
ド	-18060
亳	-18061
仫	-18062
佃	-18063
厩	-18064
叽	-18065
吮	-18066
呤	-18067
咁	-18068
咄	-18069
喋	-18070
嗦	-18071
嘀	-18072
婵	-18073
嫡	-18074
孪	-18075
弭	-18076
惦	-18077
掣	-18078
攫	-18079
柒	-18080
槿	-18081
氓	-18082
漕	-18083
澧	-18084
濂	-18085
炀	-18086
煊	-18087
珙	-18088
礑	-18089
窠	-18090
耨	-18091
胄	-18092
腭	-18093
臧	-18094
芩	-18095
荥	-18096
蚩	-18097
蜷	-18098
螳	-18099
讴	-18100
跷	-18101
邛	-18102
郢	-18103
醌	-18104
銮	-18105
钤	-18106
颚	-18107
颞	-18108
行	-18109
ｋ	-18110
📣	-18111
ç	-18112
ِ	-18113
↺	-18114
╱	-18115
►	-18116
こ	-18117
り	-18118
キ	-18119
サ	-18120
ズ	-18121
偌	-18122
偎	-18123
卞	-18124
堀	-18125
婀	-18126
幄	-18127
愕	-18128
暹	-18129
楣	-18130
洄	-18131
燮	-18132
珩	-18133
琊	-18134
琨	-18135
瞥	-18136
膘	-18137
苒	-18138
茴	-18139
藜	-18140
谲	-18141
赓	-18142
锢	-18143
魃	-18144
鸾	-18145
不	-18146
Ｎ	-18147
¥	-18148
ǐ	-18149
Ω	-18150
О	-18151
‬	-18152
≈	-18153
み	-18154
フ	-18155
ュ	-18156
佘	-18157
吭	-18158
呻	-18159
嘌	-18160
墉	-18161
幡	-18162
怙	-18163
撩	-18164
昀	-18165
暄	-18166
樵	-18167
橇	-18168
氡	-18169
眈	-18170
眯	-18171
磡	-18172
窨	-18173
缥	-18174
罂	-18175
膑	-18176
舸	-18177
芈	-18178
苕	-18179
觊	-18180
觎	-18181
谯	-18182
轭	-18183
锹	-18184
镗	-18185
镳	-18186
霭	-18187
餮	-18188
鲶	-18189
力	-18190
ｍ	-18191
ｎ	-18192
ú	-18193
π	-18194
ж	-18195
あ	-18196
つ	-18197
ま	-18198
オ	-18199
テ	-18200
ニ	-18201
プ	-18202
刍	-18203
叱	-18204
喳	-18205
嘧	-18206
垩	-18207
塬	-18208
妩	-18209
婺	-18210
崴	-18211
弩	-18212
忐	-18213
忑	-18214
忒	-18215
晔	-18216
杷	-18217
枇	-18218
溏	-18219
熨	-18220
牦	-18221
璟	-18222
痂	-18223
睺	-18224
筱	-18225
篓	-18226
罔	-18227
耆	-18228
舫	-18229
芊	-18230
芎	-18231
茏	-18232
蔺	-18233
蚓	-18234
蜱	-18235
蟒	-18236
衮	-18237
誊	-18238
诰	-18239
谒	-18240
貅	-18241
貔	-18242
跄	-18243
锏	-18244
锗	-18245
阚	-18246
颉	-18247
鱿	-18248
𠮶	-18249
Ü	-18250
ò	-18251
ø	-18252
ī	-18253
و	-18254
│	-18255
❖	-18256
き	-18257
冽	-18258
刽	-18259
咦	-18260
咩	-18261
啬	-18262
嚎	-18263
坻	-18264
埂	-18265
埵	-18266
堃	-18267
妫	-18268
嬷	-18269
嶙	-18270
怼	-18271
恻	-18272
慵	-18273
扈	-18274
旼	-18275
楝	-18276
榫	-18277
沣	-18278
浣	-18279
涮	-18280
盥	-18281
碚	-18282
笺	-18283
筵	-18284
纭	-18285
脁	-18286
茭	-18287
荏	-18288
蚤	-18289
蚯	-18290
袒	-18291
豸	-18292
逵	-18293
逶	-18294
邺	-18295
鲑	-18296
鸢	-18297
ｇ	-18298
	-18299
ł	-18300
く	-18301
け	-18302
ち	-18303
ウ	-18304
剽	-18305
咛	-18306
哽	-18307
啜	-18308
啧	-18309
嗖	-18310
嗟	-18311
嗪	-18312
嗷	-18313
噢	-18314
峋	-18315
惘	-18316
挞	-18317
捻	-18318
晞	-18319
沏	-18320
洺	-18321
淙	-18322
滦	-18323
炕	-18324
牁	-18325
牂	-18326
犒	-18327
獗	-18328
玳	-18329
珺	-18330
琰	-18331
畿	-18332
疔	-18333
瞋	-18334
瞭	-18335
硚	-18336
篑	-18337
粑	-18338
肱	-18339
膈	-18340
虢	-18341
蜥	-18342
蟾	-18343
讫	-18344
诂	-18345
诃	-18346
跚	-18347
蹒	-18348
蹿	-18349
迳	-18350
遑	-18351
钎	-18352
锷	-18353
鞅	-18354
鲟	-18355
鹧	-18356
鹳	-18357
ｃ	-18358
ｓ	-18359
â	-18360
ē	-18361
ε	-18362
ر	-18363
▶	-18364
俾	-18365
冇	-18366
喙	-18367
塾	-18368
夔	-18369
妲	-18370
巽	-18371
戾	-18372
抠	-18373
捌	-18374
摞	-18375
枳	-18376
柞	-18377
沆	-18378
涠	-18379
湟	-18380
滢	-18381
煸	-18382
爰	-18383
珐	-18384
甾	-18385
痈	-18386
皴	-18387
砜	-18388
祗	-18389
笤	-18390
纰	-18391
缈	-18392
缯	-18393
胫	-18394
腴	-18395
萸	-18396
蚧	-18397
蟀	-18398
蟋	-18399
袄	-18400
褂	-18401
讣	-18402
谪	-18403
贲	-18404
踹	-18405
遛	-18406
遽	-18407
镓	-18408
阂	-18409
隼	-18410
馔	-18411
骜	-18412
髂	-18413
鲗	-18414
鳝	-18415
鹜	-18416
鹫	-18417
麋	-18418
구	-18419
시	-18420
療	-18421
立	-18422
Ｊ	-18423
Ｍ	-18424
É	-18425
κ	-18426
ُ	-18427
⑧	-18428
⑶	-18429
そ	-18430
ゆ	-18431
グ	-18432
ナ	-18433
ㄧ	-18434
僖	-18435
劭	-18436
叟	-18437
咗	-18438
坨	-18439
壅	-18440
婶	-18441
嫔	-18442
嫖	-18443
孀	-18444
孺	-18445
岬	-18446
庾	-18447
忿	-18448
怆	-18449
攥	-18450
敝	-18451
斡	-18452
槲	-18453
猥	-18454
瑠	-18455
瓤	-18456
瘘	-18457
癸	-18458
盅	-18459
砧	-18460
硐	-18461
磬	-18462
祚	-18463
繇	-18464
纨	-18465
绶	-18466
翦	-18467
肟	-18468
腩	-18469
舂	-18470
荘	-18471
蓟	-18472
蛐	-18473
蛔	-18474
袮	-18475
觞	-18476
郦	-18477
钯	-18478
钹	-18479
铐	-18480
驸	-18481
鹗	-18482
	-18483
ｏ	-18484
ｔ	-18485
©	-18486
Σ	-18487
№	-18488
∕	-18489
∙	-18490
〜	-18491
べ	-18492
や	-18493
デ	-18494
バ	-18495
ャ	-18496
仡	-18497
僭	-18498
吆	-18499
咿	-18500
喰	-18501
嗤	-18502
娣	-18503
娼	-18504
婢	-18505
嬗	-18506
孑	-18507
嵇	-18508
恸	-18509
扪	-18510
拄	-18511
捅	-18512
搂	-18513
擤	-18514
棂	-18515
歆	-18516
泷	-18517
淠	-18518
漉	-18519
牍	-18520
猬	-18521
珈	-18522
珉	-18523
瓒	-18524
瘴	-18525
癞	-18526
盱	-18527
砦	-18528
祜	-18529
窿	-18530
笆	-18531
笈	-18532
箐	-18533
綦	-18534
耄	-18535
耋	-18536
腆	-18537
舔	-18538
苡	-18539
菟	-18540
蒡	-18541
藁	-18542
虱	-18543
蚜	-18544
蚬	-18545
訾	-18546
谶	-18547
赭	-18548
趸	-18549
轲	-18550
邈	-18551
醍	-18552
醐	-18553
颦	-18554
骷	-18555
髅	-18556
鬟	-18557
來	-18558
兩	-18559
Ｈ	-18560
«	-18561
Ã	-18562
ن	-18563
ي	-18564
✪	-18565
⾃	-18566
っ	-18567
ふ	-18568
も	-18569
ガ	-18570
パ	-18571
ブ	-18572
ム	-18573
剌	-18574
唁	-18575
唆	-18576
啖	-18577
喽	-18578
嚓	-18579
娆	-18580
彊	-18581
怔	-18582
悭	-18583
懋	-18584
捶	-18585
揍	-18586
朕	-18587
桎	-18588
桠	-18589
梏	-18590
槊	-18591
橿	-18592
殇	-18593
毌	-18594
洮	-18595
瀣	-18596
煨	-18597
眙	-18598
筚	-18599
箩	-18600
簪	-18601
缂	-18602
缰	-18603
腧	-18604
莜	-18605
葺	-18606
褓	-18607
襁	-18608
踮	-18609
蹩	-18610
铋	-18611
铍	-18612
镬	-18613
闳	-18614
飚	-18615
鲀	-18616
鳖	-18617
量	-18618
易	-18619
️	-18620
Ｅ	-18621
Ｆ	-18622
¼	-18623
Б	-18624
Д	-18625
И	-18626
У	-18627
ф	-18628
ب	-18629
ك	-18630
∧	-18631
〞	-18632
ど	-18633
ひ	-18634
エ	-18635
セ	-18636
メ	-18637
モ	-18638
ョ	-18639
佝	-18640
偻	-18641
吽	-18642
唧	-18643
唬	-18644
唷	-18645
嗲	-18646
噼	-18647
埗	-18648
姒	-18649
嬴	-18650
崤	-18651
崽	-18652
徬	-18653
徵	-18654
杵	-18655
枧	-18656
桡	-18657
椹	-18658
楫	-18659
檩	-18660
泱	-18661
潸	-18662
灏	-18663
焗	-18664
熵	-18665
珏	-18666
琏	-18667
畈	-18668
畦	-18669
痍	-18670
瘪	-18671
瞅	-18672
瞌	-18673
瞠	-18674
砀	-18675
砣	-18676
碓	-18677
稔	-18678
绔	-18679
腼	-18680
芫	-18681
菖	-18682
蒴	-18683
虬	-18684
蟑	-18685
觥	-18686
讪	-18687
诩	-18688
谑	-18689
赅	-18690
趖	-18691
跺	-18692
踌	-18693
蹑	-18694
躇	-18695
轸	-18696
酞	-18697
醴	-18698
钏	-18699
铟	-18700
陉	-18701
颛	-18702
骞	-18703
鬃	-18704
鳕	-18705
麝	-18706
대	-18707
서	-18708
이	-18709
料	-18710
理	-18711
＠	-18712
º	-18713
ã	-18714
ù	-18715
ū	-18716
ǎ	-18717
ˋ	-18718
ι	-18719
ρ	-18720
ς	-18721
ع	-18722
ْ	-18723
√	-18724
∞	-18725
⑨	-18726
⼀	-18727
〓	-18728
め	-18729
チ	-18730
ネ	-18731
ㄥ	-18732
仞	-18733
佯	-18734
倮	-18735
卅	-18736
叻	-18737
叼	-18738
哋	-18739
啄	-18740
啲	-18741
噻	-18742
埕	-18743
奚	-18744
怂	-18745
恽	-18746
撃	-18747
昶	-18748
朐	-18749
杈	-18750
杓	-18751
枰	-18752
殚	-18753
汆	-18754
泠	-18755
泫	-18756
浃	-18757
淏	-18758
潴	-18759
狞	-18760
狰	-18761
璎	-18762
痨	-18763
痼	-18764
碣	-18765
碴	-18766
稞	-18767
筲	-18768
篪	-18769
簋	-18770
緁	-18771
缛	-18772
胛	-18773
臃	-18774
苎	-18775
萋	-18776
蓑	-18777
蛹	-18778
蜇	-18779
裟	-18780
谗	-18781
赝	-18782
赳	-18783
蹂	-18784
蹋	-18785
躏	-18786
辘	-18787
铉	-18788
铖	-18789
铤	-18790
阄	-18791
顼	-18792
骰	-18793
髁	-18794
魇	-18795
鲧	-18796
鳗	-18797
鸵	-18798
강	-18799
로	-18800
역	-18801
	-18802
了	-18803
利	-18804
＃	-18805
Á	-18806
ä	-18807
˙	-18808
Ψ	-18809
ο	-18810
Е	-18811
ت	-18812
ร	-18813
Ⅵ	-18814
〝	-18815
え	-18816
ィ	-18817
ケ	-18818
伉	-18819
佶	-18820
侁	-18821
俚	-18822
俟	-18823
傩	-18824
儡	-18825
咂	-18826
唵	-18827
喟	-18828
嘢	-18829
囹	-18830
圄	-18831
埼	-18832
堑	-18833
姹	-18834
峒	-18835
巿	-18836
幔	-18837
怏	-18838
怵	-18839
戦	-18840
捎	-18841
掂	-18842
搽	-18843
撂	-18844
枞	-18845
椽	-18846
氙	-18847
氹	-18848
溟	-18849
溱	-18850
潋	-18851
濉	-18852
猗	-18853
獭	-18854
玟	-18855
琬	-18856
瓠	-18857
畀	-18858
畑	-18859
盹	-18860
稃	-18861
窈	-18862
窕	-18863
篦	-18864
篾	-18865
糗	-18866
肓	-18867
胍	-18868
胬	-18869
蓊	-18870
蓥	-18871
蚪	-18872
蜴	-18873
螟	-18874
袈	-18875
谄	-18876
蹶	-18877
轫	-18878
锜	-18879
镕	-18880
霎	-18881
靛	-18882
骈	-18883
남	-18884
별	-18885
특	-18886
	-18887
數	-18888
略	-18889
﹖	-18890
Ｒ	-18891
ｂ	-18892
ｌ	-18893
𬀩	-18894
ǔ	-18895
ν	-18896
З	-18897
ف	-18898
ّ	-18899
ิ	-18900
์	-18901
≠	-18902
⑷	-18903
だ	-18904
ょ	-18905
よ	-18906
ァ	-18907
ツ	-18908
ノ	-18909
ピ	-18910
ホ	-18911
㎜	-18912
䍁	-18913
亓	-18914
仵	-18915
佤	-18916
侑	-18917
俣	-18918
傀	-18919
傈	-18920
傥	-18921
凇	-18922
刎	-18923
劾	-18924
勰	-18925
匕	-18926
吠	-18927
噎	-18928
嚟	-18929
坩	-18930
埚	-18931
姺	-18932
嬅	-18933
嬢	-18934
嶋	-18935
嶷	-18936
怦	-18937
恿	-18938
戬	-18939
旒	-18940
杳	-18941
枋	-18942
桜	-18943
檗	-18944
汊	-18945
涞	-18946
湜	-18947
滟	-18948
犸	-18949
獠	-18950
玕	-18951
痧	-18952
痱	-18953
県	-18954
磴	-18955
绀	-18956
绺	-18957
绾	-18958
膻	-18959
臾	-18960
舛	-18961
舷	-18962
芗	-18963
荦	-18964
荻	-18965
葶	-18966
蒗	-18967
蒽	-18968
蟆	-18969
裆	-18970
觐	-18971
诎	-18972
谌	-18973
赉	-18974
赧	-18975
跎	-18976
蹇	-18977
蹉	-18978
酊	-18979
锉	-18980
镈	-18981
镧	-18982
闼	-18983
阏	-18984
饴	-18985
饷	-18986
馗	-18987
髙	-18988
鳅	-18989
鳏	-18990
鸪	-18991
鹘	-18992
鹬	-18993
黉	-18994
黜	-18995
黟	-18996
黠	-18997
龅	-18998
울	-18999
落	-19000
Ｋ	-19001
ｕ	-19002
ｙ	-19003
å	-19004
ë	-19005
Δ	-19006
Ε	-19007
Я	-19008
ш	-19009
ق	-19010
อ	-19011
≡	-19012
⋅	-19013
⼒	-19014
⼤	-19015
々	-19016
〖	-19017
じ	-19018
ろ	-19019
ェ	-19020
ダ	-19021
ハ	-19022
ㄠ	-19023
ㄨ	-19024
乂	-19025
俎	-19026
倜	-19027
剐	-19028
呷	-19029
喾	-19030
噌	-19031
噗	-19032
噤	-19033
圪	-19034
垚	-19035
塍	-19036
壝	-19037
妤	-19038
尻	-19039
崃	-19040
帑	-19041
弑	-19042
弸	-19043
徳	-19044
悌	-19045
愍	-19046
挎	-19047
掸	-19048
掼	-19049
攞	-19050
昰	-19051
曩	-19052
椴	-19053
槭	-19054
樯	-19055
檄	-19056
汩	-19057
浯	-19058
溆	-19059
滂	-19060
焓	-19061
爻	-19062
犄	-19063
猷	-19064
獾	-19065
琍	-19066
瑀	-19067
瑄	-19068
畹	-19069
睨	-19070
碲	-19071
礡	-19072
祢	-19073
稗	-19074
笕	-19075
笳	-19076
箝	-19077
粲	-19078
绌	-19079
缄	-19080
翳	-19081
胯	-19082
舀	-19083
荖	-19084
荩	-19085
荸	-19086
莳	-19087
蛲	-19088
蜍	-19089
褛	-19090
謇	-19091
讧	-19092
诤	-19093
蹚	-19094
逦	-19095
邝	-19096
郷	-19097
鄯	-19098
酢	-19099
醺	-19100
鎏	-19101
钿	-19102
铩	-19103
铯	-19104
锱	-19105
镊	-19106
镣	-19107
雒	-19108
雩	-19109
颙	-19110
驽	-19111
骡	-19112
鲈	-19113
鳙	-19114
鳜	-19115
鸨	-19116
黍	-19117
龊	-19118
龌	-19119
스	-19120
	-19121
更	-19122
金	-19123
刺	-19124
度	-19125
﹣	-19126
Ｗ	-19127
ｄ	-19128
ｈ	-19129
｛	-19130
µ	-19131
æ	-19132
ê	-19133
ÿ	-19134
ś	-19135
ˉ	-19136
ά	-19137
θ	-19138
Ф	-19139
э	-19140
ю	-19141
ة	-19142
ح	-19143
ท	-19144
‖	-19145
€	-19146
℅	-19147
∈	-19148
✓	-19149
⾦	-19150
⾸	-19151
お	-19152
ぎ	-19153
ば	-19154
ほ	-19155
ポ	-19156
ㄕ	-19157
㓥	-19158
乩	-19159
仨	-19160
伕	-19161
佞	-19162
佥	-19163
僟	-19164
僳	-19165
叵	-19166
呃	-19167
呖	-19168
哧	-19169
啻	-19170
嗄	-19171
嗳	-19172
垅	-19173
堇	-19174
堺	-19175
増	-19176
姫	-19177
娉	-19178
嬛	-19179
屌	-19180
岙	-19181
岿	-19182
峤	-19183
崐	-19184
巣	-19185
庖	-19186
彧	-19187
抿	-19188
揖	-19189
撅	-19190
擢	-19191
昉	-19192
朓	-19193
柢	-19194
検	-19195
橹	-19196
殒	-19197
殓	-19198
泺	-19199
渑	-19200
湎	-19201
澍	-19202
狷	-19203
獐	-19204
瑗	-19205
瓘	-19206
疥	-19207
瘿	-19208
睗	-19209
硷	-19210
碛	-19211
秕	-19212
笫	-19213
筿	-19214
箸	-19215
簌	-19216
纥	-19217
绉	-19218
缑	-19219
罅	-19220
罘	-19221
羃	-19222
羰	-19223
臌	-19224
芘	-19225
荽	-19226
葳	-19227
蒺	-19228
蔵	-19229
蕻	-19230
蘧	-19231
蚣	-19232
蚱	-19233
蚴	-19234
蛞	-19235
蝓	-19236
豢	-19237
踉	-19238
踱	-19239
蹙	-19240
邋	-19241
郓	-19242
釆	-19243
钕	-19244
铄	-19245
镦	-19246
镪	-19247
鲇	-19248
鲠	-19249
鳟	-19250
鹄	-19251
麂	-19252
鼾	-19253
일	-19254
지	-19255
卵	-19256
綠	-19257
便	-19258
﹛	-19259
﹤	-19260
Ｕ	-19261
ｐ	-19262
ｖ	-19263
🔹	-19264
𪸩	-19265
î	-19266
ı	-19267
ǒ	-19268
ˊ	-19269
́	-19270
ζ	-19271
Г	-19272
Ж	-19273
أ	-19274
إ	-19275
س	-19276
ه	-19277
เ	-19278
‭	-19279
∑	-19280
≧	-19281
⌒	-19282
⑩	-19283
⑸	-19284
⒄	-19285
⒈	-19286
⒉	-19287
║	-19288
⼈	-19289
⽐	-19290
⾳	-19291
せ	-19292
ソ	-19293
ビ	-19294
ワ	-19295
ㄊ	-19296
ㄋ	-19297
丼	-19298
俅	-19299
凫	-19300
勖	-19301
匏	-19302
卣	-19303
叒	-19304
叕	-19305
吖	-19306
呲	-19307
咭	-19308
啕	-19309
啫	-19310
喺	-19311
嗝	-19312
坌	-19313
坜	-19314
坭	-19315
姮	-19316
宀	-19317
宓	-19318
崮	-19319
崾	-19320
嵴	-19321
弢	-19322
恚	-19323
懑	-19324
捋	-19325
捩	-19326
掇	-19327
揄	-19328
搡	-19329
摁	-19330
敔	-19331
斫	-19332
晁	-19333
晷	-19334
曺	-19335
枥	-19336
柩	-19337
棹	-19338
楽	-19339
毘	-19340
気	-19341
淝	-19342
淸	-19343
渌	-19344
溽	-19345
滓	-19346
濞	-19347
濯	-19348
珮	-19349
瑷	-19350
甭	-19351
瘰	-19352
瞽	-19353
矍	-19354
碇	-19355
秣	-19356
穀	-19357
笄	-19358
箧	-19359
篙	-19360
籼	-19361
糍	-19362
縄	-19363
绗	-19364
缃	-19365
缢	-19366
羸	-19367
肄	-19368
舺	-19369
艋	-19370
艏	-19371
苫	-19372
茆	-19373
菘	-19374
菽	-19375
葭	-19376
蓖	-19377
蓪	-19378
蔫	-19379
薮	-19380
袢	-19381
褡	-19382
褴	-19383
読	-19384
诨	-19385
谔	-19386
豇	-19387
贠	-19388
贶	-19389
趵	-19390
跛	-19391
跹	-19392
辇	-19393
辎	-19394
遢	-19395
邰	-19396
酩	-19397
醮	-19398
铧	-19399
铱	-19400
锒	-19401
镔	-19402
阉	-19403
隈	-19404
雠	-19405
驒	-19406
骐	-19407
骠	-19408
骢	-19409
骧	-19410
髌	-19411
鬣	-19412
鬲	-19413
鲔	-19414
鲛	-19415
鸫	-19416
鹞	-19417
신	-19418
입	-19419
정	-19420
良	-19421
聯	-19422
領	-19423
六	-19424
﹒	-19425
﹙	-19426
﹚	-19427
｝	-19428
￣	-19429
¨	-19430
´	-19431
Ñ	-19432
ą	-19433
Ś	-19434
Λ	-19435
ί	-19436
η	-19437
ξ	-19438
τ	-19439
ό	-19440
І	-19441
Э	-19442
щ	-19443
د	-19444
ط	-19445
ล	-19446
า	-19447
แ	-19448
↩	-19449
∏	-19450
∩	-19451
∼	-19452
≦	-19453
⎫	-19454
⑹	-19455
⒂	-19456
▍	-19457
◀	-19458
♀	-19459
♡	-19460
⽉	-19461
⽣	-19462
⽬	-19463
〒	-19464
〗	-19465
ず	-19466
へ	-19467
ヤ	-19468
ㄉ	-19469
ㄍ	-19470
㈠	-19471
㼈	-19472
倌	-19473
倏	-19474
儆	-19475
儦	-19476
凼	-19477
劵	-19478
劼	-19479
吲	-19480
哂	-19481
哌	-19482
哚	-19483
啷	-19484
噫	-19485
囗	-19486
団	-19487
圮	-19488
垌	-19489
埈	-19490
埭	-19491
塅	-19492
夬	-19493
嫲	-19494
孖	-19495
孛	-19496
屺	-19497
屾	-19498
岈	-19499
峁	-19500
嵖	-19501
嵯	-19502
巉	-19503
庹	-19504
廪	-19505
弁	-19506
徭	-19507
忖	-19508
恹	-19509
悱	-19510
悻	-19511
愎	-19512
戡	-19513
戸	-19514
揠	-19515
揶	-19516
摈	-19517
於	-19518
晌	-19519
暝	-19520
曈	-19521
栌	-19522
桕	-19523
桬	-19524
桷	-19525
樘	-19526
権	-19527
樾	-19528
橐	-19529
檨	-19530
氽	-19531
沔	-19532
沢	-19533
沩	-19534
泮	-19535
洣	-19536
湔	-19537
滘	-19538
潟	-19539
烜	-19540
犟	-19541
獬	-19542
珪	-19543
琯	-19544
璁	-19545
甑	-19546
甪	-19547
畬	-19548
疬	-19549
瘸	-19550
癔	-19551
眦	-19552
睚	-19553
砒	-19554
硎	-19555
硏	-19556
筌	-19557
篁	-19558
籀	-19559
糸	-19560
纛	-19561
绦	-19562
缬	-19563
罣	-19564
罨	-19565
翀	-19566
聩	-19567
肼	-19568
胝	-19569
胪	-19570
腍	-19571
苳	-19572
茑	-19573
茕	-19574
荑	-19575
莪	-19576
莼	-19577
菔	-19578
菡	-19579
菰	-19580
萩	-19581
葖	-19582
蒹	-19583
蓇	-19584
蕞	-19585
蚿	-19586
蛆	-19587
蛴	-19588
蛸	-19589
蜈	-19590
蝼	-19591
衲	-19592
衽	-19593
袪	-19594
裢	-19595
褫	-19596
観	-19597
诮	-19598
谀	-19599
豺	-19600
跖	-19601
跬	-19602
躅	-19603
辻	-19604
迨	-19605
逯	-19606
郯	-19607
醸	-19608
錬	-19609
钇	-19610
锍	-19611
锖	-19612
锽	-19613
镒	-19614
霰	-19615
颏	-19616
颢	-19617
馀	-19618
駅	-19619
騨	-19620
驷	-19621
骘	-19622
鲐	-19623
鲭	-19624
鲷	-19625
鲼	-19626
鳊	-19627
鸶	-19628
鹇	-19629
鼬	-19630
龠	-19631
길	-19632
뀠	-19633
부	-19634
브	-19635
아	-19636
요	-19637
하	-19638
홍	-19639
路	-19640
論	-19641
北	-19642
烈	-19643
禮	-19644
類	-19645
陸	-19646
隆	-19647
福	-19648
﹪	-19649
＇	-19650
＼	-19651
ｆ	-19652
･	-19653
￼	-19654
😍	-19655
𣍰	-19656
𬙂	-19657
Ç	-19658
ï	-19659
œ	-19660
Ş	-19661
Š	-19662
š	-19663
ɼ	-19664
ˇ	-19665
Π	-19666
υ	-19667
ψ	-19668
ъ	-19669
ё	-19670
ج	-19671
ى	-19672
ณ	-19673
ด	-19674
น	-19675
ม	-19676
ย	-19677
ส	-19678
ั	-19679
ี	-19680
‥	-19681
ⅲ	-19682
⎛	-19683
⒊	-19684
┭	-19685
┮	-19686
▣	-19687
▪	-19688
⽅	-19689
⽇	-19690
⾄	-19691
⾼	-19692
げ	-19693
ご	-19694
ね	-19695
ぱ	-19696
び	-19697
ぶ	-19698
む	-19699
ォ	-19700
ギ	-19701
ゲ	-19702
ザ	-19703
ゾ	-19704
ヒ	-19705
ベ	-19706
ヨ	-19707
ヴ	-19708
ㄎ	-19709
ㄞ	-19710
ㄡ	-19711
ㄩ	-19712
ㅋ	-19713
㈡	-19714
両	-19715
亶	-19716
伝	-19717
佻	-19718
俳	-19719
傧	-19720
凃	-19721
刈	-19722
剡	-19723
勍	-19724
勠	-19725
咣	-19726
喑	-19727
嘥	-19728
囔	-19729
囝	-19730
囯	-19731
圉	-19732
圏	-19733
圻	-19734
坵	-19735
垓	-19736
埇	-19737
堙	-19738
妚	-19739
