<pad>	0
<unk>	0
<s>	0
</s>	0
<0x00>	0
<0x01>	0
<0x02>	0
<0x03>	0
<0x04>	0
<0x05>	0
<0x06>	0
<0x07>	0
<0x08>	0
<0x09>	0
<0x0A>	0
<0x0B>	0
<0x0C>	0
<0x0D>	0
<0x0E>	0
<0x0F>	0
<0x10>	0
<0x11>	0
<0x12>	0
<0x13>	0
<0x14>	0
<0x15>	0
<0x16>	0
<0x17>	0
<0x18>	0
<0x19>	0
<0x1A>	0
<0x1B>	0
<0x1C>	0
<0x1D>	0
<0x1E>	0
<0x1F>	0
<0x20>	0
<0x21>	0
<0x22>	0
<0x23>	0
<0x24>	0
<0x25>	0
<0x26>	0
<0x27>	0
<0x28>	0
<0x29>	0
<0x2A>	0
<0x2B>	0
<0x2C>	0
<0x2D>	0
<0x2E>	0
<0x2F>	0
<0x30>	0
<0x31>	0
<0x32>	0
<0x33>	0
<0x34>	0
<0x35>	0
<0x36>	0
<0x37>	0
<0x38>	0
<0x39>	0
<0x3A>	0
<0x3B>	0
<0x3C>	0
<0x3D>	0
<0x3E>	0
<0x3F>	0
<0x40>	0
<0x41>	0
<0x42>	0
<0x43>	0
<0x44>	0
<0x45>	0
<0x46>	0
<0x47>	0
<0x48>	0
<0x49>	0
<0x4A>	0
<0x4B>	0
<0x4C>	0
<0x4D>	0
<0x4E>	0
<0x4F>	0
<0x50>	0
<0x51>	0
<0x52>	0
<0x53>	0
<0x54>	0
<0x55>	0
<0x56>	0
<0x57>	0
<0x58>	0
<0x59>	0
<0x5A>	0
<0x5B>	0
<0x5C>	0
<0x5D>	0
<0x5E>	0
<0x5F>	0
<0x60>	0
<0x61>	0
<0x62>	0
<0x63>	0
<0x64>	0
<0x65>	0
<0x66>	0
<0x67>	0
<0x68>	0
<0x69>	0
<0x6A>	0
<0x6B>	0
<0x6C>	0
<0x6D>	0
<0x6E>	0
<0x6F>	0
<0x70>	0
<0x71>	0
<0x72>	0
<0x73>	0
<0x74>	0
<0x75>	0
<0x76>	0
<0x77>	0
<0x78>	0
<0x79>	0
<0x7A>	0
<0x7B>	0
<0x7C>	0
<0x7D>	0
<0x7E>	0
<0x7F>	0
<0x80>	0
<0x81>	0
<0x82>	0
<0x83>	0
<0x84>	0
<0x85>	0
<0x86>	0
<0x87>	0
<0x88>	0
<0x89>	0
<0x8A>	0
<0x8B>	0
<0x8C>	0
<0x8D>	0
<0x8E>	0
<0x8F>	0
<0x90>	0
<0x91>	0
<0x92>	0
<0x93>	0
<0x94>	0
<0x95>	0
<0x96>	0
<0x97>	0
<0x98>	0
<0x99>	0
<0x9A>	0
<0x9B>	0
<0x9C>	0
<0x9D>	0
<0x9E>	0
<0x9F>	0
<0xA0>	0
<0xA1>	0
<0xA2>	0
<0xA3>	0
<0xA4>	0
<0xA5>	0
<0xA6>	0
<0xA7>	0
<0xA8>	0
<0xA9>	0
<0xAA>	0
<0xAB>	0
<0xAC>	0
<0xAD>	0
<0xAE>	0
<0xAF>	0
<0xB0>	0
<0xB1>	0
<0xB2>	0
<0xB3>	0
<0xB4>	0
<0xB5>	0
<0xB6>	0
<0xB7>	0
<0xB8>	0
<0xB9>	0
<0xBA>	0
<0xBB>	0
<0xBC>	0
<0xBD>	0
<0xBE>	0
<0xBF>	0
<0xC0>	0
<0xC1>	0
<0xC2>	0
<0xC3>	0
<0xC4>	0
<0xC5>	0
<0xC6>	0
<0xC7>	0
<0xC8>	0
<0xC9>	0
<0xCA>	0
<0xCB>	0
<0xCC>	0
<0xCD>	0
<0xCE>	0
<0xCF>	0
<0xD0>	0
<0xD1>	0
<0xD2>	0
<0xD3>	0
<0xD4>	0
<0xD5>	0
<0xD6>	0
<0xD7>	0
<0xD8>	0
<0xD9>	0
<0xDA>	0
<0xDB>	0
<0xDC>	0
<0xDD>	0
<0xDE>	0
<0xDF>	0
<0xE0>	0
<0xE1>	0
<0xE2>	0
<0xE3>	0
<0xE4>	0
<0xE5>	0
<0xE6>	0
<0xE7>	0
<0xE8>	0
<0xE9>	0
<0xEA>	0
<0xEB>	0
<0xEC>	0
<0xED>	0
<0xEE>	0
<0xEF>	0
<0xF0>	0
<0xF1>	0
<0xF2>	0
<0xF3>	0
<0xF4>	0
<0xF5>	0
<0xF6>	0
<0xF7>	0
<0xF8>	0
<0xF9>	0
<0xFA>	0
<0xFB>	0
<0xFC>	0
<0xFD>	0
<0xFE>	0
<0xFF>	0
▁t	-0
▁a	-1
in	-2
he	-3
re	-4
on	-5
er	-6
▁the	-7
▁s	-8
▁w	-9
at	-10
or	-11
ou	-12
nd	-13
it	-14
▁c	-15
es	-16
is	-17
▁f	-18
▁b	-19
en	-20
ing	-21
▁p	-22
▁o	-23
an	-24
ed	-25
ar	-26
al	-27
▁to	-28
▁m	-29
▁and	-30
▁in	-31
▁of	-32
▁d	-33
ic	-34
le	-35
▁h	-36
as	-37
om	-38
▁th	-39
ion	-40
▁I	-41
▁T	-42
ll	-43
▁l	-44
▁S	-45
ve	-46
ent	-47
st	-48
▁n	-49
▁g	-50
▁A	-51
▁C	-52
▁re	-53
ro	-54
▁e	-55
▁y	-56
et	-57
ly	-58
ac	-59
ay	-60
ot	-61
id	-62
▁on	-63
▁be	-64
▁M	-65
▁for	-66
ow	-67
▁is	-68
▁you	-69
ad	-70
am	-71
▁P	-72
ut	-73
ig	-74
se	-75
▁B	-76
ver	-77
ct	-78
im	-79
il	-80
ol	-81
▁that	-82
▁u	-83
▁st	-84
▁W	-85
ith	-86
▁it	-87
ation	-88
ur	-89
ch	-90
ir	-91
▁D	-92
▁-	-93
▁H	-94
▁with	-95
▁he	-96
▁F	-97
▁R	-98
ce	-99
▁The	-100
ter	-101
▁we	-102
ill	-103
ke	-104
oo	-105
out	-106
▁wh	-107
▁an	-108
▁L	-109
▁ha	-110
ag	-111
ers	-112
▁as	-113
▁N	-114
ld	-115
if	-116
▁at	-117
▁(	-118
▁G	-119
her	-120
▁are	-121
our	-122
ew	-123
em	-124
ri	-125
ore	-126
pp	-127
el	-128
▁pro	-129
ul	-130
ate	-131
▁E	-132
ra	-133
est	-134
igh	-135
▁com	-136
▁se	-137
▁O	-138
▁con	-139
un	-140
..	-141
th	-142
▁was	-143
ess	-144
us	-145
rom	-146
▁or	-147
ab	-148
op	-149
ist	-150
▁this	-151
ment	-152
▁J	-153
▁have	-154
▁r	-155
ant	-156
ust	-157
res	-158
▁v	-159
um	-160
ort	-161
pe	-162
ity	-163
ive	-164
art	-165
nt	-166
▁ex	-167
▁by	-168
oc	-169
▁from	-170
▁sh	-171
qu	-172
ight	-173
and	-174
▁de	-175
▁not	-176
all	-177
os	-178
ain	-179
ost	-180
ard	-181
ies	-182
ould	-183
▁ch	-184
▁su	-185
ome	-186
▁your	-187
ear	-188
▁al	-189
ack	-190
▁will	-191
▁j	-192
▁ab	-193
▁le	-194
ast	-195
ud	-196
▁can	-197
▁Th	-198
gh	-199
▁do	-200
ally	-201
red	-202
te	-203
▁U	-204
▁pl	-205
▁wor	-206
ak	-207
▁all	-208
iv	-209
▁"	-210
▁k	-211
ook	-212
▁but	-213
ge	-214
ide	-215
od	-216
ine	-217
rou	-218
ice	-219
ie	-220
▁me	-221
▁In	-222
▁has	-223
▁ne	-224
▁my	-225
▁out	-226
og	-227
ff	-228
▁so	-229
one	-230
▁St	-231
ure	-232
▁whe	-233
pt	-234
▁K	-235
▁up	-236
ake	-237
ry	-238
▁Y	-239
age	-240
ike	-241
ood	-242
ber	-243
ip	-244
▁ad	-245
per	-246
▁sa	-247
▁they	-248
▁more	-249
act	-250
ind	-251
ite	-252
are	-253
▁us	-254
ks	-255
ions	-256
▁V	-257
ther	-258
ial	-259
ong	-260
ich	-261
ame	-262
very	-263
▁about	-264
▁one	-265
ime	-266
▁te	-267
▁“	-268
pl	-269
ous	-270
▁go	-271
▁his	-272
ove	-273
reat	-274
ect	-275
▁their	-276
able	-277
▁Ch	-278
▁Re	-279
▁cl	-280
ans	-281
ia	-282
▁who	-283
iz	-284
ue	-285
▁comp	-286
ick	-287
orm	-288
cc	-289
▁like	-290
ays	-291
ub	-292
ail	-293
ary	-294
ap	-295
▁en	-296
ace	-297
▁It	-298
ated	-299
ire	-300
▁off	-301
ase	-302
▁year	-303
ond	-304
so	-305
▁get	-306
▁our	-307
ven	-308
ass	-309
▁cont	-310
ree	-311
▁We	-312
▁im	-313
au	-314
▁man	-315
cl	-316
ach	-317
ance	-318
ib	-319
▁would	-320
▁some	-321
ile	-322
▁tr	-323
▁ag	-324
▁new	-325
ign	-326
...	-327
now	-328
▁just	-329
▁He	-330
ount	-331
ink	-332
▁any	-333
▁qu	-334
▁res	-335
to	-336
av	-337
ough	-338
ings	-339
ts	-340
▁time	-341
ress	-342
ark	-343
ord	-344
▁app	-345
du	-346
▁other	-347
port	-348
▁said	-349
▁per	-350
ations	-351
▁been	-352
▁had	-353
▁what	-354
erv	-355
ru	-356
▁which	-357
▁them	-358
▁rec	-359
▁over	-360
▁work	-361
▁there	-362
mer	-363
form	-364
ep	-365
▁pe	-366
▁when	-367
▁were	-368
ents	-369
ose	-370
▁if	-371
ound	-372
▁ar	-373
ical	-374
▁un	-375
ob	-376
▁dis	-377
ction	-378
ors	-379
▁sc	-380
▁than	-381
▁am	-382
▁also	-383
ck	-384
ren	-385
vel	-386
▁part	-387
own	-388
day	-389
▁sp	-390
fe	-391
ish	-392
ition	-393
▁This	-394
ory	-395
▁fe	-396
--	-397
▁her	-398
▁know	-399
▁ro	-400
wn	-401
irst	-402
ild	-403
▁pre	-404
ens	-405
ov	-406
iew	-407
ence	-408
oy	-409
▁look	-410
▁Wh	-411
ople	-412
▁bl	-413
ne	-414
▁tw	-415
itt	-416
▁spe	-417
ool	-418
oin	-419
ang	-420
ult	-421
▁bec	-422
oll	-423
vers	-424
fter	-425
▁how	-426
ade	-427
end	-428
▁$	-429
ning	-430
▁into	-431
▁pr	-432
▁people	-433
▁need	-434
old	-435
lic	-436
▁no	-437
▁first	-438
ons	-439
▁its	-440
ull	-441
hed	-442
ian	-443
amp	-444
ments	-445
ater	-446
▁Com	-447
▁only	-448
ious	-449
▁acc	-450
▁see	-451
we	-452
▁You	-453
▁back	-454
nder	-455
▁add	-456
▁she	-457
ft	-458
▁play	-459
rough	-460
hing	-461
▁make	-462
clud	-463
ause	-464
▁want	-465
__	-466
ates	-467
anc	-468
▁Se	-469
les	-470
ont	-471
▁And	-472
▁two	-473
▁New	-474
▁As	-475
▁good	-476
ily	-477
lp	-478
▁An	-479
▁De	-480
uch	-481
iss	-482
ict	-483
gr	-484
▁des	-485
▁every	-486
▁bet	-487
tern	-488
xt	-489
als	-490
▁think	-491
com	-492
ph	-493
round	-494
▁may	-495
aw	-496
!!	-497
row	-498
▁most	-499
ting	-500
▁comm	-501
▁help	-502
▁now	-503
▁could	-504
▁fl	-505
▁don	-506
urn	-507
▁act	-508
▁Sh	-509
▁ph	-510
▁after	-511
▁great	-512
▁did	-513
rent	-514
▁too	-515
▁&	-516
▁|	-517
▁Un	-518
▁includ	-519
▁–	-520
ock	-521
▁If	-522
▁Pro	-523
▁use	-524
).	-525
▁bu	-526
▁well	-527
▁very	-528
▁much	-529
▁gu	-530
ating	-531
▁these	-532
up	-533
ty	-534
ise	-535
ful	-536
ual	-537
ational	-538
▁through	-539
▁even	-540
▁years	-541
▁co	-542
▁way	-543
ities	-544
ject	-545
▁Al	-546
▁Be	-547
▁em	-548
sel	-549
▁love	-550
chool	-551
hen	-552
▁prov	-553
▁wee	-554
ife	-555
lect	-556
▁right	-557
▁under	-558
ath	-559
▁col	-560
pport	-561
arch	-562
ics	-563
▁then	-564
aking	-565
▁ke	-566
▁cons	-567
man	-568
ason	-569
ble	-570
bs	-571
▁him	-572
▁serv	-573
fore	-574
▁many	-575
ices	-576
."	-577
▁because	-578
▁should	-579
▁>	-580
▁For	-581
yst	-582
▁read	-583
pr	-584
▁ind	-585
oth	-586
get	-587
other	-588
ward	-589
pect	-590
▁stud	-591
▁rem	-592
▁here	-593
vent	-594
▁where	-595
▁show	-596
▁reg	-597
▁But	-598
▁down	-599
▁again	-600
rit	-601
▁post	-602
ork	-603
▁start	-604
oss	-605
ces	-606
▁sec	-607
▁i	-608
erson	-609
▁last	-610
ank	-611
formation	-612
▁really	-613
view	-614
und	-615
az	-616
ix	-617
),	-618
▁Ad	-619
▁tra	-620
▁fin	-621
ys	-622
▁sm	-623
▁produ	-624
ident	-625
▁Ar	-626
hes	-627
▁does	-628
ert	-629
▁Le	-630
air	-631
▁dif	-632
▁day	-633
omet	-634
▁made	-635
▁own	-636
▁mon	-637
olog	-638
ange	-639
▁Cl	-640
ific	-641
ollow	-642
uring	-643
ures	-644
io	-645
rib	-646
alk	-647
ased	-648
ner	-649
ah	-650
▁find	-651
its	-652
ited	-653
alth	-654
ues	-655
▁inc	-656
▁imp	-657
ied	-658
ave	-659
hip	-660
iness	-661
▁long	-662
ell	-663
rest	-664
▁being	-665
ible	-666
▁going	-667
▁ent	-668
▁att	-669
▁rel	-670
▁inv	-671
▁those	-672
ublic	-673
ars	-674
atch	-675
▁min	-676
ystem	-677
▁ass	-678
▁call	-679
▁br	-680
▁take	-681
ms	-682
▁set	-683
▁though	-684
ility	-685
▁che	-686
way	-687
gram	-688
▁say	-689
ative	-690
ug	-691
▁Bl	-692
read	-693
▁before	-694
.”	-695
▁inte	-696
lease	-697
,"	-698
ular	-699
▁such	-700
gan	-701
ower	-702
▁So	-703
ng	-704
velop	-705
▁bel	-706
ax	-707
meric	-708
▁end	-709
ton	-710
pen	-711
▁art	-712
▁mem	-713
▁spec	-714
▁fam	-715
▁high	-716
ience	-717
▁[	-718
▁ac	-719
▁inst	-720
▁dec	-721
▁Te	-722
ced	-723
ather	-724
any	-725
ince	-726
▁home	-727
ouse	-728
land	-729
▁pol	-730
ash	-731
▁ins	-732
▁run	-733
usiness	-734
ute	-735
▁team	-736
▁best	-737
akes	-738
▁still	-739
oint	-740
oun	-741
ually	-742
▁information	-743
cess	-744
ets	-745
ener	-746
imes	-747
▁loc	-748
ittle	-749
irect	-750
ins	-751
riend	-752
ement	-753
ier	-754
▁On	-755
▁pres	-756
▁sur	-757
oh	-758
ters	-759
▁exper	-760
ivers	-761
ames	-762
▁follow	-763
▁All	-764
▁ra	-765
▁somet	-766
▁Fr	-767
▁list	-768
▁Americ	-769
▁car	-770
ale	-771
ss	-772
▁av	-773
▁eff	-774
line	-775
▁Ph	-776
▁while	-777
ik	-778
▁world	-779
ages	-780
ives	-781
▁cour	-782
riv	-783
▁There	-784
ple	-785
led	-786
self	-787
▁How	-788
ric	-789
▁hand	-790
▁Q	-791
▁person	-792
oot	-793
▁'	-794
The	-795
els	-796
▁diffe	-797
▁ret	-798
▁vis	-799
▁gr	-800
▁ear	-801
▁got	-802
▁May	-803
▁around	-804
▁happ	-805
▁.	-806
▁ser	-807
▁What	-808
▁three	-809
roup	-810
▁cur	-811
▁:	-812
▁lead	-813
▁little	-814
▁count	-815
▁used	-816
▁school	-817
▁lot	-818
▁sim	-819
▁game	-820
▁disc	-821
▁Sc	-822
▁top	-823
unity	-824
▁They	-825
ways	-826
▁ed	-827
▁month	-828
▁same	-829
▁Pl	-830
▁requ	-831
▁try	-832
▁book	-833
▁fun	-834
----	-835
▁real	-836
▁few	-837
▁child	-838
ox	-839
ient	-840
▁win	-841
▁mark	-842
ize	-843
▁char	-844
▁system	-845
chn	-846
▁care	-847
thing	-848
be	-849
▁program	-850
▁both	-851
oad	-852
▁--	-853
▁each	-854
▁develop	-855
▁str	-856
▁gl	-857
▁sign	-858
uc	-859
▁Ex	-860
▁found	-861
▁sl	-862
ene	-863
ional	-864
▁inter	-865
▁def	-866
▁week	-867
▁life	-868
cept	-869
ines	-870
▁That	-871
ield	-872
▁Col	-873
bers	-874
▁det	-875
iet	-876
cent	-877
▁mod	-878
▁sub	-879
▁fr	-880
▁num	-881
att	-882
____	-883
arm	-884
reen	-885
ness	-886
▁To	-887
▁next	-888
▁support	-889
der	-890
ope	-891
▁Con	-892
ger	-893
▁better	-894
▁She	-895
▁big	-896
▁med	-897
▁business	-898
▁Fe	-899
▁comple	-900
,”	-901
▁put	-902
▁keep	-903
▁Is	-904
▁Or	-905
con	-906
▁things	-907
orn	-908
gg	-909
anks	-910
uck	-911
▁At	-912
▁design	-913
▁open	-914
▁report	-915
▁eas	-916
ann	-917
▁second	-918
▁friend	-919
ott	-920
▁No	-921
▁something	-922
enc	-923
rand	-924
aut	-925
ered	-926
ving	-927
ists	-928
▁always	-929
ween	-930
ats	-931
▁says	-932
ished	-933
vern	-934
▁feel	-935
▁fil	-936
ailable	-937
▁sk	-938
▁never	-939
ired	-940
ember	-941
▁full	-942
▁come	-943
▁Mar	-944
▁cle	-945
ved	-946
▁/	-947
ever	-948
ital	-949
▁Cent	-950
ology	-951
▁provid	-952
▁interest	-953
▁quest	-954
oard	-955
▁free	-956
▁head	-957
▁del	-958
▁trans	-959
cer	-960
▁Tr	-961
▁sure	-962
min	-963
▁ev	-964
illion	-965
iving	-966
▁another	-967
ok	-968
▁during	-969
▁place	-970
▁Res	-971
ley	-972
ants	-973
▁rep	-974
atur	-975
br	-976
▁product	-977
▁Z	-978
▁tri	-979
▁between	-980
▁Chr	-981
less	-982
son	-983
▁cr	-984
▁since	-985
▁iss	-986
▁ide	-987
▁My	-988
▁—	-989
ized	-990
▁must	-991
ract	-992
ution	-993
ody	-994
▁met	-995
▁exp	-996
▁aut	-997
ross	-998
ense	-999
▁adv	-1000
▁different	-1001
ems	-1002
rence	-1003
▁Ind	-1004
arn	-1005
▁mov	-1006
▁lar	-1007
▁pass	-1008
▁Post	-1009
▁ter	-1010
iversity	-1011
▁phot	-1012
▁rest	-1013
▁wr	-1014
▁class	-1015
▁health	-1016
▁proble	-1017
▁appro	-1018
ering	-1019
▁old	-1020
▁family	-1021
▁form	-1022
▁let	-1023
ared	-1024
▁Comm	-1025
usic	-1026
aj	-1027
▁bro	-1028
▁prof	-1029
▁available	-1030
uss	-1031
▁hard	-1032
▁give	-1033
▁gener	-1034
▁including	-1035
▁season	-1036
▁When	-1037
ote	-1038
oney	-1039
ves	-1040
mber	-1041
ision	-1042
istr	-1043
ohn	-1044
ustom	-1045
▁days	-1046
**	-1047
ci	-1048
urs	-1049
outh	-1050
ee	-1051
▁contin	-1052
▁group	-1053
▁allow	-1054
▁against	-1055
ature	-1056
▁inf	-1057
ata	-1058
▁four	-1059
▁cre	-1060
▁ext	-1061
▁direct	-1062
▁public	-1063
▁ask	-1064
▁today	-1065
▁Sp	-1066
▁cor	-1067
▁might	-1068
ER	-1069
▁rece	-1070
▁site	-1071
▁cent	-1072
▁ref	-1073
▁fact	-1074
▁Me	-1075
gy	-1076
ically	-1077
ling	-1078
enn	-1079
▁job	-1080
here	-1081
▁without	-1082
▁state	-1083
▁import	-1084
▁creat	-1085
ware	-1086
ately	-1087
▁using	-1088
ior	-1089
▁US	-1090
▁el	-1091
gin	-1092
aint	-1093
▁view	-1094
▁night	-1095
app	-1096
urch	-1097
▁stand	-1098
▁project	-1099
▁poss	-1100
▁small	-1101
▁int	-1102
▁ann	-1103
▁resp	-1104
ret	-1105
▁John	-1106
▁partic	-1107
▁conf	-1108
une	-1109
▁pay	-1110
▁Ne	-1111
▁ob	-1112
ploy	-1113
▁techn	-1114
let	-1115
ney	-1116
▁With	-1117
me	-1118
ideo	-1119
ird	-1120
▁Fl	-1121
int	-1122
ery	-1123
ining	-1124
orth	-1125
▁Man	-1126
▁ago	-1127
▁build	-1128
isc	-1129
▁Pr	-1130
▁current	-1131
lection	-1132
▁sol	-1133
▁blog	-1134
▁organ	-1135
▁looking	-1136
▁val	-1137
▁unt	-1138
oor	-1139
uff	-1140
augh	-1141
eting	-1142
▁thing	-1143
▁ty	-1144
ours	-1145
▁Car	-1146
ption	-1147
▁By	-1148
ably	-1149
iqu	-1150
ps	-1151
raph	-1152
ories	-1153
▁didn	-1154
▁Thanks	-1155
▁‘	-1156
▁Su	-1157
ards	-1158
▁plan	-1159
▁past	-1160
ccess	-1161
ged	-1162
ball	-1163
ality	-1164
▁Co	-1165
▁Cont	-1166
▁turn	-1167
▁bre	-1168
▁Count	-1169
▁point	-1170
▁Br	-1171
stand	-1172
ina	-1173
ama	-1174
▁wom	-1175
▁rese	-1176
ertain	-1177
ipp	-1178
▁bas	-1179
IN	-1180
▁record	-1181
▁var	-1182
▁away	-1183
▁less	-1184
▁Ste	-1185
ober	-1186
▁Jan	-1187
aring	-1188
▁law	-1189
▁company	-1190
▁process	-1191
▁cost	-1192
▁service	-1193
conom	-1194
ator	-1195
tend	-1196
▁University	-1197
the	-1198
▁water	-1199
alf	-1200
.,	-1201
ism	-1202
iday	-1203
irl	-1204
▁ve	-1205
▁manag	-1206
▁App	-1207
▁news	-1208
▁expl	-1209
▁Tw	-1210
▁pat	-1211
▁visit	-1212
▁left	-1213
by	-1214
icle	-1215
▁perform	-1216
▁special	-1217
▁dri	-1218
▁recent	-1219
▁sal	-1220
▁belie	-1221
▁dr	-1222
▁#	-1223
▁number	-1224
▁making	-1225
inal	-1226
▁govern	-1227
ush	-1228
ids	-1229
joy	-1230
▁Med	-1231
▁soc	-1232
▁One	-1233
▁why	-1234
ission	-1235
osed	-1236
▁Can	-1237
....	-1238
▁able	-1239
ral	-1240
▁until	-1241
▁sit	-1242
▁name	-1243
arent	-1244
▁children	-1245
ured	-1246
▁Christ	-1247
ode	-1248
ubl	-1249
▁level	-1250
ready	-1251
▁Am	-1252
ony	-1253
iver	-1254
rol	-1255
▁test	-1256
▁near	-1257
ium	-1258
▁fac	-1259
▁mar	-1260
▁Do	-1261
uly	-1262
▁leg	-1263
▁food	-1264
▁Che	-1265
▁room	-1266
▁custom	-1267
▁story	-1268
▁money	-1269
▁ever	-1270
▁More	-1271
nect	-1272
ream	-1273
▁sing	-1274
▁grow	-1275
▁pos	-1276
ails	-1277
atter	-1278
▁kind	-1279
▁En	-1280
pend	-1281
▁dist	-1282
ait	-1283
ored	-1284
▁experience	-1285
idd	-1286
▁Not	-1287
▁American	-1288
ten	-1289
▁course	-1290
▁students	-1291
ruct	-1292
▁invest	-1293
▁incre	-1294
▁important	-1295
med	-1296
work	-1297
▁done	-1298
book	-1299
▁power	-1300
▁hot	-1301
▁review	-1302
▁beh	-1303
ency	-1304
ights	-1305
▁page	-1306
utes	-1307
▁camp	-1308
part	-1309
fect	-1310
▁access	-1311
▁talk	-1312
▁Qu	-1313
▁Ed	-1314
▁comment	-1315
vious	-1316
oci	-1317
acy	-1318
▁word	-1319
ised	-1320
▁...	-1321
▁event	-1322
ON	-1323
▁members	-1324
▁times	-1325
ention	-1326
▁beaut	-1327
▁cut	-1328
▁effect	-1329
iam	-1330
▁Gu	-1331
▁expect	-1332
▁enough	-1333
▁won	-1334
▁prom	-1335
▁working	-1336
opp	-1337
▁pop	-1338
aff	-1339
ead	-1340
ges	-1341
▁bit	-1342
ases	-1343
ider	-1344
▁thought	-1345
▁far	-1346
avor	-1347
ients	-1348
ults	-1349
▁City	-1350
bsite	-1351
ury	-1352
ajor	-1353
▁local	-1354
▁hist	-1355
▁tell	-1356
▁already	-1357
▁Oct	-1358
▁area	-1359
▁getting	-1360
▁offic	-1361
▁line	-1362
▁+	-1363
▁State	-1364
▁chang	-1365
back	-1366
▁check	-1367
▁Bro	-1368
▁Rep	-1369
▁doing	-1370
▁Eng	-1371
ones	-1372
▁Cal	-1373
ference	-1374
▁having	-1375
sh	-1376
▁supp	-1377
▁sw	-1378
▁dem	-1379
ills	-1380
veral	-1381
▁hope	-1382
▁Intern	-1383
▁community	-1384
▁makes	-1385
hor	-1386
▁addition	-1387
ains	-1388
omm	-1389
use	-1390
ows	-1391
▁music	-1392
AT	-1393
▁oper	-1394
▁doesn	-1395
▁million	-1396
▁change	-1397
▁Gr	-1398
over	-1399
▁Your	-1400
▁X	-1401
ined	-1402
▁enjoy	-1403
▁Apr	-1404
▁wond	-1405
uro	-1406
iron	-1407
ived	-1408
▁Mc	-1409
▁Ass	-1410
▁percent	-1411
▁least	-1412
ither	-1413
ries	-1414
ift	-1415
▁stat	-1416
▁provide	-1417
▁order	-1418
▁Wor	-1419
▁data	-1420
▁County	-1421
▁Now	-1422
yle	-1423
▁cap	-1424
ern	-1425
▁online	-1426
▁ca	-1427
▁Serv	-1428
▁large	-1429
▁video	-1430
▁Feb	-1431
ane	-1432
▁aff	-1433
▁games	-1434
▁Ke	-1435
▁Ab	-1436
▁case	-1437
▁move	-1438
▁Im	-1439
ified	-1440
sc	-1441
room	-1442
iful	-1443
▁intern	-1444
▁Just	-1445
icy	-1446
ister	-1447
ron	-1448
▁Des	-1449
▁Read	-1450
▁city	-1451
▁mean	-1452
ec	-1453
gether	-1454
▁together	-1455
ots	-1456
▁News	-1457
▁happen	-1458
lege	-1459
side	-1460
We	-1461
load	-1462
▁hum	-1463
ille	-1464
aster	-1465
▁After	-1466
▁York	-1467
▁pret	-1468
por	-1469
▁pa	-1470
▁*	-1471
▁went	-1472
▁Center	-1473
▁include	-1474
▁x	-1475
reet	-1476
▁came	-1477
▁present	-1478
ourn	-1479
▁mil	-1480
▁live	-1481
ource	-1482
▁called	-1483
▁buy	-1484
▁short	-1485
▁services	-1486
▁est	-1487
▁Per	-1488
osp	-1489
▁vers	-1490
RE	-1491
▁equ	-1492
▁following	-1493
▁complete	-1494
▁actually	-1495
▁looks	-1496
rew	-1497
▁light	-1498
yn	-1499
iven	-1500
▁feat	-1501
▁fund	-1502
▁writ	-1503
▁dra	-1504
▁proper	-1505
▁pract	-1506
▁Pol	-1507
▁Dr	-1508
▁months	-1509
oon	-1510
▁return	-1511
▁side	-1512
▁took	-1513
oints	-1514
▁treat	-1515
▁research	-1516
▁PM	-1517
ising	-1518
itions	-1519
aps	-1520
▁sum	-1521
iety	-1522
ability	-1523
▁yet	-1524
▁several	-1525
▁government	-1526
oice	-1527
▁econom	-1528
AN	-1529
▁Pre	-1530
▁sound	-1531
▁Off	-1532
▁Our	-1533
▁pretty	-1534
▁friends	-1535
▁Will	-1536
▁market	-1537
ibr	-1538
ording	-1539
aim	-1540
▁half	-1541
▁house	-1542
▁kn	-1543
▁success	-1544
▁air	-1545
▁five	-1546
▁activ	-1547
ST	-1548
▁prote	-1549
▁problem	-1550
▁Gl	-1551
ler	-1552
ians	-1553
ips	-1554
unch	-1555
▁country	-1556
ging	-1557
▁School	-1558
▁profess	-1559
allen	-1560
▁within	-1561
▁easy	-1562
▁employ	-1563
ample	-1564
▁Comp	-1565
rop	-1566
ivid	-1567
ization	-1568
af	-1569
▁March	-1570
▁Posted	-1571
oe	-1572
▁men	-1573
▁impro	-1574
fort	-1575
uture	-1576
▁eng	-1577
▁understand	-1578
▁es	-1579
▁Pe	-1580
▁Pres	-1581
▁perfect	-1582
▁website	-1583
cri	-1584
▁major	-1585
aur	-1586
▁Bar	-1587
AR	-1588
▁»	-1589
ocus	-1590
duct	-1591
itor	-1592
ateg	-1593
▁idea	-1594
lement	-1595
▁Ob	-1596
▁June	-1597
▁along	-1598
ify	-1599
▁deal	-1600
▁const	-1601
▁once	-1602
most	-1603
itter	-1604
▁often	-1605
▁ce	-1606
ully	-1607
▁Sm	-1608
▁cou	-1609
▁mom	-1610
▁cond	-1611
▁become	-1612
▁early	-1613
▁learn	-1614
ex	-1615
ched	-1616
▁Spe	-1617
▁needs	-1618
▁question	-1619
▁others	-1620
▁young	-1621
of	-1622
ials	-1623
▁anything	-1624
▁la	-1625
ted	-1626
▁prob	-1627
▁United	-1628
▁National	-1629
▁comments	-1630
▁Go	-1631
itive	-1632
▁Mark	-1633
▁educ	-1634
sw	-1635
▁These	-1636
ump	-1637
ograph	-1638
▁please	-1639
arr	-1640
nes	-1641
rap	-1642
viron	-1643
verage	-1644
▁Add	-1645
▁minutes	-1646
▁trad	-1647
ym	-1648
▁Inst	-1649
▁account	-1650
▁Min	-1651
▁tax	-1652
▁Stud	-1653
▁started	-1654
▁Pa	-1655
▁bad	-1656
▁someone	-1657
▁pict	-1658
aces	-1659
inks	-1660
▁Part	-1661
▁pick	-1662
▁works	-1663
▁possible	-1664
▁applic	-1665
hers	-1666
▁Dav	-1667
▁Reg	-1668
▁bring	-1669
eral	-1670
▁told	-1671
enef	-1672
▁low	-1673
▁pot	-1674
▁stay	-1675
▁offer	-1676
▁Art	-1677
▁wait	-1678
▁dev	-1679
ances	-1680
▁Aug	-1681
▁hold	-1682
▁contact	-1683
▁opport	-1684
▁soft	-1685
▁elect	-1686
▁search	-1687
ides	-1688
▁field	-1689
▁Hot	-1690
ches	-1691
▁miss	-1692
▁women	-1693
▁pie	-1694
▁opt	-1695
▁certain	-1696
▁polit	-1697
▁comes	-1698
▁everything	-1699
▁April	-1700
▁favor	-1701
Th	-1702
lish	-1703
--------	-1704
▁,	-1705
▁tot	-1706
▁below	-1707
▁points	-1708
▁Mr	-1709
▁Tra	-1710
▁strong	-1711
________	-1712
▁Sept	-1713
▁seem	-1714
ien	-1715
fer	-1716
▁quick	-1717
▁address	-1718
not	-1719
▁discuss	-1720
earch	-1721
▁Park	-1722
▁North	-1723
wh	-1724
ports	-1725
▁trying	-1726
ained	-1727
▁occ	-1728
▁seen	-1729
my	-1730
▁non	-1731
▁fore	-1732
▁rele	-1733
▁Friday	-1734
ique	-1735
ison	-1736
▁hours	-1737
▁Please	-1738
▁@	-1739
aken	-1740
uary	-1741
▁Here	-1742
wards	-1743
inc	-1744
▁Ge	-1745
▁nice	-1746
▁July	-1747
ners	-1748
gle	-1749
ination	-1750
▁Wed	-1751
St	-1752
ai	-1753
▁World	-1754
▁From	-1755
▁mess	-1756
▁beautiful	-1757
oose	-1758
▁cook	-1759
▁reason	-1760
▁ey	-1761
atic	-1762
etwork	-1763
▁later	-1764
▁future	-1765
ags	-1766
year	-1767
bl	-1768
vironment	-1769
▁Us	-1770
▁red	-1771
▁everyone	-1772
▁Em	-1773
▁close	-1774
▁vol	-1775
▁High	-1776
illed	-1777
▁wonder	-1778
▁indust	-1779
▁Euro	-1780
▁watch	-1781
▁•	-1782
▁focus	-1783
cially	-1784
==	-1785
resh	-1786
▁South	-1787
▁believe	-1788
▁mor	-1789
▁comb	-1790
▁heart	-1791
▁invol	-1792
irt	-1793
ensive	-1794
▁pack	-1795
aturday	-1796
▁par	-1797
▁pm	-1798
▁compet	-1799
▁AM	-1800
▁God	-1801
▁exc	-1802
It	-1803
eth	-1804
▁share	-1805
▁whole	-1806
pro	-1807
▁development	-1808
ators	-1809
▁face	-1810
▁means	-1811
▁orig	-1812
▁Oh	-1813
▁series	-1814
▁Red	-1815
roll	-1816
▁Nove	-1817
▁link	-1818
ources	-1819
▁coming	-1820
▁walk	-1821
▁probably	-1822
▁:)	-1823
▁clear	-1824
▁mind	-1825
▁based	-1826
▁create	-1827
▁Was	-1828
▁six	-1829
play	-1830
▁Day	-1831
cial	-1832
▁Mon	-1833
▁across	-1834
for	-1835
ster	-1836
▁land	-1837
.)	-1838
SS	-1839
ole	-1840
▁Don	-1841
▁isn	-1842
pecially	-1843
▁lim	-1844
though	-1845
▁Mich	-1846
urity	-1847
▁hit	-1848
ilt	-1849
▁host	-1850
▁products	-1851
ocu	-1852
▁ste	-1853
▁Sec	-1854
▁either	-1855
▁personal	-1856
▁connect	-1857
pos	-1858
▁quality	-1859
OR	-1860
▁mult	-1861
▁press	-1862
ential	-1863
▁benef	-1864
▁break	-1865
▁control	-1866
▁Saturday	-1867
▁girl	-1868
▁seems	-1869
▁z	-1870
▁begin	-1871
ape	-1872
ilar	-1873
▁appear	-1874
▁body	-1875
ops	-1876
▁single	-1877
▁charac	-1878
▁track	-1879
▁et	-1880
EN	-1881
▁House	-1882
go	-1883
▁soon	-1884
off	-1885
▁key	-1886
▁spend	-1887
▁individ	-1888
▁November	-1889
▁El	-1890
▁email	-1891
▁front	-1892
▁Act	-1893
ests	-1894
eter	-1895
▁wanted	-1896
gu	-1897
time	-1898
▁upd	-1899
▁store	-1900
▁else	-1901
ruary	-1902
crib	-1903
▁added	-1904
▁America	-1905
vert	-1906
elt	-1907
▁main	-1908
▁port	-1909
ny	-1910
come	-1911
▁priv	-1912
gest	-1913
▁deb	-1914
▁publ	-1915
▁Dep	-1916
ided	-1917
▁challen	-1918
▁given	-1919
▁social	-1920
▁price	-1921
▁issues	-1922
oom	-1923
▁hig	-1924
azing	-1925
de	-1926
▁above	-1927
umb	-1928
▁Cor	-1929
▁article	-1930
▁Some	-1931
▁super	-1932
▁third	-1933
▁bar	-1934
ites	-1935
▁kids	-1936
▁ant	-1937
▁swe	-1938
▁Great	-1939
▁almost	-1940
▁October	-1941
err	-1942
▁However	-1943
cle	-1944
▁taking	-1945
▁aw	-1946
▁West	-1947
▁dou	-1948
▁quite	-1949
▁history	-1950
▁sent	-1951
▁<	-1952
▁Mond	-1953
ilities	-1954
arter	-1955
▁January	-1956
oved	-1957
isk	-1958
opy	-1959
▁cred	-1960
key	-1961
ands	-1962
iff	-1963
▁prep	-1964
ply	-1965
▁web	-1966
▁example	-1967
▁sugg	-1968
ague	-1969
▁anal	-1970
elf	-1971
ino	-1972
▁issue	-1973
iting	-1974
fully	-1975
iddle	-1976
▁step	-1977
▁announ	-1978
!!!	-1979
lebr	-1980
▁wind	-1981
▁Health	-1982
unic	-1983
▁Europe	-1984
▁questions	-1985
ese	-1986
▁While	-1987
IT	-1988
▁join	-1989
yl	-1990
fact	-1991
obile	-1992
▁effort	-1993
▁February	-1994
▁meet	-1995
▁board	-1996
▁parent	-1997
itch	-1998
itting	-1999
ek	-2000
AL	-2001
▁foot	-2002
▁party	-2003
anies	-2004
▁Love	-2005
▁Sund	-2006
ried	-2007
abor	-2008
▁behind	-2009
atest	-2010
▁fall	-2011
resent	-2012
▁Web	-2013
▁tit	-2014
urther	-2015
▁Monday	-2016
▁black	-2017
▁comput	-2018
rain	-2019
▁space	-2020
▁staff	-2021
▁Ser	-2022
▁film	-2023
▁fire	-2024
▁nothing	-2025
▁Up	-2026
ural	-2027
▁War	-2028
▁results	-2029
▁Char	-2030
▁tool	-2031
▁mater	-2032
▁Par	-2033
▁result	-2034
▁whether	-2035
▁study	-2036
▁September	-2037
head	-2038
▁card	-2039
▁member	-2040
amer	-2041
▁States	-2042
icult	-2043
ulation	-2044
▁vot	-2045
▁enc	-2046
▁purch	-2047
selves	-2048
▁among	-2049
▁Her	-2050
ommend	-2051
▁concer	-2052
▁particular	-2053
▁recommend	-2054
ctor	-2055
▁hon	-2056
cember	-2057
▁Har	-2058
▁fre	-2059
▁specific	-2060
▁repl	-2061
▁running	-2062
ued	-2063
▁song	-2064
duc	-2065
▁asked	-2066
▁claim	-2067
▁Direct	-2068
lex	-2069
▁Sen	-2070
▁TV	-2071
▁anyone	-2072
AC	-2073
utions	-2074
▁summer	-2075
▁Int	-2076
uation	-2077
ES	-2078
urance	-2079
▁forward	-2080
▁particip	-2081
lling	-2082
▁clean	-2083
▁travel	-2084
aining	-2085
idence	-2086
ned	-2087
▁especially	-2088
▁TH	-2089
iod	-2090
▁happy	-2091
▁author	-2092
ume	-2093
AS	-2094
co	-2095
▁cra	-2096
▁President	-2097
▁office	-2098
IC	-2099
▁oil	-2100
▁version	-2101
▁View	-2102
▁content	-2103
kend	-2104
▁tem	-2105
▁known	-2106
▁weeks	-2107
orge	-2108
ounc	-2109
▁Pat	-2110
▁require	-2111
itted	-2112
▁ener	-2113
▁Black	-2114
OT	-2115
bor	-2116
irm	-2117
▁San	-2118
▁cool	-2119
▁media	-2120
oke	-2121
▁typ	-2122
▁tre	-2123
astic	-2124
ester	-2125
▁Get	-2126
▁age	-2127
ville	-2128
▁Soc	-2129
▁bed	-2130
▁stuff	-2131
gs	-2132
▁send	-2133
▁building	-2134
▁reading	-2135
cell	-2136
▁Val	-2137
aign	-2138
▁compl	-2139
▁Acc	-2140
▁Face	-2141
gress	-2142
▁answ	-2143
▁His	-2144
ux	-2145
▁final	-2146
OU	-2147
ipe	-2148
rote	-2149
▁David	-2150
itc	-2151
▁log	-2152
uesday	-2153
▁ball	-2154
▁taken	-2155
??	-2156
▁crit	-2157
▁Good	-2158
▁offers	-2159
itten	-2160
▁couple	-2161
used	-2162
▁Well	-2163
▁needed	-2164
▁cup	-2165
▁industry	-2166
▁hom	-2167
▁mot	-2168
▁players	-2169
▁continue	-2170
ED	-2171
reg	-2172
▁Obama	-2173
aker	-2174
▁Aust	-2175
▁Sunday	-2176
▁box	-2177
▁entire	-2178
rie	-2179
▁Thank	-2180
▁cal	-2181
na	-2182
▁true	-2183
▁abs	-2184
▁Cour	-2185
▁docu	-2186
ministr	-2187
▁pri	-2188
▁companies	-2189
ili	-2190
▁held	-2191
▁August	-2192
▁December	-2193
oes	-2194
ursday	-2195
▁simple	-2196
▁environment	-2197
ask	-2198
▁mag	-2199
▁recently	-2200
▁diff	-2201
▁white	-2202
▁cult	-2203
▁rather	-2204
▁amazing	-2205
ety	-2206
▁playing	-2207
▁respons	-2208
▁Bu	-2209
oogle	-2210
▁tou	-2211
▁etc	-2212
▁Out	-2213
▁text	-2214
▁Tuesday	-2215
▁Are	-2216
▁ident	-2217
▁Associ	-2218
unities	-2219
▁defin	-2220
imate	-2221
▁technology	-2222
ana	-2223
ief	-2224
ables	-2225
▁value	-2226
▁chance	-2227
▁lost	-2228
▁currently	-2229
▁Af	-2230
▁consider	-2231
ung	-2232
▁pur	-2233
▁Review	-2234
ially	-2235
▁morning	-2236
ournal	-2237
ibility	-2238
▁matter	-2239
▁problems	-2240
ky	-2241
ze	-2242
mit	-2243
▁former	-2244
▁due	-2245
▁Phot	-2246
obal	-2247
▁Mic	-2248
aily	-2249
▁type	-2250
▁aud	-2251
aching	-2252
▁amount	-2253
amed	-2254
nesday	-2255
▁Thursday	-2256
▁Dis	-2257
▁Fin	-2258
ancial	-2259
▁cover	-2260
▁words	-2261
▁played	-2262
▁road	-2263
▁phone	-2264
▁energy	-2265
right	-2266
▁Depart	-2267
▁human	-2268
▁Cong	-2269
▁training	-2270
▁war	-2271
▁Also	-2272
▁click	-2273
iol	-2274
▁round	-2275
aged	-2276
cast	-2277
ental	-2278
▁tal	-2279
▁size	-2280
ael	-2281
mon	-2282
ring	-2283
gth	-2284
▁First	-2285
▁attend	-2286
▁suggest	-2287
oph	-2288
▁Inc	-2289
hel	-2290
▁late	-2291
ibrary	-2292
▁dam	-2293
asing	-2294
icles	-2295
▁meas	-2296
atural	-2297
lev	-2298
▁select	-2299
▁features	-2300
▁Paul	-2301
▁Aut	-2302
attle	-2303
▁loss	-2304
ouncil	-2305
aced	-2306
▁Loc	-2307
ival	-2308
▁saw	-2309
angu	-2310
rect	-2311
▁Of	-2312
▁stri	-2313
irth	-2314
▁Street	-2315
▁White	-2316
▁favorite	-2317
ude	-2318
▁Twitter	-2319
▁according	-2320
ailed	-2321
itional	-2322
▁install	-2323
ett	-2324
sp	-2325
▁photos	-2326
▁performance	-2327
▁shows	-2328
▁table	-2329
zz	-2330
clus	-2331
ogn	-2332
▁op	-2333
▁living	-2334
▁Wednesday	-2335
ams	-2336
▁grad	-2337
▁Green	-2338
pper	-2339
▁Why	-2340
▁cand	-2341
▁Facebook	-2342
org	-2343
iber	-2344
▁via	-2345
▁Rel	-2346
▁maint	-2347
▁Ac	-2348
▁town	-2349
▁death	-2350
▁period	-2351
AM	-2352
~~	-2353
▁opp	-2354
hington	-2355
▁likely	-2356
uge	-2357
▁brand	-2358
▁match	-2359
▁events	-2360
▁takes	-2361
▁position	-2362
ocr	-2363
▁assist	-2364
▁meth	-2365
▁action	-2366
ires	-2367
▁Republic	-2368
▁base	-2369
▁…	-2370
▁weekend	-2371
ederal	-2372
▁Calif	-2373
▁items	-2374
▁wrote	-2375
ledge	-2376
▁provided	-2377
▁received	-2378
▁remember	-2379
pm	-2380
▁hear	-2381
▁celebr	-2382
▁outside	-2383
▁drive	-2384
idge	-2385
▁pain	-2386
▁fresh	-2387
▁however	-2388
▁range	-2389
▁further	-2390
▁Department	-2391
ought	-2392
ises	-2393
▁leave	-2394
▁attack	-2395
▁goal	-2396
▁Home	-2397
▁color	-2398
▁longer	-2399
▁details	-2400
ago	-2401
▁interesting	-2402
▁La	-2403
aby	-2404
▁>>	-2405
▁fig	-2406
▁career	-2407
ham	-2408
▁Sch	-2409
▁wasn	-2410
olution	-2411
▁Sal	-2412
▁campaign	-2413
medi	-2414
▁Ag	-2415
▁self	-2416
▁education	-2417
ishing	-2418
▁Sim	-2419
▁teac	-2420
▁users	-2421
ruction	-2422
▁president	-2423
ding	-2424
▁phys	-2425
▁meeting	-2426
▁Je	-2427
empt	-2428
▁worth	-2429
▁improve	-2430
▁style	-2431
reme	-2432
▁Other	-2433
▁court	-2434
****	-2435
▁worked	-2436
▁national	-2437
ming	-2438
▁areas	-2439
▁deter	-2440
istrict	-2441
▁similar	-2442
▁Washington	-2443
▁gets	-2444
ford	-2445
rows	-2446
▁goes	-2447
▁Manag	-2448
▁simply	-2449
▁College	-2450
▁software	-2451
hib	-2452
▁difficult	-2453
adem	-2454
bum	-2455
ently	-2456
ufact	-2457
▁Google	-2458
▁books	-2459
oud	-2460
▁ground	-2461
▁contrib	-2462
▁Cons	-2463
▁bott	-2464
▁guys	-2465
▁protect	-2466
▁represent	-2467
▁stop	-2468
par	-2469
▁surpr	-2470
▁Let	-2471
aving	-2472
ession	-2473
▁relations	-2474
▁International	-2475
▁Ang	-2476
▁Trans	-2477
ively	-2478
▁regular	-2479
ules	-2480
▁sn	-2481
▁Top	-2482
▁Wind	-2483
▁sense	-2484
▁consum	-2485
itte	-2486
▁contract	-2487
ma	-2488
▁ple	-2489
▁dress	-2490
▁Every	-2491
▁boy	-2492
▁Most	-2493
▁vict	-2494
▁ways	-2495
pped	-2496
▁Dem	-2497
▁latest	-2498
▁police	-2499
▁clos	-2500
▁required	-2501
ada	-2502
▁policy	-2503
▁iP	-2504
▁dig	-2505
▁subject	-2506
oring	-2507
like	-2508
▁See	-2509
istic	-2510
▁student	-2511
lin	-2512
hern	-2513
iter	-2514
▁Jack	-2515
▁role	-2516
▁posted	-2517
ees	-2518
oid	-2519
▁includes	-2520
fl	-2521
rown	-2522
▁stra	-2523
▁common	-2524
icks	-2525
▁redu	-2526
▁popular	-2527
▁signific	-2528
▁Any	-2529
▁lik	-2530
▁pan	-2531
▁paper	-2532
▁init	-2533
▁accept	-2534
▁programs	-2535
▁opportunity	-2536
▁Air	-2537
▁myself	-2538
▁previous	-2539
▁£	-2540
ospital	-2541
esome	-2542
▁anim	-2543
▁saying	-2544
▁parents	-2545
cy	-2546
▁di	-2547
band	-2548
▁Law	-2549
▁Play	-2550
▁tast	-2551
overed	-2552
▁changes	-2553
▁serious	-2554
ara	-2555
ground	-2556
▁Show	-2557
▁customers	-2558
▁East	-2559
opping	-2560
ida	-2561
▁bud	-2562
▁Cr	-2563
wood	-2564
▁mix	-2565
▁Free	-2566
▁wrong	-2567
▁fine	-2568
ID	-2569
▁date	-2570
oly	-2571
▁Mor	-2572
▁Prof	-2573
▁method	-2574
▁tour	-2575
▁total	-2576
▁moment	-2577
▁collect	-2578
dd	-2579
▁coll	-2580
▁file	-2581
cription	-2582
▁receive	-2583
▁wonderful	-2584
▁Last	-2585
arget	-2586
where	-2587
▁leaders	-2588
In	-2589
rodu	-2590
▁fast	-2591
▁wide	-2592
OL	-2593
mas	-2594
haps	-2595
ounds	-2596
▁rate	-2597
chie	-2598
▁general	-2599
▁instead	-2600
▁Rich	-2601
irc	-2602
▁Sw	-2603
▁center	-2604
▁inn	-2605
▁insp	-2606
▁photo	-2607
bur	-2608
▁release	-2609
lt	-2610
▁cell	-2611
ondon	-2612
▁band	-2613
▁cannot	-2614
▁Cle	-2615
▁ready	-2616
▁higher	-2617
ING	-2618
▁Comments	-2619
▁exist	-2620
▁Rom	-2621
anger	-2622
▁movie	-2623
partment	-2624
▁model	-2625
▁mention	-2626
▁respect	-2627
▁political	-2628
▁Det	-2629
▁Look	-2630
▁Group	-2631
▁fight	-2632
▁interview	-2633
ha	-2634
ecut	-2635
▁network	-2636
▁management	-2637
▁exam	-2638
▁Business	-2639
illing	-2640
▁provides	-2641
▁sle	-2642
▁character	-2643
▁Ev	-2644
▁usually	-2645
anced	-2646
erman	-2647
▁exact	-2648
▁sales	-2649
board	-2650
▁original	-2651
▁inj	-2652
field	-2653
itely	-2654
▁gave	-2655
▁mother	-2656
▁function	-2657
atives	-2658
▁credit	-2659
▁various	-2660
▁thanks	-2661
▁download	-2662
▁sex	-2663
based	-2664
ornia	-2665
▁Over	-2666
▁pull	-2667
▁yourself	-2668
):	-2669
eds	-2670
▁dom	-2671
lier	-2672
▁Rober	-2673
▁writing	-2674
ification	-2675
▁describ	-2676
▁necess	-2677
▁professional	-2678
▁Tod	-2679
▁piece	-2680
str	-2681
▁Dec	-2682
▁Rec	-2683
▁Then	-2684
▁=	-2685
▁created	-2686
▁Ir	-2687
iles	-2688
▁infl	-2689
▁player	-2690
▁rad	-2691
aging	-2692
▁Phil	-2693
▁fans	-2694
▁Tex	-2695
▁sus	-2696
ening	-2697
▁extra	-2698
▁write	-2699
▁William	-2700
▁additional	-2701
ET	-2702
mm	-2703
izing	-2704
▁Program	-2705
▁hol	-2706
▁Even	-2707
▁agree	-2708
▁decision	-2709
▁designed	-2710
▁property	-2711
▁itself	-2712
▁Michael	-2713
▁Big	-2714
▁maybe	-2715
▁lives	-2716
▁weight	-2717
▁comfort	-2718
sy	-2719
ament	-2720
che	-2721
▁neg	-2722
▁draw	-2723
▁Spr	-2724
▁fit	-2725
▁significant	-2726
▁Yes	-2727
▁inde	-2728
▁computer	-2729
▁park	-2730
▁sort	-2731
▁increase	-2732
▁schools	-2733
put	-2734
uth	-2735
▁wall	-2736
IS	-2737
ached	-2738
▁rights	-2739
hood	-2740
▁squ	-2741
▁security	-2742
▁California	-2743
▁hy	-2744
▁wish	-2745
▁Techn	-2746
▁heard	-2747
▁System	-2748
▁Service	-2749
▁hor	-2750
▁collection	-2751
...]	-2752
word	-2753
▁Super	-2754
▁regard	-2755
▁involved	-2756
▁Ann	-2757
▁ens	-2758
▁ones	-2759
▁reported	-2760
ades	-2761
face	-2762
asons	-2763
▁agre	-2764
▁risk	-2765
▁choose	-2766
▁thinking	-2767
atory	-2768
▁green	-2769
▁average	-2770
▁private	-2771
leg	-2772
urt	-2773
▁Del	-2774
ica	-2775
mail	-2776
▁user	-2777
▁themselves	-2778
▁sell	-2779
▁terms	-2780
▁London	-2781
add	-2782
▁Gener	-2783
▁screen	-2784
▁restaur	-2785
▁sun	-2786
▁fair	-2787
▁English	-2788
▁Hall	-2789
▁nation	-2790
▁guy	-2791
▁decided	-2792
▁practice	-2793
▁Chic	-2794
▁Educ	-2795
▁inside	-2796
▁gra	-2797
▁dest	-2798
unt	-2799
▁Sub	-2800
uk	-2801
zy	-2802
!!!!	-2803
▁mat	-2804
▁About	-2805
▁recogn	-2806
▁financial	-2807
▁club	-2808
▁engine	-2809
rs	-2810
erve	-2811
ald	-2812
▁Back	-2813
▁Inter	-2814
eal	-2815
▁investig	-2816
erry	-2817
▁Mag	-2818
aughter	-2819
▁systems	-2820
▁Ben	-2821
▁attempt	-2822
avy	-2823
▁score	-2824
▁associ	-2825
▁choice	-2826
apt	-2827
aves	-2828
▁code	-2829
▁growth	-2830
▁international	-2831
EC	-2832
hips	-2833
▁Mac	-2834
▁jud	-2835
IL	-2836
▁mass	-2837
rought	-2838
▁upon	-2839
ples	-2840
▁hands	-2841
vey	-2842
▁ill	-2843
itute	-2844
▁race	-2845
▁defe	-2846
▁tried	-2847
▁impact	-2848
▁activities	-2849
▁throughout	-2850
ray	-2851
down	-2852
▁Dan	-2853
▁led	-2854
▁unique	-2855
ffic	-2856
iction	-2857
▁fan	-2858
icated	-2859
▁teams	-2860
anguage	-2861
▁published	-2862
more	-2863
rian	-2864
▁son	-2865
▁sold	-2866
▁guess	-2867
light	-2868
▁wife	-2869
ampions	-2870
erc	-2871
▁written	-2872
gers	-2873
uate	-2874
▁safe	-2875
▁touch	-2876
▁quickly	-2877
▁Internet	-2878
▁ur	-2879
iple	-2880
olute	-2881
ule	-2882
▁bus	-2883
▁Book	-2884
▁huge	-2885
ashion	-2886
▁sen	-2887
▁trail	-2888
▁Bill	-2889
▁star	-2890
▁insurance	-2891
▁Mem	-2892
▁object	-2893
ittee	-2894
▁Brit	-2895
alt	-2896
▁estab	-2897
▁plans	-2898
unk	-2899
▁Public	-2900
▁Services	-2901
▁recipe	-2902
aries	-2903
▁trip	-2904
▁viol	-2905
▁bur	-2906
▁Austral	-2907
ault	-2908
▁norm	-2909
▁released	-2910
BC	-2911
EL	-2912
▁deg	-2913
▁included	-2914
▁Information	-2915
CA	-2916
ror	-2917
vin	-2918
▁dru	-2919
▁fab	-2920
▁Best	-2921
▁individual	-2922
▁lay	-2923
▁mid	-2924
▁slow	-2925
▁title	-2926
inger	-2927
▁ideas	-2928
▁hotel	-2929
uel	-2930
▁cat	-2931
ilies	-2932
▁album	-2933
▁answer	-2934
rey	-2935
▁prop	-2936
▁sett	-2937
idents	-2938
▁becom	-2939
▁print	-2940
▁immedi	-2941
onse	-2942
ression	-2943
▁knew	-2944
▁tick	-2945
▁Court	-2946
▁built	-2947
▁except	-2948
▁Sun	-2949
▁Miss	-2950
ography	-2951
▁rock	-2952
▁copy	-2953
▁Texas	-2954
▁Chicago	-2955
bed	-2956
▁shot	-2957
▁cause	-2958
▁coach	-2959
▁Sur	-2960
▁dro	-2961
▁hair	-2962
▁Afric	-2963
▁message	-2964
airs	-2965
▁mach	-2966
▁giving	-2967
▁correct	-2968
▁manufact	-2969
▁hop	-2970
▁gen	-2971
iant	-2972
▁Mod	-2973
▁middle	-2974
▁James	-2975
▁college	-2976
▁medical	-2977
▁document	-2978
▁saf	-2979
▁sat	-2980
▁Flor	-2981
▁picture	-2982
▁starting	-2983
▁speak	-2984
▁attention	-2985
▁King	-2986
▁Tom	-2987
▁div	-2988
▁Have	-2989
▁quarter	-2990
▁related	-2991
OS	-2992
▁Rem	-2993
▁deep	-2994
▁birth	-2995
▁stru	-2996
ipping	-2997
val	-2998
body	-2999
▁bank	-3000
▁shoot	-3001
▁source	-3002
▁bal	-3003
arden	-3004
▁natural	-3005
▁application	-3006
▁Since	-3007
▁woman	-3008
▁Win	-3009
▁Research	-3010
oul	-3011
▁ord	-3012
▁feed	-3013
umn	-3014
▁ut	-3015
iding	-3016
ulations	-3017
▁leading	-3018
▁Office	-3019
▁depend	-3020
▁options	-3021
Wh	-3022
▁stock	-3023
▁became	-3024
▁interested	-3025
just	-3026
▁Port	-3027
▁doll	-3028
▁imm	-3029
▁achie	-3030
▁camer	-3031
▁expected	-3032
EO	-3033
▁potential	-3034
aches	-3035
▁Music	-3036
▁image	-3037
mb	-3038
ocol	-3039
▁lab	-3040
itary	-3041
rench	-3042
uted	-3043
▁began	-3044
vis	-3045
▁save	-3046
▁material	-3047
ivil	-3048
▁Matt	-3049
gar	-3050
sec	-3051
▁Ty	-3052
reci	-3053
yond	-3054
▁eat	-3055
▁encour	-3056
▁Apple	-3057
ari	-3058
olf	-3059
▁bi	-3060
▁grand	-3061
▁spent	-3062
rel	-3063
▁wel	-3064
▁affect	-3065
▁definitely	-3066
▁ess	-3067
▁Gold	-3068
▁fell	-3069
▁miles	-3070
▁organization	-3071
▁Nov	-3072
▁Christmas	-3073
OM	-3074
rael	-3075
ysis	-3076
▁billion	-3077
▁bo	-3078
orrow	-3079
▁costs	-3080
unte	-3081
▁Cur	-3082
▁fix	-3083
icious	-3084
▁Product	-3085
▁finally	-3086
▁pictures	-3087
pite	-3088
▁Mary	-3089
▁felt	-3090
▁budget	-3091
AD	-3092
▁©	-3093
ears	-3094
▁wants	-3095
▁Arch	-3096
▁Found	-3097
▁seven	-3098
cellent	-3099
▁Council	-3100
▁director	-3101
▁Sy	-3102
apan	-3103
▁variety	-3104
estern	-3105
▁announced	-3106
AP	-3107
orry	-3108
▁Down	-3109
▁door	-3110
▁sweet	-3111
isco	-3112
▁Make	-3113
▁block	-3114
▁neigh	-3115
▁located	-3116
".	-3117
▁arch	-3118
▁Smith	-3119
▁hus	-3120
▁turned	-3121
▁autom	-3122
▁haven	-3123
▁allows	-3124
▁ability	-3125
▁Ant	-3126
▁broad	-3127
▁Vis	-3128
▁obs	-3129
▁conference	-3130
ocks	-3131
▁opin	-3132
atever	-3133
▁mobile	-3134
▁economic	-3135
acing	-3136
▁note	-3137
▁pers	-3138
▁prim	-3139
▁candid	-3140
▁easily	-3141
▁awesome	-3142
▁communic	-3143
▁knowledge	-3144
erved	-3145
▁Many	-3146
itchen	-3147
▁[...]	-3148
US	-3149
▁couldn	-3150
▁integr	-3151
▁display	-3152
▁Ear	-3153
▁dead	-3154
▁gift	-3155
▁warm	-3156
ension	-3157
▁skills	-3158
▁feature	-3159
▁tom	-3160
ivity	-3161
▁prior	-3162
▁brought	-3163
▁looked	-3164
▁ep	-3165
irit	-3166
▁bill	-3167
▁Class	-3168
▁experien	-3169
▁projects	-3170
▁completely	-3171
uts	-3172
ancy	-3173
▁Price	-3174
▁Design	-3175
▁Association	-3176
▁Ret	-3177
aught	-3178
useum	-3179
▁luck	-3180
▁Press	-3181
▁safety	-3182
▁Contact	-3183
▁rout	-3184
ares	-3185
rences	-3186
▁blood	-3187
▁groups	-3188
enty	-3189
iced	-3190
▁purchase	-3191
irgin	-3192
ological	-3193
▁himself	-3194
▁standard	-3195
▁legal	-3196
▁nearly	-3197
▁roll	-3198
▁stage	-3199
▁prevent	-3200
He	-3201
imum	-3202
omen	-3203
▁Rock	-3204
This	-3205
inner	-3206
▁Check	-3207
▁cross	-3208
▁talking	-3209
king	-3210
▁Find	-3211
▁Develop	-3212
uses	-3213
▁Pal	-3214
▁Open	-3215
▁shall	-3216
▁German	-3217
▁sharing	-3218
▁treatment	-3219
▁Education	-3220
▁runs	-3221
imin	-3222
▁Fam	-3223
▁pet	-3224
▁Thom	-3225
▁vote	-3226
riving	-3227
▁wouldn	-3228
ady	-3229
yan	-3230
▁eye	-3231
▁levels	-3232
asc	-3233
▁Use	-3234
iment	-3235
▁lear	-3236
▁request	-3237
▁Sum	-3238
▁veh	-3239
▁Israel	-3240
▁families	-3241
▁resources	-3242
icken	-3243
▁Today	-3244
redients	-3245
▁sometimes	-3246
▁Hel	-3247
iring	-3248
▁Star	-3249
ressed	-3250
ructure	-3251
▁reports	-3252
▁happened	-3253
▁Sk	-3254
▁emer	-3255
▁speed	-3256
▁places	-3257
▁hour	-3258
sych	-3259
▁lack	-3260
▁stories	-3261
sey	-3262
▁Two	-3263
▁gives	-3264
▁target	-3265
▁enter	-3266
▁tur	-3267
atform	-3268
▁Child	-3269
▁apply	-3270
▁administr	-3271
▁Av	-3272
▁UK	-3273
▁bag	-3274
▁China	-3275
▁cases	-3276
▁eight	-3277
owl	-3278
▁dep	-3279
▁Blog	-3280
▁Lou	-3281
▁Care	-3282
▁Like	-3283
▁Road	-3284
▁lower	-3285
▁Mike	-3286
amb	-3287
▁Fil	-3288
▁Mart	-3289
▁subs	-3290
▁concern	-3291
▁section	-3292
▁sites	-3293
▁Florida	-3294
▁gas	-3295
opped	-3296
▁People	-3297
▁husband	-3298
▁absolute	-3299
▁Hist	-3300
idered	-3301
▁II	-3302
▁Bay	-3303
▁feeling	-3304
▁certainly	-3305
",	-3306
▁NY	-3307
▁reb	-3308
▁Board	-3309
▁appreci	-3310
rive	-3311
ston	-3312
wise	-3313
coming	-3314
▁Click	-3315
▁loved	-3316
iers	-3317
▁fant	-3318
▁jobs	-3319
▁Brown	-3320
▁award	-3321
▁Sl	-3322
▁imag	-3323
▁father	-3324
▁Jul	-3325
▁prem	-3326
▁positive	-3327
itation	-3328
▁global	-3329
▁location	-3330
▁difference	-3331
▁Hi	-3332
▁rev	-3333
▁fail	-3334
▁implement	-3335
▁situation	-3336
box	-3337
ened	-3338
▁spot	-3339
▁parts	-3340
anch	-3341
▁vac	-3342
cript	-3343
ecutive	-3344
▁Search	-3345
▁respond	-3346
▁Tri	-3347
▁pages	-3348
▁economy	-3349
bit	-3350
▁Camp	-3351
▁dark	-3352
▁rent	-3353
▁Enter	-3354
▁numbers	-3355
▁countries	-3356
VE	-3357
ration	-3358
▁Times	-3359
▁Indian	-3360
net	-3361
ceed	-3362
▁Hum	-3363
▁states	-3364
▁Pet	-3365
▁views	-3366
▁marketing	-3367
▁gar	-3368
▁capt	-3369
▁doub	-3370
▁sche	-3371
▁Govern	-3372
▁allowed	-3373
▁exactly	-3374
▁benefits	-3375
▁progress	-3376
▁straight	-3377
reak	-3378
▁term	-3379
▁wood	-3380
▁Micro	-3381
OW	-3382
▁Jim	-3383
ipment	-3384
▁Angel	-3385
▁helps	-3386
esterday	-3387
▁earlier	-3388
▁learning	-3389
▁Next	-3390
▁Time	-3391
ban	-3392
====	-3393
uals	-3394
▁sil	-3395
▁decl	-3396
action	-3397
▁separ	-3398
▁Windows	-3399
▁circ	-3400
▁eyes	-3401
▁whose	-3402
imately	-3403
ibly	-3404
apter	-3405
▁Work	-3406
▁paid	-3407
▁PC	-3408
▁cy	-3409
raft	-3410
▁THE	-3411
▁brows	-3412
▁option	-3413
▁brother	-3414
▁introdu	-3415
▁Vol	-3416
▁response	-3417
▁Who	-3418
▁floor	-3419
▁federal	-3420
▁dream	-3421
▁prices	-3422
▁overall	-3423
ota	-3424
▁wine	-3425
▁threat	-3426
anta	-3427
▁mount	-3428
ette	-3429
▁Lake	-3430
▁Hotel	-3431
▁Media	-3432
▁Rob	-3433
azine	-3434
▁load	-3435
▁Lear	-3436
▁lovely	-3437
▁Japan	-3438
IP	-3439
▁sens	-3440
▁thank	-3441
▁production	-3442
vest	-3443
▁aren	-3444
▁goals	-3445
▁links	-3446
▁sym	-3447
venue	-3448
▁daily	-3449
▁ton	-3450
▁argu	-3451
isl	-3452
▁Jew	-3453
cause	-3454
mitted	-3455
▁approach	-3456
▁Community	-3457
ij	-3458
▁finished	-3459
nds	-3460
▁feet	-3461
mission	-3462
osh	-3463
wor	-3464
▁Life	-3465
▁suff	-3466
▁sounds	-3467
arc	-3468
▁beyond	-3469
▁European	-3470
▁dog	-3471
iance	-3472
▁cold	-3473
▁moving	-3474
▁healthy	-3475
allery	-3476
▁images	-3477
▁changed	-3478
▁Sol	-3479
▁flow	-3480
▁tools	-3481
het	-3482
▁Island	-3483
▁distrib	-3484
▁Director	-3485
▁daughter	-3486
see	-3487
house	-3488
▁gone	-3489
▁Chris	-3490
▁Follow	-3491
▁directly	-3492
▁lo	-3493
wide	-3494
▁accom	-3495
▁files	-3496
▁highly	-3497
▁capital	-3498
▁partners	-3499
▁Ter	-3500
▁Wood	-3501
▁;	-3502
▁dise	-3503
▁named	-3504
▁annual	-3505
▁served	-3506
Re	-3507
mark	-3508
▁McC	-3509
▁double	-3510
▁organiz	-3511
dom	-3512
▁List	-3513
▁modern	-3514
▁considered	-3515
________________	-3516
▁AN	-3517
▁baby	-3518
▁prot	-3519
atab	-3520
▁Call	-3521
▁trou	-3522
mp	-3523
cing	-3524
ying	-3525
▁histor	-3526
▁promot	-3527
ION	-3528
berg	-3529
▁blue	-3530
▁Virgin	-3531
▁advant	-3532
▁som	-3533
▁Club	-3534
▁conduct	-3535
▁Wall	-3536
▁seeing	-3537
ado	-3538
▁Alex	-3539
▁rates	-3540
▁General	-3541
▁ri	-3542
▁Tim	-3543
▁mis	-3544
▁ten	-3545
▁sale	-3546
▁Carol	-3547
▁Franc	-3548
▁posts	-3549
▁Although	-3550
▁although	-3551
ken	-3552
pri	-3553
▁mus	-3554
arily	-3555
iable	-3556
▁reviews	-3557
Ch	-3558
annel	-3559
▁Date	-3560
▁Water	-3561
▁Robert	-3562
▁sem	-3563
ength	-3564
iller	-3565
▁Fore	-3566
▁stren	-3567
mercial	-3568
LE	-3569
▁NE	-3570
▁gun	-3571
▁beat	-3572
▁poor	-3573
▁official	-3574
xic	-3575
▁lic	-3576
▁firm	-3577
▁River	-3578
▁Under	-3579
▁aware	-3580
▁attract	-3581
ims	-3582
▁ded	-3583
▁cute	-3584
▁uses	-3585
▁paint	-3586
OP	-3587
▁IN	-3588
▁Game	-3589
▁French	-3590
▁growing	-3591
▁obvious	-3592
▁beginning	-3593
▁challenge	-3594
▁statement	-3595
▁ST	-3596
ordin	-3597
▁Take	-3598
itiz	-3599
▁Hol	-3600
▁conditions	-3601
ruit	-3602
▁reve	-3603
▁ahead	-3604
▁football	-3605
▁patients	-3606
hold	-3607
▁Food	-3608
▁trust	-3609
▁Bur	-3610
▁fat	-3611
▁Once	-3612
isions	-3613
▁helped	-3614
▁Institute	-3615
que	-3616
▁moved	-3617
▁Democr	-3618
gal	-3619
▁Ital	-3620
▁pred	-3621
▁Mount	-3622
▁categ	-3623
vention	-3624
soft	-3625
▁Main	-3626
▁camera	-3627
▁culture	-3628
▁coun	-3629
▁necessary	-3630
BS	-3631
▁Special	-3632
ona	-3633
▁Whe	-3634
ements	-3635
▁League	-3636
▁Profess	-3637
izz	-3638
appy	-3639
▁According	-3640
▁Bank	-3641
▁lots	-3642
▁demon	-3643
▁language	-3644
▁planning	-3645
ander	-3646
▁bottom	-3647
▁condition	-3648
OO	-3649
iel	-3650
▁carry	-3651
▁throw	-3652
▁region	-3653
▁multiple	-3654
olly	-3655
itect	-3656
▁heat	-3657
▁ensure	-3658
▁sports	-3659
ipes	-3660
▁Str	-3661
▁Scott	-3662
▁inform	-3663
▁Social	-3664
▁convers	-3665
▁employees	-3666
fr	-3667
▁dry	-3668
▁prefer	-3669
▁lif	-3670
ctions	-3671
▁arriv	-3672
▁bask	-3673
▁glad	-3674
▁avoid	-3675
▁successful	-3676
ech	-3677
blog	-3678
omb	-3679
ube	-3680
▁Ber	-3681
▁Mad	-3682
akers	-3683
arant	-3684
isher	-3685
orage	-3686
osing	-3687
▁Report	-3688
▁helpful	-3689
asy	-3690
▁cast	-3691
▁drink	-3692
▁effective	-3693
aven	-3694
▁died	-3695
▁qual	-3696
▁limited	-3697
▁Year	-3698
▁George	-3699
▁Congress	-3700
oop	-3701
roud	-3702
▁Form	-3703
▁Color	-3704
▁effic	-3705
▁platform	-3706
rowd	-3707
▁Att	-3708
▁demand	-3709
▁opening	-3710
▁customer	-3711
▁hospital	-3712
uit	-3713
rief	-3714
anging	-3715
▁serve	-3716
▁Another	-3717
▁complex	-3718
----------------	-3719
gl	-3720
oves	-3721
▁Joe	-3722
▁Ver	-3723
▁corpor	-3724
▁developed	-3725
▁opportunities	-3726
pose	-3727
ideos	-3728
▁farm	-3729
▁subst	-3730
▁appropri	-3731
▁Commission	-3732
rem	-3733
▁ver	-3734
▁clot	-3735
▁Family	-3736
RA	-3737
▁workers	-3738
▁traditional	-3739
DA	-3740
You	-3741
▁Jer	-3742
▁fully	-3743
▁thous	-3744
▁perhaps	-3745
▁Ve	-3746
▁gold	-3747
▁scient	-3748
▁Project	-3749
▁providing	-3750
azz	-3751
set	-3752
▁appl	-3753
undred	-3754
▁reach	-3755
▁science	-3756
▁solution	-3757
ffee	-3758
▁Cook	-3759
▁kick	-3760
izes	-3761
▁Publ	-3762
▁drop	-3763
▁strugg	-3764
bon	-3765
ils	-3766
▁Sam	-3767
▁Full	-3768
▁bath	-3769
▁surv	-3770
▁British	-3771
▁excellent	-3772
▁Blue	-3773
▁snow	-3774
▁India	-3775
▁influ	-3776
▁knows	-3777
pa	-3778
rd	-3779
▁pow	-3780
estival	-3781
▁remind	-3782
▁alone	-3783
▁Central	-3784
hone	-3785
▁net	-3786
ences	-3787
▁followed	-3788
but	-3789
▁laws	-3790
▁cancer	-3791
▁military	-3792
cks	-3793
▁IT	-3794
hest	-3795
anned	-3796
▁hous	-3797
▁Start	-3798
▁spending	-3799
fit	-3800
▁IS	-3801
▁wed	-3802
▁Mass	-3803
friend	-3804
▁extreme	-3805
inn	-3806
▁Sand	-3807
▁sleep	-3808
▁easier	-3809
▁Bel	-3810
▁Rad	-3811
▁kid	-3812
▁Plan	-3813
▁mail	-3814
▁defense	-3815
▁whatever	-3816
▁businesses	-3817
▁Fire	-3818
▁Where	-3819
▁kitchen	-3820
▁volunte	-3821
igan	-3822
istry	-3823
ronic	-3824
▁force	-3825
▁names	-3826
▁trade	-3827
▁train	-3828
▁concept	-3829
▁evening	-3830
▁weather	-3831
met	-3832
unately	-3833
▁efforts	-3834
▁physical	-3835
?"	-3836
uce	-3837
▁Mil	-3838
ipped	-3839
▁charge	-3840
▁consist	-3841
lor	-3842
▁Disc	-3843
▁conc	-3844
▁forum	-3845
antly	-3846
▁born	-3847
▁skin	-3848
▁Power	-3849
▁behav	-3850
▁extend	-3851
▁manager	-3852
▁Ok	-3853
▁ult	-3854
PS	-3855
▁Bet	-3856
▁applications	-3857
▁Bra	-3858
▁Ins	-3859
▁den	-3860
ously	-3861
▁Week	-3862
▁Church	-3863
▁biggest	-3864
▁officials	-3865
iny	-3866
▁truly	-3867
><	-3868
▁Kn	-3869
▁prec	-3870
▁Beach	-3871
▁Jones	-3872
CC	-3873
well	-3874
▁Exp	-3875
▁watching	-3876
ki	-3877
ato	-3878
▁po	-3879
▁err	-3880
▁bought	-3881
”.	-3882
▁)	-3883
ocolate	-3884
▁fashion	-3885
▁Each	-3886
itz	-3887
▁Sil	-3888
▁rules	-3889
▁Policy	-3890
▁approx	-3891
▁church	-3892
▁winter	-3893
▁Science	-3894
▁Conference	-3895
▁immediately	-3896
tr	-3897
▁AL	-3898
▁RE	-3899
iling	-3900
▁damage	-3901
ros	-3902
▁Ill	-3903
▁Lab	-3904
▁Roy	-3905
ivery	-3906
orial	-3907
pping	-3908
▁exerc	-3909
▁stick	-3910
▁figure	-3911
▁clients	-3912
▁articles	-3913
▁particularly	-3914
▁!	-3915
force	-3916
▁Jeff	-3917
▁passed	-3918
▁Journal	-3919
▁excited	-3920
▁offered	-3921
▁analysis	-3922
▁~	-3923
amm	-3924
▁Def	-3925
ads	-3926
eah	-3927
▁pen	-3928
oving	-3929
▁spring	-3930
▁Because	-3931
▁Library	-3932
▁reflect	-3933
yr	-3934
▁fly	-3935
▁fol	-3936
▁adding	-3937
▁Connect	-3938
tain	-3939
▁glass	-3940
▁lines	-3941
▁advert	-3942
▁advice	-3943
▁absolutely	-3944
▁·	-3945
itar	-3946
▁heavy	-3947
▁nature	-3948
uke	-3949
▁Rest	-3950
▁path	-3951
▁exhib	-3952
▁wild	-3953
istered	-3954
door	-3955
▁Join	-3956
▁item	-3957
▁colors	-3958
▁device	-3959
▁owners	-3960
IM	-3961
rast	-3962
▁Tre	-3963
▁indic	-3964
▁taste	-3965
▁senior	-3966
▁Peter	-3967
▁Online	-3968
▁starts	-3969
tt	-3970
▁Div	-3971
▁emb	-3972
▁shop	-3973
▁demonstr	-3974
▁relationship	-3975
ript	-3976
▁yes	-3977
pendent	-3978
▁Canada	-3979
▁degree	-3980
▁towards	-3981
▁activity	-3982
▁pressure	-3983
▁Met	-3984
▁USA	-3985
▁plus	-3986
ustain	-3987
▁Louis	-3988
▁girls	-3989
▁occas	-3990
▁Support	-3991
▁equipment	-3992
▁Jes	-3993
▁Upd	-3994
▁Wil	-3995
▁wat	-3996
▁kept	-3997
change	-3998
▁catch	-3999
▁older	-4000
▁Hotels	-4001
▁department	-4002
▁instit	-4003
▁Network	-4004
▁pattern	-4005
▁evidence	-4006
▁Christian	-4007
▁entertain	-4008
ENT	-4009
▁er	-4010
▁voice	-4011
▁Police	-4012
▁commit	-4013
▁finding	-4014
aith	-4015
▁Video	-4016
▁finish	-4017
▁opinion	-4018
▁Virginia	-4019
▁discussion	-4020
▁Mal	-4021
▁remain	-4022
▁creating	-4023
ae	-4024
▁Wal	-4025
▁egg	-4026
▁ing	-4027
▁Hill	-4028
▁Steve	-4029
▁crowd	-4030
▁Company	-4031
▁Committee	-4032
▁residents	-4033
▁Republican	-4034
▁restaurant	-4035
BA	-4036
▁AP	-4037
▁Tur	-4038
rooms	-4039
▁Russ	-4040
encies	-4041
▁somew	-4042
▁altern	-4043
▁talent	-4044
itude	-4045
▁cert	-4046
▁onto	-4047
▁Maybe	-4048
▁Quest	-4049
▁measure	-4050
▁yesterday	-4051
UT	-4052
gn	-4053
ses	-4054
▁Los	-4055
▁info	-4056
▁types	-4057
▁disapp	-4058
▁shopping	-4059
how	-4060
▁District	-4061
▁Fun	-4062
ellow	-4063
inese	-4064
▁expand	-4065
▁letter	-4066
▁scored	-4067
▁Johnson	-4068
▁Microsoft	-4069
▁Management	-4070
);	-4071
▁doctor	-4072
▁advantage	-4073
!"	-4074
vant	-4075
▁Sing	-4076
away	-4077
antic	-4078
▁jump	-4079
▁poll	-4080
▁plant	-4081
atabase	-4082
levision	-4083
▁digital	-4084
▁frequ	-4085
▁slight	-4086
▁benefit	-4087
▁winning	-4088
amic	-4089
▁Cap	-4090
▁pray	-4091
ademic	-4092
SP	-4093
ero	-4094
▁CD	-4095
dule	-4096
omin	-4097
▁Dou	-4098
▁Log	-4099
riage	-4100
▁lose	-4101
ection	-4102
▁Party	-4103
▁smart	-4104
▁putting	-4105
▁delicious	-4106
xx	-4107
aked	-4108
arks	-4109
fast	-4110
illa	-4111
▁und	-4112
▁Award	-4113
▁largest	-4114
RC	-4115
udd	-4116
▁vs	-4117
ooth	-4118
▁arrest	-4119
▁requirements	-4120
edy	-4121
▁Walk	-4122
▁cream	-4123
orgeous	-4124
▁During	-4125
▁notice	-4126
▁helping	-4127
▁surround	-4128
hem	-4129
▁fem	-4130
▁ice	-4131
oston	-4132
▁Ryan	-4133
iation	-4134
▁civil	-4135
▁Custom	-4136
▁pieces	-4137
▁classes	-4138
▁neighbor	-4139
outs	-4140
itors	-4141
phone	-4142
▁Team	-4143
▁calls	-4144
▁entry	-4145
▁solid	-4146
▁effects	-4147
▁reasons	-4148
rab	-4149
▁forget	-4150
▁consult	-4151
▁learned	-4152
▁UN	-4153
▁ble	-4154
order	-4155
▁tips	-4156
▁Build	-4157
▁income	-4158
▁spread	-4159
▁street	-4160
win	-4161
▁mic	-4162
▁Card	-4163
▁Those	-4164
▁proud	-4165
▁spirit	-4166
▁Comment	-4167
▁creative	-4168
▁manufacture	-4169
reek	-4170
▁Men	-4171
▁Old	-4172
using	-4173
▁cash	-4174
▁rank	-4175
▁Grand	-4176
▁closed	-4177
atically	-4178
▁machine	-4179
works	-4180
istics	-4181
▁owner	-4182
▁continued	-4183
raw	-4184
olic	-4185
ategy	-4186
▁scene	-4187
▁toward	-4188
▁totally	-4189
amin	-4190
eared	-4191
▁Head	-4192
▁Step	-4193
▁Series	-4194
▁update	-4195
▁IP	-4196
▁Mer	-4197
▁wear	-4198
ancing	-4199
▁Sports	-4200
▁active	-4201
▁records	-4202
▁election	-4203
▁Australia	-4204
ka	-4205
aled	-4206
mine	-4207
▁Fair	-4208
▁liter	-4209
▁journal	-4210
▁increased	-4211
hens	-4212
apers	-4213
▁Long	-4214
▁plays	-4215
▁LO	-4216
ownt	-4217
uing	-4218
▁fish	-4219
▁Medic	-4220
outhern	-4221
▁useful	-4222
irection	-4223
▁Bob	-4224
▁Tor	-4225
place	-4226
▁Museum	-4227
▁setting	-4228
▁Mont	-4229
▁Ohio	-4230
▁showing	-4231
▁Download	-4232
ifts	-4233
okes	-4234
▁Den	-4235
lements	-4236
ios	-4237
file	-4238
atures	-4239
▁thread	-4240
IG	-4241
rig	-4242
ores	-4243
weet	-4244
~~~~	-4245
▁Atl	-4246
▁achieve	-4247
▁background	-4248
▁comfortable	-4249
yer	-4250
ustr	-4251
▁Jun	-4252
inary	-4253
itable	-4254
▁songs	-4255
▁normal	-4256
▁propos	-4257
▁holiday	-4258
umber	-4259
▁funny	-4260
▁dinner	-4261
▁fourth	-4262
▁incred	-4263
▁happens	-4264
▁hundred	-4265
▁waiting	-4266
▁Americans	-4267
▁selection	-4268
▁ok	-4269
unning	-4270
▁accur	-4271
▁likes	-4272
▁movement	-4273
If	-4274
sequ	-4275
▁Lin	-4276
orter	-4277
▁Keep	-4278
▁pair	-4279
clusive	-4280
▁individuals	-4281
AG	-4282
▁ir	-4283
rist	-4284
inally	-4285
ferences	-4286
▁England	-4287
bert	-4288
noon	-4289
ties	-4290
▁Dig	-4291
oices	-4292
▁leader	-4293
▁internet	-4294
!)	-4295
gency	-4296
reens	-4297
▁?	-4298
uled	-4299
▁beg	-4300
orney	-4301
▁emot	-4302
▁occur	-4303
▁funding	-4304
▁completed	-4305
allas	-4306
▁drug	-4307
▁ended	-4308
▁Thomas	-4309
▁driver	-4310
▁disease	-4311
▁driving	-4312
▁meaning	-4313
▁Technology	-4314
nded	-4315
▁Jon	-4316
incip	-4317
▁Only	-4318
▁topic	-4319
▁Foundation	-4320
▁competition	-4321
la	-4322
rep	-4323
▁Does	-4324
▁devices	-4325
▁construction	-4326
cel	-4327
▁Both	-4328
▁pool	-4329
▁basket	-4330
▁artists	-4331
▁coverage	-4332
care	-4333
edom	-4334
term	-4335
▁ign	-4336
▁Frank	-4337
▁meant	-4338
▁Boston	-4339
▁launch	-4340
▁library	-4341
▁investment	-4342
TM	-4343
▁max	-4344
▁Hope	-4345
▁understanding	-4346
▁Page	-4347
▁prin	-4348
▁basis	-4349
iled	-4350
▁nine	-4351
▁Spring	-4352
▁length	-4353
▁opened	-4354
▁appoint	-4355
ampionship	-4356
Sh	-4357
▁Cup	-4358
▁cris	-4359
▁temper	-4360
ania	-4361
look	-4362
▁basic	-4363
▁satis	-4364
▁Romney	-4365
▁legisl	-4366
▁Medical	-4367
▁offering	-4368
urd	-4369
asure	-4370
ulous	-4371
▁Priv	-4372
▁acqu	-4373
▁rain	-4374
▁Richard	-4375
▁commercial	-4376
▁Sa	-4377
acks	-4378
iest	-4379
▁repe	-4380
▁Photo	-4381
▁Union	-4382
▁innov	-4383
▁Chinese	-4384
▁mission	-4385
mond	-4386
▁fav	-4387
▁Very	-4388
▁anti	-4389
▁station	-4390
pects	-4391
▁Inte	-4392
▁peace	-4393
▁prepared	-4394
agon	-4395
lymp	-4396
▁mer	-4397
▁mist	-4398
▁homes	-4399
▁rooms	-4400
▁Engine	-4401
▁History	-4402
▁compared	-4403
▁profession	-4404
▁responsible	-4405
IR	-4406
▁bra	-4407
porary	-4408
▁Mexic	-4409
▁cards	-4410
▁assess	-4411
▁Jackson	-4412
▁charges	-4413
▁appropriate	-4414
oos	-4415
ulty	-4416
aming	-4417
▁Live	-4418
▁grant	-4419
▁produce	-4420
▁purpose	-4421
fortunately	-4422
▁characters	-4423
itness	-4424
▁citiz	-4425
▁shown	-4426
▁actual	-4427
▁proced	-4428
▁continues	-4429
▁mentioned	-4430
atin	-4431
odes	-4432
▁Fre	-4433
▁Jud	-4434
▁Angeles	-4435
UR	-4436
agn	-4437
▁notes	-4438
standing	-4439
▁teacher	-4440
▁fantastic	-4441
▁regarding	-4442
ga	-4443
roy	-4444
bing	-4445
▁Saf	-4446
▁Wel	-4447
▁rid	-4448
istan	-4449
▁Fort	-4450
▁Sign	-4451
▁Tags	-4452
▁listed	-4453
▁thousands	-4454
▁Er	-4455
nown	-4456
▁Mel	-4457
ervation	-4458
▁increasing	-4459
▁organizations	-4460
▁Aff	-4461
▁chicken	-4462
▁presented	-4463
▁Arts	-4464
▁afford	-4465
▁keeping	-4466
▁ath	-4467
▁Pack	-4468
▁pros	-4469
▁rich	-4470
▁truth	-4471
▁minute	-4472
▁Details	-4473
chan	-4474
kins	-4475
▁Sar	-4476
▁sad	-4477
ulated	-4478
▁bright	-4479
▁Development	-4480
ius	-4481
new	-4482
▁mi	-4483
▁Valley	-4484
▁expert	-4485
▁larger	-4486
▁survey	-4487
▁willing	-4488
▁ID	-4489
▁Gal	-4490
▁Happy	-4491
▁Olymp	-4492
▁relig	-4493
▁videos	-4494
▁Related	-4495
——	-4496
▁PR	-4497
▁Its	-4498
▁Pay	-4499
▁Night	-4500
▁strateg	-4501
FL	-4502
icies	-4503
which	-4504
▁seemed	-4505
▁signed	-4506
▁instruct	-4507
BI	-4508
▁Real	-4509
▁adop	-4510
▁Dallas	-4511
▁killed	-4512
▁classic	-4513
AA	-4514
ii	-4515
▁CH	-4516
edia	-4517
▁Did	-4518
▁Ira	-4519
▁Key	-4520
▁tag	-4521
▁steps	-4522
▁contain	-4523
illy	-4524
▁Way	-4525
iliar	-4526
▁Lead	-4527
▁unless	-4528
▁population	-4529
▁NOT	-4530
▁cru	-4531
▁Eric	-4532
▁eval	-4533
▁Martin	-4534
▁traffic	-4535
roid	-4536
▁sav	-4537
usion	-4538
while	-4539
▁server	-4540
▁studies	-4541
▁transport	-4542
▁forg	-4543
▁mine	-4544
▁battle	-4545
▁corner	-4546
▁reality	-4547
▁welcome	-4548
istration	-4549
rupt	-4550
ooper	-4551
▁Chair	-4552
▁Charl	-4553
▁Econom	-4554
▁deliver	-4555
▁Security	-4556
▁afternoon	-4557
CS	-4558
▁Ham	-4559
▁map	-4560
▁Beaut	-4561
▁Offic	-4562
oms	-4563
▁CA	-4564
▁sy	-4565
ovel	-4566
▁Mat	-4567
lands	-4568
▁tree	-4569
▁chair	-4570
▁master	-4571
▁supply	-4572
▁enjoyed	-4573
▁Children	-4574
▁thoughts	-4575
burg	-4576
onents	-4577
pective	-4578
▁covered	-4579
EE	-4580
▁OF	-4581
west	-4582
▁rob	-4583
▁sty	-4584
▁virt	-4585
▁breat	-4586
▁psych	-4587
▁radio	-4588
▁wedding	-4589
Ex	-4590
IV	-4591
col	-4592
imal	-4593
icing	-4594
state	-4595
ulate	-4596
▁Town	-4597
▁shut	-4598
▁Phone	-4599
▁veget	-4600
▁danger	-4601
▁iPhone	-4602
▁updated	-4603
▁district	-4604
TV	-4605
ulf	-4606
▁Iran	-4607
▁remains	-4608
▁existing	-4609
▁Organ	-4610
▁butter	-4611
▁missed	-4612
▁teachers	-4613
men	-4614
alog	-4615
▁Penn	-4616
▁fear	-4617
▁Brand	-4618
▁editor	-4619
▁honest	-4620
▁showed	-4621
▁Michigan	-4622
▁powerful	-4623
no	-4624
alls	-4625
▁Stat	-4626
▁clin	-4627
lished	-4628
rolled	-4629
▁technical	-4630
ula	-4631
▁Hand	-4632
▁Women	-4633
▁deals	-4634
▁medic	-4635
▁tough	-4636
▁county	-4637
▁secret	-4638
▁vehicle	-4639
▁Administr	-4640
▁Hy	-4641
miss	-4642
▁twe	-4643
▁sand	-4644
▁Human	-4645
▁Their	-4646
▁brain	-4647
▁Author	-4648
▁adjust	-4649
▁eating	-4650
▁sister	-4651
LA	-4652
VD	-4653
▁ran	-4654
▁rare	-4655
▁cheese	-4656
▁patient	-4657
▁collabor	-4658
obe	-4659
▁Ol	-4660
lear	-4661
with	-4662
▁ban	-4663
▁unit	-4664
▁weap	-4665
▁guide	-4666
▁shared	-4667
▁contest	-4668
▁seconds	-4669
▁session	-4670
▁audience	-4671
ipl	-4672
▁scr	-4673
▁uns	-4674
iture	-4675
▁graph	-4676
▁laugh	-4677
▁sched	-4678
▁Society	-4679
▁birthday	-4680
▁Aud	-4681
▁Lee	-4682
▁tun	-4683
▁Fund	-4684
▁lock	-4685
▁draft	-4686
▁reduce	-4687
▁status	-4688
▁clearly	-4689
arsh	-4690
▁mill	-4691
▁initi	-4692
▁dollars	-4693
▁storage	-4694
▁leadership	-4695
semb	-4696
▁spl	-4697
▁Forum	-4698
▁Williams	-4699
▁determin	-4700
zen	-4701
▁Jo	-4702
idel	-4703
oooo	-4704
▁Hen	-4705
▁Mot	-4706
▁epis	-4707
▁Somet	-4708
orthern	-4709
osition	-4710
▁batter	-4711
▁primary	-4712
▁announce	-4713
oma	-4714
▁Die	-4715
▁Jav	-4716
nding	-4717
▁Land	-4718
▁chem	-4719
ifying	-4720
▁yards	-4721
▁coffee	-4722
▁memory	-4723
▁movies	-4724
SA	-4725
▁seat	-4726
atively	-4727
▁Middle	-4728
▁guarant	-4729
▁Carolina	-4730
New	-4731
ita	-4732
oup	-4733
text	-4734
▁Que	-4735
▁arr	-4736
estic	-4737
iques	-4738
▁Word	-4739
▁dish	-4740
▁client	-4741
▁critical	-4742
▁database	-4743
▁discount	-4744
▁exciting	-4745
▁materials	-4746
ano	-4747
▁Inf	-4748
▁rat	-4749
▁Ener	-4750
▁Pass	-4751
▁Soft	-4752
▁artist	-4753
PM	-4754
awn	-4755
▁Ing	-4756
▁earn	-4757
▁Andrew	-4758
▁placed	-4759
▁appears	-4760
vere	-4761
▁sugar	-4762
ologies	-4763
▁agency	-4764
▁leaves	-4765
▁package	-4766
▁returned	-4767
▁Congr	-4768
▁sport	-4769
▁Travel	-4770
▁described	-4771
.'	-4772
▁Jose	-4773
▁Georg	-4774
▁guests	-4775
▁despite	-4776
▁solutions	-4777
▁du	-4778
cher	-4779
▁button	-4780
▁raised	-4781
▁monitor	-4782
ournament	-4783
▁tomorrow	-4784
▁chocolate	-4785
="	-4786
anda	-4787
elly	-4788
▁Tour	-4789
▁hate	-4790
▁scen	-4791
▁Paris	-4792
▁cheap	-4793
▁browser	-4794
▁highest	-4795
….	-4796
ups	-4797
acity	-4798
▁bread	-4799
▁Person	-4800
▁balance	-4801
▁partner	-4802
▁victory	-4803
▁becoming	-4804
▁delivery	-4805
▁gorgeous	-4806
uty	-4807
▁Ma	-4808
▁ap	-4809
▁Boy	-4810
▁Hell	-4811
▁Right	-4812
▁brings	-4813
▁claims	-4814
▁plenty	-4815
********	-4816
▁tickets	-4817
otes	-4818
rick	-4819
▁Inn	-4820
▁Test	-4821
active	-4822
▁decor	-4823
▁advance	-4824
▁impress	-4825
▁developing	-4826
do	-4827
rees	-4828
▁Gen	-4829
▁Net	-4830
ansas	-4831
▁cars	-4832
▁tend	-4833
▁Creat	-4834
▁doubt	-4835
▁manage	-4836
▁mostly	-4837
▁Western	-4838
▁greater	-4839
▁markets	-4840
▁sitting	-4841
▁tonight	-4842
▁strength	-4843
▁Lar	-4844
ograp	-4845
▁extremely	-4846
gen	-4847
▁Bo	-4848
onym	-4849
▁hits	-4850
▁spons	-4851
owntown	-4852
▁fabric	-4853
▁married	-4854
▁society	-4855
▁majority	-4856
▁standards	-4857
▁communities	-4858
grad	-4859
ception	-4860
▁Charles	-4861
▁parties	-4862
▁policies	-4863
▁teaching	-4864
kin	-4865
comm	-4866
▁Orig	-4867
▁cake	-4868
▁cart	-4869
▁gain	-4870
▁Elect	-4871
▁leaving	-4872
▁requires	-4873
lla	-4874
icit	-4875
▁enh	-4876
▁Iraq	-4877
▁flat	-4878
▁brief	-4879
▁selected	-4880
▁Di	-4881
real	-4882
ishes	-4883
▁debt	-4884
▁Brian	-4885
▁suppl	-4886
▁asking	-4887
▁Current	-4888
▁hearing	-4889
▁protection	-4890
ikes	-4891
▁CEO	-4892
▁Dev	-4893
▁Kat	-4894
▁Tit	-4895
▁dogs	-4896
icians	-4897
iverse	-4898
▁Learn	-4899
▁Young	-4900
▁trial	-4901
▁Access	-4902
▁otherwise	-4903
▁eventually	-4904
▁television	-4905
BR	-4906
PA	-4907
▁Gra	-4908
▁Haw	-4909
▁conv	-4910
▁sauce	-4911
essions	-4912
▁foreign	-4913
▁associated	-4914
pan	-4915
▁cry	-4916
ctors	-4917
▁diet	-4918
▁cloud	-4919
▁funds	-4920
arently	-4921
▁transfer	-4922
▁establish	-4923
▁Ari	-4924
▁Four	-4925
▁Vict	-4926
▁salt	-4927
▁Location	-4928
▁strategy	-4929
▁supposed	-4930
▁Id	-4931
ivered	-4932
hew	-4933
gery	-4934
▁Bas	-4935
▁Low	-4936
▁nut	-4937
▁menu	-4938
▁novel	-4939
▁Secret	-4940
▁friendly	-4941
ye	-4942
▁OK	-4943
▁rap	-4944
▁Note	-4945
▁relax	-4946
▁stars	-4947
▁decide	-4948
▁filled	-4949
▁models	-4950
▁maintain	-4951
▁Government	-4952
▁administration	-4953
CH	-4954
▁{	-4955
▁Bi	-4956
iner	-4957
▁Adv	-4958
▁arm	-4959
▁boys	-4960
▁Guide	-4961
▁Light	-4962
▁apart	-4963
▁talks	-4964
?”	-4965
TS	-4966
ini	-4967
obs	-4968
▁cab	-4969
▁sch	-4970
enses	-4971
verse	-4972
▁Coll	-4973
iration	-4974
▁surface	-4975
▁determine	-4976
MA	-4977
▁TO	-4978
abled	-4979
▁Anal	-4980
▁raise	-4981
▁south	-4982
▁Africa	-4983
▁window	-4984
▁animals	-4985
▁century	-4986
▁testing	-4987
▁direction	-4988
den	-4989
▁unc	-4990
olars	-4991
▁Local	-4992
▁secure	-4993
▁values	-4994
▁central	-4995
▁register	-4996
▁connection	-4997
DF	-4998
top	-4999
▁Ce	-5000
cean	-5001
inch	-5002
ship	-5003
▁Stand	-5004
▁Watch	-5005
▁twice	-5006
▁buying	-5007
▁managed	-5008
▁Set	-5009
▁Bush	-5010
▁retail	-5011
▁winner	-5012
▁missing	-5013
▁smaller	-5014
▁combination	-5015
igr	-5016
ales	-5017
▁ang	-5018
ager	-5019
▁Mid	-5020
▁Help	-5021
▁Still	-5022
▁spect	-5023
▁handle	-5024
▁methods	-5025
▁readers	-5026
▁recipes	-5027
▁produced	-5028
▁generally	-5029
ola	-5030
▁Pan	-5031
▁wire	-5032
▁slightly	-5033
you	-5034
▁MP	-5035
▁wa	-5036
▁Gar	-5037
▁thr	-5038
There	-5039
▁Room	-5040
▁rule	-5041
▁feels	-5042
▁Recent	-5043
▁reached	-5044
▁marriage	-5045
IE	-5046
▁MS	-5047
▁Sep	-5048
orable	-5049
▁brown	-5050
▁stret	-5051
▁worry	-5052
▁beauty	-5053
▁joined	-5054
ris	-5055
adel	-5056
known	-5057
▁crazy	-5058
▁listen	-5059
▁established	-5060
ya	-5061
ucks	-5062
eless	-5063
icted	-5064
oking	-5065
▁Clin	-5066
▁Know	-5067
▁Columb	-5068
▁caused	-5069
▁calling	-5070
▁behavior	-5071
II	-5072
▁Pop	-5073
▁estim	-5074
▁worse	-5075
▁architect	-5076
▁delivered	-5077
adow	-5078
▁tim	-5079
▁Categ	-5080
▁France	-5081
▁realize	-5082
ste	-5083
list	-5084
going	-5085
▁fill	-5086
▁tele	-5087
▁garden	-5088
▁becomes	-5089
▁aim	-5090
igned	-5091
osure	-5092
▁Girl	-5093
▁anywhere	-5094
▁appeared	-5095
▁approved	-5096
▁schedule	-5097
▁Francisco	-5098
▁Three	-5099
▁faith	-5100
▁stores	-5101
endar	-5102
ushed	-5103
▁laun	-5104
▁Daily	-5105
▁failed	-5106
▁Georgia	-5107
▁magazine	-5108
▁separate	-5109
pet	-5110
ucky	-5111
▁Turn	-5112
▁ride	-5113
▁tags	-5114
▁motor	-5115
▁famous	-5116
▁script	-5117
▁charged	-5118
▁changing	-5119
▁structure	-5120
IA	-5121
▁ju	-5122
osen	-5123
umin	-5124
▁Ray	-5125
night	-5126
▁Link	-5127
▁boot	-5128
▁north	-5129
▁conven	-5130
▁appreciate	-5131
▁facilities	-5132
▁generation	-5133
anna	-5134
free	-5135
▁Sher	-5136
rehens	-5137
▁colle	-5138
▁earth	-5139
▁numer	-5140
▁votes	-5141
▁remove	-5142
▁stream	-5143
▁Reviews	-5144
▁removed	-5145
▁exercise	-5146
▁featured	-5147
ache	-5148
icip	-5149
ommod	-5150
▁Cath	-5151
▁youth	-5152
▁imagine	-5153
ef	-5154
pat	-5155
▁Dar	-5156
▁boo	-5157
▁busy	-5158
uclear	-5159
▁Const	-5160
▁shoes	-5161
▁sustain	-5162
▁Pac	-5163
ender	-5164
▁Dress	-5165
▁Centre	-5166
▁injury	-5167
▁Gallery	-5168
▁Welcome	-5169
▁courses	-5170
▁trouble	-5171
▁walking	-5172
▁wearing	-5173
▁ic	-5174
▁Mur	-5175
▁Tay	-5176
▁har	-5177
▁cuts	-5178
▁furn	-5179
▁push	-5180
▁Games	-5181
▁African	-5182
▁Instead	-5183
▁serving	-5184
▁PA	-5185
▁Cat	-5186
aling	-5187
overy	-5188
▁films	-5189
▁refer	-5190
▁sorry	-5191
▁league	-5192
▁Manager	-5193
▁accompl	-5194
▁passion	-5195
▁executive	-5196
asp	-5197
iami	-5198
▁impl	-5199
▁limit	-5200
▁Senate	-5201
▁visitors	-5202
ria	-5203
▁Squ	-5204
craft	-5205
▁ship	-5206
▁Jesus	-5207
▁Jersey	-5208
▁advent	-5209
▁caught	-5210
▁format	-5211
can	-5212
▁AT	-5213
iger	-5214
oles	-5215
▁tow	-5216
▁Canad	-5217
▁Exper	-5218
▁minor	-5219
▁facility	-5220
▁operations	-5221
▁experienced	-5222
▁fif	-5223
▁Copy	-5224
▁bike	-5225
weight	-5226
▁posting	-5227
▁registered	-5228
IF	-5229
iki	-5230
atre	-5231
▁Far	-5232
berry	-5233
point	-5234
▁guest	-5235
▁labor	-5236
▁panel	-5237
▁estate	-5238
▁researc	-5239
▁agreement	-5240
▁Ut	-5241
They	-5242
▁Ken	-5243
▁fee	-5244
▁Code	-5245
▁Jenn	-5246
▁Senior	-5247
▁instru	-5248
▁cooking	-5249
▁shooting	-5250
▁challenges	-5251
▁participate	-5252
MS	-5253
coh	-5254
▁SU	-5255
▁Hou	-5256
▁Rev	-5257
▁mur	-5258
▁beach	-5259
▁folks	-5260
▁quiet	-5261
igation	-5262
▁Source	-5263
▁debate	-5264
▁Hospital	-5265
▁contains	-5266
▁candidate	-5267
▁consumers	-5268
upp	-5269
uzz	-5270
▁cop	-5271
▁guard	-5272
▁tight	-5273
▁Member	-5274
▁athlet	-5275
▁officer	-5276
▁concerns	-5277
▁Kore	-5278
▁clim	-5279
▁Market	-5280
▁cities	-5281
▁earned	-5282
▁proposed	-5283
▁corporate	-5284
RL	-5285
hh	-5286
eed	-5287
mal	-5288
What	-5289
uated	-5290
▁Oper	-5291
▁purs	-5292
▁Miami	-5293
▁lunch	-5294
▁multi	-5295
▁stress	-5296
▁focused	-5297
▁resident	-5298
ias	-5299
▁AD	-5300
▁bat	-5301
iminal	-5302
▁forms	-5303
entially	-5304
▁updates	-5305
▁neighborhood	-5306
lock	-5307
mary	-5308
▁Cam	-5309
▁cas	-5310
▁hell	-5311
▁shape	-5312
▁consid	-5313
▁counter	-5314
▁distance	-5315
▁operating	-5316
nel	-5317
life	-5318
yard	-5319
▁Hun	-5320
▁eth	-5321
▁Rand	-5322
▁Field	-5323
▁Friend	-5324
▁Though	-5325
▁forced	-5326
▁bringing	-5327
▁citizens	-5328
▁relevant	-5329
▁documents	-5330
inct	-5331
otal	-5332
▁Site	-5333
▁liked	-5334
▁Invest	-5335
▁picked	-5336
ployment	-5337
▁Division	-5338
▁Ingredients	-5339
gas	-5340
▁van	-5341
▁Tick	-5342
▁whom	-5343
lights	-5344
▁gifts	-5345
▁signs	-5346
▁Before	-5347
▁Federal	-5348
▁express	-5349
▁parking	-5350
▁princip	-5351
▁dedicated	-5352
kes	-5353
▁ED	-5354
eder	-5355
host	-5356
▁pun	-5357
▁kill	-5358
▁broken	-5359
▁practices	-5360
▁experiences	-5361
OC	-5362
hop	-5363
▁Ha	-5364
▁Need	-5365
▁core	-5366
ourney	-5367
istance	-5368
▁Description	-5369
▁conversation	-5370
bo	-5371
lim	-5372
azon	-5373
▁Nor	-5374
▁der	-5375
▁jun	-5376
erves	-5377
iences	-5378
▁Second	-5379
▁bigger	-5380
▁payment	-5381
Ed	-5382
vy	-5383
mont	-5384
▁End	-5385
uries	-5386
▁Lord	-5387
adelph	-5388
▁lived	-5389
▁reform	-5390
▁transl	-5391
▁initial	-5392
▁environmental	-5393
ena	-5394
aren	-5395
▁die	-5396
child	-5397
▁ends	-5398
illage	-5399
▁closer	-5400
▁tables	-5401
NA	-5402
ram	-5403
▁GM	-5404
▁ge	-5405
▁Deb	-5406
.....	-5407
alled	-5408
rible	-5409
▁Mult	-5410
▁Energy	-5411
▁mechan	-5412
▁HD	-5413
tion	-5414
eline	-5415
▁Foot	-5416
▁Short	-5417
▁anyway	-5418
▁Germany	-5419
▁academic	-5420
▁familiar	-5421
▁graduate	-5422
-)	-5423
hab	-5424
ennis	-5425
prise	-5426
▁Carl	-5427
▁Data	-5428
▁burn	-5429
▁none	-5430
▁thus	-5431
▁incor	-5432
▁liber	-5433
▁noted	-5434
▁veter	-5435
acement	-5436
▁volume	-5437
▁Students	-5438
PR	-5439
REE	-5440
zer	-5441
▁OS	-5442
iana	-5443
ocal	-5444
▁hun	-5445
tered	-5446
season	-5447
▁Santa	-5448
▁retire	-5449
▁independent	-5450
▁]	-5451
oti	-5452
▁desk	-5453
▁Prote	-5454
▁Summer	-5455
▁writer	-5456
adelphia	-5457
▁selling	-5458
▁telling	-5459
▁decisions	-5460
▁ingredients	-5461
edu	-5462
▁MA	-5463
▁Ron	-5464
▁Wow	-5465
▁Brad	-5466
▁Dave	-5467
▁Ping	-5468
▁fees	-5469
arrant	-5470
▁honor	-5471
▁usual	-5472
▁Record	-5473
▁native	-5474
▁vision	-5475
▁Ash	-5476
athan	-5477
▁Farm	-5478
▁Hard	-5479
▁adults	-5480
▁appeal	-5481
▁mental	-5482
▁committed	-5483
▁basketball	-5484
EM	-5485
▁Op	-5486
▁DVD	-5487
atoes	-5488
ockey	-5489
▁analy	-5490
▁Indust	-5491
▁Little	-5492
▁campus	-5493
▁pepper	-5494
▁pounds	-5495
▁Houston	-5496
▁element	-5497
▁accident	-5498
▁operation	-5499
And	-5500
een	-5501
▁DC	-5502
▁Bon	-5503
▁Cond	-5504
▁fold	-5505
▁rand	-5506
▁Cross	-5507
▁Radio	-5508
▁label	-5509
▁paying	-5510
▁studio	-5511
▁actions	-5512
▁sources	-5513
▁combined	-5514
▁inspired	-5515
▁shipping	-5516
▁locations	-5517
oz	-5518
ademy	-5519
▁Mobile	-5520
▁holding	-5521
▁reference	-5522
oted	-5523
▁Bed	-5524
achel	-5525
onent	-5526
▁Lind	-5527
▁Reply	-5528
▁turns	-5529
▁hoping	-5530
▁switch	-5531
▁advanced	-5532
▁category	-5533
▁ML	-5534
▁Van	-5535
ocket	-5536
▁sets	-5537
▁shel	-5538
▁chief	-5539
▁compar	-5540
▁detail	-5541
abilities	-5542
▁allowing	-5543
▁visiting	-5544
▁Area	-5545
▁Harr	-5546
▁nurs	-5547
ternal	-5548
▁Event	-5549
▁Global	-5550
▁agreed	-5551
▁explain	-5552
▁concerned	-5553
▁automatically	-5554
Cl	-5555
ayer	-5556
▁Run	-5557
▁Prem	-5558
▁shots	-5559
▁Taylor	-5560
▁expensive	-5561
▁surprised	-5562
spe	-5563
secut	-5564
▁harm	-5565
▁fruit	-5566
▁mouth	-5567
▁Colorado	-5568
▁happening	-5569
▁YOU	-5570
▁tro	-5571
▁bowl	-5572
▁Kevin	-5573
▁keeps	-5574
▁Rights	-5575
▁medium	-5576
▁profile	-5577
▁electric	-5578
EP	-5579
ta	-5580
But	-5581
▁Hey	-5582
▁Mus	-5583
▁esc	-5584
arian	-5585
▁sick	-5586
ensions	-5587
▁losing	-5588
▁rating	-5589
▁sector	-5590
▁previously	-5591
As	-5592
▁Lo	-5593
▁Pri	-5594
▁Sat	-5595
▁Sup	-5596
▁Requ	-5597
▁Rose	-5598
▁iPad	-5599
▁sequ	-5600
Americ	-5601
▁error	-5602
▁arrived	-5603
▁vacation	-5604
▁influence	-5605
!”	-5606
iat	-5607
▁Cy	-5608
▁Map	-5609
▁Opt	-5610
▁rot	-5611
under	-5612
▁Roll	-5613
▁sides	-5614
VER	-5615
▁id	-5616
▁Ell	-5617
▁nor	-5618
enance	-5619
▁Staff	-5620
▁encourage	-5621
▁alternative	-5622
▁BR	-5623
▁PS	-5624
irty	-5625
▁Bre	-5626
▁Gro	-5627
▁Son	-5628
astern	-5629
uality	-5630
▁Coast	-5631
▁taxes	-5632
uration	-5633
▁prison	-5634
▁Digital	-5635
▁conflic	-5636
▁failure	-5637
▁Festival	-5638
▁improved	-5639
.:	-5640
”,	-5641
bar	-5642
▁Cost	-5643
▁hasn	-5644
▁Linux	-5645
▁advis	-5646
▁plants	-5647
▁cookies	-5648
ev	-5649
hand	-5650
iency	-5651
paper	-5652
▁Cult	-5653
▁LOVE	-5654
▁bird	-5655
▁Contin	-5656
▁Published	-5657
hy	-5658
otic	-5659
▁Prov	-5660
▁seek	-5661
▁ideal	-5662
▁pregn	-5663
▁favour	-5664
▁planned	-5665
▁stopped	-5666
▁Philadelphia	-5667
▁FA	-5668
▁Lt	-5669
umes	-5670
▁Kim	-5671
▁row	-5672
▁Plus	-5673
▁hang	-5674
▁meat	-5675
▁Which	-5676
▁trees	-5677
▁female	-5678
▁Building	-5679
▁occasion	-5680
▁installed	-5681
▁seriously	-5682
▁candidates	-5683
▁commitment	-5684
No	-5685
mosp	-5686
oman	-5687
▁Leg	-5688
▁ven	-5689
▁Kent	-5690
▁ille	-5691
ampion	-5692
▁Share	-5693
▁occup	-5694
▁smooth	-5695
▁Student	-5696
▁suspect	-5697
ylv	-5698
cles	-5699
onna	-5700
▁Cra	-5701
idden	-5702
▁Cred	-5703
▁phil	-5704
▁teen	-5705
▁Earth	-5706
▁Daniel	-5707
▁column	-5708
emporary	-5709
▁seeking	-5710
▁Professor	-5711
▁Environment	-5712
oto	-5713
▁Ep	-5714
resp	-5715
▁tea	-5716
inois	-5717
inson	-5718
iously	-5719
▁Italian	-5720
▁answers	-5721
▁essential	-5722
▁ourselves	-5723
▁photograph	-5724
oria	-5725
▁Iss	-5726
▁Barb	-5727
▁alle	-5728
▁beer	-5729
▁tack	-5730
▁Place	-5731
▁micro	-5732
actions	-5733
▁terror	-5734
▁experts	-5735
▁outdoor	-5736
lee	-5737
Read	-5738
cont	-5739
▁Box	-5740
▁bul	-5741
▁sea	-5742
▁Expl	-5743
▁Stan	-5744
ushing	-5745
▁valid	-5746
▁Awards	-5747
▁random	-5748
▁struct	-5749
▁plastic	-5750
▁discover	-5751
▁presence	-5752
imp	-5753
▁Rog	-5754
▁odd	-5755
▁flex	-5756
▁Polit	-5757
▁leads	-5758
▁waste	-5759
▁worst	-5760
▁speech	-5761
▁channel	-5762
▁cutting	-5763
▁replace	-5764
▁Minister	-5765
▁investigation	-5766
▁AC	-5767
▁NEW	-5768
▁flu	-5769
▁pal	-5770
▁pin	-5771
irmed	-5772
▁Marc	-5773
▁meal	-5774
▁index	-5775
▁storm	-5776
▁theme	-5777
▁Select	-5778
▁visual	-5779
▁Website	-5780
▁council	-5781
▁surprise	-5782
▁approximately	-5783
Ar	-5784
▁Wr	-5785
rier	-5786
▁Cre	-5787
▁Jac	-5788
▁Pot	-5789
▁Dead	-5790
▁Wild	-5791
clusion	-5792
▁elimin	-5793
▁gather	-5794
▁possibly	-5795
▁assistance	-5796
TC	-5797
Pro	-5798
lyn	-5799
hors	-5800
▁Rod	-5801
▁Sus	-5802
cohol	-5803
▁edge	-5804
▁cells	-5805
▁foods	-5806
▁pitch	-5807
▁teach	-5808
▁begins	-5809
▁conserv	-5810
▁faculty	-5811
▁password	-5812
▁apartment	-5813
ala	-5814
hat	-5815
dden	-5816
rene	-5817
▁calc	-5818
▁hero	-5819
▁mini	-5820
▁thin	-5821
acking	-5822
ighter	-5823
▁banks	-5824
onymous	-5825
▁faster	-5826
▁Unfortunately	-5827
LY	-5828
To	-5829
arp	-5830
mes	-5831
olis	-5832
▁diagn	-5833
▁horse	-5834
▁metal	-5835
▁Safety	-5836
▁animal	-5837
▁Southern	-5838
▁restaurants	-5839
For	-5840
abet	-5841
aska	-5842
gage	-5843
ifer	-5844
upid	-5845
▁suit	-5846
▁tells	-5847
▁factor	-5848
▁choices	-5849
▁dropped	-5850
▁freedom	-5851
▁feedback	-5852
▁measures	-5853
Bl	-5854
▁Tech	-5855
▁ment	-5856
▁weak	-5857
▁dance	-5858
▁detect	-5859
▁Perhaps	-5860
▁university	-5861
acr	-5862
▁Ms	-5863
▁SH	-5864
▁hurt	-5865
sembly	-5866
▁inches	-5867
▁knowing	-5868
▁millions	-5869
▁remaining	-5870
aks	-5871
erg	-5872
▁Bad	-5873
eries	-5874
onder	-5875
▁bond	-5876
▁Holly	-5877
▁Jason	-5878
▁delay	-5879
▁grown	-5880
▁Comple	-5881
▁Comput	-5882
▁breast	-5883
▁fellow	-5884
▁Illinois	-5885
▁baseball	-5886
▁upcoming	-5887
▁emergency	-5888
.’	-5889
li	-5890
▁Ra	-5891
▁Ur	-5892
inet	-5893
long	-5894
oons	-5895
▁mel	-5896
▁Bull	-5897
▁Supp	-5898
▁rise	-5899
▁drugs	-5900
▁lucky	-5901
▁shock	-5902
▁Mexico	-5903
▁Return	-5904
▁strike	-5905
▁sudden	-5906
▁Previous	-5907
▁capacity	-5908
▁violence	-5909
▁breakfast	-5910
▁perfectly	-5911
▁ON	-5912
▁Lew	-5913
▁Tag	-5914
▁Fred	-5915
▁bless	-5916
▁Control	-5917
▁messages	-5918
fs	-5919
aser	-5920
rial	-5921
▁Hor	-5922
▁amb	-5923
▁mir	-5924
idays	-5925
▁Java	-5926
▁judge	-5927
▁Editor	-5928
▁Jewish	-5929
▁chapter	-5930
▁clothes	-5931
▁hosting	-5932
▁exchange	-5933
▁numerous	-5934
LC	-5935
Com	-5936
ora	-5937
▁Has	-5938
▁Max	-5939
▁aid	-5940
uable	-5941
▁Come	-5942
▁Nick	-5943
▁Spec	-5944
ducing	-5945
▁Diego	-5946
▁frame	-5947
▁motiv	-5948
▁tests	-5949
▁Events	-5950
▁Despite	-5951
▁constit	-5952
▁drivers	-5953
rehensive	-5954
▁elements	-5955
▁hundreds	-5956
▁politics	-5957
▁exclusive	-5958
▁commission	-5959
▁competitive	-5960
fol	-5961
rett	-5962
rich	-5963
▁Ent	-5964
▁joy	-5965
▁rom	-5966
uster	-5967
▁Span	-5968
▁fuel	-5969
▁util	-5970
▁Store	-5971
▁craft	-5972
▁Amazon	-5973
▁Photos	-5974
▁dining	-5975
▁hotels	-5976
▁stands	-5977
▁minimum	-5978
▁consumer	-5979
▁Sometimes	-5980
▁efficient	-5981
▁interests	-5982
▁obviously	-5983
kee	-5984
ugs	-5985
▁LA	-5986
that	-5987
▁Dog	-5988
▁Equ	-5989
▁jew	-5990
▁unf	-5991
bsites	-5992
▁Restaur	-5993
▁resource	-5994
atulations	-5995
▁Resources	-5996
▁CN	-5997
▁Ro	-5998
alty	-5999
lete	-6000
obby	-6001
▁Age	-6002
ician	-6003
iscons	-6004
▁equal	-6005
iversary	-6006
▁explore	-6007
▁noticed	-6008
▁stretch	-6009
▁accommod	-6010
▁discovered	-6011
▁Republicans	-6012
▁responsibility	-6013
AY	-6014
ih	-6015
ench	-6016
▁Mov	-6017
▁rub	-6018
ading	-6019
▁Type	-6020
▁Pract	-6021
▁audio	-6022
▁restr	-6023
aration	-6024
ossible	-6025
▁Master	-6026
▁surgery	-6027
▁greatest	-6028
▁highlight	-6029
▁scheduled	-6030
▁appearance	-6031
▁entertainment	-6032
rad	-6033
rip	-6034
oore	-6035
phas	-6036
▁Fox	-6037
▁gro	-6038
Story	-6039
regon	-6040
▁Army	-6041
▁Prom	-6042
▁task	-6043
▁Chief	-6044
▁Davis	-6045
isconsin	-6046
▁Looking	-6047
▁Members	-6048
▁Privacy	-6049
▁promote	-6050
▁Pingback	-6051
▁intended	-6052
char	-6053
irts	-6054
rome	-6055
▁Cut	-6056
▁Lis	-6057
▁spr	-6058
▁Whether	-6059
▁moments	-6060
▁creation	-6061
▁fighting	-6062
▁negative	-6063
▁settings	-6064
ISS	-6065
▁Jr	-6066
▁arts	-6067
asters	-6068
▁Sarah	-6069
▁lists	-6070
▁thick	-6071
▁critic	-6072
▁Academy	-6073
▁confidence	-6074
bury	-6075
▁NFL	-6076
▁Tax	-6077
arrow	-6078
gment	-6079
▁Fact	-6080
▁Name	-6081
orters	-6082
▁Major	-6083
▁Would	-6084
agement	-6085
▁Silver	-6086
▁conver	-6087
▁indeed	-6088
▁Seattle	-6089
▁nuclear	-6090
▁Mountain	-6091
▁investors	-6092
UN	-6093
Cont	-6094
▁AND	-6095
▁dyn	-6096
ancer	-6097
▁FREE	-6098
▁disp	-6099
▁Links	-6100
▁plate	-6101
▁Avenue	-6102
▁Corpor	-6103
▁Oregon	-6104
▁crisis	-6105
▁identify	-6106
▁officers	-6107
▁tradition	-6108
My	-6109
osa	-6110
▁WH	-6111
▁ol	-6112
That	-6113
▁Ext	-6114
▁tab	-6115
lines	-6116
▁mode	-6117
istant	-6118
▁Again	-6119
▁goods	-6120
▁wheel	-6121
▁unlike	-6122
▁attacks	-6123
▁concent	-6124
▁journey	-6125
▁employee	-6126
▁Non	-6127
▁Sky	-6128
▁pit	-6129
▁wid	-6130
▁Asia	-6131
▁ring	-6132
▁Table	-6133
▁chart	-6134
▁lights	-6135
▁square	-6136
▁yellow	-6137
========	-6138
▁accounts	-6139
▁considering	-6140
▁temperature	-6141
OD	-6142
nic	-6143
nell	-6144
ribe	-6145
▁Hom	-6146
▁Yet	-6147
▁fro	-6148
▁wet	-6149
▁Anth	-6150
▁optim	-6151
▁rough	-6152
ictions	-6153
▁guitar	-6154
▁Canadian	-6155
▁detailed	-6156
▁buildings	-6157
▁defensive	-6158
▁featuring	-6159
▁participants	-6160
An	-6161
osis	-6162
adium	-6163
▁Posts	-6164
▁depart	-6165
▁therap	-6166
▁writes	-6167
▁examples	-6168
▁confident	-6169
▁therefore	-6170
equ	-6171
rid	-6172
iors	-6173
ogue	-6174
raud	-6175
▁Fac	-6176
▁Greg	-6177
giving	-6178
intage	-6179
letter	-6180
▁Using	-6181
cluding	-6182
▁arrang	-6183
▁atmosp	-6184
▁treated	-6185
▁witness	-6186
▁impressive	-6187
▁researchers	-6188
inem	-6189
▁Ask	-6190
▁Ford	-6191
▁Sorry	-6192
▁flash	-6193
▁weren	-6194
▁Forest	-6195
▁garlic	-6196
▁satisf	-6197
▁walked	-6198
▁Android	-6199
▁designs	-6200
▁Beautiful	-6201
▁communication	-6202
▁//	-6203
oses	-6204
scape	-6205
▁grab	-6206
▁hook	-6207
isters	-6208
▁Brook	-6209
▁Henry	-6210
▁coordin	-6211
▁performed	-6212
▁properties	-6213
,'	-6214
CE	-6215
xy	-6216
boy	-6217
anny	-6218
foot	-6219
page	-6220
merce	-6221
odies	-6222
▁Broad	-6223
▁Views	-6224
▁agent	-6225
illiant	-6226
▁Applic	-6227
▁fields	-6228
inations	-6229
▁downtown	-6230
▁perspective	-6231
▁manufacturers	-6232
>>	-6233
va	-6234
bour	-6235
abama	-6236
▁Adam	-6237
▁Clark	-6238
▁Drive	-6239
▁rapid	-6240
▁ticket	-6241
▁titles	-6242
▁enforce	-6243
▁factors	-6244
▁leather	-6245
▁returns	-6246
▁wondering	-6247
▁supporting	-6248
▁educational	-6249
owa	-6250
▁lux	-6251
▁Resp	-6252
▁pink	-6253
▁adapt	-6254
▁domin	-6255
▁episode	-6256
:.	-6257
bel	-6258
aped	-6259
▁RSS	-6260
▁Ariz	-6261
▁apps	-6262
▁neck	-6263
▁soph	-6264
▁truck	-6265
▁Kansas	-6266
▁config	-6267
▁Country	-6268
▁Pacific	-6269
▁meetings	-6270
▁reserved	-6271
▁standing	-6272
▁Copyright	-6273
▁supported	-6274
▁originally	-6275
▁tournament	-6276
dr	-6277
ey	-6278
cue	-6279
▁MD	-6280
roit	-6281
▁Mom	-6282
▁bon	-6283
grade	-6284
lying	-6285
▁Base	-6286
▁rice	-6287
stract	-6288
▁Stock	-6289
▁awards	-6290
▁decades	-6291
▁prepare	-6292
▁warrant	-6293
TH	-6294
▁AS	-6295
▁Dun	-6296
▁anc	-6297
▁wal	-6298
obody	-6299
osoph	-6300
▁cups	-6301
▁defend	-6302
▁stated	-6303
▁Supreme	-6304
▁launched	-6305
▁sessions	-6306
▁recommended	-6307
esy	-6308
apes	-6309
aron	-6310
▁Gre	-6311
▁Hon	-6312
▁Lim	-6313
▁Pen	-6314
▁Try	-6315
▁Cast	-6316
▁milk	-6317
▁Small	-6318
▁Terms	-6319
▁Miller	-6320
▁covers	-6321
▁massive	-6322
▁savings	-6323
▁univers	-6324
▁Software	-6325
▁broadcast	-6326
▁committee	-6327
▁introduced	-6328
bu	-6329
ml	-6330
▁Ca	-6331
▁Scot	-6332
▁lapt	-6333
nesota	-6334
▁advoc	-6335
▁flour	-6336
▁Article	-6337
▁Chapter	-6338
▁entered	-6339
▁playoff	-6340
▁pleased	-6341
▁specifically	-6342
Don	-6343
ker	-6344
▁oh	-6345
pass	-6346
▁Nic	-6347
hered	-6348
▁Training	-6349
▁recorded	-6350
uis	-6351
ario	-6352
ircle	-6353
▁tail	-6354
▁Story	-6355
▁route	-6356
▁pulled	-6357
idelines	-6358
▁Justice	-6359
▁Studies	-6360
▁Catholic	-6361
▁providers	-6362
Sp	-6363
nam	-6364
▁SO	-6365
▁Cro	-6366
anche	-6367
rowse	-6368
yrics	-6369
▁Ball	-6370
▁Conf	-6371
▁doors	-6372
▁moves	-6373
▁regul	-6374
▁units	-6375
▁talked	-6376
▁tracks	-6377
▁voters	-6378
▁Alabama	-6379
▁Finally	-6380
▁turning	-6381
▁Communic	-6382
▁Products	-6383
▁arrested	-6384
▁Wisconsin	-6385
▁Collection	-6386
▁registration	-6387
▁professionals	-6388
ww	-6389
Con	-6390
pret	-6391
▁nav	-6392
▁Bell	-6393
▁bags	-6394
▁Visit	-6395
isation	-6396
▁Garden	-6397
▁Living	-6398
alo	-6399
▁Rh	-6400
▁Bru	-6401
▁Buy	-6402
▁Kath	-6403
▁golf	-6404
amsung	-6405
▁flood	-6406
▁Wilson	-6407
▁circum	-6408
igration	-6409
▁climate	-6410
▁cultural	-6411
▁extensive	-6412
UL	-6413
bie	-6414
▁Sn	-6415
cious	-6416
▁Rick	-6417
▁crime	-6418
▁voted	-6419
ication	-6420
▁Latest	-6421
▁shares	-6422
▁stupid	-6423
▁termin	-6424
▁anymore	-6425
▁context	-6426
▁attorney	-6427
da	-6428
▁mo	-6429
▁Ave	-6430
▁ris	-6431
▁rum	-6432
claim	-6433
hetic	-6434
▁pump	-6435
▁pure	-6436
▁Kelly	-6437
utional	-6438
▁Advert	-6439
▁flight	-6440
▁battery	-6441
▁domestic	-6442
▁Executive	-6443
TA	-6444
ls	-6445
▁SS	-6446
▁Isl	-6447
▁Rub	-6448
▁URL	-6449
iscal	-6450
▁Kenn	-6451
▁mort	-6452
▁plug	-6453
▁soul	-6454
vement	-6455
▁adult	-6456
▁reply	-6457
▁centre	-6458
▁desire	-6459
▁Patrick	-6460
▁Spanish	-6461
▁regional	-6462
▁speaking	-6463
▁dangerous	-6464
mar	-6465
ghan	-6466
▁kne	-6467
▁rac	-6468
▁mile	-6469
▁swim	-6470
profit	-6471
▁fixed	-6472
ylvania	-6473
▁brands	-6474
▁murder	-6475
▁applied	-6476
▁command	-6477
▁housing	-6478
▁Japanese	-6479
▁accepted	-6480
▁Australian	-6481
▁apparently	-6482
▁electronic	-6483
GB	-6484
llig	-6485
▁sam	-6486
water	-6487
▁Tony	-6488
▁jack	-6489
▁dates	-6490
▁saved	-6491
▁scale	-6492
▁yours	-6493
▁belong	-6494
▁colour	-6495
▁emphas	-6496
▁supports	-6497
▁websites	-6498
▁recording	-6499
▁techniques	-6500
aa	-6501
sm	-6502
ras	-6503
hell	-6504
onto	-6505
▁Dam	-6506
▁Tem	-6507
▁cro	-6508
icals	-6509
stone	-6510
▁Mess	-6511
▁bunch	-6512
▁resol	-6513
▁chosen	-6514
▁invent	-6515
▁negoti	-6516
▁resort	-6517
▁taught	-6518
▁thinks	-6519
▁edition	-6520
▁extended	-6521
▁positions	-6522
▁incredible	-6523
▁Administration	-6524
Al	-6525
han	-6526
hus	-6527
▁NO	-6528
lets	-6529
▁Enjoy	-6530
▁Order	-6531
▁Royal	-6532
▁cable	-6533
▁orders	-6534
▁privacy	-6535
▁worldwide	-6536
Pl	-6537
CAA	-6538
aug	-6539
gypt	-6540
▁fort	-6541
ansion	-6542
ington	-6543
▁owned	-6544
▁facing	-6545
▁letters	-6546
▁ordered	-6547
▁hardware	-6548
▁proposal	-6549
▁provider	-6550
▁subscrib	-6551
▁Minnesota	-6552
▁Secretary	-6553
▁importance	-6554
▁membership	-6555
▁resolution	-6556
▁scientific	-6557
▁description	-6558
hi	-6559
phy	-6560
abeth	-6561
▁Size	-6562
▁wins	-6563
▁crack	-6564
▁filed	-6565
▁manner	-6566
▁Through	-6567
▁younger	-6568
▁properly	-6569
▁connected	-6570
▁purchased	-6571
▁historical	-6572
utch	-6573
reets	-6574
▁Bowl	-6575
▁diss	-6576
▁dram	-6577
▁empt	-6578
▁male	-6579
estyle	-6580
▁delight	-6581
▁vehicles	-6582
<<	-6583
CD	-6584
bro	-6585
Star	-6586
▁CON	-6587
▁gay	-6588
ffect	-6589
rives	-6590
▁Want	-6591
▁Penns	-6592
uations	-6593
iability	-6594
▁offense	-6595
▁attended	-6596
▁internal	-6597
ifications	-6598
▁offensive	-6599
▁reporting	-6600
▁somewhere	-6601
eb	-6602
des	-6603
nda	-6604
acle	-6605
ahoo	-6606
case	-6607
irms	-6608
onic	-6609
▁Jay	-6610
inals	-6611
inter	-6612
▁Mean	-6613
▁Phys	-6614
▁dont	-6615
▁susp	-6616
stream	-6617
▁Hello	-6618
▁excess	-6619
▁wealth	-6620
▁agencies	-6621
▁comprehensive	-6622
▁Case	-6623
▁Nice	-6624
▁grew	-6625
▁liqu	-6626
▁Image	-6627
▁Study	-6628
▁Think	-6629
▁Works	-6630
▁bound	-6631
▁loves	-6632
▁mixed	-6633
▁shirt	-6634
▁forces	-6635
▁phones	-6636
▁sample	-6637
▁Samsung	-6638
▁alcohol	-6639
▁maximum	-6640
▁typical	-6641
▁accurate	-6642
▁presentation	-6643
GA	-6644
za	-6645
How	-6646
▁Mo	-6647
▁Luc	-6648
ingly	-6649
▁Talk	-6650
▁slic	-6651
iamond	-6652
▁Bible	-6653
▁Point	-6654
▁assum	-6655
▁decade	-6656
▁riding	-6657
▁alleged	-6658
▁premium	-6659
▁argument	-6660
▁celebrate	-6661
elry	-6662
iano	-6663
sell	-6664
▁Bal	-6665
▁Ice	-6666
▁lol	-6667
▁sky	-6668
icate	-6669
▁corn	-6670
▁elig	-6671
▁soup	-6672
iveness	-6673
▁output	-6674
▁Results	-6675
▁Station	-6676
▁Stephen	-6677
▁concert	-6678
▁windows	-6679
▁receiving	-6680
▁inspiration	-6681
▁Pennsylvania	-6682
▁relationships	-6683
On	-6684
ouch	-6685
umps	-6686
▁NAS	-6687
▁Oak	-6688
itals	-6689
▁Fall	-6690
▁Moore	-6691
▁Systems	-6692
▁revealed	-6693
HS	-6694
pes	-6695
rum	-6696
sen	-6697
itis	-6698
▁Put	-6699
agues	-6700
front	-6701
owing	-6702
▁enem	-6703
▁vent	-6704
▁chain	-6705
▁knock	-6706
▁trend	-6707
▁Having	-6708
▁Nation	-6709
▁watched	-6710
▁Interest	-6711
RI	-6712
ati	-6713
gent	-6714
post	-6715
aters	-6716
ptoms	-6717
▁Bern	-6718
▁Moon	-6719
▁tort	-6720
▁Liber	-6721
▁Annual	-6722
▁Number	-6723
▁dollar	-6724
▁forest	-6725
▁issued	-6726
▁passing	-6727
▁seasons	-6728
▁realized	-6729
▁practical	-6730
▁professor	-6731
▁employment	-6732
Be	-6733
EA	-6734
gt	-6735
ouri	-6736
burgh	-6737
ework	-6738
▁Gary	-6739
▁dial	-6740
orough	-6741
rovers	-6742
▁coast	-6743
▁spokes	-6744
tainment	-6745
▁Airport	-6746
▁Arizona	-6747
▁Anderson	-6748
▁criminal	-6749
▁recognized	-6750
',	-6751
▁Iowa	-6752
▁bell	-6753
▁surf	-6754
angers	-6755
remony	-6756
▁Never	-6757
American	-6758
▁justice	-6759
▁revenue	-6760
▁Magazine	-6761
▁normally	-6762
DS	-6763
car	-6764
nie	-6765
▁Ltd	-6766
▁Sav	-6767
▁syn	-6768
poses	-6769
▁Stew	-6770
▁gear	-6771
apping	-6772
▁Camer	-6773
▁Trust	-6774
▁holds	-6775
▁union	-6776
▁shouldn	-6777
▁atmosphere	-6778
▁surprising	-6779
].	-6780
ja	-6781
amps	-6782
game	-6783
▁Ram	-6784
cknow	-6785
▁bare	-6786
▁crew	-6787
▁iron	-6788
▁west	-6789
▁Total	-6790
▁depth	-6791
▁forth	-6792
▁grade	-6793
▁smell	-6794
▁upper	-6795
▁Season	-6796
▁nearby	-6797
▁severe	-6798
▁Detroit	-6799
▁visited	-6800
▁furniture	-6801
▁advertising	-6802
▁Du	-6803
▁SP	-6804
Tube	-6805
eria	-6806
phan	-6807
▁Cru	-6808
▁hur	-6809
▁mold	-6810
▁Egypt	-6811
▁Paper	-6812
▁heads	-6813
▁affili	-6814
▁flavor	-6815
▁topics	-6816
▁herself	-6817
▁species	-6818
▁instance	-6819
▁construct	-6820
▁photograp	-6821
aws	-6822
omy	-6823
iece	-6824
▁Cab	-6825
▁flo	-6826
apped	-6827
uling	-6828
▁Shop	-6829
▁volunteers	-6830
SE	-6831
▁CO	-6832
▁Arab	-6833
▁Mill	-6834
▁heav	-6835
▁vend	-6836
▁vice	-6837
▁Psych	-6838
▁aside	-6839
utation	-6840
▁attrib	-6841
▁perman	-6842
▁profit	-6843
▁Matthew	-6844
▁Updated	-6845
▁confirm	-6846
▁illegal	-6847
▁incident	-6848
ailability	-6849
▁Marketing	-6850
▁searching	-6851
Sc	-6852
▁Ju	-6853
oral	-6854
▁ped	-6855
iking	-6856
ordan	-6857
rical	-6858
▁Emer	-6859
▁Clean	-6860
▁Quick	-6861
▁gallery	-6862
ibilities	-6863
▁procedure	-6864
▁disappoint	-6865
bi	-6866
aha	-6867
▁AF	-6868
star	-6869
▁Ref	-6870
▁adds	-6871
▁fasc	-6872
▁libr	-6873
uction	-6874
related	-6875
▁gotten	-6876
▁powder	-6877
▁figures	-6878
▁license	-6879
▁Northern	-6880
▁approval	-6881
bow	-6882
mod	-6883
ubs	-6884
▁IL	-6885
▁af	-6886
cons	-6887
uous	-6888
▁Inv	-6889
▁Kar	-6890
▁adm	-6891
▁Cham	-6892
▁Lady	-6893
▁tied	-6894
urning	-6895
▁Allen	-6896
▁Labor	-6897
▁Trail	-6898
▁ports	-6899
▁smile	-6900
unction	-6901
▁Joseph	-6902
▁breath	-6903
▁weekly	-6904
▁Perform	-6905
▁Roberts	-6906
▁innings	-6907
▁weapons	-6908
ATE	-6909
run	-6910
▁Es	-6911
acon	-6912
ashed	-6913
class	-6914
ether	-6915
▁Holy	-6916
▁Vegas	-6917
▁fairly	-6918
▁authors	-6919
▁valuable	-6920
▁confirmed	-6921
▁organized	-6922
▁regularly	-6923
▁institutions	-6924
▁AR	-6925
▁Gi	-6926
high	-6927
writ	-6928
▁vir	-6929
worth	-6930
▁Writ	-6931
▁sole	-6932
▁Creek	-6933
▁Dream	-6934
▁Looks	-6935
▁Treat	-6936
▁elected	-6937
▁incorpor	-6938
▁somewhat	-6939
▁relatively	-6940
▁Professional	-6941
▁championship	-6942
Le	-6943
dog	-6944
▁ec	-6945
▁Mir	-6946
▁Ven	-6947
▁suc	-6948
ensus	-6949
print	-6950
▁spin	-6951
▁boxes	-6952
▁fifth	-6953
▁joint	-6954
▁quote	-6955
▁acknow	-6956
▁blocks	-6957
▁remote	-6958
▁chopped	-6959
▁follows	-6960
▁giveaway	-6961
▁scholars	-6962
▁transform	-6963
▁identified	-6964
▁impossible	-6965
▁ET	-6966
When	-6967
aine	-6968
hire	-6969
ummy	-6970
▁Baby	-6971
▁Band	-6972
▁legs	-6973
▁Mater	-6974
izabeth	-6975
▁Should	-6976
▁Account	-6977
▁Kingdom	-6978
▁purposes	-6979
▁recovery	-6980
▁brilliant	-6981
'.	-6982
BM	-6983
aret	-6984
from	-6985
heim	-6986
▁Jam	-6987
celer	-6988
enced	-6989
power	-6990
▁Buff	-6991
▁User	-6992
ership	-6993
▁broke	-6994
▁Denver	-6995
▁houses	-6996
▁submit	-6997
▁aspects	-6998
▁ongoing	-6999
▁trading	-7000
▁clothing	-7001
▁Financial	-7002
▁Hollywood	-7003
▁interface	-7004
bal	-7005
via	-7006
▁Ult	-7007
▁nom	-7008
sters	-7009
▁Gard	-7010
▁bull	-7011
▁Change	-7012
▁Studio	-7013
▁causes	-7014
▁contrast	-7015
▁intellig	-7016
▁shoulder	-7017
▁percentage	-7018
▁instructions	-7019
▁technologies	-7020
TML	-7021
osc	-7022
▁DO	-7023
▁fo	-7024
▁Pit	-7025
icial	-7026
otton	-7027
▁Yeah	-7028
▁ages	-7029
▁arms	-7030
▁blogs	-7031
▁faces	-7032
▁kinds	-7033
▁recru	-7034
▁linked	-7035
▁serves	-7036
▁degrees	-7037
▁Columbia	-7038
▁Medicine	-7039
▁controlled	-7040
▁outstanding	-7041
ols	-7042
tle	-7043
▁..	-7044
mann	-7045
▁tie	-7046
enger	-7047
stein	-7048
▁Tool	-7049
▁Break	-7050
▁cycle	-7051
▁sight	-7052
▁Afghan	-7053
▁enthus	-7054
▁slowly	-7055
▁stayed	-7056
▁flowers	-7057
▁circumst	-7058
▁surrounding	-7059
CO	-7060
kel	-7061
rics	-7062
▁hel	-7063
xture	-7064
▁tall	-7065
ingers	-7066
orders	-7067
▁moder	-7068
▁spoke	-7069
respond	-7070
▁hosted	-7071
▁prompt	-7072
▁scores	-7073
▁YouTube	-7074
▁carried	-7075
▁dealing	-7076
▁musical	-7077
▁Category	-7078
▁Customer	-7079
▁stunning	-7080
▁Transport	-7081
▁immediate	-7082
▁Thanksgiving	-7083
UM	-7084
ded	-7085
och	-7086
zil	-7087
eman	-7088
ended	-7089
▁Vers	-7090
▁Heart	-7091
▁Action	-7092
▁Justin	-7093
▁bottle	-7094
▁Anthony	-7095
▁default	-7096
▁drawing	-7097
▁invited	-7098
▁sending	-7099
▁injuries	-7100
▁suggested	-7101
aste	-7102
erts	-7103
yers	-7104
▁Rus	-7105
▁Toy	-7106
ATION	-7107
etime	-7108
▁NCAA	-7109
▁Near	-7110
▁Release	-7111
▁matters	-7112
▁Missouri	-7113
▁describe	-7114
▁accomplish	-7115
▁personally	-7116
▁Entertainment	-7117
▁Congratulations	-7118
]>	-7119
ca	-7120
▁**	-7121
▁NC	-7122
▁gym	-7123
cluded	-7124
▁Final	-7125
▁shift	-7126
▁Celebr	-7127
▁rental	-7128
▁reduced	-7129
▁Features	-7130
▁functions	-7131
▁maintenance	-7132
▁distribution	-7133
NY	-7134
▁EU	-7135
▁Cas	-7136
▁Dom	-7137
▁Eag	-7138
▁Laur	-7139
▁Line	-7140
▁flav	-7141
▁Asian	-7142
▁Front	-7143
▁Index	-7144
oration	-7145
▁unable	-7146
▁analyst	-7147
▁anticip	-7148
▁infrast	-7149
▁facebook	-7150
▁constantly	-7151
▁legislation	-7152
?)	-7153
ns	-7154
All	-7155
ani	-7156
▁/>	-7157
leep	-7158
▁lit	-7159
iders	-7160
▁Dist	-7161
▁oven	-7162
▁tent	-7163
▁Space	-7164
▁blind	-7165
▁quant	-7166
▁Images	-7167
▁democr	-7168
▁narrow	-7169
▁Eastern	-7170
▁promise	-7171
▁streets	-7172
▁Archives	-7173
▁versions	-7174
▁Questions	-7175
▁typically	-7176
▁scientists	-7177
▁suggestions	-7178
pir	-7179
▁($	-7180
bles	-7181
olar	-7182
▁Bag	-7183
▁coc	-7184
▁hyp	-7185
isted	-7186
▁Dark	-7187
▁poly	-7188
▁roof	-7189
▁warn	-7190
encing	-7191
▁Italy	-7192
▁abuse	-7193
▁newly	-7194
▁Disney	-7195
▁Proper	-7196
▁capable	-7197
▁hitting	-7198
▁monthly	-7199
▁Personal	-7200
▁Remember	-7201
▁Insurance	-7202
Ph	-7203
esh	-7204
gend	-7205
iley	-7206
oken	-7207
umer	-7208
▁Kir	-7209
▁dad	-7210
▁god	-7211
acter	-7212
itage	-7213
▁Tell	-7214
▁cock	-7215
▁spark	-7216
▁steel	-7217
▁Golden	-7218
▁island	-7219
▁Question	-7220
▁awareness	-7221
▁explained	-7222
▁listening	-7223
ua	-7224
aud	-7225
▁PH	-7226
▁Fab	-7227
▁Hay	-7228
anges	-7229
▁Balt	-7230
▁Such	-7231
▁Zeal	-7232
▁eleg	-7233
▁seed	-7234
▁vary	-7235
veland	-7236
▁hopes	-7237
▁simpl	-7238
▁walls	-7239
▁Steven	-7240
▁victim	-7241
▁Edition	-7242
▁portion	-7243
▁mountain	-7244
▁Elizabeth	-7245
De	-7246
ART	-7247
iot	-7248
▁MO	-7249
▁Las	-7250
▁Six	-7251
asant	-7252
▁Cert	-7253
▁Meet	-7254
▁Being	-7255
▁Latin	-7256
▁chose	-7257
▁gonna	-7258
▁lemon	-7259
▁prove	-7260
ocation	-7261
▁designer	-7262
▁increases	-7263
▁developers	-7264
▁retirement	-7265
dy	-7266
hent	-7267
ulpt	-7268
▁Lyn	-7269
▁Sug	-7270
▁ren	-7271
▁tip	-7272
▁Cand	-7273
▁Chap	-7274
▁Pict	-7275
▁rear	-7276
▁Lewis	-7277
▁facts	-7278
▁river	-7279
▁tired	-7280
▁Credit	-7281
▁Howard	-7282
▁Walker	-7283
▁dishes	-7284
▁domain	-7285
▁nights	-7286
▁sexual	-7287
▁Toronto	-7288
▁compete	-7289
▁destroy	-7290
▁strange	-7291
▁festival	-7292
▁painting	-7293
▁substant	-7294
▁controvers	-7295
?!	-7296
sl	-7297
bre	-7298
ila	-7299
iti	-7300
uct	-7301
asts	-7302
izza	-7303
oval	-7304
▁FOR	-7305
▁obl	-7306
words	-7307
▁Grad	-7308
▁Grant	-7309
▁smoke	-7310
itution	-7311
▁junior	-7312
▁processes	-7313
▁exhibition	-7314
▁frequently	-7315
▁enforcement	-7316
,.	-7317
▁→	-7318
▁''	-7319
▁km	-7320
stra	-7321
utor	-7322
▁Sym	-7323
osite	-7324
uters	-7325
▁hall	-7326
▁tiny	-7327
▁split	-7328
▁swing	-7329
▁voting	-7330
iro	-7331
etic	-7332
▁III	-7333
inder	-7334
▁Give	-7335
▁auto	-7336
▁zone	-7337
▁boost	-7338
▁skill	-7339
▁Jordan	-7340
▁Russia	-7341
▁cooper	-7342
▁intent	-7343
▁loving	-7344
▁relief	-7345
▁Russian	-7346
▁Zealand	-7347
▁joining	-7348
▁routine	-7349
ervations	-7350
▁affected	-7351
▁entirely	-7352
▁follower	-7353
▁wireless	-7354
▁Available	-7355
▁authority	-7356
▁transition	-7357
▁authorities	-7358
%.	-7359
▁Arm	-7360
▁Sea	-7361
▁ast	-7362
riers	-7363
makers	-7364
▁Peace	-7365
ointing	-7366
▁enable	-7367
~~~~~~~~	-7368
▁Atlanta	-7369
▁Further	-7370
▁listing	-7371
▁conflict	-7372
▁directed	-7373
▁addresses	-7374
▁assistant	-7375
▁philosoph	-7376
▁components	-7377
wr	-7378
pre	-7379
▁CR	-7380
Make	-7381
alse	-7382
town	-7383
▁Est	-7384
▁Ren	-7385
▁cam	-7386
▁lbs	-7387
▁pil	-7388
apore	-7389
ilton	-7390
▁Hold	-7391
▁Inde	-7392
▁Josh	-7393
▁Prep	-7394
▁bear	-7395
▁east	-7396
▁outs	-7397
apolis	-7398
oosing	-7399
▁empty	-7400
▁input	-7401
▁Austin	-7402
▁reward	-7403
▁signal	-7404
▁styles	-7405
children	-7406
▁virtual	-7407
▁ceremony	-7408
▁complain	-7409
▁basically	-7410
▁collected	-7411
▁suffering	-7412
▁significantly	-7413
HL	-7414
road	-7415
▁Eth	-7416
▁hat	-7417
cling	-7418
uting	-7419
▁batt	-7420
ellect	-7421
▁Sound	-7422
▁bench	-7423
▁stone	-7424
▁papers	-7425
▁coaches	-7426
▁symptoms	-7427
▁attending	-7428
▁determined	-7429
▁strategies	-7430
uh	-7431
▁}	-7432
this	-7433
▁Cow	-7434
▁PDF	-7435
▁mal	-7436
▁pic	-7437
ifies	-7438
oster	-7439
ureau	-7440
▁Film	-7441
▁Mach	-7442
pected	-7443
▁Produ	-7444
▁giant	-7445
▁proof	-7446
▁theory	-7447
▁scoring	-7448
▁Regional	-7449
▁believed	-7450
▁adventure	-7451
▁exception	-7452
▁infrastructure	-7453
ba	-7454
cr	-7455
iser	-7456
▁Bud	-7457
▁ads	-7458
▁bes	-7459
comes	-7460
▁Ever	-7461
▁Hart	-7462
▁Kids	-7463
▁Sale	-7464
▁hole	-7465
▁inch	-7466
▁decre	-7467
▁Things	-7468
▁consequ	-7469
▁killing	-7470
▁victims	-7471
▁drinking	-7472
▁explains	-7473
▁suggests	-7474
▁effectively	-7475
▁Championship	-7476
▁presidential	-7477
▁Aw	-7478
▁OR	-7479
▁obt	-7480
ented	-7481
▁Andy	-7482
▁Sant	-7483
▁Stay	-7484
▁acts	-7485
▁mand	-7486
ensity	-7487
▁Style	-7488
ogether	-7489
▁Common	-7490
▁Resort	-7491
▁Wonder	-7492
▁laptop	-7493
▁motion	-7494
▁airport	-7495
▁conducted	-7496
▁religious	-7497
▁anniversary	-7498
▁challenging	-7499
▁possibility	-7500
▁IM	-7501
ilit	-7502
▁:-)	-7503
▁Own	-7504
▁san	-7505
atics	-7506
heast	-7507
otten	-7508
ounce	-7509
owers	-7510
rance	-7511
▁Auto	-7512
▁chat	-7513
▁loan	-7514
odcast	-7515
▁trick	-7516
▁Brazil	-7517
▁Indiana	-7518
▁forever	-7519
▁Football	-7520
▁informed	-7521
▁instrument	-7522
▁differences	-7523
▁installation	-7524
ERS	-7525
ura	-7526
izer	-7527
whel	-7528
▁Golf	-7529
▁Must	-7530
▁duty	-7531
▁unus	-7532
▁Model	-7533
▁Phill	-7534
▁Simon	-7535
▁bands	-7536
▁clubs	-7537
▁entit	-7538
▁fraud	-7539
▁sheet	-7540
▁stuck	-7541
▁enhance	-7542
▁Cleveland	-7543
▁emotional	-7544
▁Democratic	-7545
.<	-7546
So	-7547
etts	-7548
quis	-7549
achus	-7550
attan	-7551
▁Leon	-7552
▁Sche	-7553
▁fest	-7554
rition	-7555
▁Server	-7556
▁assign	-7557
▁reader	-7558
▁somehow	-7559
▁depending	-7560
▁efficiency	-7561
▁innovative	-7562
▁accessories	-7563
May	-7564
aid	-7565
aze	-7566
wich	-7567
▁Burn	-7568
▁fuck	-7569
▁Irish	-7570
▁proven	-7571
▁string	-7572
▁Channel	-7573
▁Theatre	-7574
▁chances	-7575
▁compare	-7576
▁succeed	-7577
▁requests	-7578
▁Champions	-7579
▁Democrats	-7580
▁everywhere	-7581
aza	-7582
fare	-7583
ilty	-7584
▁Ide	-7585
▁Tal	-7586
▁pra	-7587
atell	-7588
▁Pick	-7589
▁Save	-7590
▁coat	-7591
▁Civil	-7592
▁Liter	-7593
▁blank	-7594
▁Mother	-7595
▁baking	-7596
▁singer	-7597
▁Discuss	-7598
▁proceed	-7599
▁protein	-7600
▁believes	-7601
▁machines	-7602
▁newspaper	-7603
▁Additional	-7604
%,	-7605
CT	-7606
days	-7607
▁Bat	-7608
▁Hur	-7609
▁lad	-7610
ensed	-7611
orses	-7612
press	-7613
▁Utah	-7614
▁lift	-7615
▁rail	-7616
ounter	-7617
▁Marsh	-7618
▁Track	-7619
▁finds	-7620
▁grass	-7621
▁yield	-7622
▁Berlin	-7623
▁headed	-7624
aturally	-7625
▁Barbara	-7626
▁Challen	-7627
▁catalog	-7628
▁claimed	-7629
▁defined	-7630
▁illustr	-7631
▁division	-7632
▁memories	-7633
Ad	-7634
???	-7635
uls	-7636
oned	-7637
▁Pak	-7638
▁Marg	-7639
▁Past	-7640
▁terr	-7641
person	-7642
reprene	-7643
▁bodies	-7644
▁Olympic	-7645
▁Senator	-7646
▁heading	-7647
▁mistake	-7648
▁Maryland	-7649
▁replaced	-7650
▁everybody	-7651
▁favourite	-7652
▁expectations	-7653
EF	-7654
▁^	-7655
EST	-7656
Our	-7657
ader	-7658
aund	-7659
brid	-7660
olit	-7661
pire	-7662
▁Sem	-7663
▁vul	-7664
▁Bath	-7665
▁Snow	-7666
▁Trib	-7667
▁boat	-7668
▁butt	-7669
earing	-7670
▁alert	-7671
▁alive	-7672
▁debut	-7673
▁Morgan	-7674
▁aspect	-7675
▁reject	-7676
▁convert	-7677
▁protest	-7678
▁Memorial	-7679
▁breaking	-7680
▁expressed	-7681
▁reasonable	-7682
▁recommendations	-7683
▁BM	-7684
▁IR	-7685
asks	-7686
▁Lib	-7687
▁fur	-7688
▁riv	-7689
inity	-7690
▁drum	-7691
▁remark	-7692
fficient	-7693
▁bedroom	-7694
▁largely	-7695
▁Partners	-7696
▁processing	-7697
▁communications	-7698
.-	-7699
BL	-7700
fts	-7701
iac	-7702
▁DJ	-7703
rell	-7704
▁arg	-7705
asted	-7706
▁Bron	-7707
▁bars	-7708
▁mere	-7709
▁okay	-7710
▁vast	-7711
abetes	-7712
▁Among	-7713
▁Harris	-7714
missions	-7715
▁Reading	-7716
▁illness	-7717
▁objects	-7718
▁printed	-7719
▁Learning	-7720
▁bathroom	-7721
▁packages	-7722
▁presents	-7723
▁Restaurant	-7724
▁appointment	-7725
▁destination	-7726
▁contemporary	-7727
aun	-7728
aded	-7729
olen	-7730
raid	-7731
▁Amy	-7732
▁Bry	-7733
imore	-7734
▁eggs	-7735
▁logo	-7736
▁rose	-7737
▁solo	-7738
▁Third	-7739
ologist	-7740
▁Battle	-7741
▁falling	-7742
▁Register	-7743
▁fabulous	-7744
▁historic	-7745
▁touchdown	-7746
▁correspond	-7747
▁partnership	-7748
▁photography	-7749
axy	-7750
eek	-7751
▁Ly	-7752
▁TX	-7753
lder	-7754
▁LOL	-7755
▁Beck	-7756
▁Jane	-7757
▁ease	-7758
▁lets	-7759
▁trib	-7760
......	-7761
▁Turkey	-7762
▁comedy	-7763
▁decent	-7764
▁fiscal	-7765
▁museum	-7766
friendly	-7767
▁Everyone	-7768
▁attached	-7769
▁cleaning	-7770
▁pleasure	-7771
▁Massachus	-7772
▁categories	-7773
▁incredibly	-7774
▁ultimately	-7775
More	-7776
ador	-7777
icut	-7778
▁Fri	-7779
▁Pin	-7780
▁wra	-7781
▁Send	-7782
▁Wine	-7783
▁lady	-7784
▁yeah	-7785
ounded	-7786
▁worried	-7787
▁clinical	-7788
▁Following	-7789
▁guarantee	-7790
▁necessarily	-7791
tw	-7792
iag	-7793
ima	-7794
uns	-7795
▁Ah	-7796
▁BB	-7797
▁FL	-7798
greg	-7799
▁ham	-7800
backs	-7801
▁Bang	-7802
▁Feat	-7803
▁Jess	-7804
▁Nash	-7805
▁sees	-7806
▁tech	-7807
arters	-7808
▁Clear	-7809
▁Could	-7810
▁Guard	-7811
▁vital	-7812
▁repair	-7813
▁Capital	-7814
▁Section	-7815
▁causing	-7816
▁compens	-7817
▁neither	-7818
▁winners	-7819
▁Governor	-7820
▁opinions	-7821
▁accessible	-7822
▁Massachusetts	-7823
dale	-7824
▁GOP	-7825
▁Sox	-7826
▁Ten	-7827
▁hal	-7828
▁shr	-7829
oured	-7830
wered	-7831
▁Gall	-7832
▁Made	-7833
▁dust	-7834
▁evol	-7835
▁Coach	-7836
▁Winter	-7837
▁assume	-7838
▁execut	-7839
▁filter	-7840
▁flying	-7841
▁planet	-7842
▁offices	-7843
▁calendar	-7844
▁managing	-7845
▁Singapore	-7846
▁consistent	-7847
▁Environmental	-7848
▁transportation	-7849
▁CP	-7850
▁mut	-7851
▁raw	-7852
issue	-7853
level	-7854
▁Host	-7855
▁boss	-7856
▁exec	-7857
idance	-7858
inding	-7859
▁Books	-7860
▁Level	-7861
▁faced	-7862
▁viewed	-7863
▁Fashion	-7864
▁warning	-7865
▁concentr	-7866
▁controls	-7867
▁distinct	-7868
▁Meanwhile	-7869
▁carefully	-7870
▁performing	-7871
▁sustainable	-7872
▁implementation	-7873
Se	-7874
bell	-7875
inst	-7876
▁Aqu	-7877
▁Ban	-7878
inent	-7879
▁Easy	-7880
▁Sony	-7881
▁hire	-7882
intend	-7883
▁discl	-7884
inating	-7885
▁Really	-7886
▁Update	-7887
▁border	-7888
▁orange	-7889
▁silver	-7890
▁writers	-7891
▁Baseball	-7892
▁Industry	-7893
▁patterns	-7894
▁struggle	-7895
▁whenever	-7896
▁estimated	-7897
▁Everything	-7898
▁convenient	-7899
rog	-7900
zes	-7901
hops	-7902
▁RBI	-7903
opher	-7904
▁Dick	-7905
▁root	-7906
▁Anton	-7907
▁noise	-7908
▁seats	-7909
▁sizes	-7910
ighters	-7911
▁lyrics	-7912
ospitals	-7913
▁Schools	-7914
▁staying	-7915
▁trailer	-7916
▁trained	-7917
▁Standard	-7918
▁forecast	-7919
▁stronger	-7920
▁improvement	-7921
rug	-7922
cycle	-7923
▁yard	-7924
▁Email	-7925
▁olive	-7926
▁quilt	-7927
▁renew	-7928
▁sharp	-7929
▁Spirit	-7930
▁acting	-7931
▁driven	-7932
▁upload	-7933
▁Stewart	-7934
▁managers	-7935
▁expression	-7936
who	-7937
▁HP	-7938
alle	-7939
ingu	-7940
▁Dri	-7941
▁Tam	-7942
▁Pear	-7943
▁Ross	-7944
▁coin	-7945
▁mood	-7946
▁pitc	-7947
▁stir	-7948
ashing	-7949
▁Harry	-7950
▁Hills	-7951
▁Youth	-7952
▁admin	-7953
▁admit	-7954
▁tweet	-7955
▁struck	-7956
▁Charlie	-7957
▁Content	-7958
▁Defense	-7959
▁awarded	-7960
▁depends	-7961
▁jewelry	-7962
▁copyright	-7963
By	-7964
FC	-7965
HA	-7966
See	-7967
law	-7968
liam	-7969
mate	-7970
pson	-7971
▁McK	-7972
▁lie	-7973
acked	-7974
▁elev	-7975
▁Sales	-7976
▁teeth	-7977
▁Modern	-7978
ographic	-7979
▁closely	-7980
▁hanging	-7981
▁lighting	-7982
▁payments	-7983
▁continuing	-7984
▁opposition	-7985
▁vegetables	-7986
▁contributions	-7987
su	-7988
Book	-7989
cers	-7990
made	-7991
oked	-7992
athon	-7993
immer	-7994
mates	-7995
▁Feed	-7996
▁Sure	-7997
▁Print	-7998
▁Smart	-7999
▁actor	-8000
▁Histor	-8001
▁sevent	-8002
▁Classic	-8003
▁Attorney	-8004
▁covering	-8005
▁identity	-8006
▁petition	-8007
▁repeated	-8008
▁discussed	-8009
▁household	-8010
▁interpret	-8011
▁announcement	-8012
▁circumstances	-8013
")	-8014
ko	-8015
lah	-8016
▁CS	-8017
▁gre	-8018
▁Five	-8019
▁Jean	-8020
▁hung	-8021
▁unem	-8022
▁wake	-8023
overty	-8024
▁Queen	-8025
▁juice	-8026
▁ocean	-8027
▁react	-8028
▁Target	-8029
▁borrow	-8030
▁Friends	-8031
▁mailing	-8032
▁wanting	-8033
▁champion	-8034
▁overwhel	-8035
▁expertise	-8036
▁generated	-8037
▁regulations	-8038
lo	-8039
▁«	-8040
AND	-8041
pay	-8042
war	-8043
▁UP	-8044
hour	-8045
▁Beh	-8046
▁HIV	-8047
▁McG	-8048
▁NYC	-8049
▁Oil	-8050
▁sew	-8051
lando	-8052
▁Bond	-8053
▁Docu	-8054
▁HTML	-8055
▁Meth	-8056
▁buff	-8057
▁Krist	-8058
▁Maine	-8059
▁spell	-8060
liament	-8061
▁harder	-8062
▁nobody	-8063
▁Natural	-8064
▁checked	-8065
▁creates	-8066
▁finance	-8067
▁attitude	-8068
▁suddenly	-8069
▁supplies	-8070
▁volunteer	-8071
▁contribute	-8072
▁experiment	-8073
▁monitoring	-8074
▁reputation	-8075
TER	-8076
ipt	-8077
aver	-8078
▁bab	-8079
▁mad	-8080
chers	-8081
udson	-8082
▁Anna	-8083
▁Answ	-8084
▁Mail	-8085
▁Spain	-8086
▁depos	-8087
▁solve	-8088
▁Anyone	-8089
▁Cancer	-8090
▁Orange	-8091
▁Square	-8092
▁lawyer	-8093
▁tested	-8094
▁Culture	-8095
▁aggress	-8096
▁predict	-8097
▁Pakistan	-8098
▁constant	-8099
▁reaction	-8100
▁elections	-8101
▁lifestyle	-8102
▁technique	-8103
▁assessment	-8104
yes	-8105
eper	-8106
uten	-8107
————	-8108
▁kit	-8109
ormal	-8110
style	-8111
▁symb	-8112
ateful	-8113
▁Birth	-8114
▁Early	-8115
▁Motor	-8116
▁meals	-8117
▁recip	-8118
▁Barack	-8119
▁afraid	-8120
▁stocks	-8121
atellite	-8122
▁Nothing	-8123
▁filling	-8124
▁fishing	-8125
▁Computer	-8126
▁Medicare	-8127
▁medicine	-8128
▁talented	-8129
▁literally	-8130
▁submitted	-8131
▁Connecticut	-8132
▁collaboration	-8133
▁manufacturing	-8134
Un	-8135
py	-8136
ILL	-8137
ico	-8138
lar	-8139
▁NJ	-8140
▁SC	-8141
▁je	-8142
aire	-8143
ints	-8144
quir	-8145
▁COM	-8146
▁Occ	-8147
▁Tig	-8148
plate	-8149
▁Barn	-8150
▁Grow	-8151
▁firms	-8152
▁marks	-8153
▁ending	-8154
▁counsel	-8155
▁doctors	-8156
▁carrying	-8157
▁reliable	-8158
▁Baltimore	-8159
▁contracts	-8160
▁Engineering	-8161
▁publication	-8162
![	-8163
ran	-8164
▁Ow	-8165
▁WA	-8166
inar	-8167
▁/><	-8168
▁fle	-8169
▁Capt	-8170
▁blow	-8171
▁lens	-8172
▁pace	-8173
▁wise	-8174
▁Glass	-8175
▁Mayor	-8176
▁onion	-8177
▁plain	-8178
▁solar	-8179
▁bridge	-8180
▁divide	-8181
▁flower	-8182
▁Explore	-8183
▁Israeli	-8184
▁Jennifer	-8185
▁checking	-8186
▁eligible	-8187
▁occurred	-8188
▁situations	-8189
oga	-8190
vas	-8191
▁oz	-8192
anes	-8193
aper	-8194
▁Tbs	-8195
▁fru	-8196
▁gat	-8197
▁phr	-8198
▁Fant	-8199
▁Shel	-8200
▁Tips	-8201
▁Hawai	-8202
▁Leave	-8203
▁Month	-8204
▁false	-8205
▁agents	-8206
▁carbon	-8207
▁limits	-8208
▁marked	-8209
▁outfit	-8210
▁shower	-8211
▁Display	-8212
▁closing	-8213
▁signing	-8214
▁Jonathan	-8215
▁sentence	-8216
▁ultimate	-8217
▁protected	-8218
▁foundation	-8219
iah	-8220
oen	-8221
▁Ox	-8222
Post	-8223
airy	-8224
born	-8225
rete	-8226
▁nic	-8227
ridge	-8228
▁Cool	-8229
▁Core	-8230
▁Lisa	-8231
▁king	-8232
ifully	-8233
ingham	-8234
▁Death	-8235
▁Flash	-8236
▁loose	-8237
utorial	-8238
▁Recomm	-8239
▁formed	-8240
▁height	-8241
▁scheme	-8242
▁Several	-8243
▁mixture	-8244
▁nursing	-8245
▁Kentucky	-8246
▁Planning	-8247
▁attempts	-8248
▁directory	-8249
▁affordable	-8250
▁comparison	-8251
▁engineering	-8252
.;	-8253
ME	-8254
uv	-8255
▁CL	-8256
lers	-8257
▁Job	-8258
▁Beat	-8259
▁Corp	-8260
▁Vice	-8261
▁puts	-8262
▁Blood	-8263
▁Bloom	-8264
▁pharm	-8265
▁remem	-8266
▁Albert	-8267
▁drives	-8268
▁heaven	-8269
▁luxury	-8270
▁mainly	-8271
▁amounts	-8272
▁injured	-8273
▁organic	-8274
▁Economic	-8275
▁enjoying	-8276
▁findings	-8277
▁holidays	-8278
▁Afghanistan	-8279
▁contributed	-8280
))	-8281
ais	-8282
olt	-8283
▁Ak	-8284
▁PL	-8285
path	-8286
▁Hop	-8287
▁Joy	-8288
▁Ros	-8289
▁lin	-8290
▁vit	-8291
▁beds	-8292
▁tape	-8293
▁trig	-8294
▁Sport	-8295
▁crash	-8296
▁urban	-8297
▁liquid	-8298
▁lowest	-8299
▁margin	-8300
▁Orlando	-8301
▁Portland	-8302
▁everyday	-8303
▁graphics	-8304
▁correctly	-8305
▁primarily	-8306
▁Convention	-8307
▁Protection	-8308
▁compliment	-8309
▁guidelines	-8310
▁procedures	-8311
▁conservative	-8312
nut	-8313
iler	-8314
zing	-8315
▁lun	-8316
ounge	-8317
▁dess	-8318
▁narr	-8319
▁pill	-8320
▁finger	-8321
▁saving	-8322
▁Morning	-8323
▁matches	-8324
▁generate	-8325
▁networks	-8326
▁expansion	-8327
▁qualified	-8328
▁integrated	-8329
▁regardless	-8330
▁discussions	-8331
▁increasingly	-8332
▁successfully	-8333
GE	-8334
IST	-8335
aga	-8336
cur	-8337
ref	-8338
▁Po	-8339
▁TC	-8340
▁gig	-8341
▁evil	-8342
▁wash	-8343
acious	-8344
▁Fresh	-8345
▁Innov	-8346
▁Laure	-8347
▁array	-8348
▁wrest	-8349
▁Parent	-8350
▁dreams	-8351
▁humans	-8352
▁passes	-8353
▁pocket	-8354
▁racing	-8355
anguages	-8356
▁Quality	-8357
▁Russell	-8358
▁therapy	-8359
▁vintage	-8360
▁admitted	-8361
▁releases	-8362
▁computers	-8363
One	-8364
oln	-8365
tes	-8366
▁SE	-8367
▁ye	-8368
iere	-8369
onda	-8370
▁Alp	-8371
▁bug	-8372
books	-8373
▁Crit	-8374
▁Tenn	-8375
▁Viet	-8376
▁pics	-8377
▁vibr	-8378
inking	-8379
▁Issue	-8380
▁Judge	-8381
▁Ocean	-8382
▁Steel	-8383
▁opens	-8384
▁risks	-8385
resents	-8386
▁Create	-8387
▁Michel	-8388
▁Rating	-8389
▁scenes	-8390
▁Process	-8391
▁Without	-8392
▁assists	-8393
▁capture	-8394
▁Practice	-8395
▁expenses	-8396
▁exposure	-8397
▁impressed	-8398
▁permanent	-8399
▁responses	-8400
▁replacement	-8401
▁functionality	-8402
▁VA	-8403
etry	-8404
teen	-8405
▁dim	-8406
leans	-8407
▁Surv	-8408
▁Whit	-8409
▁Notes	-8410
▁Sweet	-8411
▁meets	-8412
▁spots	-8413
pending	-8414
▁Father	-8415
▁Future	-8416
▁lesson	-8417
▁packed	-8418
▁recall	-8419
▁vulner	-8420
▁recover	-8421
▁retired	-8422
▁subsequ	-8423
▁referred	-8424
▁extension	-8425
▁revolution	-8426
▁recognition	-8427
ira	-8428
▁;)	-8429
▁SW	-8430
▁ru	-8431
▁Gas	-8432
▁Pur	-8433
▁rig	-8434
acher	-8435
folio	-8436
▁Cars	-8437
▁Info	-8438
▁stim	-8439
▁Oklah	-8440
▁humor	-8441
▁stood	-8442
▁Choose	-8443
▁Cooper	-8444
▁Integr	-8445
▁desper	-8446
▁formal	-8447
▁losses	-8448
▁obtain	-8449
▁Brother	-8450
▁Consult	-8451
▁Perfect	-8452
▁extract	-8453
▁underst	-8454
▁unknown	-8455
ellectual	-8456
▁Technical	-8457
▁interviews	-8458
▁newsletter	-8459
▁permission	-8460
▁performances	-8461
▁Transportation	-8462
SC	-8463
iy	-8464
mo	-8465
’.	-8466
mat	-8467
oir	-8468
▁CC	-8469
View	-8470
neys	-8471
wall	-8472
▁Pow	-8473
▁SEO	-8474
▁Thu	-8475
▁ske	-8476
▁tsp	-8477
▁tub	-8478
-----	-8479
iform	-8480
otted	-8481
▁Pink	-8482
▁Pros	-8483
▁Rain	-8484
▁buck	-8485
▁zero	-8486
urable	-8487
▁Greek	-8488
▁drama	-8489
▁guilty	-8490
ications	-8491
▁theater	-8492
▁adorable	-8493
▁evolution	-8494
▁landscape	-8495
▁returning	-8496
eway	-8497
▁Bow	-8498
▁Lut	-8499
▁hyd	-8500
▁Deal	-8501
▁Dean	-8502
▁coal	-8503
▁drag	-8504
▁gard	-8505
▁plot	-8506
▁sacr	-8507
▁vari	-8508
▁Advis	-8509
▁Title	-8510
▁rural	-8511
▁shell	-8512
▁arrive	-8513
▁deploy	-8514
▁strict	-8515
▁widely	-8516
▁religion	-8517
▁hopefully	-8518
▁improving	-8519
▁improvements	-8520
▁participating	-8521
RP	-8522
inth	-8523
tail	-8524
uine	-8525
▁LLC	-8526
▁Lem	-8527
▁NBA	-8528
▁Vin	-8529
oning	-8530
▁Dear	-8531
▁Kong	-8532
▁army	-8533
▁coup	-8534
▁gall	-8535
▁loud	-8536
▁magn	-8537
acular	-8538
▁Andre	-8539
▁Cover	-8540
▁Subsc	-8541
▁fault	-8542
▁layer	-8543
ivities	-8544
▁assets	-8545
secutive	-8546
▁acceler	-8547
▁raising	-8548
▁Oklahoma	-8549
▁entering	-8550
▁strongly	-8551
▁resulting	-8552
▁attractive	-8553
▁celebration	-8554
=""	-8555
rac	-8556
▁FB	-8557
bean	-8558
date	-8559
ommy	-8560
osit	-8561
pers	-8562
▁Dor	-8563
▁Imm	-8564
▁Mix	-8565
▁Tel	-8566
▁hip	-8567
▁iOS	-8568
▁Iron	-8569
▁Less	-8570
▁gent	-8571
▁lies	-8572
▁refe	-8573
▁Corps	-8574
▁Urban	-8575
▁Voice	-8576
▁blame	-8577
▁nomin	-8578
▁param	-8579
▁salad	-8580
ruption	-8581
▁franch	-8582
▁frustr	-8583
▁trends	-8584
▁weapon	-8585
Makefile	-8586
▁Similar	-8587
▁letting	-8588
▁pointed	-8589
▁coaching	-8590
▁feelings	-8591
▁highlights	-8592
erk	-8593
▁GT	-8594
▁UC	-8595
▁WW	-8596
fall	-8597
▁Gab	-8598
▁Kid	-8599
▁Tan	-8600
▁anx	-8601
entin	-8602
▁Cell	-8603
▁Gord	-8604
▁lean	-8605
▁lect	-8606
▁nuts	-8607
annels	-8608
ceived	-8609
incoln	-8610
screen	-8611
▁Defin	-8612
▁roads	-8613
▁Hudson	-8614
▁drinks	-8615
▁Express	-8616
▁Leather	-8617
▁Orleans	-8618
▁Stephan	-8619
▁deserve	-8620
▁opposed	-8621
▁screens	-8622
▁unusual	-8623
▁viewing	-8624
▁village	-8625
lementary	-8626
▁Manufact	-8627
▁external	-8628
▁opposite	-8629
▁traveling	-8630
▁interactive	-8631
▁programming	-8632
▁participation	-8633
awa	-8634
nce	-8635
rim	-8636
urb	-8637
▁Sab	-8638
▁Sir	-8639
▁tum	-8640
bered	-8641
isdom	-8642
▁Mitt	-8643
▁Impro	-8644
▁Kings	-8645
▁loans	-8646
▁moist	-8647
▁careful	-8648
▁Atlantic	-8649
▁criteria	-8650
▁printing	-8651
▁terrible	-8652
▁thorough	-8653
▁satisfact	-8654
▁preparation	-8655
▁availability	-8656
Is	-8657
aya	-8658
was	-8659
izon	-8660
▁Ath	-8661
▁Ess	-8662
▁Gov	-8663
▁SEC	-8664
▁Tro	-8665
angle	-8666
elson	-8667
ishop	-8668
arring	-8669
parent	-8670
▁Force	-8671
▁Later	-8672
▁Trade	-8673
▁Users	-8674
▁reven	-8675
▁roles	-8676
▁Weight	-8677
▁explos	-8678
▁gender	-8679
▁sculpt	-8680
▁soccer	-8681
........	-8682
▁Chamber	-8683
▁Officer	-8684
▁elegant	-8685
▁persons	-8686
▁preview	-8687
▁Original	-8688
▁entitled	-8689
▁strategic	-8690
▁represents	-8691
▁consecutive	-8692
▁GR	-8693
▁ME	-8694
bors	-8695
iate	-8696
name	-8697
▁BBC	-8698
▁Mrs	-8699
▁tor	-8700
eding	-8701
▁Anne	-8702
▁bomb	-8703
▁flag	-8704
▁jail	-8705
Contin	-8706
hattan	-8707
phones	-8708
▁Bruce	-8709
▁Prime	-8710
▁divid	-8711
▁drawn	-8712
ificate	-8713
▁Agency	-8714
▁Estate	-8715
▁branch	-8716
▁copies	-8717
▁charity	-8718
▁fitness	-8719
including	-8720
roduction	-8721
▁athletes	-8722
▁elsewhere	-8723
▁preparing	-8724
▁architecture	-8725
DP	-8726
she	-8727
dney	-8728
umni	-8729
▁Mah	-8730
▁sin	-8731
aping	-8732
essed	-8733
▁Much	-8734
▁fulf	-8735
▁tact	-8736
ervous	-8737
▁Cloud	-8738
▁Susan	-8739
▁displ	-8740
▁weird	-8741
▁Method	-8742
▁Tigers	-8743
▁engage	-8744
▁extent	-8745
▁Holiday	-8746
▁Wedding	-8747
▁fingers	-8748
▁granted	-8749
▁singing	-8750
▁Richmond	-8751
▁choosing	-8752
▁stations	-8753
▁Experience	-8754
▁networking	-8755
▁philosophy	-8756
AB	-8757
En	-8758
▁AB	-8759
▁TR	-8760
even	-8761
▁NBC	-8762
▁cos	-8763
▁era	-8764
▁mac	-8765
break	-8766
pense	-8767
▁Heat	-8768
▁Side	-8769
▁Text	-8770
swered	-8771
▁Added	-8772
▁Baker	-8773
▁login	-8774
▁races	-8775
▁shops	-8776
▁sixth	-8777
▁Nature	-8778
▁Valent	-8779
▁immigr	-8780
▁lately	-8781
▁Springs	-8782
▁dynamic	-8783
▁appointed	-8784
▁component	-8785
▁responded	-8786
▁encouraged	-8787
▁healthcare	-8788
▁Corporation	-8789
▁potentially	-8790
▁quarterback	-8791
---	-8792
UST	-8793
imm	-8794
rav	-8795
▁Ba	-8796
▁CT	-8797
▁Kh	-8798
▁Der	-8799
▁Lev	-8800
▁Yan	-8801
▁dot	-8802
▁ski	-8803
ipper	-8804
month	-8805
▁Alan	-8806
▁Kate	-8807
▁clar	-8808
▁embr	-8809
▁stom	-8810
erving	-8811
▁Dougl	-8812
▁Spons	-8813
▁falls	-8814
▁legit	-8815
▁resid	-8816
▁screw	-8817
▁spray	-8818
▁Wright	-8819
▁hearts	-8820
▁infect	-8821
▁Madison	-8822
▁accused	-8823
▁deficit	-8824
▁equally	-8825
▁heavily	-8826
▁Makefile	-8827
▁disaster	-8828
▁guidance	-8829
▁addressed	-8830
▁producing	-8831
▁recognize	-8832
▁definition	-8833
▁initiative	-8834
▁statements	-8835
▁maintaining	-8836
▁represented	-8837
ori	-8838
▁Ap	-8839
asty	-8840
bass	-8841
etch	-8842
site	-8843
▁Fan	-8844
▁Had	-8845
▁Lat	-8846
▁alt	-8847
▁wow	-8848
annah	-8849
eland	-8850
imize	-8851
overs	-8852
rency	-8853
▁Feel	-8854
▁Jews	-8855
▁dear	-8856
▁wave	-8857
ifting	-8858
mother	-8859
▁Laura	-8860
▁Sandy	-8861
▁apple	-8862
▁bills	-8863
▁clock	-8864
▁explan	-8865
▁ranked	-8866
▁scream	-8867
▁Stadium	-8868
▁ancient	-8869
▁arrival	-8870
▁curious	-8871
▁Victoria	-8872
▁remained	-8873
▁Relations	-8874
▁requested	-8875
▁manufacturer	-8876
QL	-8877
SW	-8878
ami	-8879
olds	-8880
step	-8881
usal	-8882
week	-8883
▁Dyn	-8884
▁Jen	-8885
▁Les	-8886
anged	-8887
icide	-8888
▁Conc	-8889
▁Fast	-8890
▁Nort	-8891
▁Tele	-8892
▁cats	-8893
▁phen	-8894
▁Korea	-8895
▁annoy	-8896
▁bonus	-8897
▁fewer	-8898
▁fired	-8899
▁Import	-8900
▁Palest	-8901
▁boards	-8902
▁cotton	-8903
▁rarely	-8904
▁spaces	-8905
▁streak	-8906
▁authent	-8907
▁centers	-8908
▁experim	-8909
▁Congrats	-8910
▁brothers	-8911
▁somebody	-8912
▁requirement	-8913
],	-8914
po	-8915
cut	-8916
▁-.	-8917
otte	-8918
▁IBM	-8919
▁Var	-8920
▁unw	-8921
erver	-8922
▁Cher	-8923
▁Kind	-8924
▁Lane	-8925
▁Pier	-8926
▁cant	-8927
▁fits	-8928
▁frag	-8929
▁hadn	-8930
papers	-8931
▁Appro	-8932
▁absor	-8933
▁dough	-8934
▁prize	-8935
▁recon	-8936
▁steam	-8937
▁trips	-8938
reation	-8939
▁Knight	-8940
▁Player	-8941
▁exists	-8942
▁horses	-8943
pendence	-8944
▁Collect	-8945
▁Mission	-8946
▁Volunte	-8947
▁rolling	-8948
▁courtesy	-8949
▁Represent	-8950
▁colleagues	-8951
▁struggling	-8952
NE	-8953
uz	-8954
INE	-8955
ige	-8956
sem	-8957
▁Hu	-8958
elle	-8959
stal	-8960
ulum	-8961
▁ABC	-8962
▁Fal	-8963
shire	-8964
▁Item	-8965
▁bass	-8966
▁toys	-8967
▁wing	-8968
lessly	-8969
malink	-8970
▁Pages	-8971
▁prime	-8972
amental	-8973
rolling	-8974
▁Fisher	-8975
▁Galaxy	-8976
▁Native	-8977
▁Single	-8978
▁exceed	-8979
▁onions	-8980
▁trails	-8981
▁Weather	-8982
▁advertis	-8983
▁handling	-8984
▁relative	-8985
▁Currently	-8986
▁childhood	-8987
▁favorites	-8988
▁reduction	-8989
▁statistics	-8990
▁politicians	-8991
▁contribution	-8992
▁consideration	-8993
.[	-8994
ht	-8995
Col	-8996
▁EX	-8997
▁Ec	-8998
leen	-8999
oker	-9000
▁Fle	-9001
▁Got	-9002
▁Ire	-9003
ighth	-9004
▁Hong	-9005
▁aver	-9006
▁maps	-9007
bridge	-9008
▁Roger	-9009
▁Speed	-9010
▁phase	-9011
▁ratio	-9012
▁ridic	-9013
winning	-9014
▁rising	-9015
▁twenty	-9016
▁Address	-9017
▁equival	-9018
▁facilit	-9019
▁fantasy	-9020
▁poverty	-9021
▁visible	-9022
▁disabled	-9023
▁minister	-9024
▁producer	-9025
▁Architect	-9026
▁Assistant	-9027
▁expecting	-9028
▁indicated	-9029
▁industrial	-9030
▁Communications	-9031
()	-9032
,,	-9033
,’	-9034
MD	-9035
……	-9036
ALL	-9037
ext	-9038
oda	-9039
olk	-9040
onz	-9041
tha	-9042
wan	-9043
itty	-9044
onut	-9045
urse	-9046
vard	-9047
▁Ger	-9048
▁thy	-9049
angel	-9050
clude	-9051
heart	-9052
▁Budd	-9053
▁mush	-9054
▁shoe	-9055
making	-9056
▁Katie	-9057
▁habit	-9058
▁knife	-9059
▁merch	-9060
▁weigh	-9061
amework	-9062
▁Course	-9063
▁cooked	-9064
▁prayer	-9065
▁Install	-9066
▁adopted	-9067
▁outcome	-9068
▁Shipping	-9069
▁interior	-9070
▁soldiers	-9071
▁distributed	-9072
▁photographs	-9073
At	-9074
gie	-9075
rup	-9076
sea	-9077
▁ft	-9078
odge	-9079
▁Bes	-9080
▁Dim	-9081
▁cig	-9082
▁Brew	-9083
▁File	-9084
▁tone	-9085
roller	-9086
▁Dance	-9087
▁Guest	-9088
▁Jimmy	-9089
▁dozen	-9090
▁pride	-9091
holders	-9092
▁Compet	-9093
▁Labour	-9094
▁visits	-9095
▁Clinton	-9096
▁Language	-9097
▁reducing	-9098
▁employers	-9099
▁preferred	-9100
▁maintained	-9101
▁association	-9102
KE	-9103
ERE	-9104
ippi	-9105
ller	-9106
oute	-9107
wear	-9108
▁MLB	-9109
▁Nav	-9110
▁Ped	-9111
▁Ton	-9112
▁Tru	-9113
etary	-9114
ivors	-9115
▁Body	-9116
▁brew	-9117
▁pets	-9118
cludes	-9119
igious	-9120
▁Based	-9121
▁Miles	-9122
▁Round	-9123
▁uncom	-9124
achelor	-9125
▁Bridge	-9126
▁casual	-9127
▁module	-9128
▁surely	-9129
▁wheels	-9130
▁booking	-9131
▁founded	-9132
▁insight	-9133
▁operate	-9134
▁picking	-9135
▁browsing	-9136
▁swimming	-9137
▁classroom	-9138
▁developer	-9139
▁finishing	-9140
:)	-9141
Fr	-9142
OG	-9143
uy	-9144
gor	-9145
oco	-9146
oty	-9147
▁Wy	-9148
ampa	-9149
test	-9150
▁Bah	-9151
▁Fed	-9152
▁Too	-9153
▁bid	-9154
oting	-9155
▁Move	-9156
▁Nich	-9157
▁edit	-9158
▁shit	-9159
▁tank	-9160
▁Firef	-9161
▁Roman	-9162
▁disag	-9163
▁drove	-9164
▁stake	-9165
▁trave	-9166
▁Better	-9167
▁Korean	-9168
▁Making	-9169
▁Sydney	-9170
▁actors	-9171
▁Popular	-9172
▁entries	-9173
▁instant	-9174
▁lawsuit	-9175
▁smoking	-9176
▁speaker	-9177
▁Advanced	-9178
▁clicking	-9179
▁governor	-9180
▁indicate	-9181
▁Interview	-9182
▁Manhattan	-9183
▁spiritual	-9184
▁containing	-9185
FS	-9186
UD	-9187
ibl	-9188
▁DE	-9189
▁Sr	-9190
agan	-9191
fire	-9192
ione	-9193
mans	-9194
▁Imp	-9195
▁Rat	-9196
▁mob	-9197
unate	-9198
▁Dame	-9199
▁Jazz	-9200
▁Todd	-9201
▁nose	-9202
▁scan	-9203
▁Filed	-9204
▁asset	-9205
western	-9206
▁Active	-9207
▁behalf	-9208
▁funded	-9209
▁gained	-9210
▁inning	-9211
▁prohib	-9212
▁Diamond	-9213
▁Lincoln	-9214
▁tablesp	-9215
▁keyboard	-9216
▁northern	-9217
▁southern	-9218
▁speakers	-9219
▁suffered	-9220
▁consumption	-9221
▁disappointed	-9222
bat	-9223
uma	-9224
ista	-9225
▁DNA	-9226
▁Nik	-9227
▁bow	-9228
▁bub	-9229
▁rib	-9230
ropri	-9231
▁Fish	-9232
▁Tree	-9233
▁hide	-9234
▁pupp	-9235
▁comic	-9236
▁lobby	-9237
▁tries	-9238
▁territ	-9239
graduate	-9240
▁Ireland	-9241
▁diverse	-9242
▁founder	-9243
▁minimal	-9244
▁pricing	-9245
▁survive	-9246
anchester	-9247
▁channels	-9248
Car	-9249
gly	-9250
ito	-9251
addy	-9252
ican	-9253
▁Gil	-9254
▁Pad	-9255
ceeds	-9256
erald	-9257
▁bone	-9258
▁knee	-9259
▁scar	-9260
Script	-9261
ricane	-9262
▁Benef	-9263
▁Girls	-9264
▁Pitts	-9265
▁beans	-9266
▁brush	-9267
▁strip	-9268
enities	-9269
ulating	-9270
▁courts	-9271
▁insert	-9272
▁reveal	-9273
ologists	-9274
▁Affairs	-9275
▁Highway	-9276
▁anybody	-9277
▁Assembly	-9278
▁Brooklyn	-9279
▁Sciences	-9280
▁Starting	-9281
▁romantic	-9282
▁throwing	-9283
▁universe	-9284
▁certified	-9285
▁Application	-9286
▁capabilities	-9287
KS	-9288
MC	-9289
Oh	-9290
PG	-9291
Pr	-9292
SU	-9293
azy	-9294
ela	-9295
enny	-9296
issa	-9297
rets	-9298
sole	-9299
tery	-9300
▁ERA	-9301
▁Eve	-9302
▁Guy	-9303
▁Nat	-9304
annon	-9305
anted	-9306
gmail	-9307
ouses	-9308
▁asks	-9309
▁cher	-9310
▁isol	-9311
▁rein	-9312
Source	-9313
aundry	-9314
irates	-9315
▁Aaron	-9316
▁Ghost	-9317
▁Karen	-9318
▁adequ	-9319
▁withd	-9320
▁grants	-9321
▁latter	-9322
▁proved	-9323
▁refund	-9324
▁Chicken	-9325
▁Kitchen	-9326
▁Mississ	-9327
▁Tickets	-9328
▁dismiss	-9329
▁engaged	-9330
▁lessons	-9331
▁diabetes	-9332
▁priority	-9333
▁reporter	-9334
▁entreprene	-9335
PC	-9336
Tr	-9337
ds	-9338
€™	-9339
Man	-9340
OUN	-9341
edit	-9342
isms	-9343
▁Fat	-9344
▁Tea	-9345
▁voc	-9346
akota	-9347
count	-9348
▁Exam	-9349
▁Jobs	-9350
▁Rome	-9351
▁euro	-9352
▁icon	-9353
▁sons	-9354
▁angry	-9355
▁compr	-9356
rection	-9357
riculum	-9358
▁Anyway	-9359
▁Employ	-9360
▁cookie	-9361
▁preced	-9362
▁Stories	-9363
▁Village	-9364
▁Analysis	-9365
▁Calendar	-9366
▁abstract	-9367
▁matching	-9368
▁reaching	-9369
▁stopping	-9370
▁suitable	-9371
▁contained	-9372
▁introduce	-9373
▁Associated	-9374
▁treatments	-9375
▁fascinating	-9376
▁’	-9377
tra	-9378
▁("	-9379
apse	-9380
iffe	-9381
olph	-9382
oops	-9383
pled	-9384
▁Bab	-9385
▁Bear	-9386
▁Gree	-9387
▁acid	-9388
▁guns	-9389
▁myst	-9390
minute	-9391
▁Bears	-9392
▁scope	-9393
▁Warren	-9394
▁acquis	-9395
▁bother	-9396
▁stolen	-9397
▁waters	-9398
▁Douglas	-9399
▁Getting	-9400
▁camping	-9401
▁exposed	-9402
▁Articles	-9403
▁Shopping	-9404
▁answered	-9405
▁dramatic	-9406
▁grateful	-9407
▁rebounds	-9408
▁hospitals	-9409
▁involving	-9410
▁Christopher	-9411
▁instruction	-9412
MI	-9413
ogy	-9414
sex	-9415
▁AW	-9416
▁DI	-9417
▁Na	-9418
▁pp	-9419
amon	-9420
cery	-9421
cour	-9422
idth	-9423
oper	-9424
uman	-9425
uris	-9426
▁ALL	-9427
▁CBS	-9428
▁Wes	-9429
marks	-9430
▁Corn	-9431
▁Gene	-9432
arrass	-9433
▁Tyler	-9434
▁grace	-9435
▁roots	-9436
▁teasp	-9437
▁Tagged	-9438
▁barely	-9439
▁inject	-9440
▁origin	-9441
▁troops	-9442
aughters	-9443
▁Indians	-9444
▁Working	-9445
▁hunting	-9446
▁Thompson	-9447
▁Manchester	-9448
▁evaluation	-9449
▁connections	-9450
****************	-9451
::	-9452
AF	-9453
alg	-9454
▁BC	-9455
ella	-9456
rena	-9457
▁Wik	-9458
▁rug	-9459
▁sne	-9460
otion	-9461
ouver	-9462
piece	-9463
ppers	-9464
▁Beth	-9465
▁Circ	-9466
▁Cole	-9467
▁Mind	-9468
▁buzz	-9469
▁laid	-9470
▁neut	-9471
asting	-9472
ieties	-9473
▁Barry	-9474
▁Islam	-9475
▁Larry	-9476
▁Magic	-9477
▁blend	-9478
▁squad	-9479
▁threw	-9480
▁Gordon	-9481
▁Hockey	-9482
▁suffer	-9483
▁combine	-9484
▁greatly	-9485
▁flexible	-9486
▁ministry	-9487
▁targeted	-9488
▁Solutions	-9489
▁acknowled	-9490
▁franchise	-9491
▁personality	-9492
▁representatives	-9493
MB	-9494
She	-9495
def	-9496
die	-9497
mic	-9498
Edit	-9499
ango	-9500
gins	-9501
▁Cub	-9502
oenix	-9503
ospel	-9504
▁Gulf	-9505
▁Poll	-9506
▁Rent	-9507
▁trim	-9508
ockets	-9509
▁Money	-9510
▁Saint	-9511
▁waves	-9512
▁Advent	-9513
▁McCain	-9514
▁Region	-9515
▁Survey	-9516
▁discip	-9517
▁hockey	-9518
▁Archive	-9519
▁Buffalo	-9520
▁Collins	-9521
▁Records	-9522
▁upgrade	-9523
▁western	-9524
▁blogging	-9525
▁chairman	-9526
▁focusing	-9527
▁Originally	-9528
OX	-9529
obb	-9530
▁EN	-9531
▁FR	-9532
esty	-9533
iary	-9534
pton	-9535
sure	-9536
▁Ark	-9537
▁Fer	-9538
▁Row	-9539
▁Unt	-9540
proof	-9541
▁Buck	-9542
▁Fine	-9543
▁Gift	-9544
▁Pers	-9545
▁Song	-9546
▁fool	-9547
▁unex	-9548
▁Craig	-9549
▁Stars	-9550
▁candy	-9551
▁chips	-9552
▁fiber	-9553
▁picks	-9554
▁reads	-9555
▁stops	-9556
▁upset	-9557
▁usage	-9558
▁walks	-9559
itement	-9560
▁carpet	-9561
▁roster	-9562
ancouver	-9563
criptions	-9564
▁Alliance	-9565
▁Contract	-9566
▁distract	-9567
▁lifetime	-9568
▁pregnant	-9569
▁displayed	-9570
▁libraries	-9571
▁promoting	-9572
▁innovation	-9573
▁Performance	-9574
▁beautifully	-9575
▁immigration	-9576
▁universities	-9577
Get	-9578
Not	-9579
mers	-9580
▁Hal	-9581
▁Lic	-9582
▁Wat	-9583
▁cul	-9584
▁gam	-9585
▁pad	-9586
check	-9587
▁disk	-9588
▁till	-9589
ronics	-9590
▁Album	-9591
▁Emily	-9592
▁aband	-9593
▁amend	-9594
▁chest	-9595
▁gross	-9596
▁inner	-9597
▁Effect	-9598
▁Hunter	-9599
▁stable	-9600
!!!!!!!!	-9601
▁beating	-9602
▁carries	-9603
▁enabled	-9604
▁fiction	-9605
ederation	-9606
▁Chairman	-9607
▁involves	-9608
▁observed	-9609
▁receiver	-9610
▁tomatoes	-9611
▁Excellent	-9612
▁personnel	-9613
▁pregnancy	-9614
ez	-9615
Rem	-9616
hot	-9617
rer	-9618
gets	-9619
plus	-9620
unes	-9621
▁Fig	-9622
▁gap	-9623
Press	-9624
atile	-9625
essee	-9626
iagra	-9627
iners	-9628
usted	-9629
▁Hend	-9630
▁Self	-9631
▁sear	-9632
▁Carib	-9633
▁Shift	-9634
▁Woods	-9635
▁explo	-9636
▁hired	-9637
▁stead	-9638
▁Bureau	-9639
▁Double	-9640
▁albums	-9641
▁legend	-9642
▁newest	-9643
▁Summary	-9644
▁suspend	-9645
▁Complete	-9646
▁Featured	-9647
▁consists	-9648
▁expanded	-9649
▁workshop	-9650
▁Alexander	-9651
▁Louisiana	-9652
▁sponsored	-9653
▁Directions	-9654
▁compliance	-9655
▁publishing	-9656
▁institution	-9657
Do	-9658
Jan	-9659
una	-9660
▁ip	-9661
Save	-9662
good	-9663
agram	-9664
ashes	-9665
▁Ferr	-9666
▁Pant	-9667
▁Wars	-9668
▁bits	-9669
▁bold	-9670
▁clip	-9671
▁joke	-9672
▁myth	-9673
father	-9674
▁Audio	-9675
▁Chuck	-9676
▁Veter	-9677
▁pilot	-9678
▁plane	-9679
berries	-9680
▁agenda	-9681
▁checks	-9682
▁edited	-9683
▁ginger	-9684
▁repeat	-9685
▁thrown	-9686
▁convent	-9687
▁rapidly	-9688
▁obtained	-9689
▁Therefore	-9690
▁commented	-9691
▁describes	-9692
▁musicians	-9693
▁naturally	-9694
▁principal	-9695
▁apartments	-9696
▁resistance	-9697
SF	-9698
ACT	-9699
App	-9700
▁AV	-9701
▁mm	-9702
conf	-9703
▁CNN	-9704
▁Cry	-9705
▁cow	-9706
arest	-9707
aware	-9708
enter	-9709
gthen	-9710
lined	-9711
▁Glad	-9712
ounces	-9713
▁Legal	-9714
▁birds	-9715
▁congr	-9716
▁crown	-9717
▁magic	-9718
section	-9719
through	-9720
viously	-9721
▁Former	-9722
▁errors	-9723
▁overse	-9724
ublished	-9725
▁Harvard	-9726
▁Regular	-9727
▁reverse	-9728
▁seventh	-9729
▁twitter	-9730
▁vendors	-9731
▁achieved	-9732
▁potatoes	-9733
▁secondary	-9734
▁signature	-9735
▁sophistic	-9736
▁Elementary	-9737
▁integration	-9738
HT	-9739
Up	-9740
cm	-9741
AGE	-9742
don	-9743
van	-9744
▁()	-9745
▁LE	-9746
burn	-9747
urer	-9748
omore	-9749
▁Bart	-9750
▁Cart	-9751
▁Opin	-9752
▁Stra	-9753
▁Trek	-9754
▁True	-9755
▁soil	-9756
▁synt	-9757
▁Cisco	-9758
▁Griff	-9759
▁Perry	-9760
▁intro	-9761
ropical	-9762
▁Hawaii	-9763
▁denied	-9764
▁pushed	-9765
▁reblog	-9766
▁shadow	-9767
▁Brandon	-9768
▁Meeting	-9769
▁desktop	-9770
▁enthusi	-9771
▁reserve	-9772
itionally	-9773
▁Scotland	-9774
▁alongside	-9775
▁programme	-9776
▁literature	-9777
▁principles	-9778
▁implemented	-9779
▁documentation	-9780
▁EC	-9781
elve	-9782
sect	-9783
what	-9784
▁Cos	-9785
▁Rap	-9786
about	-9787
bound	-9788
▁Rice	-9789
▁obst	-9790
▁semi	-9791
▁stab	-9792
▁suck	-9793
▁wrap	-9794
▁Brain	-9795
▁sweep	-9796
▁tours	-9797
irlines	-9798
▁Athlet	-9799
▁compat	-9800
▁tackle	-9801
▁cameras	-9802
▁genuine	-9803
▁servers	-9804
▁veteran	-9805
▁Academic	-9806
▁equipped	-9807
▁promotion	-9808
▁workshops	-9809
▁Mississippi	-9810
▁Constitution	-9811
▁introduction	-9812
ji	-9813
ali	-9814
cho	-9815
dep	-9816
rot	-9817
uer	-9818
▁BT	-9819
enth	-9820
uana	-9821
▁Ted	-9822
▁sid	-9823
ested	-9824
icket	-9825
▁Luke	-9826
▁Mine	-9827
▁Rank	-9828
▁Wire	-9829
▁chip	-9830
orious	-9831
▁Grace	-9832
▁Tweet	-9833
▁parks	-9834
▁tasks	-9835
▁Reader	-9836
▁Scient	-9837
▁export	-9838
▁safely	-9839
▁Awesome	-9840
▁Britain	-9841
▁Univers	-9842
▁Vietnam	-9843
▁actress	-9844
▁banking	-9845
▁formula	-9846
▁uniform	-9847
▁calories	-9848
▁defeated	-9849
▁employer	-9850
▁phenomen	-9851
▁superior	-9852
▁associate	-9853
▁designers	-9854
▁guaranteed	-9855
▁specialist	-9856
▁fundamental	-9857
▁consequences	-9858
▁tu	-9859
beat	-9860
bits	-9861
card	-9862
▁Ast	-9863
▁Cav	-9864
▁Kay	-9865
▁Spa	-9866
▁adj	-9867
▁lip	-9868
▁tap	-9869
stock	-9870
▁Poly	-9871
▁tons	-9872
▁Intel	-9873
▁Large	-9874
▁enemy	-9875
▁Sounds	-9876
▁ignore	-9877
▁incent	-9878
▁legacy	-9879
▁tablet	-9880
▁tissue	-9881
▁undert	-9882
Continue	-9883
▁decline	-9884
▁refused	-9885
▁removal	-9886
▁Creative	-9887
▁chemical	-9888
▁congress	-9889
▁diseases	-9890
▁languages	-9891
▁reception	-9892
▁telephone	-9893
▁directions	-9894
▁excitement	-9895
▁initiatives	-9896
▁involvement	-9897
</	-9898
’,	-9899
IDS	-9900
roe	-9901
▁AG	-9902
▁CB	-9903
udes	-9904
▁ESP	-9905
▁Say	-9906
▁arc	-9907
agger	-9908
▁Chem	-9909
▁Rail	-9910
▁Used	-9911
▁deck	-9912
▁slee	-9913
▁ther	-9914
braska	-9915
ipedia	-9916
uating	-9917
unicip	-9918
▁Compl	-9919
▁Sleep	-9920
▁Stone	-9921
▁hosts	-9922
▁shame	-9923
▁Career	-9924
▁Prince	-9925
▁alumin	-9926
▁deeply	-9927
▁ruling	-9928
▁Nations	-9929
▁assault	-9930
▁lawyers	-9931
▁Robinson	-9932
▁mistakes	-9933
▁Challenge	-9934
▁donations	-9935
▁Enterprise	-9936
▁conclusion	-9937
▁structures	-9938
▁sufficient	-9939
▁governments	-9940
▁substantial	-9941
FA	-9942
ICE	-9943
auc	-9944
oli	-9945
zed	-9946
▁Ga	-9947
▁sq	-9948
▁Alb	-9949
▁Hug	-9950
▁Roc	-9951
▁Som	-9952
Space	-9953
asket	-9954
uties	-9955
▁Dest	-9956
▁Mitc	-9957
▁Prim	-9958
▁Thus	-9959
▁vill	-9960
gorith	-9961
▁Lions	-9962
▁Notre	-9963
▁Terry	-9964
▁tempt	-9965
ishment	-9966
▁Turner	-9967
▁attach	-9968
▁breaks	-9969
▁muscle	-9970
▁Antonio	-9971
▁dancing	-9972
▁Campaign	-9973
▁Document	-9974
▁Margaret	-9975
▁ordinary	-9976
▁embarrass	-9977
▁exploring	-9978
▁downloaded	-9979
▁impression	-9980
▁residential	-9981
▁Registration	-9982
▁unemployment	-9983
▁representative	-9984
cul	-9985
▁Si	-9986
emet	-9987
inge	-9988
uild	-9989
xxxx	-9990
▁Abs	-9991
▁Dub	-9992
▁Dur	-9993
▁Fro	-9994
▁Moh	-9995
▁NOW	-9996
▁Ple	-9997
▁Vit	-9998
▁Wee	-9999
▁hub	-10000
after	-10001
click	-10002
organ	-10003
▁Bott	-10004
▁Cash	-10005
▁Hamp	-10006
▁Virt	-10007
▁damn	-10008
▁jazz	-10009
▁kiss	-10010
▁math	-10011
▁trem	-10012
market	-10013
▁Domin	-10014
▁argue	-10015
▁seeds	-10016
▁sorts	-10017
▁combat	-10018
▁define	-10019
▁hardly	-10020
▁salary	-10021
atherine	-10022
▁Foreign	-10023
▁Monitor	-10024
▁Phoenix	-10025
▁Premier	-10026
▁precise	-10027
▁utility	-10028
▁Graduate	-10029
▁Official	-10030
▁athletic	-10031
▁initially	-10032
▁subscribe	-10033
▁industries	-10034
▁appreciated	-10035
hr	-10036
▁\	-10037
era	-10038
opt	-10039
▁CM	-10040
▁EL	-10041
▁HA	-10042
▁TD	-10043
lled	-10044
oven	-10045
▁Lif	-10046
▁WAS	-10047
▁cha	-10048
cular	-10049
oween	-10050
▁Chel	-10051
▁Days	-10052
▁Sean	-10053
▁beef	-10054
▁mild	-10055
▁boots	-10056
▁rally	-10057
▁rated	-10058
▁trash	-10059
▁Simple	-10060
▁Simply	-10061
▁Victor	-10062
▁hidden	-10063
▁sought	-10064
▁versus	-10065
▁Philipp	-10066
▁Version	-10067
▁flights	-10068
▁focuses	-10069
▁stomach	-10070
▁Lawrence	-10071
▁Programs	-10072
▁captured	-10073
▁horrible	-10074
▁playoffs	-10075
▁Stephanie	-10076
▁Valentine	-10077
▁directors	-10078
▁forgotten	-10079
▁neighbors	-10080
▁residence	-10081
▁stability	-10082
▁complicated	-10083
▁instruments	-10084
▁grandchildren	-10085
enz	-10086
fil	-10087
iga	-10088
oyd	-10089
arts	-10090
owed	-10091
▁>>>	-10092
▁Mun	-10093
▁Osc	-10094
▁hes	-10095
▁Deep	-10096
▁Prin	-10097
▁Ward	-10098
▁quil	-10099
ortion	-10100
▁Adams	-10101
▁surge	-10102
▁Browse	-10103
▁Dakota	-10104
▁Screen	-10105
▁Topics	-10106
▁golden	-10107
▁layout	-10108
▁resume	-10109
▁rolled	-10110
▁tender	-10111
▁Private	-10112
▁carrier	-10113
▁desired	-10114
▁farmers	-10115
▁periods	-10116
▁Continue	-10117
▁commonly	-10118
▁emerging	-10119
▁promised	-10120
▁existence	-10121
▁temporary	-10122
▁references	-10123
▁regulatory	-10124
''	-10125
LD	-10126
cor	-10127
rec	-10128
ums	-10129
yon	-10130
▁Kl	-10131
▁Os	-10132
From	-10133
edge	-10134
ivan	-10135
roke	-10136
they	-10137
zens	-10138
▁Bus	-10139
▁Cou	-10140
▁Eye	-10141
▁Sad	-10142
▁ele	-10143
iplom	-10144
utter	-10145
▁Vill	-10146
▁lake	-10147
▁panc	-10148
▁puzz	-10149
ijuana	-10150
▁Falls	-10151
▁Prior	-10152
▁Suite	-10153
▁Syria	-10154
▁holes	-10155
▁honey	-10156
▁kinda	-10157
▁Triple	-10158
▁belief	-10159
▁forgot	-10160
▁Overall	-10161
▁damaged	-10162
▁highway	-10163
▁suppose	-10164
▁Birthday	-10165
▁Nebraska	-10166
▁Palestin	-10167
▁studying	-10168
▁Vancouver	-10169
▁Leadership	-10170
▁Pittsburgh	-10171
▁equivalent	-10172
▁officially	-10173
▁demonstrate	-10174
▁spectacular	-10175
PL	-10176
SL	-10177
ITY	-10178
Mar	-10179
aka	-10180
hou	-10181
otta	-10182
sels	-10183
ushi	-10184
▁Hus	-10185
▁haz	-10186
odium	-10187
woman	-10188
▁Bird	-10189
▁Coal	-10190
▁Grey	-10191
▁aims	-10192
▁keys	-10193
▁leaf	-10194
master	-10195
ounced	-10196
▁Linda	-10197
▁Patri	-10198
▁relie	-10199
▁thats	-10200
issions	-10201
▁Alaska	-10202
▁buyers	-10203
▁stages	-10204
▁Mexican	-10205
▁Theater	-10206
▁nations	-10207
▁penalty	-10208
▁pushing	-10209
▁Exchange	-10210
▁Michelle	-10211
▁dropping	-10212
▁reminder	-10213
▁aggressive	-10214
▁enterprise	-10215
▁functional	-10216
▁girlfriend	-10217
▁protecting	-10218
▁recruiting	-10219
▁communicate	-10220
Go	-10221
IVE	-10222
▁ya	-10223
isan	-10224
▁Gay	-10225
▁Obs	-10226
▁Tue	-10227
▁pip	-10228
Every	-10229
outer	-10230
storm	-10231
uates	-10232
umble	-10233
▁Mort	-10234
▁THIS	-10235
▁nail	-10236
erring	-10237
ishers	-10238
▁Parks	-10239
▁Rules	-10240
▁Wayne	-10241
▁Years	-10242
▁aimed	-10243
▁begun	-10244
▁cheer	-10245
▁essay	-10246
▁teens	-10247
entials	-10248
▁exclus	-10249
cellence	-10250
quarters	-10251
▁Conserv	-10252
▁Finance	-10253
▁Reserve	-10254
▁credits	-10255
▁viewers	-10256
▁Commerce	-10257
▁assigned	-10258
▁concrete	-10259
▁Hopefully	-10260
▁Permalink	-10261
▁possession	-10262
▁compensation	-10263
Sm	-10264
ECT	-10265
aro	-10266
low	-10267
map	-10268
oof	-10269
rix	-10270
▁Da	-10271
▁RA	-10272
emed	-10273
girl	-10274
hess	-10275
pack	-10276
quet	-10277
▁---	-10278
▁Nut	-10279
▁USB	-10280
green	-10281
ricts	-10282
▁Doll	-10283
▁Gray	-10284
▁Holl	-10285
▁bout	-10286
▁hill	-10287
▁peel	-10288
▁torn	-10289
estone	-10290
▁Fight	-10291
▁Jerry	-10292
▁Tampa	-10293
▁embed	-10294
▁kills	-10295
▁pound	-10296
▁setup	-10297
▁silly	-10298
▁towns	-10299
▁venue	-10300
▁wings	-10301
emetery	-10302
▁Campus	-10303
▁Carter	-10304
▁Rachel	-10305
▁counts	-10306
▁equity	-10307
▁lineup	-10308
▁loaded	-10309
▁mathem	-10310
▁Present	-10311
▁Strateg	-10312
▁captain	-10313
▁dressed	-10314
▁privile	-10315
▁retreat	-10316
▁Actually	-10317
▁Mitchell	-10318
▁Overview	-10319
▁algorith	-10320
▁deadline	-10321
▁generous	-10322
▁resulted	-10323
▁reviewed	-10324
▁sections	-10325
▁Tennessee	-10326
▁collections	-10327
▁respectively	-10328
FF	-10329
Qu	-10330
▁€	-10331
Rep	-10332
yth	-10333
▁IC	-10334
▁PO	-10335
▁Wi	-10336
Well	-10337
azed	-10338
ilet	-10339
quer	-10340
▁Ori	-10341
▁Vac	-10342
▁bot	-10343
adows	-10344
sized	-10345
▁Agre	-10346
▁CONT	-10347
▁Left	-10348
▁Stop	-10349
▁conj	-10350
▁pour	-10351
▁vacc	-10352
called	-10353
ervice	-10354
iented	-10355
school	-10356
strong	-10357
vision	-10358
▁Autom	-10359
▁Hours	-10360
▁Value	-10361
▁Yahoo	-10362
▁patch	-10363
▁pizza	-10364
▁toler	-10365
▁tooth	-10366
blogger	-10367
▁Doctor	-10368
▁Junior	-10369
▁Prices	-10370
▁Weekly	-10371
▁backup	-10372
▁circle	-10373
▁convin	-10374
▁invite	-10375
▁jacket	-10376
▁occurs	-10377
▁panels	-10378
▁sacrif	-10379
▁wisdom	-10380
▁Century	-10381
▁Success	-10382
▁intense	-10383
▁liberal	-10384
▁painted	-10385
▁powered	-10386
▁Property	-10387
▁concepts	-10388
▁Caribbean	-10389
▁gathering	-10390
▁overnight	-10391
▁JavaScript	-10392
▁importantly	-10393
!).	-10394
▁BL	-10395
iffs	-10396
orse	-10397
rock	-10398
▁***	-10399
▁API	-10400
▁Agr	-10401
▁Fem	-10402
▁Gun	-10403
atson	-10404
ifier	-10405
▁Chef	-10406
▁Libr	-10407
▁Mand	-10408
▁Soph	-10409
▁exit	-10410
▁sust	-10411
▁thro	-10412
▁toss	-10413
outing	-10414
▁Focus	-10415
▁Keith	-10416
▁Monte	-10417
▁Occup	-10418
▁Ridge	-10419
▁appet	-10420
▁compe	-10421
▁slide	-10422
▁tasty	-10423
▁Artist	-10424
▁Giants	-10425
▁Reform	-10426
▁judges	-10427
▁traged	-10428
▁triple	-10429
▁wishes	-10430
▁comprom	-10431
▁recruit	-10432
▁samples	-10433
▁scratch	-10434
▁accuracy	-10435
▁earnings	-10436
▁variable	-10437
▁allegedly	-10438
▁eliminate	-10439
▁strengthen	-10440
▁explanation	-10441
▁photographer	-10442
▁satisfaction	-10443
Fi	-10444
GS	-10445
Os	-10446
gi	-10447
aco	-10448
▁Mu	-10449
▁RF	-10450
bird	-10451
kees	-10452
mind	-10453
oust	-10454
rous	-10455
▁hey	-10456
▁pul	-10457
ialis	-10458
mouth	-10459
oding	-10460
store	-10461
▁Gill	-10462
▁Lock	-10463
▁Mini	-10464
▁Race	-10465
▁dump	-10466
▁flaw	-10467
▁gang	-10468
▁snap	-10469
▁bases	-10470
▁dried	-10471
▁mayor	-10472
▁rolls	-10473
limited	-10474
▁Graham	-10475
▁deaths	-10476
▁gentle	-10477
▁mirror	-10478
▁potato	-10479
▁subsid	-10480
▁tradem	-10481
▁Liberty	-10482
▁dresses	-10483
▁regions	-10484
▁licensed	-10485
▁Political	-10486
▁authentic	-10487
▁daughters	-10488
▁reblogged	-10489
▁spokesman	-10490
▁Categories	-10491
▁Discussion	-10492
▁motorcycle	-10493
▁representing	-10494
log	-10495
ante	-10496
only	-10497
pace	-10498
▁Fly	-10499
▁Him	-10500
▁dip	-10501
shine	-10502
▁Cold	-10503
▁Mall	-10504
▁calm	-10505
▁dent	-10506
▁recy	-10507
istent	-10508
ottage	-10509
ousing	-10510
▁Evans	-10511
▁Range	-10512
▁balls	-10513
▁deleg	-10514
▁vocal	-10515
itative	-10516
▁Always	-10517
▁Movies	-10518
▁babies	-10519
▁chairs	-10520
▁escape	-10521
▁fought	-10522
▁stored	-10523
▁emotion	-10524
▁shortly	-10525
ictionary	-10526
▁Politics	-10527
▁episodes	-10528
▁mortgage	-10529
▁sometime	-10530
▁unlikely	-10531
▁Northwest	-10532
▁estimates	-10533
▁inspiring	-10534
▁objective	-10535
▁publisher	-10536
▁celebrated	-10537
▁intellectual	-10538
▁restrictions	-10539
aux	-10540
bet	-10541
oca	-10542
rah	-10543
▁MC	-10544
boro	-10545
hyth	-10546
ilst	-10547
rary	-10548
▁Boo	-10549
▁FAQ	-10550
▁Kit	-10551
▁NHL	-10552
icked	-10553
▁Imag	-10554
▁Kirk	-10555
▁Nurs	-10556
▁exha	-10557
▁jury	-10558
icking	-10559
idding	-10560
▁Draft	-10561
▁Pharm	-10562
▁delet	-10563
▁Edward	-10564
▁Ground	-10565
▁Legisl	-10566
▁apolog	-10567
▁deeper	-10568
▁emails	-10569
▁gaming	-10570
▁rescue	-10571
▁rubber	-10572
▁Freedom	-10573
▁expects	-10574
▁receipt	-10575
▁settled	-10576
▁texture	-10577
▁currency	-10578
▁delivers	-10579
▁donation	-10580
▁freshman	-10581
▁listings	-10582
▁complaint	-10583
▁frequency	-10584
▁Christians	-10585
▁accounting	-10586
▁mainstream	-10587
▁settlement	-10588
▁supporters	-10589
▁suspension	-10590
DI	-10591
Or	-10592
UC	-10593
VP	-10594
ASE	-10595
ITE	-10596
Now	-10597
abs	-10598
cal	-10599
haw	-10600
itr	-10601
may	-10602
▁Ka	-10603
▁mg	-10604
aved	-10605
cend	-10606
size	-10607
▁Blu	-10608
▁Ian	-10609
▁Pas	-10610
gener	-10611
inema	-10612
itzer	-10613
izard	-10614
▁Cape	-10615
▁Dawn	-10616
▁ESPN	-10617
▁Hair	-10618
▁Pret	-10619
▁Qual	-10620
▁caut	-10621
▁flip	-10622
▁foam	-10623
▁peak	-10624
▁soap	-10625
▁vine	-10626
▁Bring	-10627
▁Warri	-10628
▁dirty	-10629
▁minds	-10630
▁moral	-10631
▁rocks	-10632
▁Altern	-10633
▁Murphy	-10634
▁crimes	-10635
▁labels	-10636
▁poster	-10637
▁Created	-10638
▁Machine	-10639
▁Stanley	-10640
▁Subject	-10641
▁Tribune	-10642
▁cabinet	-10643
▁accompan	-10644
▁declared	-10645
▁measured	-10646
▁semester	-10647
▁sequence	-10648
▁arguments	-10649
▁expanding	-10650
▁inventory	-10651
▁satellite	-10652
▁creativity	-10653
▁remarkable	-10654
fo	-10655
INK	-10656
Yes	-10657
aki	-10658
aly	-10659
▁BE	-10660
▁WE	-10661
????	-10662
home	-10663
iden	-10664
ront	-10665
▁Bou	-10666
▁Rab	-10667
asses	-10668
reach	-10669
there	-10670
▁Duke	-10671
▁Furn	-10672
▁Half	-10673
▁Pain	-10674
▁Vent	-10675
▁neat	-10676
▁prev	-10677
uisine	-10678
▁Makes	-10679
▁badly	-10680
▁elder	-10681
▁manip	-10682
▁uncle	-10683
itarian	-10684
▁Assess	-10685
▁Luther	-10686
▁Oxford	-10687
▁excuse	-10688
▁fruits	-10689
▁purple	-10690
▁testim	-10691
▁Reuters	-10692
▁Speaker	-10693
▁Written	-10694
▁compact	-10695
▁crossed	-10696
▁dessert	-10697
▁figured	-10698
▁roughly	-10699
▁Marshall	-10700
▁Recently	-10701
▁claiming	-10702
▁counties	-10703
▁gathered	-10704
▁interact	-10705
▁Charlotte	-10706
▁champions	-10707
▁diversity	-10708
▁followers	-10709
▁infection	-10710
▁opponents	-10711
▁platforms	-10712
▁portfolio	-10713
▁completion	-10714
▁surrounded	-10715
▁celebrating	-10716
▁exceptional	-10717
VA	-10718
TON	-10719
Wor	-10720
agu	-10721
cat	-10722
fly	-10723
▁Kr	-10724
▁OP	-10725
▁xx	-10726
ogen	-10727
roph	-10728
▁Dad	-10729
▁Swe	-10730
▁loy	-10731
▁pig	-10732
amped	-10733
bably	-10734
▁Cass	-10735
▁Comb	-10736
▁Pool	-10737
▁boom	-10738
▁tear	-10739
▁worn	-10740
terest	-10741
▁Begin	-10742
▁Cream	-10743
▁Maria	-10744
▁Until	-10745
▁mouse	-10746
▁sliced	-10747
▁Jessica	-10748
▁Parking	-10749
▁divided	-10750
▁engines	-10751
▁expense	-10752
▁ranging	-10753
▁emphasis	-10754
▁striking	-10755
▁teaspoon	-10756
▁attempted	-10757
▁producers	-10758
▁specified	-10759
▁generations	-10760
Hz	-10761
Te	-10762
fa	-10763
nor	-10764
wau	-10765
▁ow	-10766
ISSP	-10767
▁Len	-10768
▁Nev	-10769
▁gal	-10770
party	-10771
stick	-10772
▁Horn	-10773
▁Mars	-10774
▁Norm	-10775
▁belt	-10776
▁rely	-10777
▁sexy	-10778
▁ward	-10779
orship	-10780
▁Adobe	-10781
▁CISSP	-10782
▁alike	-10783
▁dying	-10784
▁oblig	-10785
▁Coffee	-10786
▁Greece	-10787
▁hybrid	-10788
▁indoor	-10789
▁plates	-10790
▁powers	-10791
▁prosec	-10792
▁treats	-10793
▁turkey	-10794
▁worker	-10795
▁Leonard	-10796
▁applies	-10797
▁chronic	-10798
▁coconut	-10799
▁graphic	-10800
▁Scholars	-10801
▁contents	-10802
▁displays	-10803
▁physically	-10804
▁reportedly	-10805
▁documentary	-10806
OB	-10807
▁›	-10808
DAY	-10809
bin	-10810
fix	-10811
iar	-10812
lly	-10813
vol	-10814
▁HR	-10815
ATED	-10816
bage	-10817
fits	-10818
oret	-10819
rend	-10820
stop	-10821
uits	-10822
▁Ele	-10823
▁Edge	-10824
▁Lost	-10825
▁crap	-10826
▁hack	-10827
▁spam	-10828
▁alleg	-10829
▁enorm	-10830
▁yummy	-10831
▁Watson	-10832
▁fundra	-10833
▁ladies	-10834
▁quotes	-10835
▁spoken	-10836
▁Amazing	-10837
▁airline	-10838
▁blessed	-10839
▁circuit	-10840
▁glasses	-10841
▁landing	-10842
▁segment	-10843
▁starter	-10844
▁Whatever	-10845
▁acquired	-10846
▁apparent	-10847
▁bloggers	-10848
▁confused	-10849
▁honestly	-10850
▁promises	-10851
▁Associate	-10852
▁Authority	-10853
▁Cardinals	-10854
▁conscious	-10855
▁convinced	-10856
▁understood	-10857
▁investments	-10858
▁Additionally	-10859
▁overwhelming	-10860
▁publications	-10861
▁temperatures	-10862
MP	-10863
▁”	-10864
exp	-10865
▁Rd	-10866
dogs	-10867
eals	-10868
uper	-10869
▁LED	-10870
▁Lot	-10871
▁lat	-10872
andal	-10873
icker	-10874
isure	-10875
utors	-10876
▁Clay	-10877
▁Desk	-10878
▁Reco	-10879
▁Swed	-10880
▁bite	-10881
▁cous	-10882
▁moon	-10883
▁quit	-10884
charge	-10885
▁Opera	-10886
written	-10887
▁Dennis	-10888
▁Nelson	-10889
▁accord	-10890
▁frozen	-10891
▁marine	-10892
▁speaks	-10893
▁washed	-10894
▁burning	-10895
▁crucial	-10896
▁mystery	-10897
▁Hamilton	-10898
▁applying	-10899
▁assembly	-10900
▁judgment	-10901
▁precious	-10902
▁packaging	-10903
▁prominent	-10904
▁sensitive	-10905
▁uncertain	-10906
▁vegetable	-10907
▁approaches	-10908
▁Independent	-10909
▁consistently	-10910
▁intelligence	-10911
▁`	-10912
ANT	-10913
▁cm	-10914
..."	-10915
acco	-10916
anne	-10917
atar	-10918
disc	-10919
▁Bul	-10920
acles	-10921
asion	-10922
emade	-10923
isons	-10924
orous	-10925
orted	-10926
xygen	-10927
▁Cinc	-10928
▁Jake	-10929
▁Luck	-10930
▁Ring	-10931
▁anch	-10932
▁chef	-10933
waukee	-10934
▁Cable	-10935
▁Close	-10936
▁Given	-10937
▁cabin	-10938
mediate	-10939
▁Answer	-10940
▁Queens	-10941
▁browse	-10942
▁defeat	-10943
▁permit	-10944
unicipal	-10945
▁Francis	-10946
▁Healthy	-10947
▁Profile	-10948
▁Respons	-10949
▁Vermont	-10950
▁enables	-10951
▁pockets	-10952
▁reminds	-10953
▁studied	-10954
▁workout	-10955
▁overcome	-10956
▁warranty	-10957
▁Halloween	-10958
▁memorable	-10959
▁convention	-10960
▁electrical	-10961
▁meaningful	-10962
▁vulnerable	-10963
DC	-10964
Me	-10965
Why	-10966
chi	-10967
▁BY	-10968
▁Ry	-10969
core	-10970
igate	-10971
opter	-10972
▁Bike	-10973
▁Doug	-10974
▁Insp	-10975
▁dirt	-10976
▁folk	-10977
▁loop	-10978
▁sour	-10979
ailing	-10980
elling	-10981
itches	-10982
▁Block	-10983
▁Bobby	-10984
▁Files	-10985
▁Jamie	-10986
▁Movie	-10987
▁Multi	-10988
▁alarm	-10989
▁stere	-10990
▁Beauty	-10991
▁Eagles	-10992
▁Marine	-10993
▁Yellow	-10994
▁cruise	-10995
▁greens	-10996
appropri	-10997
▁Firefox	-10998
▁Kennedy	-10999
▁Storage	-11000
▁advised	-11001
▁amongst	-11002
▁heating	-11003
▁honored	-11004
▁proport	-11005
▁replied	-11006
▁tremend	-11007
▁Columbus	-11008
▁colleges	-11009
▁dialogue	-11010
▁produces	-11011
▁prospect	-11012
vironments	-11013
▁Breakfast	-11014
▁abilities	-11015
▁operators	-11016
▁Federation	-11017
▁Parliament	-11018
▁curriculum	-11019
▁difficulty	-11020
▁unexpected	-11021
▁demonstrated	-11022
▁occasionally	-11023
▁prescription	-11024
XX	-11025
df	-11026
mg	-11027
,''	-11028
Cal	-11029
▁BA	-11030
▁CF	-11031
▁SA	-11032
▁SD	-11033
▁vo	-11034
HING	-11035
News	-11036
anth	-11037
illo	-11038
ping	-11039
walk	-11040
▁Rot	-11041
grand	-11042
visor	-11043
▁Bass	-11044
▁Turk	-11045
aneous	-11046
azines	-11047
▁Colon	-11048
▁Maint	-11049
▁Stuff	-11050
▁Tools	-11051
▁acres	-11052
▁colon	-11053
▁drain	-11054
▁handy	-11055
▁imper	-11056
▁renov	-11057
▁rival	-11058
▁twist	-11059
iencing	-11060
▁canvas	-11061
▁horror	-11062
▁regime	-11063
ceptions	-11064
▁Message	-11065
▁anytime	-11066
▁grocery	-11067
▁handful	-11068
▁locally	-11069
▁profits	-11070
▁publish	-11071
▁summary	-11072
▁venture	-11073
▁worship	-11074
▁Agricult	-11075
▁Ministry	-11076
▁balanced	-11077
▁deserves	-11078
▁emotions	-11079
▁goodness	-11080
▁WordPress	-11081
▁campaigns	-11082
▁chemicals	-11083
▁competing	-11084
▁criticism	-11085
▁discounts	-11086
▁virtually	-11087
▁essentially	-11088
Im	-11089
Ste	-11090
kle	-11091
ova	-11092
rex	-11093
uez	-11094
keep	-11095
ogan	-11096
omic	-11097
thur	-11098
will	-11099
▁GRE	-11100
▁NPR	-11101
▁Ont	-11102
▁lap	-11103
shirt	-11104
▁Drug	-11105
▁Kyle	-11106
▁Load	-11107
▁Navy	-11108
▁Ster	-11109
▁demo	-11110
▁iPod	-11111
▁toll	-11112
▁unve	-11113
achers	-11114
ricult	-11115
▁blues	-11116
▁crisp	-11117
▁femin	-11118
▁sidew	-11119
▁strap	-11120
Station	-11121
inciple	-11122
▁garage	-11123
▁logged	-11124
▁manual	-11125
▁Quarter	-11126
▁Started	-11127
▁advisor	-11128
▁donated	-11129
▁pitcher	-11130
▁runners	-11131
▁Heritage	-11132
▁Recovery	-11133
▁entrance	-11134
▁operated	-11135
▁Nashville	-11136
▁fireworks	-11137
▁Statistics	-11138
▁Tournament	-11139
▁convenience	-11140
▁flexibility	-11141
▁entertaining	-11142
▁controversial	-11143
▁sophisticated	-11144
▁recommendation	-11145
RO	-11146
aul	-11147
uki	-11148
▁(@	-11149
bled	-11150
cipe	-11151
spot	-11152
▁Fix	-11153
▁Syn	-11154
▁USD	-11155
▁roy	-11156
vable	-11157
world	-11158
▁brid	-11159
▁migr	-11160
▁tatt	-11161
access	-11162
▁incom	-11163
▁loads	-11164
▁paste	-11165
▁wines	-11166
▁Cameron	-11167
▁involve	-11168
▁monster	-11169
▁pretend	-11170
▁ratings	-11171
▁theatre	-11172
▁torture	-11173
▁violent	-11174
▁Resource	-11175
▁Stanford	-11176
▁adoption	-11177
▁subjects	-11178
▁Hampshire	-11179
▁Jefferson	-11180
▁formation	-11181
▁paintings	-11182
▁suspended	-11183
▁attempting	-11184
▁purchasing	-11185
▁regulation	-11186
▁suggestion	-11187
▁scholarship	-11188
NC	-11189
▁_	-11190
cos	-11191
lie	-11192
▁."	-11193
▁lb	-11194
amas	-11195
lend	-11196
lies	-11197
remy	-11198
▁Cop	-11199
▁Dod	-11200
▁FDA	-11201
▁GMT	-11202
▁Hem	-11203
▁Sau	-11204
▁fib	-11205
rated	-11206
umper	-11207
▁Bent	-11208
▁Diet	-11209
▁Dise	-11210
▁Fell	-11211
▁Upon	-11212
▁Wolf	-11213
▁cust	-11214
▁gene	-11215
▁lend	-11216
▁rend	-11217
Donald	-11218
alties	-11219
iatric	-11220
▁Analy	-11221
▁Below	-11222
▁Going	-11223
▁Grove	-11224
▁Nancy	-11225
▁Touch	-11226
▁alter	-11227
▁cents	-11228
▁gains	-11229
▁grain	-11230
▁saves	-11231
▁sunny	-11232
▁Cheese	-11233
▁condem	-11234
▁diplom	-11235
▁immune	-11236
▁shapes	-11237
▁Bradley	-11238
▁Options	-11239
▁Yankees	-11240
▁factory	-11241
▁jumping	-11242
▁organis	-11243
▁Champion	-11244
▁Particip	-11245
▁agricult	-11246
▁artistic	-11247
▁colorful	-11248
▁declined	-11249
▁laughing	-11250
▁survival	-11251
▁survived	-11252
▁tracking	-11253
▁Chocolate	-11254
▁Directory	-11255
▁Seriously	-11256
▁instantly	-11257
▁sophomore	-11258
▁biological	-11259
▁threatened	-11260
▁acquisition	-11261
▁interaction	-11262
▁certification	-11263
▁configuration	-11264
▁unfortunately	-11265
vd	-11266
ICK	-11267
oks	-11268
url	-11269
▁IF	-11270
Just	-11271
best	-11272
elta	-11273
hill	-11274
igen	-11275
some	-11276
wick	-11277
ylon	-11278
▁Gib	-11279
▁Lex	-11280
▁Pic	-11281
▁awk	-11282
These	-11283
ummer	-11284
▁Hans	-11285
▁Jets	-11286
▁Trad	-11287
▁Viol	-11288
▁cupc	-11289
▁dash	-11290
▁sits	-11291
umbers	-11292
▁Billy	-11293
▁scrap	-11294
▁suits	-11295
▁tears	-11296
entinel	-11297
innamon	-11298
▁Lovely	-11299
▁Stream	-11300
▁caring	-11301
▁dating	-11302
▁dozens	-11303
▁hiking	-11304
▁locked	-11305
▁symbol	-11306
▁timing	-11307
iscovery	-11308
▁Faculty	-11309
▁cheaper	-11310
▁continu	-11311
▁handled	-11312
▁pulling	-11313
▁stepped	-11314
▁Consumer	-11315
▁modified	-11316
▁discovery	-11317
▁prospects	-11318
▁satisfied	-11319
▁concerning	-11320
▁engagement	-11321
▁objectives	-11322
▁competitors	-11323
================	-11324
ML	-11325
ELL	-11326
Res	-11327
cha	-11328
sub	-11329
▁DB	-11330
▁Ta	-11331
gree	-11332
inos	-11333
offs	-11334
▁Hat	-11335
▁Pul	-11336
agers	-11337
eters	-11338
gical	-11339
▁Neil	-11340
▁None	-11341
▁Prop	-11342
▁Trip	-11343
▁hott	-11344
▁tune	-11345
▁wore	-11346
assion	-11347
ernand	-11348
▁Graph	-11349
▁Robin	-11350
▁Solar	-11351
▁Write	-11352
▁globe	-11353
▁lease	-11354
▁width	-11355
▁Parker	-11356
▁Recipe	-11357
▁Remove	-11358
▁Thread	-11359
▁Videos	-11360
▁forums	-11361
▁merely	-11362
▁phrase	-11363
▁routes	-11364
▁sheets	-11365
▁trucks	-11366
▁Already	-11367
▁Besides	-11368
▁Indones	-11369
▁Preview	-11370
▁courage	-11371
▁laundry	-11372
▁stadium	-11373
▁Activity	-11374
▁Schedule	-11375
▁publicly	-11376
▁Directors	-11377
▁Knowledge	-11378
▁destroyed	-11379
▁integrity	-11380
▁intention	-11381
▁mountains	-11382
▁screening	-11383
▁complaints	-11384
▁discipline	-11385
▁provisions	-11386
▁grandmother	-11387
▁experiencing	-11388
TP	-11389
fam	-11390
gov	-11391
mmm	-11392
▁::	-11393
▁OM	-11394
oser	-11395
othy	-11396
rien	-11397
tech	-11398
thod	-11399
▁Aid	-11400
▁Ale	-11401
▁Arn	-11402
▁Hig	-11403
▁Joh	-11404
▁Kal	-11405
▁Sel	-11406
addle	-11407
found	-11408
ivals	-11409
pling	-11410
▁Okay	-11411
▁Sout	-11412
▁chap	-11413
▁dict	-11414
▁Horse	-11415
▁Jacob	-11416
▁Wheel	-11417
▁blast	-11418
▁straw	-11419
▁Summit	-11420
▁Visual	-11421
▁clever	-11422
▁filing	-11423
▁hiring	-11424
▁robust	-11425
▁Alexand	-11426
▁Iranian	-11427
▁Sustain	-11428
▁auction	-11429
▁blogger	-11430
▁grounds	-11431
▁nervous	-11432
▁targets	-11433
▁Arkansas	-11434
▁Discover	-11435
▁Olympics	-11436
▁Together	-11437
▁homeless	-11438
▁reminded	-11439
▁scenario	-11440
▁veterans	-11441
▁Bloomberg	-11442
▁Milwaukee	-11443
▁creatures	-11444
▁realistic	-11445
▁referring	-11446
▁ridiculous	-11447
▁supplement	-11448
▁transactions	-11449
SO	-11450
ni	-11451
Can	-11452
OOD	-11453
fin	-11454
▁NA	-11455
▁NW	-11456
▁OH	-11457
▁Uk	-11458
ctic	-11459
ethe	-11460
mits	-11461
phis	-11462
your	-11463
▁Due	-11464
▁Rio	-11465
▁Tai	-11466
▁spa	-11467
▁spo	-11468
▁unp	-11469
allel	-11470
amics	-11471
▁Reed	-11472
▁Repl	-11473
▁dual	-11474
▁owns	-11475
▁synd	-11476
▁yarn	-11477
itched	-11478
urious	-11479
▁Mills	-11480
▁awful	-11481
▁divor	-11482
▁virus	-11483
▁Argent	-11484
▁Chrome	-11485
▁Nicole	-11486
▁Object	-11487
▁duties	-11488
▁mining	-11489
▁stones	-11490
▁worthy	-11491
▁buttons	-11492
▁examine	-11493
▁formats	-11494
▁shelter	-11495
▁tragedy	-11496
▁Advertis	-11497
▁Democrat	-11498
▁distingu	-11499
▁pleasant	-11500
▁revenues	-11501
▁thousand	-11502
▁withdraw	-11503
▁Publisher	-11504
▁contacted	-11505
▁marijuana	-11506
▁attendance	-11507
▁corruption	-11508
▁depression	-11509
▁conventional	-11510
▁environments	-11511
▁surprisingly	-11512
!.	-11513
Fl	-11514
vo	-11515
OME	-11516
ika	-11517
jud	-11518
lon	-11519
sal	-11520
▁EP	-11521
▁Lu	-11522
MENT	-11523
alph	-11524
iked	-11525
pany	-11526
unct	-11527
▁Dra	-11528
▁Lam	-11529
▁Mes	-11530
▁Pap	-11531
▁jam	-11532
esity	-11533
▁Soon	-11534
▁Vend	-11535
▁dies	-11536
▁drew	-11537
▁ties	-11538
ensing	-11539
▁Apart	-11540
▁Cards	-11541
▁Citiz	-11542
▁Favor	-11543
▁Jesse	-11544
▁Listen	-11545
▁Pretty	-11546
▁Within	-11547
▁apples	-11548
▁dispos	-11549
▁honors	-11550
▁kicked	-11551
▁opener	-11552
▁shirts	-11553
▁slices	-11554
▁themes	-11555
▁Coordin	-11556
▁colours	-11557
▁exhibit	-11558
▁genetic	-11559
▁harvest	-11560
▁wrapped	-11561
ustration	-11562
▁Abstract	-11563
▁Physical	-11564
▁frequent	-11565
▁opponent	-11566
▁overview	-11567
▁relating	-11568
▁spectrum	-11569
▁districts	-11570
▁acceptable	-11571
▁applicable	-11572
▁popularity	-11573
▁electricity	-11574
▁journalists	-11575
▁operational	-11576
UP	-11577
andy	-11578
enna	-11579
gain	-11580
▁Aub	-11581
▁BMW	-11582
▁vel	-11583
eness	-11584
▁Anti	-11585
▁Fame	-11586
▁Wish	-11587
▁dumb	-11588
▁noon	-11589
▁span	-11590
alling	-11591
anches	-11592
innati	-11593
▁Costa	-11594
▁Dutch	-11595
▁Ident	-11596
▁Metro	-11597
▁arbit	-11598
▁chick	-11599
▁innoc	-11600
▁maker	-11601
▁skirt	-11602
▁stays	-11603
▁surve	-11604
▁sweat	-11605
looking	-11606
▁Batter	-11607
▁Budget	-11608
▁Cheers	-11609
▁Circle	-11610
▁Jeremy	-11611
▁Nichol	-11612
▁Proble	-11613
▁locate	-11614
▁oldest	-11615
▁settle	-11616
▁Limited	-11617
▁Writing	-11618
▁closure	-11619
▁funeral	-11620
▁ignored	-11621
▁qualify	-11622
▁threats	-11623
▁vibrant	-11624
▁Speaking	-11625
▁confront	-11626
▁dressing	-11627
▁Obviously	-11628
▁admission	-11629
▁graduated	-11630
▁nutrition	-11631
▁processed	-11632
▁reporters	-11633
▁elementary	-11634
▁Photography	-11635
▁administrative	-11636
##	-11637
/>	-11638
hol	-11639
▁Gw	-11640
▁SN	-11641
OURC	-11642
agic	-11643
ixon	-11644
mons	-11645
olid	-11646
rage	-11647
▁PhD	-11648
▁Raj	-11649
▁Sex	-11650
▁bun	-11651
▁que	-11652
▁ups	-11653
plant	-11654
rosse	-11655
▁NASA	-11656
▁Pred	-11657
▁Xbox	-11658
▁bund	-11659
▁cord	-11660
▁cycl	-11661
▁fake	-11662
▁tire	-11663
▁wiki	-11664
aments	-11665
▁Delhi	-11666
▁Initi	-11667
▁Minor	-11668
▁drunk	-11669
▁elite	-11670
▁piano	-11671
▁ranks	-11672
▁ships	-11673
▁slice	-11674
▁woods	-11675
▁wound	-11676
▁Basket	-11677
▁Morris	-11678
▁Nathan	-11679
▁Points	-11680
▁folder	-11681
▁resist	-11682
▁riders	-11683
▁rounds	-11684
▁upgrad	-11685
▁viagra	-11686
fortable	-11687
ilarious	-11688
▁Outdoor	-11689
▁Picture	-11690
▁Require	-11691
▁Session	-11692
▁console	-11693
▁devoted	-11694
▁enemies	-11695
▁inspect	-11696
▁seniors	-11697
▁Delivery	-11698
▁Kathleen	-11699
▁Progress	-11700
▁estimate	-11701
▁overseas	-11702
▁protocol	-11703
▁sleeping	-11704
▁Anonymous	-11705
▁Economics	-11706
▁Wikipedia	-11707
▁departure	-11708
▁framework	-11709
▁processor	-11710
▁seemingly	-11711
▁Activities	-11712
▁complement	-11713
▁certificate	-11714
▁complimentary	-11715
IO	-11716
UG	-11717
Des	-11718
iva	-11719
▁HC	-11720
▁Ky	-11721
▁MB	-11722
fish	-11723
iche	-11724
shot	-11725
▁Boe	-11726
▁Ord	-11727
▁Wii	-11728
▁ber	-11729
▁rab	-11730
itate	-11731
maker	-11732
otive	-11733
rying	-11734
▁EVER	-11735
▁Maps	-11736
▁Terr	-11737
abling	-11738
engers	-11739
ername	-11740
▁Arena	-11741
▁Purch	-11742
▁Score	-11743
▁Shoot	-11744
▁eager	-11745
emption	-11746
ilation	-11747
lington	-11748
ository	-11749
▁Easter	-11750
▁Leader	-11751
▁Chelsea	-11752
▁Gardens	-11753
▁affects	-11754
▁demands	-11755
▁regards	-11756
Published	-11757
▁Clinical	-11758
▁Teaching	-11759
▁aircraft	-11760
▁cocktail	-11761
▁pointing	-11762
▁suppliers	-11763
▁subsequent	-11764
▁coordinator	-11765
▁appreciation	-11766
++	-11767
/.	-11768
CR	-11769
MM	-11770
▁§	-11771
/><	-11772
Day	-11773
IEW	-11774
gro	-11775
iox	-11776
udi	-11777
▁.”	-11778
acer	-11779
half	-11780
kind	-11781
user	-11782
▁Ald	-11783
▁Fra	-11784
▁Jar	-11785
▁mit	-11786
doors	-11787
endif	-11788
speed	-11789
ushes	-11790
▁Lots	-11791
▁Reds	-11792
▁Rele	-11793
▁Spot	-11794
▁Wait	-11795
▁href	-11796
▁lawn	-11797
▁pays	-11798
atinum	-11799
olitan	-11800
payers	-11801
writer	-11802
▁Delta	-11803
▁Leban	-11804
▁Seven	-11805
▁Shore	-11806
▁intim	-11807
▁nurse	-11808
▁thumb	-11809
▁utter	-11810
ourcing	-11811
▁Animal	-11812
▁Empire	-11813
▁Rather	-11814
▁prints	-11815
▁relate	-11816
▁render	-11817
▁unlock	-11818
atabases	-11819
ordinary	-11820
▁Cooking	-11821
▁Opening	-11822
▁artwork	-11823
▁blocked	-11824
▁mothers	-11825
▁Downtown	-11826
▁Electric	-11827
▁carriers	-11828
▁climbing	-11829
▁employed	-11830
▁enhanced	-11831
▁portable	-11832
▁Developer	-11833
▁economics	-11834
▁inflation	-11835
▁liability	-11836
▁mushrooms	-11837
▁recession	-11838
appropriate	-11839
▁Revolution	-11840
▁delivering	-11841
▁disability	-11842
▁explaining	-11843
▁navigation	-11844
▁Construction	-11845
▁Indianapolis	-11846
%)	-11847
FM	-11848
SH	-11849
Us	-11850
bul	-11851
cca	-11852
lad	-11853
▁AA	-11854
▁BO	-11855
▁GO	-11856
▁Li	-11857
boys	-11858
flow	-11859
heat	-11860
▁Bol	-11861
▁Hit	-11862
▁Nob	-11863
▁ate	-11864
▁jer	-11865
▁nod	-11866
!!!!!	-11867
adise	-11868
▁>>>>	-11869
▁Born	-11870
▁Jill	-11871
▁Salt	-11872
▁Unit	-11873
▁alph	-11874
▁bust	-11875
▁matt	-11876
▁pipe	-11877
around	-11878
▁Mason	-11879
▁Wales	-11880
▁jeans	-11881
▁jokes	-11882
▁prest	-11883
▁repro	-11884
▁winds	-11885
▁Debbie	-11886
▁Indeed	-11887
▁Shadow	-11888
▁ethnic	-11889
▁handed	-11890
▁makeup	-11891
▁nicely	-11892
▁quoted	-11893
▁Playing	-11894
▁Podcast	-11895
▁archive	-11896
▁gardens	-11897
▁shorter	-11898
▁singles	-11899
▁template	-11900
▁Yesterday	-11901
▁activists	-11902
▁anonymous	-11903
▁encounter	-11904
▁ownership	-11905
▁specialty	-11906
▁Apparently	-11907
▁remembered	-11908
▁appearances	-11909
▁destruction	-11910
▁encouraging	-11911
▁Commissioner	-11912
▁arrangements	-11913
▁subscription	-11914
▁accommodation	-11915
▁conversations	-11916
Ob	-11917
ho	-11918
jo	-11919
Ind	-11920
azi	-11921
bey	-11922
isp	-11923
ped	-11924
tag	-11925
▁TN	-11926
Mark	-11927
feld	-11928
hard	-11929
oufl	-11930
wing	-11931
▁Ana	-11932
▁Pil	-11933
▁bik	-11934
▁sac	-11935
cerpt	-11936
chair	-11937
cific	-11938
stage	-11939
▁Anim	-11940
▁Crew	-11941
▁Hide	-11942
▁READ	-11943
▁Stir	-11944
▁fond	-11945
▁stem	-11946
▁twin	-11947
▁ugly	-11948
bourne	-11949
ourmet	-11950
▁Exhib	-11951
▁Neigh	-11952
▁Ready	-11953
▁abund	-11954
▁cyber	-11955
▁fancy	-11956
▁glory	-11957
▁hyper	-11958
▁inher	-11959
▁pants	-11960
▁punch	-11961
▁ruled	-11962
attered	-11963
ributed	-11964
▁devast	-11965
▁guides	-11966
▁habits	-11967
▁makers	-11968
▁runner	-11969
▁static	-11970
ribution	-11971
▁Between	-11972
▁Command	-11973
▁Rangers	-11974
▁awkward	-11975
▁restore	-11976
▁sectors	-11977
▁welfare	-11978
▁Broadway	-11979
▁Military	-11980
▁outcomes	-11981
▁celebrity	-11982
▁concluded	-11983
▁dependent	-11984
▁enjoyable	-11985
▁provision	-11986
▁radiation	-11987
▁Cincinnati	-11988
▁discussing	-11989
▁cooperation	-11990
▁exclusively	-11991
▁lightweight	-11992
▁accomplished	-11993
▁establishment	-11994
BN	-11995
SD	-11996
TF	-11997
Web	-11998
enh	-11999
sur	-12000
uto	-12001
▁SF	-12002
ALLY	-12003
arth	-12004
empl	-12005
held	-12006
icon	-12007
iens	-12008
love	-12009
▁CAN	-12010
▁Dia	-12011
▁Han	-12012
▁Lux	-12013
▁PRE	-12014
Point	-12015
build	-12016
inkle	-12017
▁Gonz	-12018
▁Mile	-12019
▁Pope	-12020
▁Schw	-12021
▁Thai	-12022
▁Thor	-12023
▁mask	-12024
▁rush	-12025
orized	-12026
orneys	-12027
umbled	-12028
vation	-12029
▁Eagle	-12030
▁Niger	-12031
▁Pearl	-12032
▁arena	-12033
▁bikes	-12034
▁genre	-12035
▁rehab	-12036
▁socks	-12037
▁Cities	-12038
▁Harbor	-12039
▁Opport	-12040
▁Volume	-12041
▁allerg	-12042
▁compan	-12043
▁hiding	-12044
▁intrig	-12045
▁jumped	-12046
▁refres	-12047
▁refuge	-12048
▁tennis	-12049
▁Pirates	-12050
▁Premium	-12051
▁Virtual	-12052
▁deleted	-12053
▁fabrics	-12054
▁failing	-12055
▁generic	-12056
▁healing	-12057
▁possess	-12058
▁ranking	-12059
▁Franklin	-12060
▁cultures	-12061
▁reserves	-12062
▁Something	-12063
▁democracy	-12064
▁downloads	-12065
▁happiness	-12066
▁requiring	-12067
▁territory	-12068
▁Psychology	-12069
▁collecting	-12070
▁immigrants	-12071
▁occasional	-12072
▁conferences	-12073
▁investigate	-12074
▁investigating	-12075
Gu	-12076
ju	-12077
rr	-12078
wa	-12079
Add	-12080
dig	-12081
say	-12082
▁PD	-12083
With	-12084
cure	-12085
iral	-12086
lace	-12087
▁Hub	-12088
▁MAR	-12089
▁Maj	-12090
▁kil	-12091
▁por	-12092
oline	-12093
quest	-12094
scale	-12095
uming	-12096
▁Carm	-12097
▁Mosc	-12098
▁chic	-12099
▁foul	-12100
▁incl	-12101
▁pars	-12102
▁porn	-12103
▁rook	-12104
▁scal	-12105
▁shed	-12106
ending	-12107
heimer	-12108
imedia	-12109
inated	-12110
▁conce	-12111
▁grill	-12112
▁stats	-12113
▁wider	-12114
closure	-12115
quality	-12116
▁Coming	-12117
▁Driver	-12118
▁Impact	-12119
▁Joined	-12120
▁ancest	-12121
▁bacter	-12122
▁closet	-12123
▁delete	-12124
▁fallen	-12125
▁google	-12126
▁hungry	-12127
▁inquir	-12128
▁poetry	-12129
izations	-12130
▁Outlook	-12131
▁biology	-12132
▁critics	-12133
▁feeding	-12134
▁flavors	-12135
▁lightly	-12136
▁neutral	-12137
▁podcast	-12138
▁convince	-12139
▁weakness	-12140
rimination	-12141
▁amenities	-12142
▁boyfriend	-12143
▁magazines	-12144
▁Commercial	-12145
▁Especially	-12146
▁connecting	-12147
▁nationwide	-12148
▁newspapers	-12149
▁differently	-12150
▁legislative	-12151
▁promotional	-12152
▁Championships	-12153
Pe	-12154
ONE	-12155
kyo	-12156
nan	-12157
rik	-12158
▁GA	-12159
John	-12160
agen	-12161
arms	-12162
artz	-12163
esis	-12164
orig	-12165
rina	-12166
type	-12167
▁ACC	-12168
▁Dry	-12169
▁EPA	-12170
▁Hob	-12171
▁Ike	-12172
▁Lad	-12173
▁Lan	-12174
▁Mis	-12175
▁Pos	-12176
▁Tip	-12177
▁UNC	-12178
▁apr	-12179
▁bom	-12180
Berry	-12181
senal	-12182
▁Cafe	-12183
▁Cant	-12184
▁Clar	-12185
▁Hunt	-12186
▁Jama	-12187
▁Lynn	-12188
▁Math	-12189
▁Sort	-12190
▁epic	-12191
▁grey	-12192
▁junk	-12193
▁lamp	-12194
eneath	-12195
mental	-12196
▁Along	-12197
▁beats	-12198
▁clips	-12199
▁deput	-12200
▁fails	-12201
▁retro	-12202
▁scary	-12203
▁steal	-12204
▁tract	-12205
chestra	-12206
▁Harper	-12207
▁Inside	-12208
▁Rivers	-12209
▁Therap	-12210
▁Unlike	-12211
▁argued	-12212
▁cialis	-12213
▁eighth	-12214
▁pursue	-12215
▁venues	-12216
breaking	-12217
▁Memphis	-12218
▁Princip	-12219
▁Tickbox	-12220
▁ceiling	-12221
▁prayers	-12222
▁Interior	-12223
▁actively	-12224
▁pitching	-12225
▁Hurricane	-12226
▁container	-12227
▁passenger	-12228
▁respected	-12229
▁Literature	-12230
▁medication	-12231
▁respective	-12232
▁anticipated	-12233
▁entrepreneurs	-12234
BE	-12235
TR	-12236
.''	-12237
.).	-12238
ibi	-12239
▁RS	-12240
anas	-12241
kers	-12242
keys	-12243
reck	-12244
▁Dal	-12245
▁Hab	-12246
▁Pra	-12247
▁bay	-12248
▁maj	-12249
▁soy	-12250
belie	-12251
brook	-12252
owned	-12253
width	-12254
▁Boys	-12255
▁Brun	-12256
▁Sens	-12257
▁rack	-12258
▁thou	-12259
▁tong	-12260
piracy	-12261
urches	-12262
▁Danny	-12263
▁Floor	-12264
▁Login	-12265
▁bones	-12266
▁heels	-12267
▁ignor	-12268
mitting	-12269
ullivan	-12270
▁Donald	-12271
▁Others	-12272
▁backed	-12273
▁myster	-12274
▁throws	-12275
▁trials	-12276
▁tricks	-12277
▁tunnel	-12278
▁Wallace	-12279
▁Weekend	-12280
▁backing	-12281
▁citizen	-12282
▁cleared	-12283
▁resolve	-12284
▁signals	-12285
▁Consider	-12286
▁Keywords	-12287
▁enormous	-12288
▁engineers	-12289
▁exercises	-12290
▁indicates	-12291
▁purchases	-12292
▁struggled	-12293
▁advantages	-12294
▁consultant	-12295
▁PlayStation	-12296
▁imagination	-12297
▁Organization	-12298
▁negotiations	-12299
▁reservations	-12300
Am	-12301
TY	-12302
UE	-12303
Feb	-12304
Int	-12305
ORK	-12306
___	-12307
aus	-12308
igo	-12309
ixt	-12310
ski	-12311
▁->	-12312
cats	-12313
▁Fif	-12314
▁Haz	-12315
▁Tob	-12316
▁dia	-12317
▁tex	-12318
depth	-12319
osher	-12320
shore	-12321
▁Hale	-12322
▁Root	-12323
▁caps	-12324
▁carb	-12325
▁dupl	-12326
▁slip	-12327
igence	-12328
▁Alice	-12329
▁Honda	-12330
▁Trial	-12331
▁comed	-12332
▁fears	-12333
ouflage	-12334
pection	-12335
▁Around	-12336
▁Dinner	-12337
▁Nevada	-12338
▁Toyota	-12339
▁burned	-12340
▁kidney	-12341
▁meters	-12342
▁nomine	-12343
▁prizes	-12344
▁refuse	-12345
▁retain	-12346
itations	-12347
▁Islands	-12348
▁Thunder	-12349
▁absence	-12350
▁affairs	-12351
▁fitting	-12352
▁hottest	-12353
▁stylish	-12354
▁Brothers	-12355
▁Bulldogs	-12356
▁Montreal	-12357
▁branches	-12358
▁computing	-12359
▁offerings	-12360
▁physician	-12361
▁Conditions	-12362
▁Highlights	-12363
▁collective	-12364
▁journalist	-12365
▁transaction	-12366
▁Introduction	-12367
▁headquarters	-12368
▁participated	-12369
▁productivity	-12370
▁possibilities	-12371
▁constitutional	-12372
WI	-12373
sv	-12374
▁GP	-12375
▁HE	-12376
▁IV	-12377
▁Il	-12378
▁SM	-12379
Free	-12380
bian	-12381
iper	-12382
otti	-12383
rots	-12384
▁Abb	-12385
▁Dow	-12386
▁Vul	-12387
▁cel	-12388
▁dil	-12389
▁duo	-12390
ector	-12391
riger	-12392
track	-12393
▁Wake	-12394
▁Wiki	-12395
▁dose	-12396
▁pean	-12397
▁unde	-12398
iology	-12399
semble	-12400
▁Incre	-12401
▁Items	-12402
▁Label	-12403
▁Oscar	-12404
▁baked	-12405
▁lying	-12406
▁nutri	-12407
▁snack	-12408
intendo	-12409
▁Fourth	-12410
▁Murray	-12411
▁Nether	-12412
▁Rogers	-12413
▁cancel	-12414
▁donate	-12415
▁finest	-12416
▁killer	-12417
▁layers	-12418
▁toilet	-12419
communic	-12420
▁contend	-12421
▁couples	-12422
▁elderly	-12423
▁premier	-12424
▁Absolute	-12425
▁adequate	-12426
▁rejected	-12427
▁removing	-12428
▁thrilled	-12429
▁Emergency	-12430
▁editorial	-12431
▁narrative	-12432
▁customized	-12433
▁Palestinian	-12434
▁departments	-12435
▁determination	-12436
▁characteristics	-12437
TE	-12438
kg	-12439
tk	-12440
vi	-12441
NET	-12442
Net	-12443
agg	-12444
bes	-12445
ele	-12446
isa	-12447
▁MY	-12448
cuts	-12449
ften	-12450
orum	-12451
osph	-12452
rine	-12453
ching	-12454
ijing	-12455
phant	-12456
▁Coun	-12457
▁Fran	-12458
▁Rece	-12459
▁Sacr	-12460
▁Same	-12461
▁aest	-12462
▁grat	-12463
▁inev	-12464
▁tube	-12465
▁wage	-12466
agraph	-12467
arians	-12468
asures	-12469
esters	-12470
oodles	-12471
owered	-12472
owners	-12473
▁Lucky	-12474
▁Tiger	-12475
▁cakes	-12476
▁camps	-12477
▁cliff	-12478
▁edges	-12479
▁rhyth	-12480
ournals	-12481
▁Choice	-12482
▁Muslim	-12483
▁Taking	-12484
▁clinic	-12485
▁crafts	-12486
▁freeze	-12487
▁shorts	-12488
▁solely	-12489
▁warned	-12490
▁Bernard	-12491
▁Fantasy	-12492
▁anxiety	-12493
▁baskets	-12494
▁endorse	-12495
▁massage	-12496
▁reveals	-12497
▁statist	-12498
ilitation	-12499
▁Pictures	-12500
▁aluminum	-12501
▁premiere	-12502
▁preserve	-12503
▁quantity	-12504
▁reflects	-12505
▁relaxing	-12506
▁Furniture	-12507
▁Recommend	-12508
▁automatic	-12509
▁confusion	-12510
▁Production	-12511
▁Television	-12512
▁graduation	-12513
▁accompanied	-12514
▁implementing	-12515
IX	-12516
NS	-12517
Tw	-12518
UK	-12519
WA	-12520
ORT	-12521
eta	-12522
ois	-12523
rez	-12524
sis	-12525
ulu	-12526
▁DM	-12527
▁Dj	-12528
▁NZ	-12529
gate	-12530
guin	-12531
lett	-12532
link	-12533
vity	-12534
▁Arc	-12535
▁Isa	-12536
▁Rew	-12537
▁Tow	-12538
▁tbs	-12539
bling	-12540
jamin	-12541
ossip	-12542
ucker	-12543
▁Chev	-12544
▁Epis	-12545
▁Kell	-12546
▁MORE	-12547
▁Teen	-12548
▁UCLA	-12549
▁lazy	-12550
▁seam	-12551
▁smok	-12552
cribed	-12553
effect	-12554
▁Blake	-12555
▁Lakes	-12556
▁Mario	-12557
▁anger	-12558
▁armed	-12559
▁backs	-12560
▁booth	-12561
▁cited	-12562
▁drops	-12563
▁liver	-12564
▁suite	-12565
▁tuned	-12566
▁waist	-12567
atching	-12568
iameter	-12569
▁Beyond	-12570
▁landed	-12571
▁sensor	-12572
▁traded	-12573
▁Analyst	-12574
▁Climate	-12575
▁cuisine	-12576
▁deposit	-12577
▁dispute	-12578
▁fucking	-12579
▁mounted	-12580
▁touched	-12581
▁utilize	-12582
▁Instruct	-12583
▁minority	-12584
▁showcase	-12585
▁Coalition	-12586
▁Sponsored	-12587
▁diagnosis	-12588
▁principle	-12589
▁conversion	-12590
▁suggesting	-12591
▁Advertising	-12592
▁corporations	-12593
DB	-12594
PH	-12595
OOK	-12596
cap	-12597
ocs	-12598
▁FM	-12599
▁hi	-12600
auge	-12601
fund	-12602
iour	-12603
▁Aer	-12604
▁Esc	-12605
▁Ott	-12606
▁Tun	-12607
▁ink	-12608
ammed	-12609
arity	-12610
bread	-12611
▁Dian	-12612
▁Safe	-12613
▁exch	-12614
▁fert	-12615
▁masc	-12616
▁pork	-12617
Remove	-12618
ailand	-12619
racuse	-12620
taking	-12621
▁Cohen	-12622
▁firef	-12623
▁flags	-12624
▁manif	-12625
▁tires	-12626
▁Issues	-12627
▁Johnny	-12628
▁Mailed	-12629
▁scared	-12630
▁shaped	-12631
▁slides	-12632
▁subtle	-12633
▁tomato	-12634
▁vendor	-12635
aneously	-12636
oriented	-12637
▁Biology	-12638
▁Jeffrey	-12639
▁Located	-12640
▁Ontario	-12641
▁Players	-12642
▁Shannon	-12643
▁Sheriff	-12644
▁colored	-12645
▁damages	-12646
▁endless	-12647
▁nowhere	-12648
▁specify	-12649
▁strikes	-12650
▁vanilla	-12651
▁washing	-12652
▁McDonald	-12653
▁Sullivan	-12654
▁analysts	-12655
▁insights	-12656
▁organize	-12657
▁refriger	-12658
▁terrific	-12659
▁traveled	-12660
▁motivated	-12661
▁proposals	-12662
▁sacrifice	-12663
▁sustained	-12664
▁commentary	-12665
▁compelling	-12666
▁completing	-12667
▁repeatedly	-12668
▁substitute	-12669
▁presentations	-12670
Ne	-12671
PP	-12672
sk	-12673
…]	-12674
Bar	-12675
Med	-12676
Spe	-12677
gun	-12678
ibe	-12679
▁Ax	-12680
▁DA	-12681
▁HS	-12682
▁Ll	-12683
amel	-12684
ifle	-12685
mart	-12686
rose	-12687
such	-12688
▁bol	-12689
▁cub	-12690
▁tar	-12691
comed	-12692
dings	-12693
ensen	-12694
guard	-12695
oodle	-12696
pired	-12697
▁Mack	-12698
▁Palm	-12699
▁Shan	-12700
▁Sold	-12701
▁Wing	-12702
▁bail	-12703
▁cree	-12704
▁duck	-12705
▁hunt	-12706
▁rede	-12707
▁sake	-12708
▁wars	-12709
▁whis	-12710
rowing	-12711
▁Faith	-12712
▁Route	-12713
▁Truth	-12714
▁angle	-12715
▁lined	-12716
▁pasta	-12717
▁seeks	-12718
▁shake	-12719
leyball	-12720
▁Bishop	-12721
▁Butler	-12722
▁Castle	-12723
▁Hispan	-12724
▁Moscow	-12725
▁Retail	-12726
▁Strong	-12727
▁banned	-12728
▁coupon	-12729
▁crying	-12730
▁gluten	-12731
▁grades	-12732
▁portra	-12733
▁sooner	-12734
▁timely	-12735
▁unions	-12736
▁Earlier	-12737
▁Running	-12738
▁footage	-12739
▁lasting	-12740
▁shocked	-12741
▁Contents	-12742
▁Syracuse	-12743
▁advocate	-12744
▁annually	-12745
▁combines	-12746
▁marathon	-12747
▁moderate	-12748
▁tutorial	-12749
▁Corporate	-12750
▁Universal	-12751
▁excessive	-12752
▁movements	-12753
▁nonprofit	-12754
▁pollution	-12755
▁reflected	-12756
▁relatives	-12757
▁substance	-12758
▁friendship	-12759
▁productive	-12760
▁identification	-12761
Ab	-12762
UI	-12763
pg	-12764
IES	-12765
ITH	-12766
bag	-12767
gon	-12768
▁SL	-12769
▁TE	-12770
▁Ze	-12771
,...	-12772
ello	-12773
iasm	-12774
oppy	-12775
robe	-12776
usty	-12777
▁Gat	-12778
▁Ink	-12779
▁Sin	-12780
▁Sty	-12781
▁sed	-12782
World	-12783
allow	-12784
ateur	-12785
bands	-12786
idity	-12787
ilant	-12788
olves	-12789
ubbed	-12790
urisd	-12791
ython	-12792
▁Apps	-12793
▁Boot	-12794
▁Leaf	-12795
▁Risk	-12796
▁bump	-12797
▁clue	-12798
▁ende	-12799
▁fate	-12800
▁reun	-12801
▁yoga	-12802
author	-12803
necess	-12804
plates	-12805
▁Woman	-12806
▁adopt	-12807
▁aging	-12808
▁codes	-12809
▁fract	-12810
▁helic	-12811
▁neuro	-12812
urities	-12813
▁Carlos	-12814
▁Letter	-12815
▁Notice	-12816
▁Warner	-12817
▁analyt	-12818
▁commod	-12819
▁nurses	-12820
▁propag	-12821
▁superb	-12822
▁thirty	-12823
▁Ferrari	-12824
▁Fitness	-12825
▁Greater	-12826
▁Heights	-12827
▁Housing	-12828
▁Oakland	-12829
▁beaches	-12830
▁bottles	-12831
▁closest	-12832
▁editing	-12833
▁handles	-12834
▁inspire	-12835
▁longest	-12836
▁placing	-12837
▁printer	-12838
▁rebuild	-12839
▁remarks	-12840
▁tasting	-12841
▁tension	-12842
▁Deadline	-12843
▁Nintendo	-12844
▁Transfer	-12845
▁ensuring	-12846
▁moisture	-12847
▁prosecut	-12848
▁Subscribe	-12849
▁defending	-12850
▁instances	-12851
▁Assessment	-12852
▁BlackBerry	-12853
▁capability	-12854
▁laboratory	-12855
▁prevention	-12856
▁conservation	-12857
▁considerable	-12858
▁organisation	-12859
▁personalized	-12860
->	-12861
?.	-12862
SG	-12863
BER	-12864
DER	-12865
del	-12866
mid	-12867
▁ax	-12868
▁pb	-12869
Good	-12870
bank	-12871
brew	-12872
clop	-12873
itol	-12874
orus	-12875
when	-12876
wind	-12877
▁<![	-12878
▁Kam	-12879
▁Lay	-12880
▁Nok	-12881
▁Pam	-12882
▁Vel	-12883
▁Yay	-12884
▁les	-12885
▁ves	-12886
anium	-12887
raine	-12888
yster	-12889
▁Celt	-12890
▁Mend	-12891
▁cure	-12892
▁glue	-12893
▁gray	-12894
▁pron	-12895
▁tang	-12896
▁vert	-12897
Posted	-12898
handed	-12899
prises	-12900
usters	-12901
usting	-12902
▁Alert	-12903
▁Plant	-12904
▁Storm	-12905
▁Swiss	-12906
▁Tbsps	-12907
▁encry	-12908
▁gotta	-12909
▁hoped	-12910
▁tends	-12911
▁Bright	-12912
▁Status	-12913
▁Walter	-12914
▁farmer	-12915
▁insane	-12916
▁whilst	-12917
ifferent	-12918
▁Fellows	-12919
▁Islamic	-12920
▁Suggest	-12921
▁cancell	-12922
▁evident	-12923
▁tweeted	-12924
▁Response	-12925
▁Reviewed	-12926
▁disagree	-12927
▁operator	-12928
▁optional	-12929
▁Agreement	-12930
▁converted	-12931
▁diagnosed	-12932
▁discusses	-12933
▁incorrect	-12934
▁sentiment	-12935
▁testimony	-12936
▁assignment	-12937
▁dedication	-12938
▁legitimate	-12939
▁nationally	-12940
▁constructed	-12941
▁measurement	-12942
▁reservation	-12943
~~~~~~~~~~~~~~~~	-12944
TO	-12945
ilk	-12946
ugg	-12947
▁(#	-12948
▁Fu	-12949
▁XP	-12950
▁Ye	-12951
IGHT	-12952
code	-12953
▁Cad	-12954
▁Lie	-12955
▁Rum	-12956
▁Rut	-12957
▁Sit	-12958
▁UPD	-12959
▁[…]	-12960
▁fut	-12961
icity	-12962
▁Bapt	-12963
▁Merc	-12964
▁Path	-12965
▁Pete	-12966
▁Pine	-12967
▁Soul	-12968
▁aged	-12969
▁alot	-12970
▁bake	-12971
▁bark	-12972
▁bicy	-12973
▁bulk	-12974
▁knit	-12975
▁mole	-12976
▁slim	-12977
▁ware	-12978
health	-12979
▁Colin	-12980
▁Getty	-12981
▁Lemon	-12982
▁Likes	-12983
▁Tokyo	-12984
▁batch	-12985
▁climb	-12986
▁frank	-12987
▁greet	-12988
▁ninth	-12989
▁sells	-12990
▁shore	-12991
▁stack	-12992
estrian	-12993
inction	-12994
▁Ambass	-12995
▁Ashley	-12996
▁Holmes	-12997
▁Jacobs	-12998
▁Syrian	-12999
▁enroll	-13000
▁frames	-13001
▁lining	-13002
▁refers	-13003
▁rocket	-13004
▁Recipes	-13005
▁Someone	-13006
▁consent	-13007
▁emerged	-13008
▁trusted	-13009
mentation	-13010
▁Wireless	-13011
▁attacked	-13012
▁composed	-13013
▁disorder	-13014
▁explicit	-13015
▁momentum	-13016
▁weekends	-13017
▁wildlife	-13018
▁terrorist	-13019
▁eliminated	-13020
▁passionate	-13021
▁smartphone	-13022
▁Netherlands	-13023
▁neighborhoods	-13024
▁specifications	-13025
GO	-13026
ACK	-13027
PDF	-13028
Pal	-13029
aho	-13030
dis	-13031
olo	-13032
▁MI	-13033
▁Tu	-13034
▁Ub	-13035
▁xo	-13036
race	-13037
rape	-13038
▁FBI	-13039
▁PRO	-13040
▁Pel	-13041
▁Spl	-13042
▁aer	-13043
▁jar	-13044
Reply	-13045
▁Brid	-13046
▁Pent	-13047
▁Skin	-13048
▁Stri	-13049
▁Wash	-13050
▁crop	-13051
▁ears	-13052
▁hike	-13053
▁mart	-13054
▁slot	-13055
▁sore	-13056
terior	-13057
▁Basic	-13058
▁Brady	-13059
▁Haven	-13060
▁Lower	-13061
▁Quant	-13062
▁Tours	-13063
▁Train	-13064
▁accum	-13065
▁hydro	-13066
▁rider	-13067
▁steep	-13068
▁wanna	-13069
ainless	-13070
ignment	-13071
selling	-13072
writing	-13073
▁Chapel	-13074
▁Regard	-13075
▁abroad	-13076
▁lounge	-13077
▁resign	-13078
▁simult	-13079
▁tastes	-13080
attering	-13081
▁Neither	-13082
▁assured	-13083
▁editors	-13084
▁Benjamin	-13085
▁catching	-13086
▁relation	-13087
▁rotation	-13088
▁strictly	-13089
▁Otherwise	-13090
▁affiliate	-13091
▁attacking	-13092
▁execution	-13093
▁mechanism	-13094
▁Innovation	-13095
▁compassion	-13096
▁compatible	-13097
▁Competition	-13098
▁Educational	-13099
▁Publication	-13100
▁controversy	-13101
▁corporation	-13102
▁exploration	-13103
▁intelligent	-13104
▁transferred	-13105
▁psychological	-13106
)(	-13107
WS	-13108
ui	-13109
ARD	-13110
Apr	-13111
dri	-13112
omi	-13113
▁Az	-13114
Last	-13115
Part	-13116
arse	-13117
fers	-13118
ords	-13119
resa	-13120
untu	-13121
wire	-13122
▁Exc	-13123
▁GDP	-13124
▁Tar	-13125
▁Tum	-13126
▁bio	-13127
▁sou	-13128
Watch	-13129
bacco	-13130
iches	-13131
ierra	-13132
never	-13133
▁Curt	-13134
▁Kend	-13135
▁Vine	-13136
▁brut	-13137
▁deer	-13138
▁fier	-13139
▁grid	-13140
▁soda	-13141
anners	-13142
ippers	-13143
lectic	-13144
rowave	-13145
rupted	-13146
▁Funny	-13147
▁Stats	-13148
▁bored	-13149
▁dairy	-13150
▁harsh	-13151
▁laser	-13152
▁overt	-13153
▁spare	-13154
▁sucks	-13155
▁towel	-13156
▁Adjust	-13157
▁Amanda	-13158
▁Camden	-13159
▁Camera	-13160
▁Groups	-13161
▁Herald	-13162
▁Lauren	-13163
▁Legacy	-13164
▁Offers	-13165
▁Shakes	-13166
▁ballot	-13167
▁boring	-13168
▁distur	-13169
▁finely	-13170
▁guided	-13171
▁salmon	-13172
▁wooden	-13173
▁Beijing	-13174
▁Contrib	-13175
▁broader	-13176
▁careers	-13177
▁nearest	-13178
▁warming	-13179
▁Bachelor	-13180
▁Campbell	-13181
▁Investig	-13182
▁decrease	-13183
▁headline	-13184
▁meantime	-13185
▁outfield	-13186
▁pipeline	-13187
▁situated	-13188
▁spacious	-13189
▁Discovery	-13190
▁audiences	-13191
▁convicted	-13192
▁delighted	-13193
▁secretary	-13194
▁Basketball	-13195
▁addressing	-13196
▁nomination	-13197
▁priorities	-13198
▁thoroughly	-13199
▁tremendous	-13200
▁tablespoons	-13201
▁threatening	-13202
▁descriptions	-13203
▁developments	-13204
▁intervention	-13205
▁organisations	-13206
▁sustainability	-13207
.]	-13208
.—	-13209
ATA	-13210
Per	-13211
bec	-13212
blr	-13213
pot	-13214
rek	-13215
▁Gy	-13216
▁MT	-13217
agne	-13218
ahah	-13219
cled	-13220
news	-13221
odel	-13222
zech	-13223
▁Bor	-13224
▁Bot	-13225
▁Cox	-13226
▁Eli	-13227
▁Nap	-13228
▁Pok	-13229
▁ash	-13230
Black	-13231
afood	-13232
cover	-13233
inery	-13234
somet	-13235
usive	-13236
▁Draw	-13237
▁Garc	-13238
▁Glen	-13239
▁Kick	-13240
▁Rate	-13241
▁irre	-13242
▁lace	-13243
▁ramp	-13244
▁reck	-13245
ainted	-13246
amento	-13247
herent	-13248
hester	-13249
▁Achie	-13250
▁Bless	-13251
▁Deals	-13252
▁Glenn	-13253
▁Homes	-13254
▁Raven	-13255
▁Stage	-13256
▁Sugar	-13257
▁alien	-13258
▁fence	-13259
perform	-13260
▁Alumni	-13261
▁Butter	-13262
▁Concer	-13263
▁Freder	-13264
▁Racing	-13265
▁Script	-13266
▁beside	-13267
▁census	-13268
▁floors	-13269
▁fright	-13270
▁raises	-13271
▁titled	-13272
oooooooo	-13273
▁Package	-13274
▁Request	-13275
▁Transit	-13276
▁Vintage	-13277
▁beneath	-13278
▁carrots	-13279
▁durable	-13280
▁lighter	-13281
▁rentals	-13282
▁Benefits	-13283
▁counting	-13284
▁merchand	-13285
▁protests	-13286
▁troubles	-13287
▁Certified	-13288
▁Companies	-13289
▁abandoned	-13290
▁demanding	-13291
▁fortunate	-13292
▁hilarious	-13293
▁integrate	-13294
▁launching	-13295
▁occasions	-13296
▁recipient	-13297
▁replacing	-13298
▁wrestling	-13299
▁Employment	-13300
▁Historical	-13301
▁camouflage	-13302
▁Restaurants	-13303
▁achievement	-13304
▁progressive	-13305
▁extraordinary	-13306
▁institutional	-13307
":	-13308
EB	-13309
MO	-13310
VC	-13311
ao	-13312
amo	-13313
ava	-13314
ede	-13315
har	-13316
mad	-13317
…..	-13318
▁#:	-13319
▁OL	-13320
▁SR	-13321
Back	-13322
hole	-13323
inda	-13324
plan	-13325
rors	-13326
udge	-13327
▁Bee	-13328
▁Egg	-13329
▁Kel	-13330
▁Lac	-13331
▁MAC	-13332
▁toy	-13333
OURCE	-13334
acent	-13335
aints	-13336
ontal	-13337
opper	-13338
pathy	-13339
pless	-13340
range	-13341
usage	-13342
▁Hind	-13343
▁Mets	-13344
▁Ruby	-13345
▁Scar	-13346
▁Shir	-13347
▁YOUR	-13348
▁bang	-13349
▁beta	-13350
▁pond	-13351
ilight	-13352
ocated	-13353
▁Marie	-13354
▁Nokia	-13355
▁Plans	-13356
▁exped	-13357
▁lands	-13358
▁shout	-13359
changer	-13360
ometown	-13361
redient	-13362
▁Affili	-13363
▁Angels	-13364
▁Dining	-13365
▁Either	-13366
▁Hannah	-13367
▁Shared	-13368
▁broker	-13369
▁expend	-13370
▁fisher	-13371
▁helmet	-13372
▁metals	-13373
▁worlds	-13374
ographer	-13375
▁Battery	-13376
▁Reports	-13377
▁beloved	-13378
▁delayed	-13379
▁inflamm	-13380
▁matched	-13381
▁portray	-13382
▁posters	-13383
▁shipped	-13384
▁sisters	-13385
▁Harrison	-13386
▁Phillips	-13387
▁Thailand	-13388
▁arranged	-13389
▁wondered	-13390
▁Treatment	-13391
▁Volunteer	-13392
▁countless	-13393
▁emissions	-13394
▁placement	-13395
▁promising	-13396
▁taxpayers	-13397
▁versatile	-13398
▁Associates	-13399
▁conspiracy	-13400
▁passengers	-13401
▁implications	-13402
)-	-13403
./	-13404
mi	-13405
eng	-13406
ooo	-13407
tit	-13408
vet	-13409
▁DS	-13410
▁Et	-13411
▁Ku	-13412
▁NL	-13413
alia	-13414
anim	-13415
base	-13416
lied	-13417
omed	-13418
rise	-13419
▁Fit	-13420
▁din	-13421
▁fed	-13422
▁fel	-13423
▁hij	-13424
Photo	-13425
aning	-13426
gence	-13427
ieces	-13428
mount	-13429
▁Cake	-13430
▁Chad	-13431
▁Chen	-13432
▁HERE	-13433
▁Joel	-13434
▁Magn	-13435
▁Sett	-13436
▁bugs	-13437
▁gate	-13438
▁glam	-13439
▁lone	-13440
▁wool	-13441
ulator	-13442
▁Amend	-13443
▁Julie	-13444
▁Parts	-13445
▁didnt	-13446
▁dimin	-13447
▁ghost	-13448
▁overs	-13449
▁puppy	-13450
▁queen	-13451
▁shelf	-13452
connect	-13453
▁Behind	-13454
▁Filter	-13455
▁Forums	-13456
▁Growth	-13457
▁Termin	-13458
▁finale	-13459
▁speeds	-13460
▁tweets	-13461
▁waited	-13462
blogspot	-13463
ensional	-13464
▁Average	-13465
▁Captain	-13466
▁Convers	-13467
▁Turkish	-13468
▁approve	-13469
▁arguing	-13470
▁embrace	-13471
▁lecture	-13472
▁painful	-13473
▁pitched	-13474
▁replies	-13475
▁suicide	-13476
▁tackles	-13477
▁touches	-13478
▁tourist	-13479
▁tribute	-13480
▁Airlines	-13481
▁Opinions	-13482
▁Sentinel	-13483
▁Township	-13484
▁barriers	-13485
▁billions	-13486
▁duration	-13487
▁opposing	-13488
▁proceeds	-13489
▁trillion	-13490
▁welcomed	-13491
SaveRemove	-13492
▁Materials	-13493
▁animation	-13494
▁nominated	-13495
▁struggles	-13496
▁Electronic	-13497
▁approached	-13498
▁designated	-13499
▁enthusiasm	-13500
▁psychology	-13501
▁understands	-13502
▁Communication	-13503
▁effectiveness	-13504
▁undergraduate	-13505
GR	-13506
wy	-13507
▁â	-13508
▶<	-13509
Oct	-13510
Off	-13511
apy	-13512
dam	-13513
opl	-13514
▁BU	-13515
▁Fo	-13516
▁GB	-13517
▁Ni	-13518
▁WP	-13519
List	-13520
]>▶<	-13521
avan	-13522
bone	-13523
have	-13524
kell	-13525
yson	-13526
▁EST	-13527
▁Gig	-13528
▁OMG	-13529
▁avo	-13530
▁cir	-13531
acket	-13532
being	-13533
edict	-13534
icaid	-13535
rella	-13536
▁AIDS	-13537
▁Drew	-13538
▁Oliv	-13539
▁Poor	-13540
▁Wend	-13541
▁Zach	-13542
▁hood	-13543
▁mesh	-13544
▁trap	-13545
▁volt	-13546
]>▶<![	-13547
isting	-13548
▁Blogs	-13549
▁Foods	-13550
▁Spect	-13551
▁Worth	-13552
▁curve	-13553
▁donor	-13554
▁irrit	-13555
▁showc	-13556
▁urine	-13557
▁Expert	-13558
▁Rodrig	-13559
▁burden	-13560
▁burger	-13561
▁commer	-13562
▁crimin	-13563
▁deemed	-13564
▁magnet	-13565
▁orient	-13566
▁revers	-13567
▁topped	-13568
▁Complex	-13569
▁Funeral	-13570
▁Guarant	-13571
▁Masters	-13572
▁analyze	-13573
▁cartoon	-13574
▁forcing	-13575
▁freshly	-13576
▁spinach	-13577
▁stuffed	-13578
▁tobacco	-13579
▁Advisory	-13580
▁Cultural	-13581
▁Platform	-13582
▁Strategy	-13583
▁dividend	-13584
▁engaging	-13585
▁heritage	-13586
▁homemade	-13587
▁inviting	-13588
▁outdoors	-13589
▁peaceful	-13590
▁profiles	-13591
▁sponsors	-13592
▁starters	-13593
▁Cambridge	-13594
▁affecting	-13595
▁paragraph	-13596
▁Sacramento	-13597
▁adventures	-13598
▁attributes	-13599
▁practition	-13600
▁accommodate	-13601
▁Requirements	-13602
)?	-13603
▁↑	-13604
★★	-13605
Aug	-13606
OUR	-13607
USA	-13608
big	-13609
hee	-13610
irk	-13611
kit	-13612
▁da	-13613
abel	-13614
onia	-13615
show	-13616
stan	-13617
émon	-13618
▁Rah	-13619
▁Sue	-13620
▁fax	-13621
▁hug	-13622
▁rod	-13623
Click	-13624
const	-13625
illon	-13626
ombie	-13627
ricia	-13628
think	-13629
▁Emma	-13630
▁Reid	-13631
▁Shaw	-13632
▁Tall	-13633
▁craw	-13634
▁odds	-13635
▁ours	-13636
grades	-13637
linary	-13638
▁Tower	-13639
▁meter	-13640
▁stiff	-13641
ambling	-13642
manship	-13643
natural	-13644
olester	-13645
▁Poland	-13646
▁Singer	-13647
▁financ	-13648
▁gently	-13649
▁hunger	-13650
▁iconic	-13651
▁rookie	-13652
▁sewing	-13653
▁Markets	-13654
▁athlete	-13655
▁discour	-13656
▁lacking	-13657
▁leisure	-13658
▁passage	-13659
▁scholar	-13660
▁showers	-13661
▁trainer	-13662
▁tuition	-13663
▁Athletic	-13664
▁Tutorial	-13665
▁bankrupt	-13666
▁cinnamon	-13667
▁intimate	-13668
▁lineback	-13669
▁sandwich	-13670
especially	-13671
▁Equipment	-13672
▁Survivors	-13673
▁desperate	-13674
▁travelers	-13675
▁authorized	-13676
▁complexity	-13677
▁facilitate	-13678
▁preventing	-13679
▁underlying	-13680
▁Philippines	-13681
▁acknowledge	-13682
▁allegations	-13683
▁translation	-13684
▁concentration	-13685
DR	-13686
NP	-13687
di	-13688
tv	-13689
”)	-13690
▁½	-13691
OWN	-13692
zel	-13693
▁Om	-13694
▁SB	-13695
▁UI	-13696
▁Wa	-13697
▁na	-13698
Life	-13699
oric	-13700
rant	-13701
▁Bio	-13702
▁SQL	-13703
▁Suz	-13704
▁Unc	-13705
▁fog	-13706
▁gut	-13707
▁lug	-13708
▁vig	-13709
acies	-13710
arett	-13711
aways	-13712
ibles	-13713
pload	-13714
reate	-13715
▁AdEx	-13716
▁Ches	-13717
▁Earn	-13718
▁Lanc	-13719
▁Than	-13720
▁Visa	-13721
▁clay	-13722
▁keen	-13723
▁kits	-13724
▁lips	-13725
▁mate	-13726
▁nest	-13727
▁vegg	-13728
celona	-13729
enders	-13730
iances	-13731
iments	-13732
lation	-13733
normal	-13734
▁Banks	-13735
▁Beyon	-13736
▁Hyper	-13737
▁Iraqi	-13738
▁Plain	-13739
▁Randy	-13740
▁Salad	-13741
▁icons	-13742
▁inval	-13743
▁outer	-13744
▁revel	-13745
▁rings	-13746
▁salon	-13747
▁sized	-13748
ounding	-13749
▁Adrian	-13750
▁Branch	-13751
▁Garcia	-13752
▁Portug	-13753
▁Supply	-13754
▁entity	-13755
▁fights	-13756
▁hazard	-13757
▁melted	-13758
▁partly	-13759
▁presum	-13760
▁redist	-13761
▁steady	-13762
▁summit	-13763
▁tagged	-13764
▁tattoo	-13765
▁Commons	-13766
▁Episode	-13767
▁Lebanon	-13768
▁Rentals	-13769
▁Showing	-13770
▁beliefs	-13771
▁blanket	-13772
▁briefly	-13773
▁evolved	-13774
▁intimid	-13775
▁kicking	-13776
▁reduces	-13777
▁relaxed	-13778
▁romance	-13779
▁silence	-13780
▁tablets	-13781
▁tourism	-13782
▁Material	-13783
▁Reserved	-13784
▁contests	-13785
▁knitting	-13786
▁operates	-13787
▁treasure	-13788
▁Northeast	-13789
▁algorithm	-13790
▁databases	-13791
▁detection	-13792
▁legendary	-13793
▁teammates	-13794
▁organizing	-13795
▁satisfying	-13796
▁selections	-13797
▁traditions	-13798
▁travelling	-13799
▁Accessories	-13800
▁AdExchanger	-13801
▁Interesting	-13802
▁examination	-13803
▁grandfather	-13804
▁consultation	-13805
▁contributing	-13806
▁experimental	-13807
▁inappropriate	-13808
"?	-13809
HC	-13810
ERY	-13811
psy	-13812
▁Ja	-13813
▁Ru	-13814
▁TB	-13815
="">	-13816
OOOO	-13817
etta	-13818
ghai	-13819
hero	-13820
iott	-13821
opes	-13822
osex	-13823
rizz	-13824
▁Maz	-13825
▁Vik	-13826
▁Zoo	-13827
anked	-13828
chant	-13829
ewide	-13830
oples	-13831
pring	-13832
▁Drop	-13833
▁Sell	-13834
▁Swim	-13835
▁cran	-13836
▁echo	-13837
▁fare	-13838
▁laug	-13839
▁oral	-13840
▁skip	-13841
▁tale	-13842
ateral	-13843
ealous	-13844
idency	-13845
udding	-13846
▁Betty	-13847
▁Fried	-13848
▁Idaho	-13849
▁Julia	-13850
▁Rated	-13851
▁Tracy	-13852
▁Upper	-13853
▁ankle	-13854
▁bacon	-13855
▁careg	-13856
▁inaug	-13857
▁naked	-13858
▁sheer	-13859
▁wheat	-13860
HINGTON	-13861
inburgh	-13862
theless	-13863
▁Tennis	-13864
▁barrel	-13865
▁bullet	-13866
▁buried	-13867
▁crowds	-13868
▁jurisd	-13869
▁perpet	-13870
▁priced	-13871
▁regret	-13872
function	-13873
▁Baptist	-13874
▁Midwest	-13875
▁Montana	-13876
▁Outside	-13877
▁density	-13878
▁discipl	-13879
▁earning	-13880
▁educate	-13881
▁laughed	-13882
▁modules	-13883
▁soldier	-13884
▁whereas	-13885
necessary	-13886
▁Cemetery	-13887
▁Neighbor	-13888
▁annoying	-13889
▁basement	-13890
▁bedrooms	-13891
▁collapse	-13892
▁profound	-13893
▁receives	-13894
▁Armstrong	-13895
▁Downloads	-13896
▁Henderson	-13897
▁Libraries	-13898
▁Statement	-13899
▁accompany	-13900
▁partially	-13901
▁violation	-13902
▁Facilities	-13903
▁Investment	-13904
▁challenged	-13905
▁consulting	-13906
▁Coordinator	-13907
▁Recommended	-13908
▁confirmation	-13909
▁representation	-13910
Dr	-13911
></	-13912
tex	-13913
usr	-13914
uum	-13915
▁AZ	-13916
▁FY	-13917
▁GS	-13918
▁iT	-13919
▁||	-13920
comp	-13921
fred	-13922
full	-13923
ivor	-13924
rate	-13925
rons	-13926
ulin	-13927
▁Chi	-13928
▁Eat	-13929
▁GPS	-13930
▁Liz	-13931
▁MAN	-13932
▁Ric	-13933
▁Tab	-13934
▁lac	-13935
March	-13936
acker	-13937
ernel	-13938
igion	-13939
limin	-13940
rylic	-13941
▁Cubs	-13942
▁Tbsp	-13943
▁ampl	-13944
▁cere	-13945
▁gest	-13946
▁horm	-13947
▁melt	-13948
▁prox	-13949
minded	-13950
ometer	-13951
ourses	-13952
▁Brett	-13953
▁burst	-13954
▁charm	-13955
▁crops	-13956
▁dealt	-13957
▁pione	-13958
▁polls	-13959
▁theft	-13960
▁tower	-13961
claimer	-13962
leading	-13963
▁Brooks	-13964
▁Ethics	-13965
▁Philip	-13966
▁academ	-13967
▁astron	-13968
▁awhile	-13969
▁exotic	-13970
▁retrie	-13971
▁silent	-13972
▁stance	-13973
▁unders	-13974
▁verify	-13975
specific	-13976
▁Organic	-13977
▁Studios	-13978
▁diamond	-13979
▁doubles	-13980
▁fastest	-13981
▁sponsor	-13982
▁volumes	-13983
irmingham	-13984
▁Discount	-13985
▁Explorer	-13986
▁engineer	-13987
▁evaluate	-13988
▁mattress	-13989
▁ordering	-13990
▁rational	-13991
▁Argentina	-13992
▁Important	-13993
▁headlines	-13994
▁Initiative	-13995
▁accordance	-13996
▁generating	-13997
▁invitation	-13998
▁motivation	-13999
▁reflection	-14000
▁structural	-14001
▁Productions	-14002
▁informative	-14003
▁Applications	-14004
▁Independence	-14005
▁significance	-14006
▁Advertisement	-14007
▁administrator	-14008
▁uncomfortable	-14009
oa	-14010
pur	-14011
▁Og	-14012
▁QB	-14013
also	-14014
help	-14015
oded	-14016
onge	-14017
▁Alz	-14018
▁Bos	-14019
▁Cer	-14020
▁Fel	-14021
▁Gam	-14022
▁Mav	-14023
▁NSW	-14024
▁Saw	-14025
▁dur	-14026
▁fer	-14027
▁fet	-14028
▁mum	-14029
IMAGE	-14030
aceut	-14031
ipher	-14032
table	-14033
three	-14034
▁Defe	-14035
▁Happ	-14036
▁Infl	-14037
▁Juan	-14038
▁Laws	-14039
▁NOTE	-14040
▁Neck	-14041
▁Slow	-14042
▁Vick	-14043
▁hint	-14044
▁intr	-14045
▁shar	-14046
▁thru	-14047
▁tops	-14048
ictive	-14049
ittees	-14050
▁Bryan	-14051
▁Crown	-14052
▁Frame	-14053
▁Ideas	-14054
▁Palin	-14055
▁Treas	-14056
▁herbs	-14057
▁reass	-14058
▁sneak	-14059
ductive	-14060
million	-14061
uscript	-14062
▁Almost	-14063
▁Become	-14064
▁Braves	-14065
▁Marcus	-14066
▁Monroe	-14067
▁amazed	-14068
▁analys	-14069
▁booked	-14070
▁cloves	-14071
▁lovers	-14072
▁noting	-14073
▁notion	-14074
▁poorly	-14075
▁rumors	-14076
▁spices	-14077
▁voices	-14078
▁Economy	-14079
▁Griffin	-14080
▁Heather	-14081
▁Imagine	-14082
▁Individ	-14083
▁Melissa	-14084
▁Usually	-14085
▁flowing	-14086
▁linking	-14087
▁muscles	-14088
▁mustard	-14089
▁Criminal	-14090
▁Specific	-14091
▁churches	-14092
▁crossing	-14093
▁humanity	-14094
▁invested	-14095
▁supplied	-14096
▁graduates	-14097
▁permitted	-14098
▁retailers	-14099
▁spotlight	-14100
▁Absolutely	-14101
▁Assistance	-14102
▁commenting	-14103
▁describing	-14104
▁executives	-14105
▁determining	-14106
▁populations	-14107
-------------	-14108
▁combinations	-14109
▁administrators	-14110
CI	-14111
GH	-14112
lu	-14113
yy	-14114
Art	-14115
NER	-14116
OCK	-14117
URE	-14118
abe	-14119
bra	-14120
dem	-14121
nal	-14122
▁:(	-14123
▁</	-14124
▁CG	-14125
▁DT	-14126
▁Gh	-14127
▁RT	-14128
Port	-14129
aria	-14130
inde	-14131
irus	-14132
onts	-14133
open	-14134
ques	-14135
▁Ble	-14136
▁Mob	-14137
▁PHP	-14138
▁Wet	-14139
ontin	-14140
phony	-14141
▁Away	-14142
▁Lars	-14143
▁Lion	-14144
▁Pill	-14145
▁cham	-14146
▁gown	-14147
▁leap	-14148
▁rape	-14149
▁sher	-14150
▁urge	-14151
astian	-14152
lected	-14153
▁Adult	-14154
▁Avoid	-14155
▁Chand	-14156
▁Honey	-14157
▁Shawn	-14158
▁Wrest	-14159
▁medal	-14160
▁metab	-14161
▁robot	-14162
▁whisk	-14163
itivity	-14164
powered	-14165
▁Cruise	-14166
▁Ginger	-14167
▁Instit	-14168
▁Intell	-14169
▁Mathem	-14170
▁beaten	-14171
▁charts	-14172
▁christ	-14173
▁heated	-14174
▁propri	-14175
▁tempor	-14176
▁tongue	-14177
▁twelve	-14178
clusions	-14179
neapolis	-14180
▁Certain	-14181
▁breathe	-14182
▁hopeful	-14183
▁keyword	-14184
▁secured	-14185
▁sounded	-14186
▁tactics	-14187
▁threads	-14188
▁transit	-14189
▁travels	-14190
▁Benedict	-14191
▁Engineer	-14192
▁Medicaid	-14193
▁abortion	-14194
▁costumes	-14195
▁innocent	-14196
▁resolved	-14197
▁stressed	-14198
▁behaviour	-14199
▁dismissed	-14200
▁investing	-14201
▁projected	-14202
▁qualities	-14203
▁streaming	-14204
▁switching	-14205
▁universal	-14206
▁unlimited	-14207
▁WASHINGTON	-14208
▁attraction	-14209
▁physicians	-14210
▁questioned	-14211
▁attractions	-14212
▁destinations	-14213
▁transmission	-14214
?'	-14215
Of	-14216
WW	-14217
gom	-14218
gra	-14219
▁BP	-14220
▁FE	-14221
▁MW	-14222
▁Mt	-14223
▁RO	-14224
▁SK	-14225
▁VP	-14226
▁ma	-14227
eeee	-14228
gged	-14229
ibli	-14230
ulus	-14231
▁;-)	-14232
▁ANY	-14233
▁LCD	-14234
▁Led	-14235
▁MIT	-14236
▁Nep	-14237
▁Sov	-14238
▁caf	-14239
great	-14240
ilion	-14241
ingle	-14242
liest	-14243
orate	-14244
ribly	-14245
▁Cann	-14246
▁Lang	-14247
▁cage	-14248
▁crab	-14249
▁dign	-14250
▁haha	-14251
▁hats	-14252
▁holy	-14253
▁pant	-14254
▁sink	-14255
▁spir	-14256
▁tbsp	-14257
ancers	-14258
direct	-14259
member	-14260
second	-14261
usalem	-14262
▁Donna	-14263
▁Lunch	-14264
▁Maver	-14265
▁Moder	-14266
▁Offer	-14267
▁Quote	-14268
▁Rosen	-14269
▁Twins	-14270
▁brick	-14271
▁hypot	-14272
▁logic	-14273
▁ought	-14274
▁rides	-14275
▁wages	-14276
country	-14277
osystem	-14278
▁Auburn	-14279
▁Dragon	-14280
▁Greens	-14281
▁Linked	-14282
▁Oliver	-14283
▁Speech	-14284
▁convey	-14285
▁cooler	-14286
▁correl	-14287
▁mature	-14288
▁ribbon	-14289
▁sketch	-14290
December	-14291
▁Against	-14292
▁Holland	-14293
▁Mustang	-14294
▁besides	-14295
▁hardest	-14296
▁immense	-14297
▁impacts	-14298
▁obesity	-14299
▁touring	-14300
▁Changing	-14301
▁Designer	-14302
▁Peterson	-14303
▁independ	-14304
▁keywords	-14305
▁listened	-14306
▁searches	-14307
▁treating	-14308
▁Indonesia	-14309
▁Reference	-14310
▁appearing	-14311
▁dominated	-14312
▁healthier	-14313
▁measuring	-14314
▁predicted	-14315
▁sentenced	-14316
▁variables	-14317
▁Ambassador	-14318
▁Dimensions	-14319
▁Recreation	-14320
▁acceptance	-14321
▁accurately	-14322
▁agreements	-14323
▁Agriculture	-14324
▁arrangement	-14325
▁conjunction	-14326
▁highlighted	-14327
▁reliability	-14328
▁respondents	-14329
▁specialized	-14330
▁dramatically	-14331
▁interpretation	-14332
Ke	-14333
bn	-14334
ARY	-14335
Big	-14336
has	-14337
hum	-14338
irs	-14339
lay	-14340
whe	-14341
▁Dw	-14342
▁LP	-14343
IONS	-14344
Your	-14345
acre	-14346
arer	-14347
arma	-14348
cker	-14349
erie	-14350
inis	-14351
urry	-14352
zone	-14353
▁Ced	-14354
▁Gaz	-14355
▁Gur	-14356
▁Kan	-14357
▁Lil	-14358
▁Nin	-14359
▁OUT	-14360
▁UFC	-14361
▁ric	-14362
ISSEP	-14363
anyon	-14364
block	-14365
ostic	-14366
peare	-14367
plete	-14368
produ	-14369
urers	-14370
white	-14371
▁Buch	-14372
▁Conn	-14373
▁Forg	-14374
▁Hour	-14375
▁Luis	-14376
▁cush	-14377
▁grip	-14378
▁horn	-14379
▁pose	-14380
▁toug	-14381
advant	-14382
atches	-14383
ewater	-14384
inging	-14385
itudes	-14386
▁Czech	-14387
▁Skype	-14388
▁Solid	-14389
▁Stein	-14390
▁brave	-14391
▁cloth	-14392
▁gmail	-14393
▁patio	-14394
▁pulls	-14395
ascript	-14396
claimed	-14397
quisite	-14398
▁Casino	-14399
▁Chance	-14400
▁Cherry	-14401
▁Factor	-14402
▁Rescue	-14403
▁Unless	-14404
▁accent	-14405
▁comics	-14406
▁novels	-14407
▁racist	-14408
▁sticks	-14409
▁suited	-14410
▁Falcons	-14411
▁Pokémon	-14412
▁Returns	-14413
▁binding	-14414
▁grabbed	-14415
▁jealous	-14416
▁outlook	-14417
▁pumpkin	-14418
▁vitamin	-14419
ropolitan	-14420
▁Collabor	-14421
▁Gorgeous	-14422
▁Moreover	-14423
▁Probably	-14424
▁Teachers	-14425
▁overtime	-14426
▁rankings	-14427
▁revision	-14428
▁seasonal	-14429
▁sticking	-14430
▁tropical	-14431
▁wardrobe	-14432
▁youngest	-14433
▁Jerusalem	-14434
▁Rodriguez	-14435
▁educators	-14436
▁shoulders	-14437
▁Birmingham	-14438
▁Displaying	-14439
▁classified	-14440
▁continuous	-14441
▁excellence	-14442
▁refreshing	-14443
▁experiments	-14444
▁Contemporary	-14445
▁achievements	-14446
▁collaborative	-14447
▁simultaneously	-14448
">	-14449
EG	-14450
GC	-14451
zo	-14452
ATO	-14453
OLL	-14454
afe	-14455
agh	-14456
asm	-14457
bad	-14458
kan	-14459
lan	-14460
lem	-14461
mia	-14462
ogs	-14463
▁TW	-14464
▁Ts	-14465
▁UT	-14466
▁VM	-14467
▁tv	-14468
aman	-14469
arel	-14470
icts	-14471
lesh	-14472
pool	-14473
pres	-14474
unks	-14475
▁Bun	-14476
▁GET	-14477
▁Hoo	-14478
▁IRS	-14479
▁Koh	-14480
▁Nar	-14481
▁Typ	-14482
▁aqu	-14483
▁jet	-14484
▁lib	-14485
▁pap	-14486
White	-14487
algam	-14488
ioned	-14489
istol	-14490
▁Cris	-14491
▁Merr	-14492
▁Myth	-14493
▁PHOT	-14494
▁Sach	-14495
▁font	-14496
▁glob	-14497
▁styl	-14498
atical	-14499
gomery	-14500
mented	-14501
monton	-14502
ulates	-14503
washer	-14504
▁Apply	-14505
▁Casey	-14506
▁Eight	-14507
▁Metal	-14508
▁Patch	-14509
▁Pizza	-14510
▁adore	-14511
▁antib	-14512
▁chill	-14513
▁freak	-14514
▁grows	-14515
▁hence	-14516
▁indul	-14517
▁peers	-14518
▁shade	-14519
▁subur	-14520
▁zones	-14521
install	-14522
▁Albany	-14523
▁Arthur	-14524
▁Newton	-14525
▁Soccer	-14526
▁Writer	-14527
▁assemb	-14528
▁bubble	-14529
▁defect	-14530
▁foster	-14531
▁mixing	-14532
▁transp	-14533
————————	-14534
▁Capitol	-14535
▁Elliott	-14536
▁Protect	-14537
▁Teacher	-14538
▁creator	-14539
▁filming	-14540
▁garbage	-14541
▁manages	-14542
▁outrage	-14543
▁peppers	-14544
▁quietly	-14545
▁skilled	-14546
▁Christie	-14547
▁backyard	-14548
▁contacts	-14549
▁embedded	-14550
▁midnight	-14551
▁parallel	-14552
▁portions	-14553
▁restored	-14554
▁upgraded	-14555
▁Direction	-14556
▁achieving	-14557
▁fireplace	-14558
▁reactions	-14559
▁sentences	-14560
▁Networking	-14561
▁conducting	-14562
▁installing	-14563
▁overweight	-14564
▁protective	-14565
▁repository	-14566
▁variations	-14567
▁Fortunately	-14568
▁compression	-14569
▁frustrating	-14570
▁underground	-14571
▁difficulties	-14572
▁investigators	-14573
AME	-14574
Red	-14575
iri	-14576
oub	-14577
▁<<	-14578
▁Ay	-14579
▁CV	-14580
▁DL	-14581
▁ox	-14582
Play	-14583
ardo	-14584
ashi	-14585
avid	-14586
emic	-14587
inas	-14588
laim	-14589
▁Abd	-14590
▁Alt	-14591
▁Hed	-14592
▁Meg	-14593
▁Raw	-14594
▁Twe	-14595
▁sup	-14596
▁zip	-14597
Brien	-14598
cient	-14599
hesis	-14600
neath	-14601
pound	-14602
▁....	-14603
▁Benn	-14604
▁Blvd	-14605
▁Duck	-14606
▁Flat	-14607
▁Gate	-14608
▁Menu	-14609
▁Nova	-14610
▁Seth	-14611
▁Troy	-14612
▁WITH	-14613
▁Ways	-14614
▁poem	-14615
▁wand	-14616
Please	-14617
asonic	-14618
boards	-14619
oppers	-14620
▁Chase	-14621
▁Chile	-14622
▁Chron	-14623
▁Globe	-14624
▁bloom	-14625
▁bonds	-14626
▁brace	-14627
▁broth	-14628
▁cater	-14629
▁deriv	-14630
▁march	-14631
▁memor	-14632
▁nails	-14633
▁opera	-14634
▁shine	-14635
▁skept	-14636
▁syrup	-14637
ificent	-14638
ificial	-14639
ressing	-14640
▁Bottom	-14641
▁Figure	-14642
▁aggreg	-14643
▁desert	-14644
▁endors	-14645
▁seller	-14646
▁strand	-14647
▁volunt	-14648
▁wisely	-14649
clopedia	-14650
▁Counsel	-14651
▁Payment	-14652
▁collaps	-14653
▁costume	-14654
▁distant	-14655
▁divorce	-14656
▁filters	-14657
▁labeled	-14658
▁observe	-14659
▁pension	-14660
ationally	-14661
available	-14662
olesterol	-14663
▁Citizens	-14664
▁Movement	-14665
▁literary	-14666
▁musician	-14667
▁overlook	-14668
▁Barcelona	-14669
▁Programme	-14670
▁attorneys	-14671
▁decorated	-14672
▁disappear	-14673
▁intensity	-14674
▁precision	-14675
▁releasing	-14676
▁Industrial	-14677
▁Newsletter	-14678
▁calculated	-14679
▁delightful	-14680
▁profitable	-14681
▁publishers	-14682
▁supportive	-14683
▁Partnership	-14684
▁Shakespeare	-14685
▁electronics	-14686
▁marketplace	-14687
▁Publications	-14688
▁measurements	-14689
OUS	-14690
Out	-14691
ido	-14692
lli	-14693
oux	-14694
pal	-14695
pdf	-14696
▁Bh	-14697
▁DH	-14698
▁DR	-14699
▁EM	-14700
▁ER	-14701
▁GL	-14702
▁LL	-14703
alie	-14704
ieve	-14705
umph	-14706
▁Bie	-14707
▁Fav	-14708
▁Mas	-14709
▁RES	-14710
▁Rid	-14711
▁pix	-14712
aines	-14713
quake	-14714
start	-14715
trans	-14716
▁Carn	-14717
▁Cruz	-14718
▁Decl	-14719
▁Hook	-14720
▁Rene	-14721
▁Vote	-14722
▁Wals	-14723
▁lion	-14724
▁mins	-14725
▁mint	-14726
▁murd	-14727
▁prol	-14728
arency	-14729
keeper	-14730
velope	-14731
▁Agent	-14732
▁Brief	-14733
▁Chart	-14734
▁Grill	-14735
▁Might	-14736
▁Often	-14737
▁Plaza	-14738
▁Prize	-14739
▁Ralph	-14740
▁blade	-14741
▁buyer	-14742
▁cares	-14743
▁combo	-14744
▁cruel	-14745
▁enfor	-14746
▁frost	-14747
▁joins	-14748
▁kicks	-14749
▁stole	-14750
▁trace	-14751
▁wrist	-14752
iblical	-14753
▁Andrea	-14754
▁Canyon	-14755
▁Pepper	-14756
▁Period	-14757
▁Powell	-14758
▁bitter	-14759
▁fridge	-14760
▁iTunes	-14761
▁insect	-14762
▁poison	-14763
▁shades	-14764
▁sticky	-14765
▁thresh	-14766
▁upside	-14767
heastern	-14768
liminary	-14769
ountered	-14770
▁Bedroom	-14771
▁Vitamin	-14772
▁custody	-14773
▁drafted	-14774
▁fulfill	-14775
▁imaging	-14776
▁legally	-14777
▁palette	-14778
▁trigger	-14779
expensive	-14780
▁Projects	-14781
▁Resident	-14782
▁Scottish	-14783
▁assuming	-14784
▁bacteria	-14785
▁compiled	-14786
▁concerts	-14787
▁drilling	-14788
▁entities	-14789
▁executed	-14790
▁floating	-14791
▁launches	-14792
▁occupied	-14793
▁patience	-14794
▁pitchers	-14795
▁sporting	-14796
▁surfaces	-14797
▁wherever	-14798
▁Alzheimer	-14799
▁financing	-14800
▁identical	-14801
▁strengths	-14802
▁suspected	-14803
▁perception	-14804
▁preference	-14805
▁separately	-14806
▁touchdowns	-14807
▁violations	-14808
▁encountered	-14809
▁prestigious	-14810
▁acknowledged	-14811
DE	-14812
SI	-14813
MAN	-14814
OUT	-14815
bye	-14816
eps	-14817
quo	-14818
rin	-14819
uan	-14820
▁(“	-14821
▁DV	-14822
▁Ot	-14823
Talk	-14824
Time	-14825
VIEW	-14826
camp	-14827
enez	-14828
esan	-14829
html	-14830
izar	-14831
olve	-14832
rely	-14833
▁Hip	-14834
▁ISO	-14835
▁Raf	-14836
▁SAP	-14837
▁kay	-14838
▁yog	-14839
asive	-14840
avior	-14841
black	-14842
chron	-14843
color	-14844
enzie	-14845
izers	-14846
ocate	-14847
olved	-14848
opath	-14849
quire	-14850
▁Chan	-14851
▁Fans	-14852
▁Fitz	-14853
▁Geor	-14854
▁Into	-14855
▁Nord	-14856
▁Pand	-14857
▁Walt	-14858
▁Webb	-14859
▁Zone	-14860
▁amid	-14861
▁boil	-14862
▁cave	-14863
▁deny	-14864
▁medi	-14865
▁oils	-14866
▁peek	-14867
▁sung	-14868
Health	-14869
gments	-14870
▁Cyber	-14871
▁Ellen	-14872
▁Extra	-14873
▁Kenny	-14874
▁Medal	-14875
▁Paint	-14876
▁Words	-14877
▁lover	-14878
▁revis	-14879
▁sends	-14880
▁Brooke	-14881
▁Greene	-14882
▁Lounge	-14883
▁Medium	-14884
▁Memory	-14885
▁clouds	-14886
▁crunch	-14887
▁deadly	-14888
▁dealer	-14889
▁gospel	-14890
▁guards	-14891
▁locker	-14892
▁multip	-14893
▁resemb	-14894
▁vocals	-14895
although	-14896
ognitive	-14897
▁Hopkins	-14898
▁Regards	-14899
▁Workers	-14900
▁batting	-14901
▁eastern	-14902
▁exhaust	-14903
▁feather	-14904
▁magical	-14905
▁permits	-14906
▁praying	-14907
▁rewards	-14908
▁theoret	-14909
▁Favorite	-14910
▁Sterling	-14911
▁Warriors	-14912
▁deployed	-14913
▁gameplay	-14914
▁hometown	-14915
▁longtime	-14916
▁touching	-14917
▁Worldwide	-14918
▁averaging	-14919
▁sculpture	-14920
▁References	-14921
▁applicants	-14922
▁democratic	-14923
▁distribute	-14924
▁presenting	-14925
▁restricted	-14926
▁substances	-14927
▁celebrities	-14928
▁desperately	-14929
▁merchandise	-14930
▁specialists	-14931
▁unnecessary	-14932
▁Neighborhood	-14933
HH	-14934
rc	-14935
ti	-14936
…”	-14937
▁%	-14938
Ass	-14939
Cor	-14940
IDE	-14941
fax	-14942
fig	-14943
nia	-14944
▁BJ	-14945
[...]
